#version: 0.2
Ġ t
Ġ a
h e
i n
Ġt h
r e
Ġth e
o n
Ġ s
Ġ w
Ġ c
i t
i s
o u
Ġ b
Ġ f
Ġ p
v e
Ġa n
l e
Ġt o
in g
m e
d e
â Ģ
i c
Ġan d
r a
Ġ e
l a
m a
r s
Ġ n
Ġ re
l y
Ġb e
i on
Ġ g
r t
Ġth a
i e
Ġf o
Ġ T
Ġc o
Ġ I
Ġtha t
Ġ on
k e
Ġ S
Ġ is
Ġw i
Ġfo r
âĢ Ļ
Ġw a
Ġ A
Ġ u
Ġ C
he r
Ġs t
Ġ y
Ġ it
Ġc a
Ġ ma
m p
Ġs e
ve r
Ġ de
Ġw h
Ġw e
Ġ M
Ġa r
Ġp r
Ġn o
Ġwi t
Ġwit h
Ġa s
Ġ B
Ġa l
Ġs a
Ġs o
Ġ P
Ġwa s
Ġy ou
Ġc on
Ġw o
Ġth i
in t
Ġpr o
Ġa t
Ġ W
Ġ H
Ġp o
Ġs u
Ġar e
Ġ D
Ġf r
Ġp a
Ġ 1
Ġco m
h is
Ġn e
Ġ R
Ġ me
ĠT he
Ġ 2
Ġb u
Ġ (
in e
Ġ F
Ġp e
âĢ ľ
Ġe x
âĢ Ŀ
Ġno t
Ġ le
Ġ N
Ġt r
Ġb y
Ġ la
Ġ G
Ġfr o
Ġfro m
Ġf a
' s
Ġ ou
Ġ L
Ġs h
Ġthi s
Ġg o
q u
v a
Ġb a
Ġf i
Ġt e
Ġst a
Ġ E
Ġ int
Ġ his
Ġc h
Ġa b
Ġp l
Ġu n
Ġe n
0 0
Ġa c
Ġ âĢľ
Ġ J
in c
Ġ O
Ġ j
Ġt a
in d
Ġca n
Ġwo r
Ġwh i
Ġpl a
Ġco u
Ġs p
Ġu s
Ġthe y
Ġal l
Ġwi l
Ġbu t
Ġs i
Ġ2 0
Ġsa i
Ġwil l
Ġsai d
Ġw he
Ġ U
Ġwh o
Ġ "
Ġsh o
Ġe ve
Ġp re
Ġc l
ĠM a
Ġou t
in a
Ġthe i
Ġthei r
Ġt i
Ġre s
k s
Ġab o
Ġf e
Ġre a
Ġb o
Ġpe r
Ġu p
l it
i ke
Ġg e
in s
Ġso m
Ġy e
t her
Ġsom e
Ġ ra
d is
Ġon e
Ġa d
i de
Ġch a
Ġabo u
Ġabou t
ĠI n
Ġcom p
Ġp u
Ġa g
Ġwe re
Ġ K
Ġwo u
Ġ her
Ġwou l
Ġwoul d
Ġbe e
Ġ dis
Ġwhi c
Ġwhic h
Ġcon t
l ike
Ġex p
Ġs c
Ġpa r
ĠS t
Ġbee n
o ther
Ġ like
ĠT h
Ġg a
Ġj u
Ġye a
Ġth r
Ġtr a
Ġma n
o ver
Ġre c
Ġ inc
Ġti m
ic e
Ġint e
Ġtim e
Ġle a
Ġa p
Ġf u
z e
Ġse e
Ġ other
k n
Ġthi n
Ġthe r
Ġus e
ĠR e
Ġe a
Ġ20 1
Ġit s
âĢ Ķ
Ġwh a
Ġ over
Ġther e
Ġwha t
ĠC a
ĠH e
o rt
Ġne w
Ġre p
Ġal s
Ġtha n
Ġals o
Ġbe c
ĠC o
Ġthe m
Ġa f
Ġth o
Ġap p
Ġyou r
Ġwor k
Ġpar t
Ġwhe n
Ġpe o
Ġpeo p
Ġpeop l
Ġpeopl e
in i
Ġ qu
ĠA n
ĠC h
ĠD e
Ġma k
Ġju s
Ġan y
Ġjus t
Ġ Y
Ġb r
Ġn a
Ġc r
ĠI t
Ġ kn
Ġcom m
l is
Ġsa y
Ġsp e
Ġ 3
Ġge t
Ġ V
Ġpo l
ĠW e
Ġint o
d on
. âĢĿ
Ġcon s
i mp
Ġt w
ic a
Ġsta t
ve l
ĠP a
Ġac c
Ġf in
ĠS e
Ġc u
Ġb i
Ġeve n
Ġpla y
Ġfi r
Ġ imp
ĠB u
Ġre l
Ġinte r
Ġou r
Ġon l
Ġg r
Ġ -
Ġac t
Ġpo s
âĢ ĵ
Ġkn o
Ġ ins
Ġs he
Ġst r
Ġc e
Ġaf t
Ġaft e
Ġafte r
Ġeve r
, âĢĿ
Ġcou l
Ġcoul d
Ġfir s
Ġfirs t
Ġkno w
Ġta k
ĠN o
Ġ1 9
Ġ ver
Ġmak e
' t
Ġst o
Ġde s
Ġonl y
Ġbec a
Ġat t
ĠN e
l le
Ġrea l
Ġtw o
Ġb l
Ġsu p
Ġ don
ĠS a
Ġba c
Ġde c
he d
Ġse r
Ġse c
Ġpre s
Ġbe t
. "
Ġbac k
ĠB a
Ġg i
Ġun de
Ġsu c
Ġstat e
Ġf ou
Ġfa c
ĠB e
Ġa m
Ġ âĢĵ
Ġwa n
Ġag a
Ġexp e
Ġaga i
Ġagai n
Ġ 4
in f
Ġunde r
ĠW a
Ġwa y
Ġf l
Ġwan t
Ġtak e
Ġ va
Ġga me
Ġc i
Ġbeca u
Ġbecau s
Ġbecaus e
Ġ âĢĶ
ĠH a
Ġno w
ĠU n
Ġca l
b le
Ġyea rs
i le
Ġne e
Ġcou n
Ġthr o
Ġ $
Ġte a
Ġ ind
Ġcha n
Ġsta r
ĠSt a
Ġad d
, "
Ġto o
Ġst u
v ing
Ġc re
Ġme a
Ġever y
d ing
Ġpr i
Ġ 5
Ġyea r
Ġsup p
Ġthe s
ĠD a
Ġg u
Ġw r
Ġe m
Ġca m
Ġthes e
ĠJ a
Ġ inf
Ġwhe r
Ġwher e
Ġsho w
Ġthr e
ĠH o
Ġcoun t
Ġca r
Ġwe l
Ġthin k
ĠR o
Ġbe in
Ġbein g
ĠL a
ĠF o
ĠS o
Ġinc l
Ġs in
Ġn u
Ġma r
Ġp i
Ġcont r
Ġincl u
Ġre m
ic k
Ġma y
Ġde f
Ġthe n
Ġman y
ĠM e
ĠM o
Ġsho u
Ġco l
Ġla s
Ġrep o
ĠBu t
Ġcal l
Ġ [
ĠAn d
Ġst i
Ġinclu d
Ġse n
Ġcomp a
Ġre g
Ġthro u
Ġthrou g
Ġthroug h
Ġrec e
Ġrepo r
Ġrepor t
Ġse a
Ġshou l
Ġshoul d
Ġs y
Ġcl a
Ġpa s
Ġthin g
ĠS u
Ġas s
ĠL e
Ġlas t
Ġver y
Ġtho s
Ġthos e
ĠA me
ĠT r
Ġnee d
Ġbe l
ĠTh is
ĠA l
Ġpu b
ĠG o
ĠP o
Ġge n
i me
Ġ1 0
Ġca s
Ġwel l
ĠW h
Ġp h
ion s
Ġpub l
z a
Ġde a
Ġfor m
Ġ ke
Ġtho u
Ġstar t
Ġa u
ĠAme r
Ġgo ve
Ġgove r
Ġgover n
ĠAmer i
Ġbe f
ĠAmeri c
ĠAmeric a
Ġgr ou
Ġsupp o
Ġe s
Ġpro v
Ġbef o
Ġbefo re
Ġg re
Ġrec o
ĠA s
Ġpla n
ĠT o
Ġcom e
ĠP r
ĠB r
Ġba s
ĠNe w
Ġtea m
ĠG e
Ġna t
Ġma de
ĠP e
Ġla t
Ġsa m
ĠJ u
Ġsuc h
Ġgo o
Ġ20 0
ic i
Ġfi l
Ġgo ing
Ġs m
Ġchan g
Ġbo t
Ġwor l
Ġworl d
Ġwe e
ĠC on
Ġstu d
Ġpol i
Ġgoo d
Ġpoli c
Ġch i
Ġma t
ĠT e
ĠN a
Ġre f
Ġpro b
i ver
Ġfe e
Ġsu r
Ġpo in
Ġpoin t
Ġe f
Ġsu b
Ġfu n
Ġsh a
Ġef f
Ġagain s
Ġagains t
Ġwee k
Ġs l
Ġse t
Ġact i
Ġ 6
d it
Ġcha r
Ġcre a
Ġea r
Ġen t
Ġt u
Ġcr i
Ġwhi l
Ġser v
Ġplay e
Ġsi g
Ġsti l
Ġper s
Ġen d
Ġstil l
Ġ ide
Ġgovern m
Ġgovernm e
Ġgovernme n
Ġgovernmen t
Ġacc o
Ġlat e
Ġj o
Ġe le
Ġwhil e
Ġw in
Ġmea n
ĠY ou
Ġlea d
ĠB o
Ġsuppo r
Ġsuppor t
ĠMa r
Ġpro d
ĠJ o
Ġcon c
Ġsay s
Ġcrea t
Ġprod u
Ġcon f
Ġprodu c
Ġf re
Ġgi ve
Ġchang e
Ġins t
ĠR a
v ie
Ġre v
Ġdis c
Ġso u
Ġsi m
Ġres p
l ing
Ġg ra
Ġcomp l
Ġsam e
Ġra t
Ġthou g
Ġthoug h
ĠTr u
Ġbet w
Ġbetw e
Ġbetwe e
Ġbetwee n
Ġspe c
ic h
Ġa w
Ġci t
Ġla w
i ma
ĠS c
Ġtr i
Ġe d
Ġa v
Ġfo l
Ġsig n
ĠF a
Ġar o
Ġcl o
Ġtra n
Ġre t
Ġte r
Ġsome t
Ġex t
Ġcount r
Ġtran s
ĠG a
Ġaro u
Ġfou n
Ġpla c
Ġher e
Ġthre e
Ġfoun d
Ġarou n
Ġaroun d
Ġme d
ĠSta t
Ġsy s
Ġuse d
Ġsys t
Ġsyst e
Ġsyste m
Ġme m
Ġreal l
ĠO n
Ġreall y
Ġgen e
Ġplac e
Ġex a
Ġgrou p
Ġcou r
Ġex c
Ġ 7
ĠI s
Ġto l
Ġcompa n
Ġwa r
. [
ĠS p
Ġme n
Ġfa m
Ġpubl i
Ġpubli c
Ġgre a
Ġnu m
ĠTh a
Ġsi t
Ġnum b
Ġgrea t
Ġnumb e
Ġpo w
Ġca p
Ġsto r
Ġcu r
Ġad v
Ġwa t
Ġce n
Ġbu i
Ġbui l
Ġso l
Ġcas e
ĠTru m
Ġta l
Ġwo m
Ġfac t
Ġ lit
ĠTrum p
Ġimp o
Ġexpe r
Ġpers on
ĠThe y
Ġbot h
Ġde p
Ġfin a
Ġqu e
Ġfin d
Ġaw a
Ġmed i
Ġrea d
ĠS h
Ġpro p
Ġpow e
ĠCo m
Ġde t
Ġan o
Ġa i
ĠStat e
ĠR u
l ine
Ġau t
Ġpro t
ĠP re
Ġfol l
Ġbi g
Ġfi g
Ġde ve
Ġdeve l
Ġdevel o
Ġdevelo p
Ġcol l
Ġfoll o
Ġfollo w
Ġpowe r
Ġcen t
Ġ 8
Ġsin c
Ġsinc e
Ġis s
Ġtol d
Ġiss u
Ġpart i
Ġtr u
ĠAmerica n
Ġpol it
âĢ ĺ
Ġpro g
Ġspec i
ĠFo r
ĠA u
Ġla r
Ġper c
Ġfe w
Ġco r
Ġcl e
Ġtu r
Ġle g
Ġissu e
Ġsp o
Ġinc r
ĠJ e
Ġpolit i
ĠL i
Ġlar g
Ġincr e
Ġlarg e
ion a
Ġpoliti c
Ġar t
Ġperc e
Ġag e
Ġexp l
Ġbl o
Ġcont in
Ġrel a
Ġse l
Ġbel i
Ġbeli e
Ġwr i
Ġplaye r
Ġpro c
Ġ 9
Ġas k
Ġre q
Ġsm a
Ġbo o
Ġreq u
Ġcomm u
Ġna me
Ġele c
Ġc he
Ġelec t
ĠT a
Ġapp e
Ġprov i
Ġpu t
Ġprovi d
Ġso c
ĠI f
Ġwri t
Ġano t
Ġanot h
Ġanoth e
Ġanothe r
Ġbe s
Ġse v
Ġsev e
Ġsomet h
Ġsometh in
Ġsomethin g
Ġchi l
ĠCh a
Ġst e
Ġnat i
Ġba n
Ġbe g
Ġrel e
Ġfa r
Ġmar k
Ġall o
Ġconc e
ĠW o
ĠM i
ĠE n
Ġte l
Ġfam i
Ġfami l
Ġcons i
Ġresp o
Ġrespo n
Ġbu s
Ġe c
Ġ '
Ġpas s
Ġcommu n
Ġtr e
ĠM u
Ġwe a
Ġres u
Ġpa t
Ġcontin u
Ġthing s
ĠF e
Ġatt e
Ġpos s
Ġapp r
Ġme t
Ġcle a
Ġappe a
Ġdef e
Ġcam p
Ġla n
Ġsea s
Ġproc e
T his
Ġrela t
Ġcommun i
Ġfe a
Ġgene ra
Ġea c
Ġeac h
Ġne ve
Ġneve r
Ġchil d
Ġam o
Ġne x
ĠPr o
Ġtr y
Ġnex t
ĠL o
Ġear l
Ġseas on
Ġque s
Ġsec on
Ġsecon d
Ġprot e
Ġgo t
Ġtur n
Ġques t
Ġbr o
Ġatt a
Ġe l
Ġfo o
Ġbec o
Ġfre e
Ġbeco m
Ġ âĢĺ
ĠC ou
Ġind i
Ġbes t
ĠRe p
Ġinf o
Ġallo w
Ġde m
Ġacc e
Ġsoc i
Ġst re
ĠTha t
Ġca re
Ġclo s
Ġle t
Ġe v
Ġsee m
ĠU S
f ice
Ġfee l
Ġatta c
Ġpos t
f fice
Ġperce n
Ġpercen t
Ġto p
Ġb re
Ġsta n
lis t
Ġexper i
Ġ line
Ġres e
Ġgr o
Ġdis t
Ġcam e
ĠA f
Ġbas e
Ġnati on
ici a
o ffice
Ġle s
Ġquest ion
Ġcontr o
Ġper f
Ġ office
Ġresu l
âĢ ¦
Ġresul t
Ġea s
Ġsc h
Ġimpo rt
Ġbelie v
Ġcompl e
Ġincre a
Ġincrea s
ĠA r
Ġwith o
Ġwitho u
Ġwithou t
Ġw on
Ġcon v
Ġinfo r
Ġinfor m
Ġinclud in
Ġincludin g
Ġdes i
Ġprovid e
Ġmem b
Ġeven t
Ġca u
Ġser i
Ġprob l
Ġprobl e
Ġproble m
ĠD o
Ġbuil d
Ġbet t
Ġfu l
Ġnumbe r
Ġcountr y
Ġrem a
Ġmemb e
Ġmembe r
Ġra n
Ġcur re
Ġcurre n
Ġinclud e
Ġrele a
Ġlit t
Ġstan d
Ġrelea s
ĠW i
Ġqu a
Ġsch o
ĠK e
Ġfou r
Ġke e
Ġbett e
Ġbi l
ĠThe r
Ġbette r
Ġbeliev e
Ġpo p
Ġparti c
Ġfor c
Ġrece n
Ġrecen t
ic t
Ġcall e
Ġinter e
Ġintere s
Ġch o
Ġinteres t
f icia
Ġles s
Ġtal k
Ġlitt l
Ġlittl e
f ficia
ĠC l
Ġappr o
Ġclos e
Ġbe h
fficia l
Ġan n
Ġexa m
Ġle ve
Ġcalle d
Ġpre v
Ġne a
Ġpi c
ĠS he
ĠTher e
ĠK a
Ġ list
Ġposs i
Ġpossi b
Ġte c
Ġbil l
Ġpa y
Ġem p
Ġtec h
ĠPre s
Ġattac k
Ġproduc t
Ġreleas e
Ġres t
Ġle f
Ġlef t
ĠA c
Ġmark e
ĠA p
Ġar r
Ġre d
Ġkee p
Ġ Z
Ġpres i
Ġpresi d
Ġact u
o fficial
v ide
Ġactu a
Ġful l
Ġfa i
Ġte s
Ġpolic e
Ġpresid e
Ġtes t
Ġactua l
Ġcreat e
Ġma in
Ġbl a
Ġal o
Ġcontinu e
Ġeff e
Ġs w
ĠT u
Ġ official
Ġeffe c
Ġeffec t
Ġpreside n
ĠA t
Ġprog r
Ġprogr a
Ġprogra m
Ġus ing
ĠUn it
Ġto w
Ġstr a
ĠMa n
Ġsp a
ĠE a
_ _
Ġbecom e
Ġforc e
Ġappea r
Ġva l
Ġalo n
Ġs k
Ġimport a
Ġec on
ĠF i
Ġrea s
Ġide a
Ġecon o
Ġecono m
Ġimporta n
Ġcoll e
Ġnew s
Ġleve l
Ġcla s
Ġnea r
ĠCa n
Ġed it
Ġcomm e
Ġcon d
ĠNa t
Ġto u
Ġgro w
Ġsma l
Ġsmal l
Ġscho o
Ġschoo l
Ġserv i
Ġpres e
Ġcl i
Ġinform a
Ġservi c
' re
Ġproce s
Ġcont e
Ġare a
Ġproces s
Ġfr i
Ġwom e
Ġwome n
w it
Ġservic e
Ġtra d
Ġdefe n
Ġsim p
Ġsimp l
ĠCh r
Ġart i
Ġbe a
Ġacti v
Ġhis t
Ġal r
Ġcurren t
Ġsi d
Ġpro m
Ġbre a
ĠC e
Ġt y
Ġrece i
Ġcompan y
Ġcontro l
Ġhist o
Ġpresiden t
Ġ- -
Ġreas o
ĠIn t
Ġreaso n
Ġun t
Ġsid e
Ġhisto r
ĠUnit e
Ġalr e
ĠM on
Ġalre a
Ġalrea d
Ġalread y
Ġco s
Ġva r
ĠO b
ĠUnite d
Ġ =
ĠF r
Ġwh y
Ġadd i
Ġpos it
Ġma j
Ġreco r
Ġrecor d
Ġrecei v
ĠS i
Ġal w
Ġalw a
Ġalwa y
Ġalway s
Ġexpe c
Ġinforma t
Ġinformat i
Ġexpec t
Ġlea s
Ġconsi d
Ġconsid e
ĠHo w
Ġbus in
Ġreg i
Ġtech n
Ġbusin e
Ġbusine s
Ġbusines s
Ġboo k
Ġ Q
Ġ1 2
Ġmaj o
Ġpro j
Ġposit i
Ġproj e
Ġmajo r
Ġclas s
Ġbr a
Ġproje c
Ġprojec t
Ġmarke t
Ġrea c
i lit
Ġcla i
Ġinformati o
Ġinformatio n
Ġjo b
Ġclai m
Ġrequ i
ĠH i
ĠP h
Ġexperi e
Ġab l
Ġexperie n
ĠB i
Ġlate r
vie w
Ġexperien c
Ġpro f
Ġdesi g
Ġdesig n
Ġabl e
ĠRu s
Ġpop u
Ġn on
ĠT i
Ġstor y
Ġform e
Ġpas t
Ġrelat i
Ġpopu l
ima g
Ġpr a
Ġad m
Ġreport e
Ġawa y
Ġpolitic a
Ġpolitica l
Ġde l
Ġcit y
Ġaut h
Ġadm i
Ġpu r
Ġtra i
Ġty p
Ġ1 8
Ġimportan t
ĠSa n
Ġman a
ĠH u
Ġclea r
Ġes t
Ġcommuni t
ĠD i
Ġleas t
Ġma s
ĠInt e
ĠH ou
Ġapp l
Ġai r
Ġret u
Ġrespon s
Ġretu r
Ġretur n
Ġexperienc e
Ġfri e
Ġdea l
k ind
ĠE u
Ġsh i
Ġfig h
Ġfigh t
ĠIn d
Ġcos t
Ġtel l
Ġb it
Ġrema in
Ġpopul a
Ġunder s
Ġfina l
Ġce r
Ġcamp a
Ġsuc c
ĠCo l
Ġcampa i
Ġcampai g
Ġcampaig n
Ġen ou
Ġspe n
Ġno r
Ġcons t
Ġenou g
Ġenoug h
Ġaf f
Ġsec u
Ġn i
Ġwork e
Ġpossib l
Ġmana g
Ġrev e
Ġmak ing
Ġ imag
i lle
Ġ kind
Ġ view
Ġrequi re
ĠG re
Ġcont a
ĠJo h
ĠY o
Ġexam p
Ġexamp le
ĠA d
ĠD u
Ġfamil y
Ġfrie n
Ġfrien d
Ġfa n
vide o
Ġte n
Ġfac e
Ġta x
Ġacco r
Ġaccor d
Ġlead e
Ġleade r
ĠRus s
Ġ1 5
Ġcer t
Ġan t
ĠChr is
Ġsucc e
Ġun i
Ġunt i
Ġwork in
Ġrese a
Ġworkin g
Ġresea r
Ġresear c
Ġunti l
Ġ video
Ġco a
ĠRep u
a ving
Ġprese n
ĠRepu b
ĠS ou
Ġthough t
ĠRepub l
Ġunders t
Ġde b
Ġcomple t
Ġtoo k
ĠRepubl ic
Ġra c
ĠJoh n
Ġcau s
Ġmedi a
Ġauth o
Ġautho r
Ġag r
Ġreceiv e
Ġincreas e
Ġfo re
Ġinter n
ĠHou s
Ġfea t
ĠW he
Ġactual l
Ġactuall y
Ġval u
Ġcomm i
Ġfun d
Ġco v
Ġwa l
Ġwat e
Ġter m
ĠEu r
Ġex e
Ġmanag e
Ġcov e
Ġforme r
Ġwate r
ĠEur o
Ġg l
Ġaccord i
Ġme e
Ġage n
ĠG u
Ġaccordi n
Ġaccordin g
ĠC u
Ġter r
ĠUn i
Ġmee t
Ġgame s
Ġperf o
Ġperfo r
ĠWo r
Ġtime s
Ġsen s
Ġstr u
Ġstud e
Ġstude n
Ġstuden t
Ġperfor m
Ġ1 1
Ġwor d
Ġfr a
ĠV a
Ġto d
Ġfa l
Ġsoci a
Ġba t
Ġrel i
Ġcr o
Ġsocia l
m ini
Ġfil m
ĠCh in
ĠOb a
Ġbe n
Ġfl a
Ġsu g
Ġde v
ĠM c
Ġconf i
Ġseve r
Ġsin g
Ġsho r
Ġni g
ĠOba ma
ĠS y
T her
ĠSt e
Ġshor t
Ġchar a
Ġres i
Ther e
Ġcr a
Ġsc i
Ġchara c
Ġcharac t
Ġcharact e
Ġcharacte r
ĠF ra
Ġnig h
ĠMa y
ĠT w
ĠRuss i
ĠRussi a
Ġ19 9
m ilit
Ġnigh t
h aving
Ġac r
Ġconv e
ĠPres i
ĠPresi d
ĠCa r
Ġlea r
Ġlear n
Ġba l
Ġcomp e
Ġplayer s
Ġsc a
Ġtod a
ĠPresid e
ĠPreside n
Ġcour s
Ġtoda y
Ġfeat u
Ġcours e
Ġpo t
Ġ having
Ġsee n
Ġearl y
ĠYo r
Ġfu t
Ġfe l
Ġsever a
/ /
Ġsto p
Ġwhe t
ĠPresiden t
ĠC r
Ġchild re
Ġchildre n
Ġal t
Ġwhet he
Ġwhethe r
Ġwe n
Ġcri t
Ġver s
Ġcomplet e
Ġsevera l
Ġacti o
Ġactio n
ĠDe m
Ġfi v
Ġfiv e
Ġsu re
Ġpres s
Ġwen t
ĠM in
Ġdec is
ĠUni ver
Ġdecis i
ĠUniver s
ĠEuro p
Ġe q
ĠM ic
Ġyou n
Ġyoun g
Ġ milit
Ġsub s
Ġcomme n
Ġdes c
Ġeq u
ĠWi l
Ġlike ly
Ġfut u
ĠNat ion
Ġen g
Ġmember s
ĠCom m
Ġsci e
Ġcert a
Ġscie n
Ġann o
Ġcerta in
Ġfl o
Ġen e
Ġind u
Ġdon e
Ġcontr a
Ġar g
Ġav a
ĠSe n
Ġsucce s
ĠR i
ĠState s
Ġsucces s
Ġreal i
Ġfutu re
ina l
Ġalon g
ĠEurop e
Ġunderst a
Ġagr e
Ġtre a
Ġagre e
Ġon c
Ġsha re
ĠRepublic a
ĠRepublica n
Ġpl e
Ġse x
Ġstart e
Ġfi re
Ġcour t
Ġla u
Ġwith in
Ġdecisi on
Ġarg u
Ġins i
Ġdis p
Ġgenera l
Ġonc e
Ġamo n
Ġamon g
ĠYor k
Ġbo d
Ġca t
Ġacr o
Ġreg u
Ġsu s
Ġdet e
Ġpossibl e
Ġundersta n
Ġunderstan d
Ġconce r
Ġregu l
Ġregul a
ĠV e
Ġ ]
Ġvalu e
Ġmean s
ĠWhe n
Ġchar g
Ġgo a
Ġsa l
Ġcommen t
Ġbr in
Ġava i
Ġmilit a
Ġpri v
ĠWe s
Ġavai l
Ġnot e
Ġknow n
ĠK o
Ġrat e
Ġan a
Ġdis a
ĠWh a
Ġye t
Ġacro s
ĠNo rt
Ġacros s
Ġprote c
Ġprotec t
Ġco o
ĠP u
Ġcu t
Ġcommunit y
Ġfai l
Ġstr on
Ġce l
Ġexpl a
ĠF re
Ġcaus e
Ġs on
Ġstron g
Ġsug g
Ġsugg e
Ġsugge s
Ġsugges t
Ġavail a
Ġcons e
Ġavaila b
Ġfa s
Ġant i
Ġpri c
Ġmake s
Ġimp r
Ġcrit i
Ġ &
ĠDem o
ĠO r
Ġ mini
Ġfeatu re
Ġask e
ĠInd i
Ġ201 6
Ġaske d
Ġbrin g
Ġgive n
Ġ3 0
Ġatte n
ĠCou n
ĠHous e
Ġe t
Ġreporte d
Ġgoa l
Ġout s
Ġthre a
Ġnation a
Ġnationa l
ĠFra n
Ġother s
Ġserv e
Ġget t
Ġar m
t ions
ĠCe n
Ġsc o
ĠWha t
Ġgett ing
ĠWes t
Ġwe b
ĠE x
Ġinst a
z on
Ġcri m
ĠUnivers it
ĠDemo c
Ġext e
Ġanno u
Ġannou n
Ġannoun c
ĠDemoc ra
ĠY e
ĠM r
Ġmat t
Ġide n
Ġiden t
Ġres o
Ġsen t
Ġinter v
ĠPa r
ĠChris t
ĠP la
Ġne t
ĠIn s
Ġev i
ĠUniversit y
Ġwrit e
Ġag o
Ġdesc r
Ġdescr i
Ġto g
Ġtrai n
Ġpartic u
Ġrep re
Ġsou r
Ġparticu l
Ġparticul a
Ġpositi on
Ġmatt e
Ġwat c
Ġcharg e
Ġfu r
i ving
Ġlan d
Ġal m
' ve
ĠO f
Ġspa c
Ġparticula r
Ġpresen t
Ġrepre s
Ġdet a
Ġsa f
Ġcriti c
Ġ X
Ġfa t
Ġdec i
Ġeconom i
ĠSh a
Ġstarte d
rs t
Ġba r
ĠC it
Ġstr i
Ġprob a
Ġ201 5
Ġavailab l
Ġavailabl e
Ġbr i
Ġsaf e
Ġdea t
Ġdeat h
ĠBr o
Ġbeg in
Ġindu s
Ġindus t
Ġindust r
Ġalm o
Ġacco u
Ġbase d
ĠDemocra t
Ġaccou n
Ġaccoun t
Ġfollow in
Ġfollowin g
Ġemp l
ra e
ĠWa r
ĠAl l
Ġcu l
Ġhistor y
ĠCen t
Ġempl o
Ġemplo y
Ġtrea t
Ġpart y
Ġspac e
. )
Ġnat u
Ġstud y
Ġmatte r
ĠCa l
Ġspe e
Ġpric e
Ġexc e
Ġsit e
Ġsour c
ĠHa r
Ġcommi t
ĠIndi a
Ġany t
Ġsecu r
ĠSou t
Ġtry i
Ġcome s
Ġtryi n
Ġtryin g
is it
ĠSe c
Ġ #
Ġex is
Ġexis t
Ġseri e
Ġalmo s
Ġalmos t
Ġserie s
ĠT ra
Ġtog e
Ġtoge t
Ġtoget h
Ġtogeth e
Ġtogethe r
Ġconcer n
Ġaddi t
Ġaddit i
Ġsourc e
Ġstate m
Ġstatem e
Ġstateme n
Ġstatemen t
ĠI ra
Ġgl o
Ġannounc e
Ġcove r
Ġfo c
ĠCan a
ĠInte r
Ġmen t
Ġacce s
Ġke y
Ġimpr o
Ġactiv i
Ġacces s
ĠWa s
m ind
Ġsi x
Ġis n
Ġcar r
ĠOn e
Ġref e
Ġind e
Ġproba b
Ġprop e
Ġadd e
Ġadditi o
Ġadditio n
Ġ1 6
Ġbo r
p ort
Ġpra c
Ġste p
Ġperson a
Ġprac t
Ġbrea k
Ġrepres e
Ġadde d
Ġreprese n
Ġrepresen t
Ġtyp e
Ġprev i
Ġinte n
Ġph o
Ġfil e
Ġpot e
Ġpote n
Ġsing l
Ġfoc u
Ġfocu s
Ġme s
Ġsingl e
Ġen c
Ġconside r
Ġ201 4
Ġmilita r
Ġdel i
Ġpoten t
Ġsecur i
Ġsecuri t
ĠO c
Ġta r
Ġanyt h
Ġanyth i
Ġanythi n
Ġanythin g
Ġproduc e
Ġleg a
Ġana l
Ġappl i
Ġsur v
Ġelect i
Ġfa v
Ġindi v
Ġindiv i
ĠSu n
Ġpriv a
ĠD on
v ict
Ġindivi d
Ġindivid u
Ġsay in
Ġindividu a
Ġbuild in
Ġbuildin g
Ġcons u
Ġsayin g
Ġelecti on
Ġindividua l
Ġcu s
Ġdef in
Ġvers i
Ġfe d
Ġversi on
Ġben e
Ġvar i
Ġpersona l
ĠCl in
ĠSc h
Ġwi d
Ġba d
ĠE d
Ġeff o
Ġeffo r
Ġeffor t
Ġ vict
ĠCana d
Ġ1 3
Ġintern a
Ġrev i
Ġpo r
ĠQ u
Ġthi r
ĠMu s
Ġtake n
Ġsim i
ĠW it
Ġent i
Ġsimi l
Ġspe a
Ġrep l
ĠJa n
ĠEn g
Ġenti re
Ġcompe t
Ġpho t
Ġsimil a
Ġsimila r
Ġbeh in
Ġbehin d
Ġpic k
' m
Ġgu y
Ġ1 4
Ġtra c
Ġ )
g inal
Ġpotent i
Ġdisc u
ĠH is
Ġto t
Ġpotenti a
Ġfi e
Ġmilitar y
Ġsecurit y
ĠMar c
Ġprope r
i ginal
r iginal
Ġspeci a
ĠLe a
Ġpotentia l
Ġdiscu s
Ġpract i
Ġpracti c
Ġrelati o
Ġrelatio n
Ġspecia l
Ġbat t
Ġdiscus s
Ġfina n
Ġfinan c
Ġcus t
Ġde e
Ġrat he
Ġ |
Ġrathe r
Ġinc o
Ġtechn o
Ġdeci de
Ġprop o
ĠDe p
Ġqu ic
Ġthrea t
Ġcust o
Ġquic k
ĠBr it
Ġ mind
Ġarti c
Ġpre t
Ġphot o
Ġ Â
ĠGo o
Ġspeci f
Ġprevi o
Ġprevio u
Ġpreviou s
Ġpubl is
Ġfal l
Ġwant e
Ġwante d
ĠNort h
Ġmes s
Ġacc u
Ġprobab l
Ġoffice r
Ġwho l
Ġpolic y
Ġexpla in
Ġsome on
Ġsomeon e
Ġpri m
Ġtot a
Ġtota l
ĠB ra
Ġsu m
Ġimag e
Ġfoo d
Ġrem o
ĠA b
Ġspo k
Ġbla c
Ġblac k
Ġspok e
ĠClin t
Ġcul t
Ġtechno l
Ġtechnol o
Ġtechnolo g
Ġcon n
Ġspea k
Ġred u
Ġdist r
Ġfoo t
Ġcom b
Ġ1 7
ĠGe r
Ġent e
Ġbo a
Ġass e
Ġatte m
Ġattem p
Ġattemp t
Ġcompan i
ĠAs s
Ġtak i
Ġtaki n
Ġtakin g
ĠG ra
Ġtr o
ĠAu s
Ġexpl o
Ġfun c
ĠClint o
ĠClinto n
ĠNation a
ĠNationa l
Ġcit i
ĠG i
Ġ2 5
Ġsign i
ĠB l
Ġcl u
Ġsigni f
ĠPo l
o riginal
* *
Ġexte n
Ġblo c
Ġdevelop m
Ġdevelopm e
Ġdevelopme n
Ġdevelopmen t
Ġel s
Ġfr on
Ġbod y
Ġtow a
v isit
Ġde n
Ġtowa r
Ġtowar d
Ġels e
Ġdec l
Ġevi de
Ġevide n
Ġnot h
Ġfron t
Ġcan n
Ġprobabl y
Ġnoth ing
Ġwhol e
: //
ini t
ĠIs ra
Ġpa c
Ġinf l
ĠWor l
Ġsignif i
ĠF u
ĠIsra e
Ġconn e
ĠB la
ĠIsrae l
ĠWorl d
Ġcom in
Ġresearc h
ĠSu p
Ġfunc t
Ġcomin g
Ġ visit
Ġconne c
Ġconnec t
Ġall e
Ġcha l
ĠIs la
ĠRe s
Ġanal y
Ġadv a
Ġra is
Ġmas s
Ġadva n
Ġredu c
Ġcolle c
Ġcollec t
Ġfunct i
Ġfuncti on
ĠCit y
Ġpoint s
Ġartic l
Ġarticl e
Ġdescri b
Ġfed e
Ġfede r
Ġfeder a
Ġdeta i
Ġ original
ĠG r
Ġint r
Ġbene f
Ġconte n
Ġe it
Ġeit he
Ġeithe r
Ġsup e
Ġsignifi c
Ġsignific a
Ġouts i
ĠV i
Ġun c
Ġsupe r
Ġban k
Ġspecif i
Ġsignifica n
ĠSe r
Ġqu it
Ġfur t
ĠAus t
Ġab s
Ġsc e
ĠNo t
Ġtar g
Ġwr o
Ġfurt he
Ġtarg e
Ġtarge t
ĠE l
Ġoutsi d
Ġoutsid e
Ġlega l
Ġpr in
Ġen v
Ġeconomi c
Ġco d
ĠWas h
Ġfurthe r
Ġbloc k
ĠJu n
ĠHow e
ĠD r
i za
Ġsl i
Ġchal l
Ġwro t
Ġwrot e
Ġlau n
Ġ201 3
Ġchall e
Ġchalle n
ĠD is
Ġfedera l
Ġchallen g
Ġwhi t
Ġsho t
Ġdev i
Ġthir d
Ġdisc o
Ġsl o
Ġsa v
ĠWit h
Ġfie l
Ġfiel d
Ġissue s
Ġav e
Ġrelation s
ĠFa c
Ġref u
Ġwhit e
Ġwid e
Ġlea ve
Ġseem s
Ġsce n
Ġevery t
ĠWh it
Ġte m
Ġmea s
Ġeveryt h
Ġeveryth in
Ġeverythin g
f ie
Ġadmi n
Ġcan d
Ġe y
Ġcompani e
Ġcompanie s
Ġexe c
Ġfig u
Ġsc re
Ġbill i
ĠWash ing
Ġey e
ĠHe a
ĠDe c
Ġgenera t
ĠGer ma
ĠWashing t
ĠWashingt o
ĠWashingto n
Ġbilli on
Ġwatc h
Ġla b
Ġbel o
Ġper i
Ġ201 2
Ġtem p
Ġche c
Ġchec k
Ġpro s
Ġre n
p port
Ġleader s
Ġsou n
ĠWa l
Ġsoun d
Ġsel f
Ġstate s
ĠHowe ver
ĠGerma n
Ġbu r
ĠTh u
Ġne c
Ġco p
Ġpa g
Ġspen d
Ġcusto m
ĠL u
Ġcou p
Ġbeg a
Ġes p
Ġofficial s
Ġrelease d
Ġbega n
Ġsus p
Ġstudent s
ĠDa v
ĠAp p
init i
Ġmeas u
ĠSout h
Ġpa i
ĠIns t
Ġbu y
Ġene r
Ġset t
Ġener g
Ġqua l
Ġem a
Ġwa i
Ġ201 7
Ġexec u
Ġexecu t
initi a
Ã ©
Ġstat i
Ġan i
ĠPa rt
Ġadmin i
Ġadmini s
Ġadminis t
Ġabo v
Ġabov e
Ġits e
Ġitse l
Ġitsel f
Ġamo u
Ġcar d
Ġamou n
Ġamoun t
Ġgu n
Ġthem s
Ġthems e
Ġthemse l
Ġsens e
Ġthemsel v
Ġthemselv e
Ġthemselve s
Ġeviden c
Ġevidenc e
Ġadd r
iza t
Ġtru e
Ġani m
Ġdefen s
Ġbeca m
Ġbecam e
Ġpropo s
Ġregi o
Ġregio n
ĠInter n
Ġne g
Ġaddr e
Ġaddre s
Ġaddres s
Ġspecifi c
Ġpag e
Ġcountr i
Ġcountri e
Ġcountrie s
Ġimpro ve
Ġpass e
ĠA g
ĠSo me
Ġ10 0
Ġwas n
Ġlaun c
Ġ19 8
Ġsimpl y
Ġmedi c
Ġcod e
ĠJu s
Ġinterv i
Ġintervi e
Ġ initia
Ġintervie w
Ġest a
Ġsit u
' l
'l l
Ġsignifican t
Ġpe n
Ġave r
Ġph on
Ġgrou n
Ġgroun d
ĠGe n
Ġdescrib e
Ġdevelop e
Ġauthor i
Ġsitu a
Ġcomm on
Ġsum m
ĠChin a
Ġimp a
ĠJus t
Ġbal l
ĠSe a
Ġsitua t
Ġmat c
Ġfigu re
Ġs n
Ġprof e
Ġprofe s
Ġtrad e
Ġra d
Ġprofes s
Ġneed s
ĠTi me
ĠGre e
Ġan s
Ġevery on
Ġeveryon e
Ġema i
Ġso r
Ġappro a
Ġapproa c
Ġapproac h
Ġgroup s
ĠSe p
Ġcult u
Ġnet w
Ġnetw o
Ġnetwo r
Ġnetwor k
Ġemploy e
Ġshow s
Ġwal k
Ġwom a
Ġwoma n
ĠRo b
Ġph y
Ġbenef it
Ġdes t
Ġans w
Ġansw e
Ġanswe r
Ġnee de
Ġchan c
Ġneede d
Ġtrad i
Ġpret t
Ġchanc e
Ġfor w
Ġforw a
Ġforwa r
Ġforwar d
Ġbelo w
Ġpi e
Ġcond i
Ġ5 0
Ġphon e
Ġsa w
Ġsur p
Ġass i
Ġalle g
Ġdec a
Ġsp i
Ġdee p
Ġma g
Ġprett y
Ġfav o
Ġcondi t
Ġcondit i
Ġconditi on
Ġsho o
Ġpu s
Ġpriva t
Ġdistr i
Ġmeasu re
Ġenv i
Ġcand i
ĠRe a
Ġquit e
Ġplaye d
Ġworke r
Ġdevi c
Ġdevic e
ĠWhit e
Ġsituat i
ĠCon s
ĠMe d
Ġsituati on
Ġab i
ĠR ic
ĠAc t
g her
Ġindustr y
Ġcap t
Ġpublis he
Ġplay in
Ġfas t
k ille
Ġenerg y
Ġsta y
Ġident i
Ġplayin g
Ġcandi d
ĠTw it
Ġglo b
Ġsec t
Ġeas i
ĠFran c
Ġphy s
Ġpa in
Ġsk i
Ġphys i
Ġbeh a
ĠAf t
Ġmeet ing
Ġbig g
Ġaver a
Ġenvi r
Ġfriend s
Ġavera g
Ġadminist r
Ġemai l
Ġadministr a
Ġesp e
Ġconta in
Ġenvir on
Ġadministra t
Ġrespons e
Ġbigg e
ĠAft e
Ġpo o
Ġinst e
Ġespe c
Ġinste a
Ġinstea d
ĠF l
Ġespec i
Ġgra n
ĠAfte r
Ġsc r
Ġespeci a
Ġespecia l
Ġenviron m
Ġenvironm e
Ġenvironme n
Ġenvironmen t
Ġmess a
Ġmessa g
ĠNew s
Ġproduct i
Ġespecial l
Ġespeciall y
Ġconten t
Ġearl i
Ġearli e
pport u
pportu n
Ġrac e
Ġcandid a
Ġawa r
Ġwor s
o pportun
Ġcomp u
Ġrecent l
Ġrecentl y
Ġaut o
Ġtrac k
Ġcontra c
Ġconve r
Ġ kille
Ġdes p
Ġsu f
Ġweek s
ĠBa r
ĠTwit t
Ġ opportun
Ġcor re
Ġdete r
ĠTwitt e
Ġsuf f
ĠTwitte r
Ġperi o
Ġju d
Ġanim a
Ġchange s
ĠOc t
Ġpor t
Ġkn e
Ġperio d
Ġext ra
Ġmat e
Ġcoup l
Ġpar a
Ġe p
Ġstand a
Ġchalleng e
Ġabi l
Ġabil i
Ġabili t
n izat
Ġacce p
Ġaccep t
Ġci r
ĠMa t
ĠCo r
Ġcli m
Ġrais e
ĠDep a
Ġstru c
i gher
Ġso on
Ġfavo r
Ġshoo t
ĠC he
ĠDepa rt
Ġcir c
ĠL on
Ġprivat e
ĠCon g
Ġgu i
Ġj ou
ĠBa n
ĠSen a
Ġti t
o vie
ĠM y
Ġente r
Ġwork s
a nizat
Ġpractic e
Ġpa re
h igher
Ġseri o
Ġcoupl e
Ġserio u
g anizat
Ġseriou s
r ganizat
Ġwai t
ĠDepart me
ĠDepartme n
ĠDepartmen t
Ġwr on
Ġwron g
Ġ2 4
Ġconsu m
Ġ2 1
ĠSep t
Ġaverag e
Ġreli g
ĠS w
Ġremo v
Ġrelig i
Ġjou r
Ġreligi o
Ġinsi d
o rganizat
Ġ {
Ġopportun it
Ġed u
Ġ higher
__ __
ĠFac e
ĠTh o
Ġb ou
Ġsto re
Ġelect r
ĠThe s
ĠSena t
Ġtra v
Ġta b
Ġjour n
Ġedu c
Ġcre d
ĠMarc h
Ġpare n
Ġeduc a
Ġgi r
Ġreg a
Ġ organizat
Ġple a
Ġparen t
Ġeduca t
Ġphysi c
Ġweb s
Ġstanda r
Ġstandar d
Ġonl in
Ġonlin e
ĠGe o
Ġlet t
ĠEa s
Ġle d
t ime
Ġmessag e
Ġdem a
Ġcandida t
ĠSy r
Ġword s
Ġtrav e
Ġcompu t
Ġpre d
ĠThes e
ĠWil l
Ġinsid e
Ġdetai l
Ġcandidat e
Ġresi d
Ġresult s
Ġ +
h ile
Ġdeca de
Ġci v
Ġrevi e
Ġstud i
ĠSyr i
Ġpopula t
ĠHi l
Ġrevie w
Ġgir l
Ġcol o
Ġsol d
Ġlaw s
Ġcontrac t
m ovie
Ġciv i
Ġwin d
Ġwebs i
Ġwebsi t
Ġwebsit e
ĠK i
Ġindi c
ĠAu g
Ġau d
Ġappli c
Ġapplic a
Ġservice s
ĠFr i
Ġpla t
r iver
ĠMic h
Ġpopula r
Ġany o
Ġanyo n
ĠSp a
Ġanyon e
ĠSyri a
ĠJun e
Ġagen c
Ġexa c
Ġdema n
Ġmet h
Ġanaly s
Ġem b
Ġ movie
Ġprote s
Ġprotes t
Ġsusp e
Ġnec e
Ġnece s
Ġexp re
Ġexpre s
Ġup d
Ġexpres s
Ġupd a
Ġupda t
Ġearlie r
Ġneces s
Ġcontr i
Ġresp e
Ġsta g
Ġfinanc i
Ġtea c
Ġinterna t
Ġinternat i
Ġinternati o
Ġinternatio n
Ġrespe c
Ġj a
Ġun it
Ġinternation a
Ġinternationa l
ĠBe n
Ġpie c
Ġ201 1
Ġperform a
Ġpe a
Ġwe i
Ġdea d
Ġrespec t
ĠCoun t
Ġteac h
Ġtechnolog y
Ġaud i
Ġperforma n
Ġpiec e
Ġcap i
Ġexpect e
Ġexpecte d
Ġcreate d
ĠAp r
Ġglob a
Ġla c
Ġgloba l
Ġidenti f
Ġlan g
Ġsurp r
Ġproblem s
Ġmem o
Ġperforman c
Ġsurpr i
Ġperformanc e
Ġsurpri s
Ġran g
Ġfamil i
ĠB re
Ġtrave l
Ġreceive d
ĠSc o
Ġtri e
ĠCong re
ĠJu ly
Ġadministrat i
Ġcapi t
Ġscien t
Ġta s
Ġway s
Ġscient i
Ġreve a
Ġrevea l
Ġcoa c
Ġeas y
ĠE ve
Ġpu l
Ġcontri b
Ġsec re
Ġsel l
Ġquestion s
Ġcann o
Ġcanno t
Ġtou r
ĠMo s
Ġ <
Ġfinanci a
Ġannounce d
Ġrespons i
Ġcontrib u
Ġfinancia l
Ġlang u
Ġpac k
Ġcommit t
ĠCongre s
Ġcontribu t
ĠMon d
Ġtit l
Ġrep e
ĠCongres s
Ġimpa c
Ġimpac t
ĠEas t
Ġeng in
Ġun a
Ġsi z
Ġengin e
ĠGo d
Ġtitl e
Ġpa p
ĠW in
ĠFace b
ĠSa t
Ġsimpl e
ĠFaceb o
Ġsc he
ĠFacebo o
Ġstra t
Ġpa n
ĠFaceboo k
ĠFri d
Ġsupport e
Ġcivi l
Ġpol l
Ġso f
Ġactivi t
Ġcap a
Ġresid e
ĠWh i
Ġuni ve
Ġunive r
Ġmate r
Ġuniver s
Ġauthori t
ĠFrid a
Ġper m
Ġexp a
ĠFrida y
Ġpre p
Ġpopulat i
Ġpopulati on
Ġterr o
Ġcapit a
Ġexac t
Ġterro r
ĠAust ra
l iving
Ġcr u
Ġnear l
Ġfact o
Ġnearl y
ĠAustra l
Ġlangu a
Ġlangua g
Ġupdat e
Ġlanguag e
Ġcare e
Ġdeli ve
Ġboa r
Ġrelations h
Ġrelationsh i
Ġrelationshi p
Ġsta f
Ġstaf f
ĠGoo g
Ġrega r
Ġregar d
Ġext re
Ġextre m
Ġcaree r
Ġ19 7
Ġass o
ĠSt re
Ġcase s
ĠO p
ĠCou r
ĠMin i
ĠAustral i
ĠTu e
ĠAustrali a
ĠMond a
ĠGoog le
Ġboar d
Ġmar r
Ġsof t
Ġsu i
ĠPa t
Ġarr e
Ġus u
l ling
Ġs q
Ġsea r
ĠMonda y
Ġexpa n
Ġbro a
Ġfan s
Ġsub j
ã ģ
Ġcred i
Ġinte l
Ġwor t
ĠApr i
Ġins u
ĠApri l
ĠBe r
Ġscre e
Ġarre s
Ġarres t
ĠC la
Ġc y
Ġrepl a
ĠTue s
Ġfin i
Ġ living
Ġbroa d
ĠTues d
ĠTuesd a
ĠTuesda y
Ġsiz e
Ġreport s
Ġwort h
Ġsecre t
Ġe r
Ġintr o
Ġra p
Ġkille d
ĠCal i
Ġsear c
Ġcompet i
Ġjud g
Ġass u
Ġcompeti t
Ġenc ou
ĠDa n
Ġtel e
Ġuse rs
Ġworke d
Ġma c
Ġstrat e
Ġtw e
Ġstrate g
Ġ201 0
Ġpap e
Ġsubj e
Ġresponsi b
Ġsubje c
Ġsubjec t
o ice
Ġesta b
ĠF in
Ġintel l
Ġrespon d
Ġpape r
Ġclu b
ĠN i
ĠAmerican s
Ġcel l
Ġ4 0
Ġrequ e
Ġestab l
Ġestabl is
ĠPo s
Ġtake s
Ġreque s
Ġreques t
Ġusu a
ĠJa p
Ġscree n
Ġabilit y
Ġusua l
Ġmedic a
Ġexecut i
ĠRe d
Ġasso c
Ġwea p
Ġweap on
m other
Ġsel e
Ġbas i
Ġassoc i
ĠJap a
Ġassoci a
Ġterm s
ĠRussia n
ĠJapa n
Ġassocia t
Ġtradi t
Ġworker s
Ġtradit i
Ġtraditi o
Ġtraditio n
Ġthe o
Ġcapita l
Ġtrans f
o ks
Ġpublishe d
Ġbeha v
Ġ2 2
ĠSp e
Ġrem e
Ġexp o
Ġsele c
o oks
Ġselec t
ĠWhi le
Ġlac k
Ġsen d
ĠO u
Ġdeter m
Ġga ve
Ġdeterm in
Ġsq u
Ġcommitt e
Ġdecide d
ĠTu r
Ġsor t
Ġreside n
ĠWe d
Ġlist e
Ġsl a
Ġ mother
ĠEurope a
Ġe me
ĠEuropea n
Ġsal e
Ġmater i
Ġsco re
Ġbasi c
Ġpat i
Ġcho i
Ġeme r
ĠMi l
Ġfacto r
Ġgo e
Ġinfl u
ĠPe r
Ġmateri a
Ġfini s
Ġsa t
Ġpart n
Ġpartn e
Ġdem o
ĠNo w
Ġmateria l
Ġscen e
Ġu r
ĠCali f
Ġregula t
ĠB y
Ġ @
Ġnecess a
Ġnecessa r
Ġfore i
Ġforei g
Ġforeig n
Ġfe m
ĠAf r
Ġseve n
Ġprim a
Ġgoe s
ĠNo ve
ĠLi b
Ġcent e
ĠJan u
Ġcurrent l
Ġcurrentl y
Ġtab l
Ġconst r
ĠOf f
Ġwho s
Ġconfi r
Ġconfir m
Ġbra n
ĠGeo r
Ġwhos e
Ġinco m
Ġaff e
ĠPe n
ĠGeor g
Ġgreat e
Ġpati e
Ġpatie n
Ġindic a
Ġpartic i
Ġplan s
Ġpartici p
Ġaffe c
Ġaffec t
Ġmeth o
Ġarr i
Ġdeb a
Ġpl u
Ġcrim e
ĠJanu a
ĠJanua r
Ġmetho d
Ġequ a
Ġsupp l
Ġadministrati o
Ġadministratio n
Ġarri v
Ġproper t
Ġindica t
ĠJanuar y
Ġemer g
Ġparticip a
Ġchoi c
Ġchoic e
Ġdeman d
ĠSun d
Ġpic t
Ġturn e
ĠFe b
Ġreco g
Ġdisco v
Ġdiscov e
Ġrepla c
Ġteam s
ĠHo l
Ġrecog n
Ġrecogn i
Ġprev e
ĠPa u
Ġturne d
Ġnatu ra
ĠSept e
Ġpreve n
ĠSepte m
Ġpreven t
ĠSeptem b
Ġadv e
ĠSeptemb e
Ġevent s
ĠSeptembe r
Ġnatura l
ĠCour t
ĠK ing
Ġte x
Ġment i
ĠPr i
Ġmenti on
Ġshi p
Ġslo w
Ġbatt l
Ġintro d
Ġprep a
Ġintrod u
ĠSt o
Ġpict u
Ġintrodu c
Ġarea s
Ġcomput e
Ġsex u
Ġdesign e
Ġtex t
Ġsexu a
Ġsexua l
Ġproducti on
ĠSund a
Ġapplica t
ĠIsla m
Ġg on
Ġpictu re
Ġapplicat i
Ġgu a
Ġapplicati o
Ġapplicatio n
ĠT V
Ġlett e
Ġtoo l
ĠHe r
ĠDav i
ĠAn g
Ġn ic
ĠThu rs
Ġen s
Ġfel t
Ġpartne r
Ġlette r
Ġreduc e
ĠNove m
ĠNovem b
ĠNovemb e
ĠNovembe r
ĠAfr ic
ĠWed n
ĠWedn e
ĠWedne s
Ġtabl e
ĠWednes d
ĠWednesd a
ĠWednesda y
ĠAfric a
ĠCom p
Ġquick l
Ġatt r
Ġquickl y
Ġse p
ĠDavi d
ĠEve n
Ġrang e
Ġcomb in
ĠMini s
Ġsoci e
ĠJa c
ĠGen e
Ġpul l
ĠThurs d
ĠThursd a
ĠThursda y
Ġsee k
l ice
Ġsocie t
Ġvict i
ĠJ on
Ġinflu e
Ġinflue n
Ġnumbe rs
Ġvicti m
Ġplan e
Ġconf e
ĠMinis t
Ġeffect i
ĠA m
Ġplan t
Ġeffecti ve
Ġfat he
ĠChrist i
Ġfathe r
ĠPh i
Ġbuil t
Ġprom o
ĠBe a
ĠAc c
Ġstag e
Ġstre e
Ġga in
ĠA i
Ġstree t
ĠBe l
ĠSunda y
Ġdest r
Ġen j
Ġenj o
Ġfl e
ĠOct o
Ġadv i
Ġpre c
Ġthou s
Ġthous a
Ġthousa n
Ġthousan d
ĠSco t
Ġdeba t
Ġeconom y
Ġstri k
Ġbo y
ĠTe x
Ġmatc h
Ġplan n
Ġenjo y
Ġprov e
ĠY a
Ġallow e
Ġallowe d
Ġtechn i
ĠMa s
ĠAug u
Ġal i
Ġspen t
ĠOcto b
ĠCa p
ĠOctob e
ĠOctobe r
Ġmemo r
Ġeducat i
Ġprima r
ĠAugu s
Ġalt e
ĠAugus t
Ġeducati on
Ġle n
Ġe i
Ġfl i
Ġprom is
Ġdefin i
Ġinclude d
Ġne i
Ġmini s
Ġ2 3
Ġinc i
Ġwant s
Ġalte r
Ġatten t
Ġdefini t
Ġreme m
Ġattent i
Ġmarr i
Ġcustom e
Ġleg is
Ġcustome r
Ġremem b
Ġlegis l
Ġlegisl a
Ġtow n
Ġkne w
Ġnei g
Ġlegisla t
Ġneig h
Ġneigh b
ĠCalif o
ĠCalifo r
ĠBrit i
Ġsav e
ĠCalifor n
ĠPau l
ĠBriti s
ĠBritis h
ĠCaliforn i
ĠCaliforni a
Ġsep a
Ġsepa r
Ġsepar a
Ġperf e
ĠPe t
ĠCanad a
Ġar c
Ġget s
Ġare n
Ġspo t
Ġperfe c
Ġperfec t
Ġqua rt
Ġei g
ĠBu s
Ġsepara t
ĠCon t
Ġplea s
ĠCent e
Ġcente r
Ġpromo t
? âĢĿ
Ġpur p
Ġsa n
Ġrememb e
Ġdem on
Ġrepe a
Ġtrie d
Ġga s
ĠMa c
ĠDec e
Ġmain t
Ġbi r
Ġcompute r
Ġav o
Ġattenti o
Ġattentio n
Ġdisp l
2 00
Ġinsta n
ve h
ĠStre e
Ġpatien t
Ġstruc t
Ġbattl e
ĠSh o
Ġvari ou
Ġvariou s
Ġeig h
Ġeigh t
Ġforce s
l ooks
Ġfea r
Ġwi s
ĠKe n
ĠKo re
ica l
Ġaccu s
Ġpu n
Ġbr ou
Ġcompa re
veh i
vehi c
Ġminis t
Ġtheo r
Ġ }
Ġpr is
Ġbrou g
ĠStree t
Ġbroug h
Ġwin n
Ġreac h
Ġbrough t
Ġ looks
o ving
Ġfir m
Ġf it
Ġfel l
Ġbu d
Ġstat u
ĠKore a
ĠK u
ĠU K
Ġgrow t
Ġgrowt h
Ġquart e
Ġtrain i
Ġtraini n
Ġtrainin g
vehic l
vehicl e
' d
Ġdebat e
Ġshow e
Ġqual it
Ġre b
Ġcount e
Ġfai r
Ġassi s
ĠBi l
Ġcond u
Ġassis t
Ġsw i
Ġprog re
Ġprogre s
Ġsuff e
Ġdispl a
Ġprogres s
Ġbehav i
Ġac h
ĠFl o
Ġan g
Ġterr i
ĠL in
Ġform a
Ġconta c
Ġcontac t
ĠDece m
Ġman u
ĠBla c
ĠDecem b
ĠDecemb e
ĠDecembe r
Ġb on
ĠCha r
Ġdep e
Ġest i
Ġes s
ĠBlac k
ĠI S
Ġ vehicle
ĠPol ic
Ġdefens e
Ġson g
Ġesti m
Ġestim a
Ġdepe n
ĠPos t
Ġestima t
Ġtw i
v oice
W hile
Ġciti z
Ġcitiz e
Ġcitize n
Ġcultu re
Ġmedica l
Ġavo i
Ġab u
Ġanima l
Ġregula r
Ġavoi d
Ġflo o
Ġ19 6
Ġtalk i
Ġsearc h
Ġclim a
Ġtou c
Ġthro w
Ġlate s
Ġlates t
Ġit e
ĠSat u
Ġto n
Ġtouc h
Ġcondu c
Ġtalki n
Ġcredi t
Ġstruct u
Ġstru g
Ġsomet i
Ġstrug g
Ġremov e
Ġsometi m
Ġstrugg l
Ġsometim e
Ġup on
Ġconsi s
Ġconsis t
Ġcoac h
Ġun s
ĠDe s
Ġsy m
Ġtalkin g
Ġinde p
ĠSatu r
Ġreplac e
Ġindep e
Ġindepe n
Ġindepen d
Ġsuccess f
Ġsuccessf u
Ġsuccessfu l
Ġspee d
ĠLa n
Ġch u
Ġindepend e
Ġindepende n
Ġwon d
Ġspo r
Ġach i
ĠSenat e
Ġfeature s
Ġtrans p
ĠF ou
ĠPh o
Ġrelati v
Ġpus h
Ġdep a
ĠJe w
Ġdepa r
Ġp s
Ġdepar t
Ġjourn a
Ġear n
Ġjourna l
Ġcor p
ĠTime s
Ġextrem e
Ġcompetit i
Ġconside re
Ġpris on
Ġnot ic
Ġconsidere d
Ġatten d
Ġtest i
Ġconse r
Ġwond e
Ġconser v
Ġins p
Ġscien c
Ġscienc e
ĠPart y
Ġresiden t
Ġconduc t
Ġlevel s
Ġargu e
Ġwar n
Ġconsum e
Ġ voice
ĠCount y
Ġachi e
Ġachie v
Ġens u
ĠDon a
Ġinci d
ĠCente r
Ġincid e
Ġincide n
Ġemploye e
Ġpress u
Ġmac h
ĠAn t
Ġwei g
Ġcro s
Ġf is
Ġcirc u
Ġcent u
Ġcentu r
Ġcros s
m ine
Ġ200 8
Ġpurp o
Ġpri o
Ġprio r
Ġgu e
Ġfollow e
Ġbo x
ĠIra n
Ġconstr u
Ġclima t
ĠWa t
Ġnor t
Ġjob s
ĠA le
ĠChristi a
Ġbro k
Ġspor t
Ġbrok e
Ġreso u
ĠChristia n
Ġsystem s
ĠI ma
Ġnor ma
Ġparent s
Ġski l
ĠIndia n
m ile
ĠV o
Ġequ i
Ġsumm e
ĠGa me
Ġspoke s
Ġmajor it
Ġwrit t
Ġwritt e
Ġwritte n
Ġsi l
Ġinitia l
Ġun l
Ġrefe re
Ġincreas in
Ġhistor i
Ġincreasin g
ĠSo c
ĠCa t
Ġestimat e
Ġrelativ e
Ġskil l
ĠMus l
ĠNe t
Ġwal l
ĠMusl i
Ġreac t
Ġmach in
Ġst y
Ġbl u
Ġp it
Ġexecuti ve
Ġta c
d river
ĠMusli m
Ġphysic a
Ġphysica l
Ġla y
Ġfi x
Ġg la
Ġconc l
Ġwrit in
Ġwritin g
Ġterror i
Ġblo o
Ġcolo r
Ġcomplete l
Ġcompletel y
Ġcomm a
Ġnotic e
Ġspee c
Ġconserv a
Ġcha m
Ġconcl u
Ġemerg e
Ġbra in
Ġuse r
Ġconserva t
Ġadvan c
ĠC re
Ġban d
ĠTex a
Ġrefe r
Ġbot t
Ġnorma l
Ġclimat e
Ġu l
Ġbu l
Ġcoll a
Ġpressu re
ĠO t
Ġfin e
Ġconstru c
Ġsurv e
Ġgre e
Ġ200 9
Ġconstruc t
Ġresou r
Ġdesp it
Ġdespit e
Ġresour c
ĠIra q
Ġread in
ĠSatur d
ĠSaturd a
ĠSaturda y
ĠLon d
Ġinterest in
Ġinterestin g
Ġresourc e
Ġma p
Ġopportunit y
Ġun f
Ġconservat i
Ġclaim s
ĠOff ic
ĠS m
Ġparticular l
Ġparticularl y
ĠLond on
Ġcomma n
Ġstor i
Ġcomman d
Ġfac i
Ġcolle g
Ġ driver
Ġinsta l
ĠPar k
ina t
Ġsociet y
Ġstori e
Ġpar k
Ġsty l
Ġmajorit y
Ġdemon s
Ġattack s
Ġmachin e
Ġfind in
Ġfindin g
Ġexact l
Ġexactl y
Ġsw e
ĠDona l
Ġcro w
Ġcarr y
Ġcarr i
Ġbigge s
Ġbigges t
Ġinciden t
ĠDonal d
Ġconver s
Ġsumme r
Ġterrori s
Ġten d
Ġimpo s
Ġrequire d
ĠMo re
Ġstati on
Ġreali t
Ġbea t
Ġsol u
ĠWe l
Ġ2 6
Ġpai d
Ġexce p
Ġinfluen c
Ġequa l
Ġexcep t
Ġremembe r
Ġsp r
Ġinstal l
Ġofficer s
Ġquarte r
ĠSt u
Ġdetermin e
ĠTo r
ĠGa r
Ġcertain l
Ġcertainl y
Ġjudg e
ĠIma g
Ġfil l
Ġgue s
ĠGree n
Ġtri a
Ġ2 7
ĠMc C
Ġsurv i
Ġsurvi v
Ġstorie s
Ġstudi e
Ġ2 8
ĠMo r
Ġcollect i
Ġstu f
Ġti e
Ġstuf f
Ġul t
Ġcreat i
Ġcompl a
Ġfinal l
Ġfinall y
Ġsometime s
Ġcommuni c
Ġcommunic a
Ġsolu t
Ġproduct s
Ġthan k
Ġsolut i
Ġsoluti on
ĠE r
Ġexpe n
Ġalleg e
ĠSta r
Ġabs o
Ġlead in
Ġleadin g
Ġcommunica t
Ġfeel in
Ġimp le
Ġassu m
Ġfor g
Ġimple m
Ġele m
Ġimplem e
Ġcan c
Ġimpleme n
Ġone s
Ġfeelin g
Ġimplemen t
Ġdescribe d
Ġreadin g
Ġsqu a
Ġappro v
Ġcanc e
Ġde g
Ġcolleg e
Ġmet a
Ġdetail s
ĠFeb r
Ġsm o
ĠFebr u
Ġchange d
ĠSch o
Ġrad i
ĠFebru a
Ġprofess i
Ġprofessi on
Ġweig h
ĠFebrua r
Ġelem e
Ġeleme n
Ġmanage r
Ġelemen t
ĠFebruar y
Ġexper t
Ġbloo d
Ġlea g
Ġqualit y
Ġleag u
Ġleagu e
Ġcrim in
Ġstart in
Ġstartin g
Ġshowe d
Ġgi v
Ġsou t
Ġjo in
Ġass a
Ġgiv ing
ĠHa l
Ġprovide d
Ġname d
Ġchi e
Ġbud g
Ġeng a
Ġpred i
ĠLa b
Ġremain s
Ġenga g
Ġcost s
ĠMich a
Ġcel e
ĠT H
ĠP i
Ġchie f
Ġea t
Ġbudg e
Ġintell i
Ġintelli g
Ġpre f
Ġpat h
Ġrelat e
Ġpoo r
Ġapp a
Ġcrimin a
Ġcrimina l
Ġinfluenc e
Ġexc it
Ġ Ð
Ġyour s
Ġsign a
Ġdispla y
ĠT re
Ġgrow ing
Ġcarri e
Ġthink i
Ġthinki n
ĠLea g
Ġpart s
ĠLeag u
iona l
ĠLeagu e
Ġcontinue d
Ġwor r
Ġdemons t
Ġun e
Ġthinkin g
Ġdemonst r
Ġintellig e
Ġintellige n
Ġdemonstr a
ĠJa me
Ġread y
Ġrefu s
Ġcomment s
Ġcri s
Ġga t
Ġcompla in
Ġresearc he
Ġpurpo s
Ġmaint a
ĠBe c
Ġmainta in
Ġargu m
Ġargum e
Ġargume n
Ġargumen t
Ġsl e
Ġpurpos e
Ġbudge t
Ġpost e
Ġwould n
Ġstrik e
ĠDa y
Ġcho o
Ġbegin n
ĠRepublican s
Ġpi l
Ġpur c
Ġpurc h
Ġpurch a
Ġarc h
Ġpurcha s
Ġadvanc e
Ġchoo s
ĠDemocrat ic
Ġret a
Ġa h
ĠE ver
Ġwea r
Ġincrease d
Ġad o
Ġcounte r
Ġrefere n
Ġwonde r
ĠMicha e
Ġreco m
ĠMichae l
Ġtreat m
Ġtreatm e
Ġtreatme n
Ġachiev e
Ġtreatmen t
Ġep is
Ġran k
Ġj e
Ġreali z
Ġnu c
Ġeffort s
Ġcame r
Ġacco m
Ġcamer a
Ġpredi c
Ġdemonstra t
ĠM is
Ġclea n
Ġplat f
Ġpromis e
Ġplatf o
Ġplatfo r
Ġcall s
Ġplatfor m
Ġstructu re
Ġnuc le
ĠAi r
ĠJame s
Ġper h
Ġperh a
Ġperha p
Ġperhap s
Ġalon e
Ġdecl in
Ġite m
Ġguy s
Ġprin c
Ġconfe re
ĠCa s
Ġth u
Ġsurpris e
Ġsubs t
Ġtoward s
Ġalt h
Ġconfere n
Ġ ine
Ġcritic i
Ġaddition a
Ġadditiona l
Ġalth o
Ġconferen c
Ġaltho u
Ġalthou g
Ġalthoug h
Ġusual ly
Ġabu s
Ġbi o
Ġfoot b
Ġbe y
Ġeffect s
Ġrealit y
Ġevent u
p ini
Ġcele b
Ġeventu a
Ġsha r
Ġconferenc e
ĠN A
ĠA ra
Ġbey on
Ġwi f
Ġbeyon d
ĠFi rs
Ġeventua l
ĠFirs t
ĠGene ra
Ġfootb a
Ġfootba l
Ġfootbal l
ĠChin e
ĠZ e
pini o
pinio n
ĠRo s
Ġspeec h
Ġcould n
Ġcas t
ĠBa s
ĠChine s
Ġ( @
ĠChines e
Ġfar m
Ġbor d
ĠMinist e
ĠMiniste r
ĠBil l
Ġrest r
Ġbord e
ĠA rt
ĠTexa s
Ġorganizat ion
Ġinst i
Ġthrough o
Ġthrougho u
Ġinclude s
Ġthroughou t
Ġ mile
Ġsafe t
Ġcomple x
Ġceleb r
Ġdelive r
Ġmean ing
Ġbo m
Ġrecom m
Ġref l
Ġbom b
Ġconce p
ĠFr o
Ġna r
Ġconcep t
m oving
ĠHi g
Ġrepea t
Ġborde r
Ġwif e
Ġepis o
Ġepiso d
Ġrecomm e
Ġrecomme n
Ġincom e
Ġfaci l
Ġcorp o
Ġdis e
o pinion
Ġrecommen d
Ġresearche r
Ġcorre c
Ġess e
Ġassociat e
Ġbook s
Ġcorrec t
Ġgon e
ĠMa rt
Ġ6 0
Ġneighb o
ĠS in
Ġcop y
Ġps y
Ġinst r
Ġ âĢ¦
Ġah e
ĠU p
Ġsafet y
Ġrefl e
Ġinstr u
ĠI I
Ġdesigne d
Ġsoft w
ĠJo s
Ġcorpo r
Ġcorpor a
Ġen de
Ġfacil it
Ġagenc y
Ġreac he
Ġsoftw a
Ġsoftwa re
Ġcent r
Ġpositi v
Ġclass i
Ġahe a
Ġahea d
Ġesse n
Ġbeginn in
Ġbeginnin g
Ġseparat e
Ġpsy c
Ġtri p
ĠPla y
Ġappa r
Ġ opinion
Ġminist e
Ġministe r
r ding
Ġepisod e
Ġblo g
Ġthousand s
ĠCh u
Ġimag in
Ġgo l
Ġarti s
Ġtal e
ĠRe c
ĠApp le
? "
Ġdecl a
Ġstyl e
Ġu t
ĠAng e
Ġcorpora t
ĠHa n
ĠBr i
ĠWill i
Ġpasse d
ĠAss o
ĠOffic e
Ġne u
Ġappear s
Ġconfi d
Ġexpo s
Ġlaunc h
ĠWilli a
Ġdistri b
Ġdistrib u
Ġpropert y
Ġpredic t
ĠAsso c
Ġsma r
Ġinsu r
Ġdistribu t
Ġagree m
Ġagreem e
Ġagreeme n
Ġagreemen t
Ġconnect i
Ġsen i
Ġpositiv e
Ġdisa p
Ġsh u
Ġdisap p
ĠWillia m
ĠAssoc i
Ġsmar t
ĠAssoci a
âĢ ¢
Ġarriv e
ĠAssocia t
Ġsuppo s
ĠThe n
ĠSup e
Ġnatu re
ĠDe a
Ġ >
Ġseni o
Ġsenio r
Ġen a
Ġallege d
Ġsui t
Ġcondition s
Ġste a
ĠImag e
Ġshoot in
Ġsuspe c
Ġsuspec t
ĠCr o
ĠRa n
Ġshootin g
ĠSer v
Ġ moving
Ġreason s
ĠRic h
Ġsca l
ĠTe a
ĠIntern a
ĠGo l
Ġtria l
ĠDemocrat s
Ġsett l
ĠSa m
Ġen f
Ġconve n
Ġpref e
Ġmay b
Ġmayb e
Ġpower f
Ġpowerf u
Ġpowerfu l
Ġnucle a
Ġy a
Ġcoo l
ĠJac k
Ġsuppos e
Ġover a
Ġfail e
Ġfaile d
Ġsect i
Ġsecti on
Ġencou r
ĠFre n
Ġfem a
Ġencour a
Ġencoura g
Ġfema l
ĠMat t
Ġfemal e
Ġcharacter s
Ġartis t
Ġliste n
Ġconfid e
ĠEng l
ĠRob e
Ġadve r
Ġnuclea r
Ġ x
Ġal b
Ġrefle c
Ġai m
Ġreflec t
Ġreligio u
Ġreligiou s
ille g
Ġev a
Ġtradition a
Ġtraditiona l
Ġes c
Ġcompare d
Ġprofession a
Ġprofessiona l
ĠEngl is
Ġyours e
Ġanalys i
Ġyourse l
ĠSi m
ĠEnglis h
ĠEx p
Ġenf o
Ġsche d
ĠFre e
Ġfavor it
Ġeye s
Ġcentur y
Ġenfo r
Ġenfor c
Ġregi s
Ġsched u
Ġschedu l
ĠPho t
Ġregis t
Ġlit e
Ġnic e
Ġfra m
Ġsea t
Ġshow n
Ġinsti t
Ġinstit u
ĠPhi l
ĠHe re
Ġlarge s
ĠFren c
ĠFrenc h
Ġap a
Ġtru s
Ġye s
Ġlegislat i
ĠE s
Ġadmi t
ĠU s
ĠAl t
Ġinstitu t
Ġstre n
Ġtas k
Ġconfide n
ĠBa l
ĠBa t
Ġagen t
Ġfavorit e
Ġnecessar y
Ġbran d
Ġscienti s
Ġcitizen s
Ġforce d
Ġflo w
ĠPhot o
Ġconf l
Ġtrus t
Ġno m
Ġscientis t
Ġexpen s
Ġsur f
Ġactiv e
ĠGeorg e
Ġlite r
Ġlarges t
ĠG O
Ġanalysi s
Ġspend in
Ġspendin g
ĠRobe rt
ĠCha n
Ġintroduc e
Ġvari a
Ġtyp i
Ġpresident i
Ġpresidenti a
Ġpresidentia l
Ġsho p
Ġgr i
ĠMe t
Ġ2 9
ĠA la
Ġconservati v
Ġn in
Ġconservativ e
Ġawar e
Ġte e
Ġschool s
ĠRes e
Ġme r
Ġmean t
Ġpurchas e
i lling
o rding
Ġimp re
Ġpea c
Ġeventual l
Ġeventuall y
Ġstre a
ĠSupe r
Ġreso l
Ġas p
c ording
ĠCa m
Ġfollowe d
Ġstren g
Ġfamili e
Ġcentr a
Ġbro t
Ġfamilie s
Ġ illeg
Ġcrow d
Ġto r
Ġcentra l
Ġstreng t
Ġconst i
Ġsy n
Ġbehavi o
Ġcor n
Ġbehavio r
Ġprin t
Ġdeclin e
ĠWin d
Ġindependen t
Ġeasi l
Ġfor t
ĠServ ic
Ġsign e
Ġeasil y
Ġam a
ĠQu e
Ġensu re
Ġauto m
Ġallow s
c cording
ĠBro w
Ġnom in
Ġfr u
ĠServic e
Ġexc l
Ġgive s
Ġyoursel f
ĠCh i
ĠJ i
Ġfee d
Ġuni q
Ġdevelope r
Ġaction s
Ġuniq u
ĠOp e
Ġuniqu e
Ġgenerat i
Ġconsti t
Ġconstit u
Ġconsume r
Ġelectr i
ĠAr m
Ġprinc i
Ġprinci p
Ġovera l
Ġappar e
Ġoveral l
ĠMe x
Ġsol i
Ġsettl e
Ġshi f
Ġshif t
ĠBl o
Ġgenerati on
Ġconvers a
Ġbut t
Ġstruggl e
ĠCh ic
Ġappear e
Ġliter a
Ġsp re
ĠMex ic
ie f
Ġidea s
Ġappeare d
Ġfram e
Ġapa r
ĠGo ver
Ġem o
Ġpolitic s
Ġma le
Ġsigne d
Ġimpre s
Ġconversa t
Ġref o
Ġconversat i
Ġqu o
Ġconversati on
ĠGover n
Ġdeg re
Ġstra i
Ġweapon s
ĠAs i
Ġidentif i
Ġcham p
Ġchu r
Ġfre q
Ġpsyc h
Ġdegre e
Ġdecade s
Ġabus e
Ġinstan c
Ġinte g
Ġfreq u
Ġuse s
Ġfrequ e
Ġfreque n
Ġschedul e
Ġdiscuss i
Ġapar t
Ġdiscussi on
Ġinstanc e
ĠGenera l
Ġimpres s
ĠInterna t
ĠInternat ion
Ġexperi me
ĠInternation a
Ġexperime n
Ġexperimen t
ĠInternationa l
Ġdestr o
ĠLa s
lice n
Ġrealiz e
Ġdestro y
Ġbrot he
Ġdise a
Ġdisea s
Ġdiseas e
Ġtro u
ĠPet e
Ġpeac e
Ġfree d
Ġbea u
Ġenforc e
Ġam b
Ġtru t
ĠSm it
Ġcris i
Ġtrut h
Ġcrisi s
Ġwrite r
ĠUn ion
A ccording
ĠPo rt
Ġrev o
ĠMi d
Ġalter n
Ġbenefit s
Ġdevelope d
Ġconfl i
Ġaltern a
Ġalterna t
Ġengag e
Ġconfli c
Ġpropos e
Ġconflic t
ĠSta n
Ġnote d
Ġsett in
Ġsettin g
Ġev o
ĠÂ £
ĠScho o
Ġrelate d
Ġhistori c
Ġjournal is
Ġsale s
Ġilleg a
Ġgoal s
Ġmini m
Ġillega l
Ġbeau t
Ġindividual s
Ġconsist e
Ġcontinue s
k ick
ĠAra b
Ġconnecti on
ĠE U
ĠPolic e
ĠEa rt
Ġintelligen c
Ġrate s
Ġintelligenc e
ĠSchoo l
Ġcustomer s
Ġrefo r
ĠRi g
Ġproject s
Ġstrai g
Ġstraig h
Ġelectri c
ĠEart h
Ġstraigh t
Ġrefor m
Ġappare n
Ġapparen t
ĠN ic
ĠCoun c
Ġpre m
ĠCounc i
ĠCounci l
p tions
Ġgra d
Ġparticipa t
Ġ3 1
Ġcapa b
ĠC i
Ġprevious l
Ġout l
Ġpreviousl y
Ġfull y
Ġline s
ĠGerman y
ĠSmit h
ĠMa g
Ġad u
Ġadvan t
Ġadvant a
Ġadvanta g
ĠS k
Ġbrothe r
Ġlarge r
Ġadvantag e
Ġweek e
ĠSp o
Ġweeke n
Ġweeken d
Ġpleas e
Ġclear l
Ġvict o
Ġclearl y
Ġprotect i
Ġadu l
Ġvicto r
ĠPa c
Ġtrans i
Ġ licen
Ġseem e
ĠCanad i
ĠCanadi a
ĠCanadia n
Ġseeme d
ĠI m
ĠHig h
Ġknow le
Ġer r
Ġknowle d
Ġprepa re
Ġknowled g
Ġdefen d
Ġprimar y
Ġcha i
Ġcomp o
Ġgree n
Ġtra f
Ġwar m
ĠLa t
Ġdepart me
Ġdepartme n
Ġdepartmen t
ĠTur k
Ġult i
Ġknowledg e
Ġattr a
Ġexcl u
Ġspre a
Ġsprea d
Ġrecogni z
Ġtraf f
Ġtraff i
Ġtraffi c
Ġadul t
Ġcritic a
Ġattra c
Ġattrac t
Ġspi r
l ding
Ġcritica l
Ġresource s
Ġprogram s
Ġchoos e
ĠRe g
Ġreache d
Ġulti ma
Ġgreate r
Ġke p
Ġultima t
Ġweigh t
Ġemo t
Ġaccus e
Ġprogram m
Ġkep t
o ptions
Ġessen t
Ġessent i
Ġessenti a
Ġessentia l
ĠA re
Ġaudi e
Ġaudie n
Ġaudien c
Ġra re
Ġaudienc e
ĠIntern e
1 00
ĠDe f
Ġsta b
Ġexc h
Ġsle e
Ġta n
Ġexch a
Ġexcha n
ĠJohn s
Ġexchan g
ĠInterne t
Ġfee t
Ġann u
Ġstudie s
Ġplace s
Ġteach e
Ġabso l
ĠLo s
Ġmanu f
Ġtypi c
Ġmanuf a
Ġtypic a
Ġmanufa c
Ġtypica l
Ġmanufac t
ĠBrow n
Ġbal a
Ġmanufact u
ĠCol le
Ġcompa r
Ġme c
Ġinsp i
ĠFlo r
Ġinspi r
Ġag g
ĠI r
Ġel i
Ġstatu s
Ġpros e
Ġknow s
ĠN u
ĠNo r
Ġchur c
Ġwea k
Ġju mp
Ġfight in
Ġemot i
b ile
Ġsource s
ĠL ou
Ġfightin g
Ġbala n
ĠSte ve
ĠO l
Ġbalan c
Ġadvi s
Ġlaunc he
ĠE le
Ġdeb t
r ide
ĠBl u
Ġactivit y
ĠSc ie
d iver
ĠScie n
o bile
Ġagg r
ĠA ma
Ġultimat e
Ġca b
Ġ options
Ġ kick
ĠLe t
Ġmass i
Ġsupporte r
Ġover s
Ġcompl i
Ġcause d
Ġmec h
ĠAg e
Ġmassi ve
Ġclaim e
Ġvar ie
Ġclaime d
Ġp ou
Ġende d
Ġabsol u
Ġciti e
Ġunl i
ĠN F
Ġcitie s
Ġcall in
Ġtwe e
Ġabsolu t
ĠMar k
Ġcallin g
Ġemoti on
Ġstop p
ĠAcc o
Ġ200 7
ĠVa n
ĠScot t
Ġene m
ĠPa le
Ġinteg r
ĠSec u
ĠFlor i
Ġsent e
Ġappea l
Ġsurf a
Ġsente n
Ġpit c
Ġsurfa c
Ġcy c
ĠFranc e
Ġsu n
Ġfu e
ĠTo m
ĠEver y
ĠGu a
Ġsenten c
Ġcyc l
ĠVa l
Ġmile s
Ġwors e
h ich
ĠEng la
ĠEngla n
Ġshu t
Ġai d
ĠFin a
Ġresearcher s
Ġexchang e
Ġbir t
Ġchai r
Ġsha p
ĠDa r
Ġwill in
Ġprice s
Ġwillin g
ĠDe n
Ġcapt u
ĠFro m
Ġname s
ĠCha m
Ġtele v
Ġinten t
ĠAsi a
Ġsto c
Ġbul l
Ġsub m
ĠEnglan d
Ġra i
Ġchamp i
ĠK n
Ġchampi on
Ġemployee s
Ġcreat in
ĠC E
Ġpolic i
Ġaddi n
Ġ3 5
Ġaddin g
Ġany w
Ġabsolut e
k ra
ĠTra n
Ġsli g
Ġsuppose d
Ġslig h
Ġmarri a
Ġmarria g
Ġmarriag e
Ġsligh t
Ġpolici e
Ġtelev i
ĠN B
Ġpolicie s
Ġsurfac e
Ġalb u
Ġreporte r
ĠBu r
Ġtelevi s
Ġ diver
Ġraise d
Ġre j
Ġalbu m
Ġun p
ĠFlori d
Ġwind o
Ġreco v
Ġrecov e
Ġwindo w
Ġstoc k
Ġcharge s
Ġconcern s
Ġtwee t
ĠIn c
ĠBa y
ĠC le
Ġlearn e
ĠAcco r
Ġfl y
Ġac q
Ġacq u
Ġcreatin g
ĠAccor d
. '
Ġinstitut i
Ġinstituti o
Ġdemo c
Ġinstitutio n
ĠInst it
ĠInstit u
Ġpatient s
Ġannu a
Ġfund in
Ġfundin g
Ġannua l
ĠD ra
Ġmech a
l ions
Ġbou n
ĠInstitu t
Ġdemoc r
. âĢĻ
Ġfue l
Ġauthorit i
Ġtre e
Ġauthoriti e
Ġauthoritie s
Ġment a
Ġdemocr a
Ġun ion
Ġfreed o
Ġfreedo m
Ġsee in
ĠRo c
Ġcomme r
Ġgran t
Ġseein g
Ġneg a
Ġmenta l
Ġpack a
Ġrevo l
ĠRig h
ĠRigh t
Ġcommer c
Ġpacka g
Ġden i
Ġnega t
ĠPe o
Ġgui de
Ġindicat e
ĠA P
Ġrefus e
ĠC O
Ġneighbo r
Ġlea v
Ġbirt h
Ġactivi s
Ġleav in
Ġcr y
Ġwa g
ĠWel l
Ġleavin g
Ġmecha n
Ġeasi e
ĠSec re
ĠMed ic
Ġcelebr a
Ġtemp e
ĠFlorid a
Ġtrou b
Ġconsiste n
Ġnin e
ĠLa w
Ġtroub l
Ġserve r
ĠBo o
Ġevo l
ĠB it
Ġtransi t
Ġcelebra t
Ġpat t
Ġcat c
Ġarr a
ĠS n
Ġengine e
Ġenginee r
ĠSecre t
ĠPeo p
ĠMos t
ĠPeop le
ĠHil la
Ġautom a
Ġdefin e
Ġgra p
Ġthreat e
ĠComm it
Ġdepen d
ĠHea l
Ġthreate n
Ġet h
ĠHilla r
Ġva c
ĠGra n
ĠHillar y
Ġprose c
Ġreveal e
Ġsubst a
Ġreveale d
Ġposte d
Ġprosec u
Ġprosecu t
Ġado p
Ġtempe r
Ġadop t
Ġesc a
Ġan c
Ġvalue s
ĠBo s
ĠR y
Ġwho m
Ġblu e
ĠChic a
Ġunivers it
Ġparti e
Ġinter a
Ġinf r
ĠAccord ing
Ġbri e
Ġet c
Ġcommitte e
ĠVe r
Ġbl e
ĠAle x
Ġwa v
Ġad j
Ġbrie f
Ġcli e
Ġclie n
Ġbelieve d
Ġclien t
ĠTran s
Ġsubsta n
Ġaccom p
Ġstrateg y
Ġti c
Ġrecord s
Ġlearne d
Ġshe l
ĠMon t
Ġwhat e
Ġwhate v
Ġtransf e
Ġscal e
Ġarrest e
Ġwhatev e
Ġwhateve r
ĠCommit t
Ġlaw y
Ġche a
Ġlawy e
Ġgran d
Ġreferen c
Ġgua r
ĠChica g
ĠChicag o
ĠCommitt e
Ġlawye r
z ing
Ġintera c
Ġcar s
Ġinterac t
Ġ mine
ĠSecu r
ĠV ie
Ġshow in
ĠMis s
Ġedit o
Ġdist a
Ġedito r
Ġshowin g
Ġsur r
Ġinten d
ĠIt a
Ġrest a
Ġsurr o
Ġtransfe r
Ġrepresent a
Ġpartie s
Ġwil d
Ġsome w
Ġarreste d
Ġdes e
ĠGe t
ĠCommitte e
Ġdevice s
Ġpe t
Ġneg o
Ġcat e
Ġbalanc e
Ġfloo r
Ġquo t
Ġtou g
Ġtoug h
Ġ ride
Ġassa u
Ġassau l
Ġassaul t
Ġpatt e
Ġerr o
Ġbro w
Ġtic k
ĠRe v
ĠSecur it
Ġrepresenta t
ĠWest e
Ġrepresentat i
ĠE m
Ġerro r
Ġph a
Ġreve n
l lions
Ġask i
r iving
Ġaski n
Ġresponsib l
Ġaskin g
Ġnego t
i llions
Ġnegot i
Ġsn a
ĠO h
Ġfocus e
Ġnegoti a
Ġstra n
ĠWeste r
Ġnegat i
Ġur g
Ġstrea m
Ġprovide s
ĠYe a
Ġproduce d
Ġconfirm e
ĠTha n
Ġpropos a
ĠBus h
Ġon t
Ġproposa l
Ġconfirme d
ĠAn n
ĠCol o
Ġestablis h
Ġimage s
ĠPres s
Ġgrad u
Ġcontrol l
Ġnegotia t
ĠAu t
Ġpatte r
Ġgradu a
ze n
Ġsam p
Ġprof it
ĠComm is
ĠMa d
Ġresident s
Ġsamp l
Ġba b
ĠCommis s
ĠTr i
ĠHeal t
Ġdistri c
Ġdistric t
ĠHealt h
Ġbur n
Ġpatter n
Ġconst a
Ġencourag e
Ġexten s
Ġena b
Ġsold i
Ġshap e
Ġsmall e
ĠBan k
Ġlicen s
Ġ19 5
Ġawar d
Ġsoldi e
ĠMic r
ĠPa n
Ġco re
Ġprotecti on
Ġher o
Ġextens i
ĠPu b
Ġ3 2
Ġsoldie r
ĠCommiss i
ĠCommissi on
Ġteache r
Ġtelevis i
Ġbor n
ĠJust ic
Ġret i
ĠFranc is
Ġont o
Ġprem i
Ġcoa l
ĠWh y
Ġdist in
Ġcompetiti on
ĠFou n
Ġtelevisi o
Ġtelevisio n
Ġat h
Ġta p
Ġspir i
Ġcorn e
Ġadv o
Ġspiri t
ĠJustic e
ze d
ĠMe r
Ġcommunicat i
Ġadvo c
Ġadvoc a
Ġ19 4
Ġfl u
Ġcivil i
Ġappear a
Ġappeara n
ĠDe l
Ġappearan c
Ġappearanc e
ĠPale s
Ġinf e
ĠPales t
ĠCu p
Ġinterest e
Ġintereste d
ĠCo o
Ġlearn in
ĠPalest in
Ġlearnin g
Ġcaptu re
Ġexe r
d riving
Ġsentenc e
Ġsuffe r
Ġpain t
m illions
Ġtale n
Ġre w
Ġtalen t
ĠBec a
Ġcommunicati on
Ġtre n
ĠS on
Ġresponsibl e
Ġacqu i
ĠMicr o
ĠHe n
Ġ8 0
ĠCo a
Ġdista n
ĠWind o
Ġya r
Ġrestr i
ĠHar r
Ġdefinit e
Ġcor r
ĠO ver
Ġgenerat e
k illing
Ġforma t
Ġrestri c
ĠWindo w
Ġagree d
ĠOt her
ĠE c
Ġrestric t
ĠG l
Ġmemor y
ĠFe de
Ġautoma t
Ġradi o
Ġexplain e
Ġreferenc e
ĠLib e
Ġalternat i
ĠIn f
o lding
Ġrecogniz e
ĠWester n
Ġga r
Ġsur g
Ġ ;
Ġtype s
Ġde r
Ġterroris t
Ġfli g
Ġflig h
Ġfligh t
ĠAr c
Ġpros p
Ġprosp e
Ġgat he
Ġgathe r
Ġche m
m obile
Ġfound e
Ġguar d
Ġsurve y
ĠBeca u
ĠBecau s
ĠBecaus e
Ġconsta n
Ġtheor y
Ġbas is
Ġ millions
Ġ ice
Ġgeneral l
Ġexplaine d
Ġgenerall y
Ġunderstand ing
Ġrec a
Ġaggr e
Ġpropose d
Ġconstan t
Ġpossib i
ĠSan de
Ġpossibi l
Ġequi p
Ġeff ic
ĠAt t
Ġpur s
ĠFoun d
Ġlab o
i zed
Ġdete c
Ġdefe a
Ġdetec t
ĠMi ke
Ġdefea t
Ġcommerc i
Ġdese r
Ġcommerci a
Ġcommercia l
Ġnegati ve
Ġpossibil it
Ġp in
Ġplane t
Ġtemper a
ĠInstitut e
ĠGre a
Ġslee p
r ich
ĠWe b
ĠGr ou
Ġrej e
ĠMart in
ĠOu r
Ġfail u
Ġfailu re
Ġcho s
Ġadver t
Ġsti c
Ġreje c
Ġrejec t
ĠJohns on
ĠNF L
Ġchos e
Ġwav e
Ġidentifi e
Ġstic k
ĠF B
Ġbecome s
Ġpartner s
Ġsp l
ĠBr u
Ġga y
Ġassociate d
ĠT y
ĠCar o
Ġe ra
Ġcorne r
Ġfal s
ĠHu n
Ġbea r
Ġresi s
Ġconstruct i
ĠDi re
Ġresis t
Ġsurro u
Ġsurrou n
Ġsurroun d
Ġcom f
Ġident it
Ġcombin e
ĠSande r
ĠSecurit y
Ġfre s
Ġmar i
ĠAnd re
o zen
Ġmanage me
Ġmanageme n
Ġmanagemen t
ĠBi g
Ġreturn e
Ġactivis t
Ġpolitic i
Ġrema r
Ġphoto g
Ġsoli d
Ġwinn in
Ġwinnin g
____ ____
Ġ killing
Ġappl y
Ġtransp o
Ġpackag e
Ġcontro v
Ġcontrov e
Ġcontrove r
Ġassist a
Ġassista n
Ġeasie r
Ġlegislati on
Ġspeci e
Ġcontrover s
ĠZ a
ĠComm u
Ġcon g
Ġcli c
Ġput t
Ġbecom in
Ġbecomin g
Ġread e
Ġthu s
Ġaccuse d
ĠWindow s
Ġbee r
ĠSin c
h olding
Ġama z
Ġreade r
Ġunli ke
Ġphotog r
Ġphotogr a
Ġspecie s
Ġalternati v
Ġfinis he
ĠFede r
Ġwag e
Ġjust ic
Ġintern e
Ġalternativ e
ĠU k
ĠGrea t
ĠSander s
Ġphotogra p
ĠMan y
Ġjustic e
Ġcomf o
Ġcomfo r
Ġcomfor t
! !
ĠDire c
Ġprec i
Ġconstitu t
Ġ9 0
ĠTe r
Ġwea l
Ġyar d
Ġweal t
Ġwealt h
Ġserve d
ĠJe s
Ġwe s
ĠPla n
Ġbelie f
ĠCommu n
Ġshare d
Ġfa it
Ġwes t
Ġsca n
ĠSt r
Ġextreme l
Ġextremel y
Ġatt o
Ġscientist s
Ġbott o
Ġbotto m
Ġatto r
Ġattor n
Ġbe d
Ġattorn e
Ġattorne y
Ġtroubl e
Ġas t
ĠJo e
ĠIslam ic
Ġincre d
Ġvictim s
Ġ200 6
Ġremar k
zon e
Ġreturne d
ĠChu r
Ġmari j
Ġarch i
Ġmarij u
Ġfla g
Ġmariju a
Ġmarijua n
Ġmarijuan a
ĠF la
Ġjournalis t
Ġfast e
Ġ mobile
Ġpay m
Ġrese r
Ġreser v
ĠYou r
Ġprov in
ĠDis t
Ġchurc h
ĠTe c
Ġexist in
Ġexistin g
i rst
Ġcommunit i
Ġcommuniti e
Ġcommunitie s
Ġpaym e
Ġpayme n
Ġpaymen t
Ġmas t
Ġno ve
Ġvictor y
Ġ holding
Ġleaders h
Ġleadersh i
Ġleadershi p
ĠAnd r
ĠA ve
Ġtranspo r
Ġwatch in
Ġtranspor t
Ġcover a
ĠDirec t
Ġwatchin g
Ġrat i
Ġinterne t
Ġsho c
Ġfait h
Ġputt in
Ġswi t
Ġadvert i
Ġputtin g
Ġshoc k
Ġsigna l
Ġnote s
Ġimagin e
m inat
Ġswit c
ĠKa n
Ġnon e
Ġcontribut e
Ġcovera g
Ġcoverag e
Ġadverti s
ĠChur c
Ġreact i
ĠAfrica n
ĠPat r
Ġnove l
ĠPo w
Ġexist e
Ġdis m
Ġsw a
Ġpan e
ĠFeder a
ĠFo o
ĠLi ke
Ġback g
Ġsa c
ĠBrit a
Ġreli e
Ġdefinite l
Ġdefinitel y
Ġpromot e
ĠLe g
Ġdiscove r
Ġcollecti on
Ġfres h
ĠP M
Ġposs e
ĠA M
Ġconsisten t
Ġtempera t
Ġview s
Ġimp l
ĠSa u
Ġbackg r
Ġbu n
Ġbackgr ou
Ġbackgrou n
Ġbackgroun d
Ġall i
ĠThan k
Ġrespond e
ĠTH E
Ġregulat i
Ġspr in
Ġimp e
Ġsampl e
Ġregulati o
Ġregulatio n
ĠC ra
Ġlaunche d
Ġpsych o
ĠFo x
ĠPub l
Ġsupporter s
Ġissue d
Ġincred i
Ġincredi b
Ġrepeat e
w hich
Ġtren d
Ġincredib l
Ġse s
ĠVi r
Ġdesi re
Ġplay s
ĠE g
ĠHal l
Ġinter f
Ġfra n
Ġnort h
Ġma x
Ġ7 0
ĠCaro l
Ġpai r
Ġposse s
ĠFor c
Ġsuggest e
Ġsmo k
ĠMa l
Ġ3 6
Ġstre s
Ġfals e
Ġsuggeste d
Ġstres s
ĠHil l
Ġsite s
Ġex h
Ġfinis h
Ġcard s
Ġdec e
Ġpolitici a
ĠMo t
Ġup s
Ġpoliticia n
Ġscr i
Ġchem i
ã Ĥ
Ġcance r
Ġitem s
Ġrem in
Ġrepeate d
Ġtechni c
ĠK h
Ġsecu re
Ġposses s
Ġcas h
Ġstate d
ĠBo t
Ġtell i
d ozen
ĠR E
Ġtelli n
Ġnot i
Ġtellin g
Ġwors t
ĠTec h
ĠChurc h
ĠSinc e
Ġclose d
Ġinten s
Ġpurs u
Ġtemperat u
Ġtemperatu r
Ġcharge d
ĠFB I
Ġtemperatur e
Ġasp e
Ġdiscove re
Ġbla m
ĠAf g
Ġsmalle r
Ġprefe r
Ġaff o
ĠRich a
Ġaffo r
ĠAfg h
Ġresta u
Ġtool s
ĠBrita in
Ġrestau r
ĠAfgh a
Ġrestaur a
ĠAfgha n
Ġde d
ĠU N
Ġreti re
Ġaffor d
Ġun le
Ġassum e
ĠRicha r
ĠForc e
Ġ driving
Ġbatt e
ĠDef e
Ġcra s
Ġti g
Ġeffic i
ĠRichar d
Ġeffici e
Ġefficie n
Ġfour t
ĠCr u
Ġentire l
Ġentirel y
ĠP le
ĠBa c
Ġdiscovere d
Ġap o
Ġexcit e
Ġtee n
Ġpane l
Ġexam in
Ġprofess o
Ġprofesso r
ĠM ou
Ġreven u
Ġbr u
a tions
ĠIn de
Ġrevenu e
Ġresponsib i
Ġresponsibi l
Ġconcern e
Ġinitia t
Ġexer c
Ġresponsibil i
Ġresponsibili t
Ġconcerne d
ĠJon e
Ġsupporte d
Ġanimal s
Ġaspe c
Ġaspec t
ĠHa m
ĠIsrael i
ĠJone s
ĠO s
Ġestablis he
Ġexerc is
Ġstran g
Ġb in
Ġlen g
s ide
Ġconstructi on
Ġplann e
Ġcate g
Ġcateg o
Ġcatego r
Ġrestaura n
Ġrestauran t
Ġcandidate s
Ġ4 5
ĠPow e
Ġstrengt h
Ġleng t
Ġrequire s
Ġreligio n
ĠUk ra
Ġdecla re
Ġdon a
ĠFran k
Ġconte x
Ġbusiness e
Ġcontex t
Ġbusinesse s
ĠH on
Ġactivit i
ĠDe t
Ġactiviti e
Ġactivitie s
Ġimpress i
Ġtesti n
Ġcau g
Ġcaug h
Ġses s
Ġcaugh t
Ġlarge l
Ġtestin g
Ġlargel y
ĠUkra in
Ġph i
Ġconse q
Ġconseq u
Ġallow i
Ġallowi n
Ġinsur a
Ġsect o
Ġallowin g
ĠIsla n
Ġdona t
ĠTo d
Ġclic k
Ġconsequ e
Ġconseque n
Ġinsura n
Ġinsuran c
Ġinsuranc e
Ġvarie t
Ġsecto r
ly n
Ġsess i
Ġtick e
Ġsubm i
ĠLou is
ĠP C
Ġde le
Ġsessi on
Ġaccu r
ĠAssociat ion
Ġprincip l
Ġprincipl e
Ġstrateg i
Ġregist e
Ġad a
Ġphi l
Ġtru l
ĠCham p
Ġbelieve s
Ġtrul y
Ġrefu g
Ġse q
Ġenab le
Ġaccur a
Ġcommi s
Ġdecision s
ĠBlu e
Ġcomp on
Ġpresen c
Ġcompon e
Ġfam ou
Ġfamou s
Ġcompone n
Ġrefug e
Ġcomponen t
Ġeas t
Ġpresenc e
Ġexpan d
ĠCon f
ĠAd a
Ġgues s
Ġspokes m
ĠTea m
Ġregi m
Ġwit n
ĠRese a
Ġwitn e
Ġwitne s
Ġwitnes s
Ġgen de
ĠResea r
Ġtu n
ĠResear c
ĠJew is
Ġregim e
ĠJewis h
Ġgol d
Ġ dozen
ĠHe l
ĠPa k
ĠPr in
Ġbeaut i
Ġapprov e
Ġsurg e
Ġcommis s
Ġcritici s
Ġdiver s
Ġun re
Ġplann in
Ġplannin g
Ġsuppl y
Ġent it
ĠVir g
Ġasse s
Ġspecific a
Ġlab e
ĠC I
Ġjo ine
Ġplace d
Ġtell s
Ġsu d
Ġlengt h
ĠGO P
Ġwis h
ĠSte p
ĠDu r
Ġintegr a
Ġmention e
Ġseq u
Ġmentione d
Ġwait in
ĠSa l
Ġspokesm a
Ġspokesma n
Ġwaitin g
ĠAnge le
Ġwas t
Ġstopp e
Ġman i
Ġview e
Ġjoine d
Ġcatc h
ĠAndr o
Ġche e
Ġinterna l
Ġidentif y
Ġurg e
ĠMe n
ĠMicro s
ĠAt la
ĠC B
ĠJu d
Ġinsi s
Ġinsis t
Ġreacti o
Ġreactio n
ĠNi g
ĠFa l
Ġindustr i
Ġed g
Ġrecove r
Ġbeauti f
ĠAd d
ĠTe n
Ġse m
Ġcommiss i
Ġcommissi on
Ġ zone
Ġuse f
Ġusef u
Ġbank s
Ġusefu l
Ġtax e
Ġun d
ĠAngele s
Ġenforce me
Ġenforceme n
Ġenforcemen t
ĠSt ra
Ġinterest s
ĠDefe n
ĠM P
Ġintroduce d
Ġprovid in
Ġprovidin g
Ġsport s
ĠYe s
Ġestablishe d
Ġcell s
Ġswe e
Ġrep u
ĠInst e
Ġnews p
Ġconven t
ĠSyria n
ĠJe f
Ġremove d
Ġcar b
Ġsequ e
Ġstand in
Ġwel c
ĠInste a
ĠInstea d
Ġconv in
Ġstandin g
Ġgende r
ĠMedic a
Ġchan n
ĠHo me
Ġchann e
Ġchanne l
Ġbeautif u
Ġbeautifu l
Ġstoppe d
Ġfan t
ĠC A
Ġconvin c
Ġtro o
Ġother w
Ġamaz i
Ġamazi n
ĠFo re
ĠSh i
Ġamazin g
Ġasses s
Ġfant a
Ġtroo p
Ġwelc o
Ġwelco m
Ġmast e
ĠComp a
Ġnewsp a
Ġfanta s
Ġnewspa p
Ġnewspap e
Ġsubs c
ĠTe s
Ġten s
Ġsout h
ĠSup re
ĠJef f
Ġbi k
ĠSupre m
Ġcal c
Ġfourt h
ĠCE O
ĠPalestin i
Ġcoo k
ĠPalestini a
ĠPalestinia n
Ġticke t
Ġphoto s
ĠB B
Ġtrans l
Ġear t
Ġ200 5
Ġtrai l
Ġ201 8
ĠBe t
Ġmeasure s
ĠMicros o
Ġcapa c
ĠMicroso f
ĠMicrosof t
ĠGovern m
ĠGovernm e
ĠGovernme n
ĠGovernmen t
ĠCons t
Ġcapac i
Ġgirl s
ĠGrou p
Ġgrap h
ĠGl o
ĠJi m
Ġtechni q
ze r
Ġthere f
Ġtechniq u
Ġtechniqu e
Ġdis s
Ġti p
Ġsubsc r
Ġsubscr i
ĠA w
Ġlicens e
Ġmanage d
Ġfile s
Ġconvent i
Ġconventi on
Ġidentifie d
Ġac k
Ġva s
Ġrec i
Ġenvironment a
Ġenvironmenta l
ĠLe e
Ġfocuse d
Ġtheref o
Ġtherefo r
Ġcapaci t
Ġappro p
Ġsol v
Ġinfr a
Ġemerge n
Ġdeb u
Ġskill s
Ġapprop r
Ġappropr i
Ġappropri a
Ġappropria t
Ġfinishe d
ĠPro f
Ġarrive d
Ġconsider a
Ġeart h
ĠRy a
Ġfigure s
ĠJapan e
Ġack n
Ġackn o
ĠJapane s
ĠJapanes e
Ġackno w
Ġconclu d
Ġacknow l
Ġfrequen t
Ġacknowl e
Ġcommitte d
Ġtherefor e
c ks
Ġma l
Ġacknowle d
Ġacknowled g
Ġact o
Ġdefens i
Ġkeep ing
Ġfund s
ĠPak is
Ġappr e
Ġexclu s
Ġadj u
ĠPakis t
Ġe g
Ġexclus i
** **
ĠPakist a
ĠPakista n
Ġrevol u
Ġacto r
Ġout c
Ġpoint e
ĠDist r
ĠMexic o
Ġidentit y
ĠSuprem e
Ã ¡
ĠColle g
Ġcapt i
Ġside s
ĠAl s
ĠRi ver
Ġexercis e
Ġrevolu t
Ġrevolut i
Ġrevoluti o
Ġrevolutio n
Ġstrang e
Ġfeel s
Ġotherw i
Ġotherwi s
Ġotherwis e
ĠCarol in
Ġstep s
Ġcomplain t
Ġfis h
Ġfamili a
Ġfell o
Ġfello w
Ġsk in
Ġattack e
Ġinstru c
ĠAndro i
ĠAndroi d
Ġreca l
Ġinstruc t
ĠRya n
Ġquot e
Ġrelative l
Ġrelativel y
ĠSpe c
Ġtransf o
Ġappli e
Ġtechnic a
Ġtransfo r
Ġtransfor m
ĠAl b
Ġtechnica l
Ġqual i
ĠS E
Ġimpos s
Ġent r
Ġimposs i
Ġimpossi b
ĠJ ou
Ġ20 00
t ional
Ġcircu m
ĠSe e
Ġslight l
Ġslightl y
ĠEd it
Ġcontroll e
Ġinter p
Ġva n
Ġprim e
Ġdefensi ve
Ġquali f
Ġchea p
ĠArm y
Ġsk e
Ġsha l
Ġaff i
ĠDistr i
ĠAma z
Ġme re
Ġco in
Ġbatte r
ĠWh o
ĠFi re
Ġsym p
Ġedg e
Ġconv i
Ġexcept i
Ġexcepti on
Ġemergen c
Ġforg e
Ġtop i
ĠAlt h
Ġut i
Ġelement s
Ġblam e
Ġgui l
v ice
Ġadvoca t
Ġdeni e
Ġuti l
Ġtopi c
ĠColleg e
ĠSw e
ĠBit c
Ġclo t
Ġblo w
Ġapp o
Ġsuggest s
ĠBer n
ĠScien c
ĠScienc e
ĠMcC a
Ġaggre s
ĠSu b
Ġconvi c
Ġsus t
Ġclassi c
ĠSecret a
Ġaggres s
Ġconvic t
Ġacc i
ĠSecreta r
ĠIslan d
ĠBo w
Ġwo o
Ġis l
ĠWal l
Ġti n
Ġtransl a
Ġtransla t
u ling
m ort
ĠD N
ĠChamp ion
ĠAlth ou
Ġtaxe s
wit t
ĠAlthou g
ĠAlthoug h
Ġacci d
Ġaccid e
Ġaccide n
ĠThe i
Ġacciden t
Ġbigge r
ĠLa ke
Ġcl in
Ġtig h
Ġout p
Ġtigh t
Ġcoun c
Ġprovin c
Ġcounc i
Ġcounci l
ĠMu r
Ġremin d
Ġpresent e
Ġdel a
ĠMa rs
Ġfamilia r
ĠSpo rt
Ġspeak in
Ġstart s
Ġconsu l
Ġspeakin g
Ġlau g
ĠFa r
ĠOu t
Ġdistan c
Ġorganizat ions
Ġmaste r
ĠAustralia n
ã ĥ
Ġsud d
Ġrequire m
Ġrequirem e
Ġrequireme n
Ġrequiremen t
Ġplanne d
Ġsudd e
Ġsudde n
Ġdemonstrat e
ĠJou r
witt e
ĠJos e
Ġdep l
ĠRea d
ĠCons e
Ġtalk s
Ġcre w
Ġsuspe n
Ġspec t
ĠSu r
Ġrecal l
ly m
Ġemb a
ĠTho ma
Ġdepl o
Ġthank s
Ġdela y
Ġautomat i
Ġscri p
Ġscienti f
Ġscientif i
Ġarm y
ĠPro t
Ġcut s
Ġcarrie d
Ġsecond s
Ġ19 3
Ġscientifi c
Ġappo i
Ġappoi n
ĠFe r
ĠI l
Ġappoin t
ĠPri me
ĠBitc o
Ġasse t
Ġsust a
Ġcreati v
Ġac a
ĠThoma s
Ġfight e
Ġfighte r
ĠBitco in
ĠT O
Ġscrip t
ĠL y
Ġsusta in
ĠJour n
Ġste e
ĠMar y
Ġcompo s
ĠUn de
Ġesca p
ĠThei r
Ġphil o
witte r
Ġturn s
Ġba g
Ġisl a
Ġhistoric a
Ġhistorica l
ĠMid d
ĠPa s
Ġsat i
Ġada p
ĠFo l
Ġadap t
Ġconsequen c
Ġconsequenc e
ĠResearc h
Ġpl o
ĠC N
Ġfile d
ĠAls o
ĠSecretar y
ĠMidd le
Ġstandard s
ĠFound a
Ġdistanc e
ĠN O
ĠFounda t
ĠFoundat i
ĠFoundati on
Ġvariet y
Ġsol a
Ġmarket s
Ġpa l
Ã Ĥ
Ġphilo s
Ġsound s
ĠRo a
ĠCor p
Ġwast e
Ġphilos o
Ġphiloso p
ĠSi l
ĠStu d
ĠE S
ĠTi m
ĠSi g
Ġconclud e
ĠAtla n
Ġimpossib le
Ġtac k
ĠUS A
Ġaggress i
ĠOpe n
ĠEn t
ĠAtlan t
ĠRo ma
Ġaccount s
Ġbroad c
Ġaca d
Ġprospe c
Ġprospec t
ina n
Ġbroadc a
Ġbroadca s
Ġbroadcas t
Ġ3 3
Ġadvis e
Ġcomb a
r uling
Ġcomba t
Ġacad e
Ġacade m
Ġterri t
Ġneighbor h
Ġneighborh o
Ġneighborho o
Ġneighborhoo d
Ġcol d
Ġterrit o
Ġpossibl y
Ġisla n
Ġislan d
ĠDa i
Ġterrito r
ĠTw o
Ġthem e
ĠMed i
Ġga m
Ġrefuge e
ĠFi g
Ġtest s
Ġworr y
ĠP A
ĠMan a
Ġbik e
Ġ ruling
ĠRo y
ĠA N
Ġincreasing l
Ġincreasingl y
Ġ rich
Ġple n
ĠMe a
Ġscr a
Ġperform e
Ġchang in
Ġchangin g
Ġre in
Ġapparent l
Ġapparentl y
Ġagenc i
Ġdeveloper s
Ġultimate l
Ġclose r
Ġultimatel y
Ġcultu r
Ġagenci e
Ġagencie s
ĠCarolin a
Ġcorporat e
Ġsit t
Ġyard s
ĠKa t
ĠV ic
Ġcha in
Ġtwi c
Ġtwic e
Ġbutt on
Ġprior it
ĠWo o
ĠPar is
ĠLas t
Ġcom i
ĠImage s
Ġfund a
ĠGol d
Ġcultur a
Ġabsolute l
Ġabsolutel y
ĠFrancis c
Ġexpress e
Ġcolle a
Ġsoldier s
Ġcollea g
Ġcolleag u
Ġcolleagu e
ĠDa t
Ġdef a
ĠEle c
Ġunit s
Ġgi a
Ġcent re
Ġpen a
Ġfunda m
Ġfundam e
Ġcultura l
Ġfundame n
Ġauthorit y
Ġfundamen t
Ġtas t
ĠS ing
Ġpossibilit y
Ġpay in
ĠElec t
Ġpayin g
Ġfundament a
Ġtri b
Ġconf u
ĠGua r
Ġfundamenta l
Ġcalc u
ĠPete r
ĠHu ma
Ġvas t
Ġcalcu l
ĠCent ra
ĠUnde r
ĠPle a
Ġexpens i
Ġexpensi ve
Ġour s
Ġdevelop in
Ġdevelopin g
ĠLa u
Ġconfu s
Ġboun d
Ġra l
ĠS T
Ġath l
Ġgia n
Ġathl e
Ġju r
Ġgian t
Ġappropriat e
Ġcontain e
Ġland s
Ġathle t
Ġwarn in
Ġwarnin g
Ġrac is
Ġcare f
Ġja i
Ġtransit i
Ġlea k
Ġregard in
Ġprof i
Ġregardin g
Ġral l
Ġnu me
ĠCentra l
ĠTor on
Ġadju s
Ġadjus t
ĠSoc i
Ġchar t
Ġseek in
Ġseekin g
Ġsurviv e
Ġdeplo y
Ġexpert s
ĠToron t
Ġnume r
Ġstati s
ĠVe n
ĠKe l
Ġsitt in
Ġfi f
Ġsittin g
Ġrat ing
Ġsola r
Ġlaws u
Ġlawsu it
Ġexpress i
Ġnomin a
Ġsubs e
Ġsp on
Ġcomp r
ĠGuar d
Ġplen t
, [
Ġban n
Ġapplication s
Ġcomi c
Ġpena l
ĠPlea s
Ġfif t
ĠA C
Ġwelcom e
Ġpercent a
Ġpercenta g
Ġpercentag e
ĠDistri c
ĠDistric t
ĠBos t
Ġcapacit y
Ġstatis t
Ġpass i
ĠCam p
Ġintegra t
ĠD ie
ĠWilliam s
Ġsche m
ĠToront o
Ġcove re
ĠFrancisc o
Ġcovere d
Ġgradua t
Ġmax i
Ġge o
Ġher s
% )
Ġshe e
Ġrew a
ĠCh ie
ĠDi a
Ġarm s
Ġeli m
Ġtransiti o
Ġtransitio n
Ġcaref u
Ġcarefu l
ĠAmaz on
Ġpers p
Ġunle s
ĠTa k
Ġunles s
Ġdep o
Ġtru c
ĠIm p
Ġresponsibilit y
Ġelection s
Ġelim in
Ġmag a
Ġimprove m
Ġimprovem e
Ġimproveme n
Ġimprovemen t
Ġelimin a
Ġperm it
ĠAw a
ĠTo w
Ġmanufactu re
Ġdefinit i
ĠPu t
Ġelimina t
ĠTa l
Ġdef i
Ġbab y
Ġsens i
ĠE mp
Ġguil t
Ġmag ic
Ġuniversit y
ĠMas s
Ġ200 4
Ġmaga z
Ġdead l
Ġmagaz in
Ġmagazin e
Ġtechnolog i
Ġpresente d
Ġform s
Ġsa d
Ġreve r
ĠE t
Ġgua ra
Ġguara n
Ġrewa r
Ġran d
Ġguaran t
Ġrewar d
Ġstatist i
ĠGoo d
Ġintent i
Ġintenti o
Ġintentio n
Ġpersp e
ĠEg y
Ġstatisti c
Ġbod i
Ġsym b
ĠMar i
Ġinfra s
ĠEgy p
Ġexpan s
ĠEgyp t
ĠDo w
Ġperspe c
Ġadmit t
Ġperspec t
Ġlabo r
Ġperspect i
ĠM A
Ġperspecti v
ĠK r
Ñ Ĥ
Ġrap i
Ġbroke n
Ġboo s
Ġintend e
Ġperspectiv e
Ġintende d
ĠRa t
Ġgun s
Ã ĥ
ĠI N
Ġinfras t
Ġinfrast r
Ġtri c
Ġbri g
Ġinfrastr u
Ġsprin g
ĠVirg ini
Ġoutc o
Ġrec r
Ġvehicle s
Ġstr in
Ġinfrastru c
Ġinfrastruc t
ĠBe s
ĠQu a
Ġstrin g
Ġinfrastruct u
Ġinfrastructu r
Ġestimate d
Ġoutco m
ĠPubl ic
ĠAge n
Ġrecord e
ĠBost on
ĠOn c
Ġstreet s
Ġconsul t
Ġshal l
ĠVirgini a
ĠGa l
Ġrapi d
ĠAr i
ĠJe r
ĠTho s
ĠChie f
Ġpiece s
Ġyou t
Ġcons o
Ġinterp r
i ding
ĠThos e
ĠT ou
Ġoutcom e
ĠMo de
Ġrap e
ĠJourn a
ĠLu c
Ġabo r
ĠJourna l
Ġfire d
Ġacknowledg e
Ġguarant e
Ġguarante e
ĠHuma n
Ġtroop s
Ġrepl i
Ġren e
Ġsha d
Ġreci p
Ġproduce r
Ġinfrastructur e
Ġmeta l
Ġstar s
Ġren t
Ġinterpr e
Ġend o
Ġexce l
Ġinterpre t
ĠPe a
Ġtemp o
Ġpat r
Ġcorr u
Ġcalcul a
Ġunf o
â Ī
Ġexplo re
Ġdistin c
Ġprepare d
Ġdistinc t
Ġcalcula t
ĠSoci a
ĠAn y
Ġmag n
Ġsn o
Ġcharacter i
Ġrecr u
ĠBo b
Ġspecifica l
Ġbring in
Ġspecifical l
Ġspecificall y
ĠCat h
Ġbringin g
Ġam e
Ġpotential l
Ġpotentiall y
ĠSho w
Ġsil e
Ġpi p
Ġrecru i
Ġrecrui t
Ġtan k
Ġcompli c
Ġelectr on
Ġsile n
Ġspl i
Ġadvocat e
Ġsi s
Ġconclu s
Ġrand o
ĠAda m
Ġsan c
Ġgi f
ĠNa v
Ġequip me
Ġequipme n
Ġequipmen t
Ġinspir e
Ġtack l
ĠSocia l
Ġconclus i
Ġfaste r
Ġtour n
Ġgovernment s
ĠDirect o
ĠOnc e
ĠRea l
ĠDirecto r
Ġplent y
Ġboos t
Ġrando m
Ġsanc t
Ġsell in
Ġfin g
Ġsellin g
Ġlabe l
Ġsim u
Ġfing e
Ġcons c
Ġbrea t
Ġfinge r
Ġsimu l
ĠRu b
Ġseason s
Ġcorru p
Ġprot o
ĠWe e
Ġchemi c
Ġchemic a
Ġchemica l
ĠSan t
ĠHa s
Ġplu s
ĠIS I
ĠL it
Ġrepresentati v
Ġwar r
Ġcorrup t
Ġrepresentativ e
Ġrefuse d
ĠLo r
ĠSo l
Ġfactor s
Ġwou n
Ġwoun d
ĠSp r
Ġexpressi o
Ġexpressio n
ĠFedera l
Ġdefen de
Ġreta i
Ġretai l
wit h
Ġexpos e
Ġyoung e
ĠC y
Ġwinn e
Ġwinne r
Ġexpans i
Ġ= >
Ġamb i
ĠLi f
Ġselect i
Ġcarb on
Ġresol u
ĠR on
, '
Ġexpresse d
Ġpe e
Ġeven in
Ġresolu t
Ġevenin g
Ġchallenge s
o minat
ĠFu n
Ġconduct e
ĠSc a
Ġconducte d
Ġmethod s
ĠInte l
Ġcurren c
Ġdisa s
Ġsp in
Ġra in
Ġgovern o
Ġexclusi ve
ĠBu l
Ġsis t
Ġfla t
Ġpus he
Ġescap e
Ġelect e
Ġelecte d
Ġcycl e
ĠPleas e
Ġcreati o
Ġwin g
Ġsymb o
Ġcreatio n
Ġpun is
Ġsymbo l
Ġcombin a
ĠM O
Ġsist e
Ġpointe d
ĠM it
Ġremain e
Ġposition s
Ġcompet e
Ġtri g
Ġcombina t
Ġmaxi m
ĠSpa c
Ġremaine d
Ġsolv e
Ġgoverno r
ĠN H
Ġinteract i
Ġunc o
Ġoriginal l
Ġoriginall y
ĠA v
Ġinfe c
Ġal c
Ġinfec t
Ġtruc k
ĠRo m
Ġins e
Ġreserv e
Ġwere n
Ġalleg a
Ġallega t
Ġsign s
Ġallegat i
Ġallegati o
Ġallegatio n
Ġcriticis m
Ġtourn a
ĠChampion s
Ġnar ra
ĠFina l
Ġtourna m
Ġtournam e
Ġtourname n
Ġtournamen t
Ġtrans a
Ġgif t
ĠBra d
Ġnarra t
Ġgreate s
Ġ3 4
Ġgreates t
Ġfac in
Ġfacin g
ĠSpac e
Ġbou g
ĠT on
Ġsignificant l
Ġsignificantl y
Ġspli t
Ġfol k
ĠPrin c
ĠDur ing
Ġyout h
Ġse i
Ġcra c
Ġdec re
Ġded i
Ġair p
Ġcrac k
Ġstre t
ĠW r
S inc
ĠDo c
Ġprofi l
Ġaffect e
Ġfore s
Ġaffecte d
Ġboug h
Ġdedi c
Ġstret c
Ġdedic a
ĠAn a
Ġsm i
Ġdetermine d
ĠR ou
Ġjust i
ĠBo a
Ġsiste r
Ġstrong e
Ġreduce d
ĠRoma n
Ġafter n
ĠPa l
Ġdedica t
Ġaftern o
Ġafterno o
Ġjusti f
Ġafternoo n
Ġinterv e
Ġwoo d
Ġ5 00
ĠD re
Ġbough t
â ĸ
Ġseve re
Ġtric k
Ġhers e
Ġherse l
Ġinterve n
Ġhersel f
Ġpick e
ĠPro g
Ġabor t
Ġinde e
ĠRoc k
Ġindee d
Ġwatc he
ĠP ic
ĠMe m
Ġminim u
Ġpull e
Sinc e
ĠSau d
Ġmar g
ĠRa d
Ġminimu m
Ġgre w
Ġannounce m
Ġemotion a
Ġemotiona l
ĠP l
Ġannouncem e
Ġannounceme n
Ġannouncemen t
Ġcombinat i
Ġcombinati o
Ġcombinatio n
ĠCont r
ĠBot h
Ġcoa s
Ġcoas t
Ġcontra s
Ġremain in
Ġrad ic
Ġremainin g
ĠDa l
ĠBa ra
Ġwear in
F irst
Ġradic a
Ġturn i
Ġcontras t
Ġradica l
Ġuna b
Ġpolitician s
Ġargue d
ĠSto r
Ġab a
ĠLo c
Ġwi re
Ġsupport in
Ġsupportin g
ĠAd m
Ġair c
Ġrecorde d
Ġover l
Ġdiscuss e
Ġpou n
ĠKh a
Ġapo l
Ġlead s
Ġworr i
Ġconvinc e
¾ Ð
Ġcivili a
Ġsurpris in
Ġcivilia n
Ġsurprisin g
Ġswitc h
Ġappre c
Ġconsc i
Ġearn e
Ġapprec i
Ġappreci a
Ġwearin g
Ġemp h
Ġcol u
Ġsal a
Ġmatc he
Ġairc r
Ġbrow s
Ġfilm s
Ġexcite d
Ġtac t
Ġqua n
Ġconsider in
Ġconsiderin g
Ġvideo s
ĠConse r
Ġval i
Ġconse n
Ġunder g
Ġclo u
ĠL is
ĠConser v
Ġcolu m
Ġexplo s
Ġresolut i
ĠP ra
Ġresoluti o
Ġresolutio n
Ġbasic a
Ġexplos i
Ġbasica l
Ġover t
Ġproce d
Ġ199 0
Ġbasical l
Ġtalk e
Ġbasicall y
Ġtrig g
ĠO ly
Ġtrigg e
Ġgla s
Ġautomati c
Ġturni n
Ġtrigge r
Ġturnin g
ĠMe l
Ġexperience d
Ġconce n
ĠConserv a
ĠMedi a
Ġconcen t
ĠBo r
ĠPen n
Ġemph a
Ġprogramm e
Ġexiste n
Ġconcent r
Ġco f
Ġopportunit i
Ã ¤
Ġconte s
Ġproced u
Ġopportuniti e
Ġopportunitie s
Ġbel on
Ġcontes t
Ġbelon g
Ġpulle d
ĠPro j
Ġcommit m
Ġaircr a
Ġcommitm e
Ġcommitme n
Ġcommitmen t
ĠMo o
Ġcolum n
Ġserious l
Ġseriousl y
Ġaircra f
Ġaircraf t
Ġpip e
Ġw re
Ġreb e
Ġglas s
Ġexten d
Ġcamp u
ĠHa w
Ġcampu s
ĠLif e
Ġis o
Ġrebe l
Ġplo t
Ġfix e
ĠProj e
Ġconsumer s
Ġsqua re
Ġend s
Ġconstitut i
ĠBu d
ĠNo v
Ġbi d
ĠN S
Ġreali s
Ġnomina t
ĠJack s
Ġqu ie
Ġdec k
Ġtreat e
Ġemergenc y
Ġcomplete d
Ġcolla p
Ġcollap s
Ġco c
Ġtreate d
Ġtransa c
Ġperm a
ĠPowe r
Ġtransac t
Ġstudi o
ĠB on
ĠDai ly
Ġsuppl i
Ġman n
Ġcapital i
Ġpreci s
Ġneu r
Ġcombine d
d ominat
Ġstand s
Ġapp s
Ġmarg in
Ġenem y
ĠI P
Ġto m
Ġdisas t
Ġpass in
ĠRoa d
Ġ mort
Ġpassin g
ĠOly m
Ġame n
ĠOlym p
Ġapprecia t
Ġacadem i
Ġtalke d
Ġconclusi on
Ġapol o
Ġapolo g
Ġpar l
Ġsuffe re
Ġpost s
Ġconstituti on
Ġpriva c
Ġconcentr a
ĠD ou
ĠSy s
Ġprivac y
ĠJacks on
Ġwea t
Ġpenal t
Ġtact i
Ġconcentra t
Ġbo w
Ġweat he
Ġpower s
Ġweathe r
Ġinfl a
Ġparticipa n
Ġdep re
Ġplant s
Ġparticipan t
Ġdisc l
Ġwide l
Ġwidel y
Ġga p
Ġschem e
Ġcolla b
Ġfe r
Ġdism is
Ġdismis s
Ġdistribut i
Ġnort he
Ġproce e
ĠP in
Ġprocee d
Ġrai l
ĠProje c
ĠProjec t
ĠUs e
Ġattempt s
Ġpage s
Ġover w
ĠKorea n
Ġsuppli e
Ġbri d
Ġdefa u
Ġdefau l
Ġdefaul t
Ġprogress i
Ġcopy r
Ġcopyr i
Ġcopyri g
Ġcopyrig h
Ġcopyrigh t
ĠCl u
Ġcar t
ĠRos e
Ġfru s
ĠBB C
ĠS q
Ġfrus t
Ġtempo r
Ġsui c
Ġsuic i
Ġsuici d
Ġbodi e
ĠCath o
Ġpla s
Ġna v
Ġdistributi on
Ġconso l
Ġpil o
Ġtransact i
Ġsto o
Ġstor m
ĠTod a
Ġreporter s
Ġcollab o
Ġup g
Ġupg ra
Ġaddress e
Ġlaug h
ĠCatho l
ĠConserva t
Ġrele v
Ġcollabo r
Ġtypical l
Ġcontribut i
Ġtypicall y
Ġcollabor a
Ġconver t
Ġlay e
Ġfill e
Ġfrust r
Ġgra b
Ġ200 3
Ġpilo t
Ġcollabora t
ĠCathol ic
Ġcontributi on
Ġcapti on
Ġfrustr a
Ġexcel le
Ġquan t
Ġvali d
Ġfrustra t
Ġrelev a
Ġcoo r
Ġalc o
Ġreleva n
Ġrep a
Ġcoo p
Ġdis o
ĠGr i
Ġcoor d
Ġquie t
Ġforge t
ĠLi g
Ġencou n
Ġpsycho l
Ġencoun t
Ġencount e
ĠSea t
Ġback e
Ġwrite s
ica t
Ġdisapp o
Ġdisappo in
Ġdisappoin t
Ġpsychol o
Ġsecret a
Ġpsycholo g
ĠEn e
Ġtransacti o
Ġtransactio n
ĠPo p
Ġsecreta r
Ġtempor a
Ġdenie d
Ġpoun d
Ġpha s
Ġsubmi t
ĠA T
Ġapprove d
Ġbodie s
Ġexpect a
Ġcapab l
Ġacqui r
zer o
Ġprotest e
ĠSys t
Ġcoord in
Ġcong re
Ġcoordin a
ĠBra n
Ġcircum s
ĠRep o
Ġmatter s
ĠV is
Ġenter t
Ġ20 2
Ġentert a
Ġenterta in
ĠToda y
Ġcoordina t
Ġresponde d
Ġworri e
Ġset s
Ġno b
Ġconfiden c
Ġconfidenc e
Ġ //
ĠA B
Ġexpansi on
Ġalco h
ĠSq u
Ġalcoh o
o lle
Ġalcoho l
ĠChar le
ĠNA S
Ġ19 2
Ġcapabl e
Ġmann e
Ġrene w
ĠConservat i
ĠKen n
Ġphotograp h
Ġdeser ve
Ġbrig h
Ġbrigh t
ĠW is
Ġ3 7
ĠFo rt
Ġexplo it
Ġforma l
ĠCu r
Ġcomplic a
Ġinstitution s
ĠH y
Ġparticipat e
ĠSyst e
ĠMin n
Ġju n
Ġcomplica t
ĠYe t
Ġfran c
ĠTurk e
ĠMil le
Ġcof f
ĠF C
ĠRe n
Ġclin i
Ġlitera l
Ġsati s
Ġconfiden t
Ġcra z
Ġunab le
Ġclini c
Ġreason a
Ġreasona b
Ġprom p
Ġpitc h
Ġidea l
Ġreasonab l
Ġsig h
ĠLab ou
ĠOh i
Ġsatis f
Ġpromp t
Ġ200 1
ĠO k
Ġclou d
Ġpr ou
Ġreli a
Ġcra f
Ġrep r
Ġcraf t
ĠAfghan is
Ġjo ke
Ġaccura t
Ġaccurat e
ĠOhi o
ĠFol l
Ġnumer ou
Ġnumerou s
Ġman d
ĠLabou r
Ġmarri e
Ġcomp re
ĠCar d
Ġme l
ĠAfghanis t
ĠAfghanist a
ĠAfghanista n
Ġtacti c
Ġattac h
Ġprou d
Ġadvi c
Ġadvic e
Ġball o
Ġreported l
Ġreportedl y
ĠTurke y
Ġabort i
Ġcrime s
Ġdebu t
Ġpra y
Ġrest o
Ġwa k
Ġprepa r
ĠCu b
ĠShe r
Ġshould n
Ġpicture s
ĠBro o
Ġface s
Ġjai l
Ġsav in
ĠConf e
Ġdemocra c
Ġexperience s
Ġsavin g
Ġexplain s
ĠCap it
Ġprofil e
Ġfav ou
ĠAndre w
Ġdeclare d
Ġon g
Ġsuffere d
ĠW A
ĠSyste m
Ġappro x
Ġreport in
Ġreportin g
Ġbit c
ĠJe n
Ġnewspape r
Ġmessage s
Ġne r
ĠFoll o
ĠFollo w
Ġinitiat i
Ġcoop e
Ġchampion s
Ġmovie s
Ġsubstan t
Ġsubstant i
Ġong o
Ġongo in
Ġongoin g
Ġbar r
Ġscen a
ĠI D
Ġcircums t
Ġscena r
Ġscenar i
Ġdelive re
ĠTh ou
Ġphas e
Ġassi g
Ġscenari o
Ġconnect e
Ġassig n
Ġcircumst a
Ġcircumsta n
Ġcit e
Ġcoope r
Ġdecline d
Ġconnecte d
Ġdisco u
â Ĥ
ĠQue e
ĠD O
ĠChrist m
ĠChristm a
Ġwr a
Ġdelivere d
Ġdisc r
Ġthought s
Ġpicke d
Ġsubscri b
ly ing
Ġtast e
Ġtackl e
Ġdiscr i
Ġeva l
Ġnati ve
Ġdiscri m
Ġempha s
Ġcooper a
ĠI re
ĠS l
Ġexcelle n
Ġdiscrim in
Ġaccomp l
Ġdiscrimin a
Ġaccompl i
Ġfinding s
Ġadmitt e
Ġadmitte d
ĠChristma s
Ġattr i
ĠJa va
Ġcoopera t
Ġsout he
ĠCol u
Ġbu g
Ġleave s
ĠRepo rt
Ġe u
ĠSt i
ĠSig n
Ġgues t
ĠCre a
ĠCh o
Ġmarrie d
, âĢĻ
Ġdiscrimina t
Ġret r
Ġaborti o
Ġabortio n
Ġpublic l
Ġpublicl y
Ġfinanc e
Ġcreativ e
Ġun u
Ġarchi t
ĠCo me
Ġwalk in
ĠP R
Ġupdate s
Ġarchit e
Ġreader s
Ġperma n
ĠFa n
ĠDow n
Ġarchite c
ĠColu m
ĠRa c
ĠMich i
Ġarchitec t
Ġout r
ĠBra z
Ġwalkin g
ĠP y
ĠSo v
Ġemail s
Ġperman e
Ġ3 8
ĠM L
Ġsen a
ĠSout he
Ġnu t
Ġpermane n
Ġstatement s
Ġarm e
Ġours e
Ġourse l
n ding
Ġdriver s
O ther
Ġstri p
Ġdiscl o
Ġdisclo s
Ġleg it
Ġgo d
Ġsmi l
Ġanima t
ĠMuslim s
Ġactivist s
Ġcomfort a
Ġcomforta b
Ġoursel v
Ġourselv e
Ġourselve s
Ġ19 1
Ġsena t
Ġ7 5
Ġcomfortab l
Ġpoo l
Ġsh r
Ġarme d
Ġagent s
Ġcontain s
Ġren d
Ġ4 8
Ġlaye r
ĠFi l
ĠDe ve
ĠCharle s
Ġapprox i
Ġye l
Ġapproxi m
Ġapproxim a
Ġquarter b
Ġatt i
Ġquarterb a
Ġquarterba c
Ġquarterbac k
Ġphilosop h
Ġapproxima t
Ġthe a
Ġmand a
Ġfille d
Ġma i
ĠProt e
Ġcompar i
Ġbuilding s
Ġfra u
Ġ4 2
Ġcompari s
ĠMou n
Ġeval u
Ġcelebrat e
ĠSov ie
ĠSovie t
Ġpractice s
Ġbo s
Ġcomparis on
Ġunu s
Ġevalu a
d ict
Ġcircumstan c
ĠCap t
Ġcircumstanc e
Ġsurround in
Ġsurroundin g
Ġrever s
s ional
Ġarra n
Ġdisa b
Ġprovinc e
Ġbo l
Ã Ń
Ġ198 0
ĠBoo k
Ġcollaps e
ĠTech n
Ġevalua t
Ġeffective l
Ġeffectivel y
ĠAn o
ĠMichi g
ĠMichig a
Ġthr i
ĠMichiga n
Ġbann e
Ġsi c
ĠG M
Ġarran g
Ñ ģ
Ġexample s
Ġpermanen t
ĠUkrain e
ĠRo d
Ġp he
Ġaggressi v
Ġcause s
Ġyes t
Ġaba n
Ġyest e
ĠQuee n
Ġattract i
Ġsubse q
Ġgot t
Ġyeste r
Ġtotal l
ĠGlo b
Ġsubseq u
Ġaggressiv e
Ġsubsequ e
Ġaban d
Ġsubseque n
Ġallegation s
Ġaband o
Ġabando n
ĠCompa n
Ġuni f
ĠSeat t
Ġboo t
ĠSeatt le
Ġsecretar y
ĠVic t
Ġbon d
ĠA I
Ġthink s
Ġsubsequen t
Ġessential l
ĠWoo d
Ġessentiall y
ĠBoa r
Ġel it
Ġinc e
Ġspecial i
Ġcras h
Ġ dominat
Ġba re
ĠPe rs
ĠDu n
Ġvaria b
ĠJo r
ĠBat t
Ġnecessar i
ĠGr o
ĠSaud i
ĠAss a
Ġinitial l
Ġapproach e
Ġexpla n
Ġinitiall y
Ġsubs i
Ġthea t
ĠVo l
Ġpu re
Ġsanct i
Ġwhe e
Ġcol on
Ġresist a
ĠBraz i
Ġres c
Ġresista n
Ġmaterial s
ĠHo s
Ġclim b
Ġsan d
Ġfranc h
Ġexplan a
Ġfranch is
Ġimpl ic
Ġuns u
Ġcontrovers i
ĠAg a
Ġexplana t
Ġfact s
Ġnecessari l
Ġat m
Ġnecessaril y
Ġinf a
Ġprovide r
ĠP S
Ġinco r
Ġ ing
Ġsei z
Ġcond e
ĠChi l
Ġwarn e
Ġaccept e
Ġperforme d
Ġattri b
ĠBoar d
Ġconte m
Ġschedule d
ĠMinn e
Ġattrib u
Ġcontem p
Ġaccepte d
Ġwarne d
Ġattribu t
Ġclass e
Ġliste d
ĠCon n
Ġshar p
Ġgra s
ĠMoun t
ĠKi m
Ġmanda t
Ġincrease s
Ġdefiniti o
Ġdefinitio n
Ġplay o
Ġjo int
Ġadvance d
Ġplayo f
Ġplayof f
Ġface d
ĠL G
Ġla p
Ġyester d
Ġyesterd a
Ġyesterda y
Ġne it
Ġsca r
Ġneit he
Ġneithe r
Ġkno c
ĠSpec i
Ġfranchis e
Ġang e
ĠRa m
ĠVal le
Ġcompetiti v
Ġevery b
Ġprocess e
ĠMana g
Ġeveryb o
Ġeverybo d
ĠSec on
Ġreco n
Ġfo s
Ġeverybod y
Ġse g
Ġnation s
ĠSecon d
Ġti r
Ġpasse n
Ġcompetitiv e
ĠG P
Ġrespect i
Ġrespecti v
Ġpassen g
Ġpasseng e
Ġpassenge r
Ġfi c
Ġprocedu re
Ġspa r
Ġatm o
Ġnear b
Ġnearb y
Ġatmo s
Ġinter c
Ġfollow s
ĠWor k
ĠChar l
Ġdepre s
ĠDeve l
Ġbegin s
Ġatmos p
Ġovers e
Ġatmosp h
Ġatmosph e
Ġatmosphe r
Ġrespectiv e
ĠIl l
Ġconsequence s
Ġdepres s
ĠIre l
Ġsurprise d
Ġch r
ĠSpa n
ĠD E
Ġbrows e
ĠB ou
Ġsmok e
Ġapart m
Ġfavou r
Ġapartm e
Ġapartme n
Ġapartmen t
Ġimprove d
Ġamen d
Ġ \
Ġapplie d
Ġwhee l
ĠDi v
ĠIrel a
ĠIrela n
Ġspon s
ĠIrelan d
ĠDevel o
ĠRo o
Ġrepresent s
ĠDevelo p
ĠCN N
ĠWa y
ĠDefen s
Ġcu p
Ġstoo d
Ġphe n
Ġsign in
ĠSport s
Ġen h
Ġadd s
ĠLor d
Ġalli e
Ġsignin g
Ġspons o
Ġsuicid e
Ġenh a
Ġdeal ing
Ġchar i
Ġnarrat i
Ġbre w
ĠRom n
Ġparl i
ĠRomn e
Ġconfi g
ĠPhil i
Ġinitiati v
Ġparli a
Ġparlia m
Ġparliam e
Ġparliame n
Ġinitiativ e
Ġparliamen t
ĠRomne y
ĠColum b
Ġenha n
ĠSk y
Ġmer c
Ġdemocrac y
Ġenhan c
Ġbott l
ĠL A
Ġsong s
ĠBara c
Ġprese r
ĠAf f
Ġfloo d
Ġpreser v
Ġupgra de
Ġacademi c
Ġguilt y
Ġthreat s
Ġ4 9
ĠMay b
Ġpushe d
ĠJes u
ĠNB A
ĠM I
Ġbring s
Ġattend e
Ġoutp u
Ġunc on
ĠIt s
ĠTh r
Ġshot s
ĠBarac k
Ġoutpu t
Ġexamin e
Ġ zero
ĠPhili p
ĠAve n
Ġfew e
ĠJew s
Ġexisten c
Ġwith d
Ġelectron i
Ġtotall y
Ġelectroni c
Ġcirc l
Ġfounde r
Ġbran c
Ġexistenc e
Ġdiscusse d
ĠEl i
Ġstor a
ĠJu l
Ġprimar i
ĠPre m
Ġsou g
Ġsoug h
Ġtour i
ĠOn ly
Ñ Ģ
Ġsough t
Ġgraduat e
Ġmain s
t witter
Ġentr y
Ã ¼
Ġreceiv in
Ġente re
Ġreceivin g
ĠU t
Ġentere d
Ġgraph ic
Ġboy s
Ġstora g
Ġstorag e
ĠDe v
Ġcomp i
Ġaccompli s
Ġanalys t
Ġdisapp e
Ġaccomplis h
Ġspe l
Ġdisappe a
ĠBrazi l
Ġide o
ĠCo s
Ġga n
Ġarticle s
âĤ ¬
ĠEr ic
Ġ200 2
Ġdepen de
Ã ¶
ĠLon g
Ġcompi l
ĠS A
ĠBac k
Ġasse m
Ġcorre s
ĠCr i
Ġcoff e
Ġagen d
Ġcorres p
Ġassem b
Ġcorresp o
Ġcorrespo n
Ġassemb l
Ġscore d
Ġcorrespon d
ĠLi ve
Ġpos e
Ġjourn e
Ġjourne y
Ġclasse s
ĠD C
Ġarrang e
Ġdedicat e
Ġunlike ly
ĠMayb e
Ġaff a
Ġcorporat i
Ġagend a
ĠF I
ĠAri z
Ġanc i
Ġideo l
Ġ vice
Ġbos s
ĠAno t
Ġknow ing
Ġ3 00
Ġdecre a
Ġdecrea s
Ġspec u
Ġlegit i
Ġexplanat i
Ġlegiti m
Ġexplanati on
Ġideol o
Ġphen o
Ġspecu l
ĠTr o
Ġideolo g
Ġnetwork s
ĠAnot he
ĠAnothe r
Ġcha p
ĠSu m
Ġtest e
ĠRe f
ĠSenat o
ĠA F
Ġfair l
Ġexpecta t
Ġexpectat i
Ġmea t
Ġfairl y
Ġsk y
Ġspecul a
ĠY u
Ġem is
Ġsucce e
Ġcat a
ĠISI S
ĠSha r
Ġselecti on
Ġsuccee d
Ġmanne r
Ġexpectati on
Ġseque n
Ġdisp u
Ġrecord in
Ġcolleague s
Ġsla v
ĠHis t
Ġsno w
Ġrecordin g
Ġabs e
Ġdiso r
Ġfunction s
Ġplat e
ĠM s
ĠClu b
ĠYa n
Ġemis s
Ġdeath s
Ġdispu t
Ġtea r
ĠTo p
ĠHo r
ĠPrinc e
Ġaw e
Ġmay o
Ġapproximat e
ĠLo o
Ġpro h
ĠRight s
Ġanyw h
ĠO a
ĠYou T
Ġanywh e
Ġabse n
Ġanywhe r
Ġanywher e
ĠYouT u
Ġproh i
ĠYouTu b
Ġprohi b
Ġsigh t
ĠYouTub e
Ġcab l
ĠSe t
Ġprotest s
Ġbottl e
Ġfla s
ĠRec o
Ġcurrenc y
Ġyounge r
ĠRa i
Ã ³
Ġimportan c
Ġtarget s
Ġexpo r
Ġprohib it
Ġexpor t
Ġspecula t
Ġsenat o
Ġmechan is
ĠKa r
ĠColo ra
Ġexte r
Ġsenato r
Ġbreak in
Ġimportanc e
Ġbrid g
ĠOlymp ic
Ġdestroy e
Ġdefine d
Ġnot a
ĠColora d
Ġbreakin g
Ġwalk e
Ġbir d
ĠEne r
Ġfrau d
Ġrall y
Ġdescri p
Ġbl in
Ġevol u
Ġsubsi d
Ġfas h
Ġpassi on
Ġdescrip t
Ġce re
ĠF O
ĠHist o
Ġlat t
Ġproteste r
Ġprom in
Ġstore s
Ġbas k
ĠEa c
Ġfash i
Ġreplace d
Ġpromin e
Ġfashi on
Ġpromine n
ĠGran d
ĠEac h
Ġtempora r
Ġevolu t
Ġpre g
ĠDan ie
ĠA R
ĠWee k
Ġemp t
Ġport r
ĠMa j
Ġcance l
Ġevolut i
Ġportr a
Ġspel l
Ġwin t
ĠWat c
Ġbuy in
Ġun k
Ġevoluti on
Ġmains t
Ġsensi t
Ġbuyin g
Ġsensit i
Ġelit e
Ġfound a
Ġfounda t
Ġfoundat i
Ġfoundati on
Ġconf r
ĠS ma
Ġpractic a
Ġcabl e
Ġmarket ing
Ġterm i
Ġrestrict i
Ġfacilit y
ĠSqu a
Ġaffa i
Ġregulation s
Ġaffai r
ĠSp i
Ġdefi c
Ġsomew h
Ġsomewh a
Ġsomewha t
ĠEner g
ĠHous t
Ġfle e
Ġconfr on
Ġconfron t
Ġdestr u
Ġindustri a
Ġscho l
Ġalleged l
Ġallegedl y
ĠHoust on
ĠLibe ra
ĠConst i
ĠColorad o
Ġdes k
ĠBo y
Ġa e
Ġschol a
ĠTre a
Ġindustria l
Ġasse r
Ġslav e
Ġdestru c
Ġversion s
Ġasser t
ĠF A
ĠTh re
ĠConsti t
Ġdep t
Ġdestruc t
ĠConstit u
Ġrelevan t
ĠYea r
Ġprosecut o
Ġprosecuto r
Ġcapitali s
ĠStep he
Ġsubstanti a
Ġunivers e
ĠI o
ĠStephe n
ĠCar l
Ġemiss i
Ġbio l
Ġcut t
ĠBlo o
ĠPrem i
Ġadult s
Ġfun n
Ġswee t
ĠHisto r
Ġcorporati on
Ġmain l
Ġfic t
Ġcome d
Ġresi g
Ġfe s
Ġresig n
ĠCa me
Ġsee s
Ġsuffer in
Ġanci e
Ġancie n
Ġsufferin g
Ġwint e
Ġwinte r
Ġsancti on
ĠLig h
Ġemissi on
Ġport i
Ġprov is
Ġ4 1
ĠValle y
Ġassociat i
ĠLigh t
Ġnarrati ve
Ġendo r
ĠEa r
Ġclose l
Ġclosel y
Ġdeep e
Ġfarm e
Ġfewe r
ĠMar in
Ġregulat o
Ġregulato r
Ġsic k
Ġapprov a
ĠGeorg i
Ġregion a
ĠWat e
Ġregiona l
Ġcru c
Ġpersonal i
Ġact s
ĠGame s
Ġapprova l
Ġterri b
Ġas i
Ġancien t
Ġcruc i
Ġexten t
ĠPl u
Ġterrib l
fie l
Ġtrain e
Ġexcellen t
Ġpunis h
ĠHol ly
Ġfunction a
ĠO F
ĠCI A
Ġal e
Ġporti on
Ġreturn s
Ġschola r
Ġfes t
Ġpractica l
ĠGi l
ĠNe x
Ġmechanis m
Ġcreat u
Ġwak e
Ġdisput e
Ġbiol o
Ġparticipant s
Ġcreatu re
Ġsqua d
Ġbiolo g
ĠH T
Ġacquir e
ĠWi k
ĠBroo k
Ġiso l
Ġbreat h
Ġrend e
ĠDav is
l ick
ĠC P
Ġrel y
Ġpe d
Ġsensiti v
ĠCo p
Ġcontroversi a
Ġtermi n
Ġcontroversia l
ĠU b
ĠManag e
Ġgrow n
Ġprovis i
ĠEnt e
Ġisol a
Ġprovisi on
Ġcircl e
Ġunk n
Ġpoll s
Ġunkn o
ĠDanie l
Ġcircumstance s
Ġisola t
Ġanyw a
Ġanywa y
Ġbridg e
Ġacti n
ĠConservati v
Ġunkno w
ĠConservativ e
Ġresol v
ĠEx c
Ġ4 4
ĠEc on
ĠFa i
ĠNet w
Ġendor s
ï ¿
ĠArc h
Ġserv in
Ġservin g
Ġatti t
Ġchair m
Ġdetai le
Ġwin s
Ġattit u
Ġattitu d
ĠVict o
Ġpara m
Ġta u
Ġdetaile d
ĠCl i
Ġdece n
ĠNetw o
Ġsee d
ĠI c
ĠNetwo r
ica n
Ġcapab i
Ġcapabi l
Ġdestruct i
ĠFou r
ĠVicto r
a sional
c asional
Ġcapabil i
Ġcapabili t
c casional
Ġbask e
ĠConstitu t
Ġcraz y
ĠYou n
Ġpublic a
ĠHun t
ĠDu t
Ġal g
Ġteach i
Ġteachi n
Ġrelationship s
Ġteachin g
Ġgene t
Ġattitud e
Ġst on
Ġ5 5
ĠConstitut i
ĠEast e
Ġcarry in
Ġcarryin g
Ġgenet ic
Ġtir e
ĠConstituti on
ĠGa t
Ġkind s
Ġexh i
ĠNetwor k
ĠJesu s
ĠGeorgi a
½ Ð
ĠLan d
ĠMi a
Ġtin y
ĠEaste r
Ġlatt e
ĠN on
Ġbaske t
Ġfeature d
Ġchi p
Ġsurve i
Ġsurvei l
Ġcons p
Ġre i
Ġrefer re
Ġemba r
Ġearne d
ĠCla s
Ġspeak e
Ġclassi f
ĠLo ve
Ġbitc o
Ġpla in
Ġauthor s
Ġup c
Ġfru it
Ġ6 5
ĠEcon o
Ġtal l
Ġactin g
Ġartist s
Ġforme d
Ġpush in
Ġefficien t
Ġfunctiona l
ĠWatc h
Ġpra is
Ġadve n
ĠAriz on
Ġbitco in
Ġur b
Ġadven t
Ġpushin g
Ġther a
ĠArizon a
Ġemb ra
Ġcritici z
Ġinstru m
ĠIta l
Ġinstrum e
Ġinstrume n
Ġinstrumen t
ĠA L
Ġshould e
Ġembra c
ĠEcono m
Ġcoffe e
ĠS C
Ġshar in
ĠWik i
Ġurb a
ĠPut in
Ġsharin g
Ġperm is
b ilit
Ġthera p
Ġconsp i
Ġurba n
Ġcomfortabl e
ĠAsia n
Ġreferre d
Ġfrequent l
Ġfrequentl y
ĠComm on
Ġstea l
Ġunc le
Ġlaw m
L ike
Ġlawm a
Ġchairm a
Ġ river
ĠSup p
Ġpermis s
Ġchairma n
Ġupdate d
Ġalong s
Ġevi l
ĠKu r
Ġalongs i
Ġalongsi d
Ġalongsid e
Ġpermiss i
Ġsurveil l
Ġrepeated l
Ġrepeatedl y
ĠCro s
ĠNort he
Ġdescript i
Ġattempt e
Ġextensi on
Ġremo t
ĠRo g
ĠO re
Ġplas t
ĠInf o
Ġspeake r
Ġtend e
Ġattempte d
ĠG la
Ġless on
Ġvariab le
ĠWa rs
Ġun w
Ġupc o
Ġfil t
Ġupco m
Ġremot e
Ġsettle m
Ġsettlem e
Ġsettleme n
Ġsettlemen t
Ġla d
Ġupcom ing
ĠCi v
Ġeg g
ĠN Y
Ġmet e
ĠEnerg y
Ġlawma k
Ġimpressi v
Ġimpressiv e
Ġairp o
o ccasional
Ġdisast e
ĠNig h
Ġfem in
Ġdisaste r
Ġpea k
Ġfarme r
Ġrealize d
Ġshoulde r
Ġ3 9
ĠSan d
Ġdept h
Ġdedicate d
Ġ dict
Ġti l
Ġlegitim a
ĠWil s
Ġstruc k
ĠM S
ĠCru z
ĠCrea t
Ġdepende n
ĠAgen c
Ġben c
ĠDefens e
ĠKe v
ĠWo l
Ġpreg n
Ġrepu t
Ġinspire d
ĠAl le
Ġboa t
Ġvalu a
ĠNigh t
c ations
Ġpregn a
Ġup p
Ġanti c
Ġpregna n
Ġunder w
Ġwalke d
d ime
ĠBas e
ĠDes p
Ġtarget e
Ġmainst r
Ġmainstr e
ĠTa n
ĠF is
Ġcert i
Ġlawmak e
Ġlawmake r
Ġmainstre a
Ġinterf a
Ġsequen c
Ġtargete d
Ġga l
Ġmainstrea m
Ġairpo r
Ġfas c
Ġairpor t
Ġge a
Ġple d
Ġfra c
ĠU F
Ġsala r
Ġteen a
Ġfict i
Ġteena g
Ġteenag e
o cations
Ġ occasional
ĠItal i
Ġstu n
Ġec o
Ġbrowse r
Ġcaus in
Ġasset s
Ġcausin g
ĠItali a
Ġnews le
Ġnewsle t
Ġnewslet t
Ġnewslett e
Ġnewslette r
Ġmechan i
Ġsli d
Ġwra p
ĠMu l
Ġcollecti v
ĠK on
Ġ6 4
ĠThou g
ĠThoug h
Ġsurveill a
Ġenhanc e
Ġsurveilla n
Ġreduc t
Ġassociati o
Ġassociatio n
ĠTa y
ĠAga in
Ġsurveillan c
Ġsurveillanc e
ĠN E
Ġpossess i
ï¿ ½
Ġwatche d
Ġficti on
Ġoverw he
Ġasi d
Ġoverwhe l
ĠCla r
Ġoverwhel m
Ġwhi s
ĠSoc ie
Ġasid e
Ġta g
Ġtor t
Ġlatte r
ĠYoun g
ĠT it
Ġprotect e
ĠVe g
ĠHo p
Ġliteral l
Ġliterall y
Ġali e
ĠA S
ĠGu i
ĠAwa r
Ġalie n
ĠAdm in
Ġston e
Ġprotecte d
Ġreduct i
Ġunus u
Ġteacher s
Ġunusu a
Ġunusua l
Ġpublica t
Ġbatter y
Ġassistan t
Ġfu c
Ġprecis e
Ġprogressi v
Ġsubstantia l
Ġpublicat i
Ġpublicati on
Ġ4 3
Ġdeep l
Ġpublis h
Ġdeepl y
Ġtow e
Ġsend in
ĠSe ve
Ġnegotiat i
Ġsendin g
Ġnegotiati on
ĠTes t
ĠLat in
Ġsha m
Ġpheno m
Ġcongre s
Ġdep u
Ġcerti f
Ġcongres s
ĠFu l
Ġfolk s
Ġsco r
ĠP it
ĠTak e
Ġpun c
ĠAwar d
Ġcha s
ĠCont in
Ġimpos e
ĠCas t
Ġpropert i
Ġnotice d
Ġproperti e
Ġexcit in
Ġexcitin g
ĠNot e
Ġtrans m
Ġfixe d
Ġadvertis e
Ġexten de
Ġsuff i
Ġali v
ĠIn ve
Ġyel l
Ġune m
Ġaliv e
Ġfort h
Ġexpens e
Ġpropertie s
Ġnorthe r
l ocations
Ġra m
ĠSocie t
ĠPol it
Ġgan g
ĠJ r
Ġpossessi on
Ġmind s
ĠU l
ĠC S
Ġrequirement s
Ġconsci o
Ġconscio u
Ġ Î
Ġconsciou s
Ġab r
Ġneu t
Ġnar r
Ġsha k
Ġnarr o
Ġrefugee s
Ġdepu t
Ġnarro w
ĠSpr ing
ĠBu c
Ġresc u
Ġmar c
Ġinterfa c
Ġta i
Ġexhi b
ĠI T
Ġfa u
Ġreducti o
Ġdisor d
Ġpled g
Ġfuc k
Ġdisord e
Ġ197 0
ĠMille r
Ġunem p
Ġunknow n
Ġexhib it
ĠAc a
Ġam i
ĠQ a
ĠMa x
Ġfa k
Ġteste d
Ġsol e
Ġpromise d
Ġunemp l
Ġunempl o
Ġunemplo y
Ġfores t
ĠIr is
ĠKenn e
s ical
Ġeat ing
Ġover c
Ġreductio n
Ġattacke d
ĠJor d
ĠEd w
ĠCl o
ĠFa t
Ġmechani c
Ġphenom e
Ġnorther n
Ġinstruct i
Ġpro o
Ġang r
Ġphenome n
Ġ locations
Ġdestroye d
Ġinteracti o
Ġinteractio n
ĠStan d
ĠSome t
ĠDet r
Ġproper l
Ġproperl y
Ġproo f
Ġextende d
ĠO S
ĠRoy a
Ġsta k
ĠE p
Ġput s
Ġequi v
ĠH it
ĠFr ie
ĠBes t
Ġdev o
Ġprogressiv e
Ġmayo r
Ġsudden l
Ġ15 0
Ġsuddenl y
ĠWo me
Ġapproximate l
Ġapproximatel y
Ġtap e
Ġmemor i
Ġmatche s
Ġrac i
Ġend ing
ĠWome n
Ġterritor y
ĠHarr is
ĠZ i
Ġpo v
ĠKev in
Ġmaxim u
Ġrelia b
Ġprotester s
Ġraci a
Ġslow l
Ġracia l
Ġpat e
ĠFa m
Ġslowl y
Ġinterfac e
Ġmere l
Ġmerel y
Ġbun c
ĠGo r
Ġterroris m
Ġinsu l
Ġmaximu m
ĠWils on
ina r
ĠTer r
Ġdest in
Ġselect e
Ġattribut e
ĠChil d
Ġent h
Ġreput a
Ġrequest s
Ġselecte d
ĠK y
Ġ5 1
Ġdistribut e
Ġupp e
Ġconfig u
ĠHen r
ĠSn o
Ġnota b
ĠAut h
Ġempt y
ĠDetr o
Ġpov e
Ġdisa g
Ġdisorde r
n ized
Ġresistan c
Ġresistanc e
ĠDetro it
Ġdescripti on
Ġdecreas e
Ġworrie d
Ġunf a
Ġappreciat e
Ġstab i
ĠGree k
Ġstabi l
ĠAlex a
ĠHo t
ĠMas t
Ġfest i
Ġbi a
Ġdecen t
Ġfesti v
ĠHolly w
ĠLa r
Ġtra p
Ġeliminat e
ĠC D
Ġpove r
ĠAd v
ĠTe le
ĠAgenc y
Ġcomplicat e
Ġdeal s
Ġsupport s
ĠHollyw o
ĠHollywo o
ĠItalia n
ĠClas s
Ġpac e
Ġpover t
ĠCame r
ĠHollywoo d
Ġunderst o
ĠMa in
Ġstabil i
Ġpovert y
Ġlike s
Ġcollectiv e
Ġun b
ĠAdmin i
ĠJe rs
ĠAdmini s
Ġnomin e
ĠAdminis t
Ġstri c
ĠSu c
Ġstak e
Ġfacilit i
Ġnomine e
Ġallie s
Ġfaciliti e
Ġfacilitie s
Ġcruci a
Ġdisag re
ĠJers e
Ġdisagre e
ĠSociet y
ĠJerse y
Ġargument s
Ġsub t
Ġundersto o
Ġunderstoo d
ĠOr g
Ġano n
Ġsouthe r
Ġmedic in
Ġtransm i
Ġprominen t
Ġcontrolle d
ĠAtt o
Ġfee s
ĠCon v
Ġresolv e
Ġplu g
ĠNic k
Ġsome h
Ġinsi g
ĠTur n
Ġsomeh o
ĠJa s
Ġendors e
Ġsomeho w
Ġwarr a
ĠNat u
Ġwarra n
Ġwarran t
ĠAdminist r
ĠEd u
ĠAtto r
ĠAdministr a
ĠAttor n
ĠAttorn e
ĠAttorne y
ĠBri a
ĠIta ly
ĠProf e
ĠCompan y
Ġinstan t
Ġcritic s
ĠMar ke
Ġequiv a
ĠFor d
Ġsmil e
Ġjournalist s
Ġinstall e
Ġregion s
ĠAdministra t
Ġequiva le
Ġpromot i
Ġcommunication s
Ġsti m
Ġwithd r
Ġwithdr a
Ġwithdra w
Ġequivale n
Ġbunc h
Ġun n
Ġpromoti on
ĠProfe s
Ġeth ic
Ġpersonal l
Ġpersonall y
Ġsou l
Ġcutt in
ĠWe a
Ġpitc he
ĠPolit i
Ġcuttin g
Ġexpose d
ĠProfes s
Ġsurge r
Ġdisc i
ĠSpan is
ĠSpanis h
Ġdisci p
ĠOl d
Ġdiscip l
Ġemploye r
Ġfall in
ĠLab o
Ġno s
ĠMan c
Ġaudi o
Ġsouther n
Ġthrea d
Ġfallin g
Ġstrong l
Ġno is
Ġsomew he
Ġstrongl y
ĠD A
ĠGa z
ĠS la
Ġsomewhe r
Ġsomewher e
ĠLe s
Ġfla v
w hile
Ġpo e
Ġtemp l
Ġconde m
Ġfak e
Ġvac c
ort h
ĠAuth o
ĠNAS A
Ġcondem n
Ġcrucia l
Ġtouri s
Ġsw o
Ġcertif i
Ġsuffi c
Ġkne e
Ġedit i
Ġediti on
Ġawe s
Ġimplement a
Ġrestricti o
Ġchi c
Ġrestrictio n
Ġrescu e
ĠSa ra
Ġcoal i
ĠD y
Ġint i
Ġesta t
ĠR A
a nized
ĠLe n
Ġmeeting s
Ġcoali t
Ġplast i
Ġcoalit i
Ġfle x
Ġcoaliti on
Ġsuspen d
ĠMia m
ĠKn o
ĠRoya l
Ġbar re
Ġanon y
ĠBow l
Ġtra g
Ġanony m
ĠMiam i
Ġemission s
Ġballo t
Ġstim u
Ġstimu l
Ġder i
Ġinstructi o
Ġinstructio n
Ġimplementa t
Ġestat e
g anized
Ġast r
r ganized
Ġimplementat i
Ġimplementati on
ĠMa ke
Ġplasti c
Ġcompr o
Ġdesp e
Ġcru s
Ġcompro m
Ġsmart p
ĠZ o
Ġtree s
Ġsna p
ĠCa rt
Ġclassif i
Ġsmartp h
Ġsmartph on
Ġsmartphon e
Ġdespe r
ĠDesp it
ĠDespit e
Ġbia s
ĠS P
ĠJord a
ĠNH L
Ġcomprom i
Ġdis r
Ġgood s
Ġcompromi s
Ġawes o
Ġaweso m
Ġan x
Ġstronge r
Ġdesper a
Ġanx i
Ġawesom e
Ġgott e
Ġgotte n
ĠIris h
ĠBria n
ĠAn de
Ġpurpose s
ĠRa y
Ġleg e
Ġdespera t
ĠRan d
Ġdele g
Ġintell e
Ġreasonabl e
Ġwei r
Ġchari t
Ġclaim in
Ġclaimin g
Ġdonat i
Ġarti f
Ġdonati on
ĠJorda n
Ġintelle c
Ġintellec t
Ġfind s
ĠNation s
Ġpermissi on
ĠVie w
Ġbenc h
Ġsigna t
Ġprais e
ĠVi l
o rganized
Ġchose n
ĠNa z
Ġfift h
Ġofficial l
Ġofficiall y
Ġintens i
Ġdisr u
Ġdisru p
Ġdisrup t
Ġproducti v
ĠAme n
Ġwin e
Ġelectric it
Ġelectricit y
ĠJa y
Ġextensi ve
Ġamount s
Ġpat c
Ġfol d
Ġlege n
Ġstretc h
icat i
ĠKe e
Ġtie s
Ġlegen d
Ġenth u
ĠDN A
Ġenthu s
Ġsubscrib e
Ġcla r
Ġuppe r
Ġweir d
Ġadvent u
ĠSouthe r
Ġinfla t
Ġadventu r
Ġcha t
Ġinter r
Ġpayment s
Ġsequenc e
Ġthreaten e
Ġatmospher e
Ġthreatene d
Ġreta in
Ġpo d
Ġpara l
Ġreject e
Ġpara d
Ġsome b
Ġsomeb o
Ġsomebo d
Ġrejecte d
Ġperfect l
Ġperfectl y
Ġaspect s
Ġcapture d
ĠGre g
Ġsomebod y
Ġanswer s
ĠDat a
Ġpledg e
Ġbru t
Ġstep p
Ġstric t
Ġreceive r
Ġinti m
Ġprimari l
ĠV I
Ġchoice s
Ġprimaril y
Ġconstant l
Ġconstantl y
ĠF ie
Ġtradi n
Ġmanufacture r
Ġtradin g
Ġfighter s
Ġpark in
Ġfield s
Ġmet r
Ġseat s
Ġaccept a
ĠLibera l
ĠSouther n
Ġdec o
ĠE va
bilit y
Ġinform e
Ġ5 2
Ġrais in
Ġexpos u
Ġexposu re
Ġreputa t
ĠService s
Ġfly in
Ġreputat i
Ġreputati o
Ġany m
Ġden y
Ġreputatio n
Ġparkin g
Ġanym o
Ġanymo r
Ġanymor e
Ġtermin a
Ġunc e
Ġnob o
ĠPro p
Ġestimate s
Ġnobo d
Ġflyin g
ĠDr u
Ġtechnologi e
Ġdemocra t
Ġnoti on
Ġsolution s
Ġver i
Ġtechnologie s
ĠOrg a
ĠDis n
ĠSer ie
ĠDisn e
ĠKi l
ĠDisne y
Ġsmo o
Ġelse w
ĠRad i
Ġpursu e
Ġextra c
Ġelsew he
Ġcourt s
Ġregular l
Ġregularl y
Ġelsewhe r
Ġelsewher e
Ġemploy me
Ġemployme n
Ġemploymen t
Ġresult in
Ġbla s
Ġresultin g
Ġaccess i
ĠMoo re
Ġsto l
ĠW her
ĠKe y
Ġsem i
ĠLe w
Ġbase b
Ġprote in
Ġnobod y
ĠPremi e
Ġencounte r
ĠWher e
Ġchap t
Ġexist s
ĠGuard i
ĠPlay e
Ġchapt e
fie d
Ġadopt e
Ġchapte r
ĠE P
Ġapolog i
Ġex it
ĠP ie
ĠAca de
ĠEdw a
Ġrevi s
Ġbaseb a
Ġkeep s
Ġwitness e
Ġcontrol s
ĠEdwa r
ĠAcade m
ĠDar k
ĠDi g
ĠIndian a
icati on
ĠOrga n
ĠScot la
ĠScotla n
ĠG h
ĠScotlan d
ĠMot o
Ġlan e
Ġcomponent s
Ġgen u
Ġ4 7
ĠEdwar d
ĠCros s
ĠPa ra
Ġinterven t
Ġimplic a
ĠTou r
Ġletter s
Ġcontribute d
m inan
Ġintervent i
ĠKel ly
Ġcompe n
Ġworld w
Ġ4 6
Ġsmoo t
Ġworldw i
Ġinterventi o
Ġinterventio n
Ġworldwi d
Ġworldwid e
Ġcann a
ĠInst a
Ġexecut e
Ġincredibl e
ĠAutho r
Ġsituation s
Ġdefen c
ĠGet t
Ġstu c
Ġimplica t
Ġstol e
a tional
Ġequivalen t
ĠMay o
Ġdefenc e
Ġdeleg a
ĠE ma
Ġconclude d
ĠVeg a
Ġbaseba l
i fied
Ġbasebal l
Ġam p
ĠDal la
ĠRe t
ĠClar k
Ġnew l
Ġton e
Ġenem i
Ġcy b
ĠSteve n
ĠChan g
Ġclar i
Ġcanna b
Ġdesigne r
Ġpersonali t
ĠPoliti c
Ġclient s
Ġenemi e
Ġenemie s
Ġdelega t
Ġince n
Ġveri f
Ġsuggest i
ĠSti l
ĠChampions h
ĠChampionsh i
ĠRe u
ĠChampionshi p
Ġbill s
ĠMe s
Ġfilt e
ĠExp e
Ġambi t
Ġcontinu in
Ġcontinuin g
Ġregiste re
Ġregistere d
ĠSt on
Ġwonder f
Ġincredibl y
ĠCiv i
Ġdemand s
Ġwonderf u
Ġinforme d
Ġwonderfu l
Ġfeed b
Ġfeedb a
° Ð
Ġfeedba c
Ġfeedbac k
Ġreg re
ĠPac i
Ġathlet e
Ġtie d
ĠJose p
Ġsyn t
Ġcommand e
ĠMinne s
Ġenthus i
Ġcoun s
ĠA D
Ġenthusi a
ĠH in
Ġale r
ĠMinnes o
Ġcouns e
ĠMinneso t
Ġcounse l
Ġsat e
ĠMinnesot a
Ġenthusia s
Ġterribl e
Ġaler t
ĠCivi l
Ġvisit o
Ġestablish m
Ġestablishm e
Ġestablishme n
Ġestablishmen t
Ġvisito r
Ġangr y
Ġprove d
Ġcategor y
ĠContr o
Ġstuc k
Ġstea d
Ġscan d
ĠAmen d
Ġ19 0
ĠGa la
f ile
ĠPar l
ĠPro d
Ġinsp e
Ġshort l
ĠLin u
." [
Ġship p
ĠJud g
Ġinspe c
Ġmachine s
Ġgrant e
Ġconsum p
Ġconsump t
Ġconsumpt i
ĠAss e
Ġscand a
Ġinspec t
Ġdefende r
Ġscanda l
ĠSpa in
ĠConv e
Ġaf r
Ġgra de
Ġraisin g
dime n
Ġreturn in
Ġambit i
Ġreturnin g
Ġcro p
Ġambiti o
Ġrepresent e
Ġnewl y
Ġwriter s
ĠBo l
Ġrepresente d
Ġexce s
Ġmani p
ĠJosep h
Ġrevers e
ĠPhi la
ĠMet r
Ġvalua b
Ġconsumpti on
Ġrecover y
ĠL E
Ġvaluab le
Ġexces s
ĠThank s
Ġgam ing
ĠProg ra
ĠDalla s
Ġen r
Ġmanip u
Ġsw in
ĠProgra m
Ġtort u
ĠArab i
Ġcompen s
Ġpo c
Ġper p
Ġcompens a
Ġmanipu la
ĠA h
ĠWate r
Ġimpro v
ĠNa s
Ġche s
Ġcop i
Ġchic k
ĠCa re
Ġal a
Ġsli p
Ġpenalt y
Ġcompensa t
Ġprogramm in
Ġprogrammin g
ĠAP I
Ġ organized
ĠMos c
ĠI C
ĠEconom i
ĠMast e
ĠWa n
Ġconspi r
Ġmanipula t
Ġtrans g
Ġassu r
ĠEdu c
Ġsate l
ĠAnde r
ĠSw a
Ġcomplicate d
Ġshi t
Ġtransp a
Ġsatel l
Ġsatell i
Ġgrante d
Ġsatelli t
o minan
Ġar i
Ġsatellit e
Ġ( $
Ġchance s
ĠMer c
Ġassistan c
Ġassistanc e
Ġus a
Ġblin d
Ġtranspa r
Ġconsol e
Ġembrac e
ĠEduc a
ĠPaci f
Ġcount y
Ġsubsid i
Ġsymp t
Ġsympt o
Ġsympto m
Ġtranspar e
Ġtranspare n
Ġsac r
ĠDr i
ĠMea n
Ġprison e
Ġfore c
ĠLo w
Ġprisone r
Ġshare s
Ġsuccessful l
ĠZe a
ĠDra g
Ġca v
ĠEduca t
ĠParl i
Ġsuccessfull y
Ġtri l
Ġbon e
Ġwest e
ĠCoa s
ĠMo d
Ġweste r
Ġframe w
ĠParli a
ĠPatr ic
Ġframew o
Ġframewo r
d ominan
Ġframewor k
ĠParlia me
ĠParliame n
ĠParliamen t
ĠSha n
ĠTo t
ĠBal t
Ġcriticiz e
Ġtechnique s
Ġsocial i
ĠBea c
Ġlawmaker s
Ġflas h
Ġdominat e
Ġearn ing
Ġtortu r
ĠOpe ra
Ġange r
Ġaddi c
Ġinfect i
Ġantic i
ĠSpeci a
Ġastr o
Ġautomatic a
Ġph r
Ġaddic t
Ġshel l
ĠLG B
Ġdegree s
Ġautomatica l
Ġsug a
Ġantici p
Ġautomatical l
Ġscene s
Ġautomaticall y
Ġanticip a
ĠPacif ic
Ġaim e
Ġanticipa t
ĠAlexa n
ĠMarke t
Ġphr a
ĠTay l
Ġeth n
ĠAlexan d
ĠTayl o
Ġexpl ic
Ġphra s
Ġcompil e
ĠCoas t
Ġengage d
Ġpr on
Ġprop a
Ġextrac t
ĠRan g
Ġblock s
ĠSpecia l
Ġpu m
ĠMc D
ĠRu n
Ġpres c
ĠEn d
Ġad s
Ġaime d
ĠH I
Ġtau g
Ġtaug h
Ġtaugh t
Ġinfecti o
ĠSa f
Ġneur o
Ġsuga r
o cks
ĠEs t
Ġinstalle d
Ġtitle s
ĠPlaye r
Ġnational i
ĠTechn o
ĠStil l
âĪ Ĵ
ĠSenato r
Ġpriv i
Ġ199 9
Ġpoc k
ĠAven u
Ġdefic it
ĠAvenu e
Ġent re
ĠIo w
Ġattende d
Ġreb u
ĠIow a
Ġsuffic i
ĠArabi a
Ġsuffici e
Ġsufficie n
ĠFore i
Ġcyb e
Ġwester n
ĠContin u
Ġnoti f
ĠForei g
ĠSton e
ĠForeig n
ĠCar r
t his
Ġmarke d
ĠNB C
Ġunce rt
Ġsta c
Ġunp re
Ġaccomp a
ĠMosc o
ĠTaylo r
Ġmilita n
Ġprivi l
Ġinde x
ĠContro l
Ġbarr i
ĠMus ic
Ġaccompa n
Ġgene r
ĠB A
Ġuncert a
Ġuncerta in
ĠGi a
Ġprivil e
ĠBus in
Ġlawyer s
ĠDis c
Ġpee r
Ġdev a
ĠBusin e
ĠLinu x
ĠBusine s
Ġperson n
ĠBusines s
Ġcybe r
ĠLGB T
Ġmen u
Ġspar k
Ġprivile g
Ġarra y
ĠAssociat e
Ġdepend ing
Ġvisit e
ĠOa k
ĠRic k
Ġregard l
Ġregardl e
Ġsusp i
Ġregardle s
Ġregardles s
Ġfemin i
Ġsignat u
Ġcollect e
Ġrati on
Ġtrack s
Ġsuspi c
Ġsignatu re
Ġrecip e
ĠFam i
Ġcollecte d
Ġsuspic i
ĠAmend me
ĠAmendme n
ĠAmendmen t
Ġchampions h
Ġchampionsh i
ĠRob in
Ġchampionshi p
Ġafr a
Ġpate n
Ġpasse s
Ġpersonn e
ĠMarin e
Ġafra i
Ġafrai d
ĠEl l
ĠTon y
ĠAlb e
Ġvisite d
ĠAnder s
µ Ð
Ġdis g
Ġwarm in
Ġsm e
ĠAdministrat i
Ġpaten t
Ġwarmin g
ĠAl i
Ġpo is
Ġla i
ĠDea d
Ġsufficien t
ĠAs h
Ġagr i
ĠPremie r
ĠSha re
Ġpock e
Ġsurger y
Ġcli p
Ġshad o
Ġshado w
Ġcategor i
Ġenjoy e
Ġtai l
Ġmea l
Ġbus y
Ġenjoye d
Ġcompre he
Ġcomprehe n
ĠChe c
Ġrepa i
ĠMosco w
Ġcompromis e
Ġpret e
Ġsl u
Ġprinciple s
Ġpocke t
ĠC in
Ġcry p
Ġstac k
ĠAnt h
Ġconstitution a
Ġconstitutiona l
Ġintellect u
Ġthi c
Ġphone s
ĠOre g
Ġthic k
Ġbon u
Ġmedicin e
ĠZea la
ĠZeala n
Ġprivileg e
Ġgenerate d
Ġprocesse s
Ġpartners h
Ġpartnersh i
Ġpartnershi p
Ġcryp t
ĠSerie s
Ġsens o
Ġ âĢĻ
Ġintellectu a
Ġintellectua l
ĠTe m
Ġbonu s
ĠInve s
Ġpersonne l
Ġcoac he
Ġpres u
Ġintens e
Ġtwe n
Ġstrategi c
ĠU r
ĠBi r
ĠProd u
Ġnegotiation s
Ġtwen t
ĠKa s
Ġoutl e
Ġ dominan
ĠSa in
Ġmainl y
ĠLoo k
ĠSu s
Ġoutle t
Ġcorrupt i
ĠInves t
ĠOreg o
Ġsenso r
ĠOrego n
ĠVie t
ĠMa i
ĠJos h
ĠN C
Ġtens i
ĠCi r
Ġcharacteri s
ĠEaster n
Ġresult e
Ġresulte d
Ġentit l
Ġnois e
ĠIran i
ĠBi b
Ġfunn y
Ġat o
Ġdemocrat i
Ġelect o
Ġpound s
ĠBe f
Ġbat h
Ġcooperat i
ã Ģ
Ġfemini s
ĠMc G
Ġelecto r
ĠNorthe r
Ġemerge d
Ġinter i
Ġbea c
ĠProdu c
Ġdescribe s
Ġevery w
Ġentitl e
ĠMetr o
Ġcorrupti on
Ġengineer in
Ġengineerin g
Ġpattern s
ĠGlob a
ĠF ly
Ġadopte d
Ġen o
Ġeveryw he
Ġrefer r
Ġmedi u
Ġconsult a
Ġeverywhe r
Ġeverywher e
Ġsuggesti on
ĠEducat ion
Ġfou g
ĠNorther n
Ġcas u
ĠMaj o
Ġexplic it
g ical
Ġfoug h
Ġfough t
ĠGloba l
ĠWil d
ĠKen t
Ġfriend l
Ġ4 00
Ġpet it
Ġtax p
Ġtaxp a
ĠGi ve
Ġtaxpa y
ĠSea s
ĠWis c
Ġdiscipl in
Ġadventur e
ĠI R
Ġmediu m
Ġfeeling s
ĠEx e
Ġfor u
Ġtheor i
ĠAs t
ĠOr i
ĠGuardi a
Ġsix t
ĠBef o
ĠDevelop m
ĠDevelopm e
ĠDevelopme n
Ġforu m
ĠDevelopmen t
ĠBatt le
ĠOt t
Ġfestiv a
Ġpropa g
Ġflo a
Ġfestiva l
ĠBefo re
ĠMass a
Ġfloa t
ĠFoo d
Ġsho e
ĠPa y
Ġphras e
Ġcopi e
Ġsanction s
Ġpoll u
Ġperce i
Ġeno r
Ġpercei v
Ġcite d
Ġstation s
Ġpollu t
Ġcontract s
Ġcomment a
Ġrare l
Ġrarel y
Ġpropag a
Ġexter n
Ġcasu a
ĠTechno l
Ġtaxpay e
ĠPolic y
Ġtaxpaye r
Ġtun e
Ġanaly z
Ġgat e
Ġcasua l
Ġrecommend a
ĠFina n
ĠFoo t
Ġine v
Ġexpectation s
Ġco w
Ġinev i
Ġsta l
Ġinevi t
Ġinevit a
Ġcamera s
Ġinevita b
Ġshortl y
Ġkn i
Ġrecommenda t
Ġrecommendat i
Ġrecommendati o
Ġrecommendatio n
Ġtensi o
ĠKe r
Ġtensio n
Ġenor m
ĠWisc on
ĠCro w
ĠWiscon s
ĠIrani a
ĠTechnol o
ĠIrania n
ĠTechnolo g
Ġstab l
ĠWiscons in
Ġrepr o
Ġalg o
ĠV ide
Ġvac a
Ġrece p
Ġbull e
Ġinsist e
Ġracis t
Ġfirm s
ĠPhila de
Ġrecep t
ĠRa p
Ġshop p
Ġscr u
Ġmilitan t
Ġsubstan c
ĠNav y
Ġbulle t
ĠPhilade l
Ġnominat i
Ġclo c
ĠPhiladel p
Ġsubstanc e
ĠPhiladelp h
Ġconspir a
Ġdesperat e
ĠAla b
d ling
ĠAb b
ĠS S
ĠPhiladelph i
Ġdeta in
Ġing r
Ġregiste r
ĠPhiladelphi a
Ġpremi e
Ġdict a
Ġadvertis i
Ġadvertisi n
Ġadvertisin g
Ġcloc k
Ġacce l
ĠFinan c
Ġinsig h
Ġinsigh t
ĠGi r
Ġcere m
Ġassess m
Ġpro l
Ġassessm e
Ġassessme n
Ġpriorit y
Ġassessmen t
Ġcerem o
Ġceremo n
ĠTa m
ĠSant a
Ġups e
ĠRog e
ĠGuardia n
ĠAlab a
Ġaccel e
ĠPo in
Ġstabl e
Ġaccele r
ĠRang e
Ġwide s
ĠBar r
Ġnominati o
Ġnominatio n
Ġbrut a
Ġbruta l
dimen s
Ġparam e
dimens i
Ġdicta t
ĠHenr y
Ġaffi l
dimensi on
Ġgain e
ĠP O
ĠCe l
Ġactiv a
Ġaffil i
Ġaffili a
Ġshee t
Ġaffilia t
Ġconsidera t
Ġextern a
Ġactiva t
ĠBul l
Ġexterna l
Ġcannab i
Ġcreate s
Ġstrike s
Ġlai d
Ġsta d
Ġtranslat e
Ġupse t
Ġbehavi ou
Ġdozen s
Ġsor r
Ġcolo u
Ġbehaviou r
Ġutil it
ĠE v
Ġform u
Ġcomputer s
Ġarchitect u
Ġtortur e
ĠLat e
Ġarchitectu r
Ġformu l
ĠBe e
Ġgen t
Ġbeha l
Ġgenu in
Ġclub s
Ġunco m
ĠES P
ĠVide o
. -
Ġalgo r
Ġfounde d
Ġgenuin e
Ġresto re
Ġscor in
ĠJudg e
Ġbehal f
Ġscorin g
Ġgea r
ĠAlaba m
o gical
Ġy ie
Ġ 00
ĠFal l
Ġyie l
Ġalgor i
Ġformul a
Ġalgori t
ĠAlbe rt
Ġagri c
Ġstad i
Ġback s
Ġtol e
Ġalgorit h
Ġremind e
ĠAr g
Ġoutr a
Ġswin g
Ġre e
Ġfau l
Ġalgorith m
Ġgaine d
Ġadvise r
Ġlegitima t
Ġfaul t
Ġepisode s
Ġtole r
Ġconsidera b
Ġbasket b
Ġele v
Ġpum p
Ġbasketb a
Ġbasketba l
Ġbasketbal l
ĠSpe a
Ġconsiderab l
Ġrepli e
ĠSno w
Ġmanufactu r
ĠInfo r
Ġtoler a
Ġmanufactur ing
Ġgra t
Ġenorm ou
Ġenormou s
ĠCent re
ĠD ic
ĠThre e
ĠA a
Ġelev a
Ġseem in
Ġseemin g
Ġperceiv e
ĠConfe re
Ġneut ra
Ġagric u
Ġpri z
Ġagricu l
ĠConfere n
Ġagricul t
ĠConferen c
ĠTem p
Ġneutra l
Ġunfo rt
ĠGu n
Ġagricult u
Ġagricultu r
Ġtowe r
ĠB E
Ġeleva t
ĠLea de
ĠConferenc e
Ġfrac t
Ġrelie f
Ġfilte r
ĠRadi o
ĠAlabam a
Ġunfort u
Ġunfortu n
Ġang l
Ġphilosoph y
Ġunfortun a
Ġunfortuna t
ĠCa b
ĠCommun it
Ġunif o
ĠSa c
Ġunifo r
ĠLeade r
Ġremark a
Ġperce p
Ġremarka b
Ġunfortunat e
Ġsave d
Ġremarkab l
ĠDou g
ĠViet n
ĠVietn a
Ġevol ve
Ġden s
ĠZealan d
l ogical
ĠKing d
Ġflex i
Ġlegitimat e
ĠRev ie
ĠPh a
Ġpercep t
Ġas y
ĠKingd o
ĠAb ou
Ġpriz e
ĠLib y
ĠThu s
Ġwe d
n while
a nwhile
Ġfe n
e anwhile
M eanwhile
ĠM E
ĠRev o
ĠRevie w
ĠCub a
ĠMo h
ĠManc he
Ġstadi u
ĠKingdo m
Ġbor r
Ġblas t
Ġsumm a
ĠSain t
Ġfail in
Ġstadiu m
Ġfoot a
ĠFre d
Ġfailin g
Ġfoota g
Ġfootag e
ĠLiby a
Ġpetit i
Ġrank ing
Ġnu rs
Ġpetiti on
Ġdep i
Ġdemocrati c
ĠCom me
Ġborr o
Ġstruggl in
ĠPoin t
Ġstrugglin g
Ġborro w
ĠDi d
Ġlands c
Ġlandsc a
Ġlandsca p
Ġpresu m
ĠAdministrati o
Ġfa b
ĠAdministratio n
Ġperp e
Ġrecognize d
Ġcannabi s
ĠManche s
Ġbanne d
Ġdecla r
Ġsponso r
Ġ5 3
ĠA z
ĠManches t
ĠManchest e
ĠMancheste r
Ġdepi c
Ġdepic t
Ġcircu l
Ġsca re
Ġethn ic
Ġbelief s
Ġcircul a
Ġdesc e
ĠL ine
Ġsmoot h
Ġdesce n
ĠBri d
ĠMus e
ĠHa y
Ġregist r
Ġdepo s
Ġsacr i
Ġ196 0
Ġcontain in
Ġbacke d
Ġcontainin g
Ġrati o
Ġtransg e
Ġtransge n
Ġconsiderat i
Ġship s
ĠDie g
ĠV R
ĠMan n
Ġconsiderati on
Ġlike d
ĠReu t
ĠDiv is
ĠMajo r
Ġenter ing
ĠHa ve
Ġred e
Ġ- >
Ġrea r
Ġgon n
ĠDo e
Ġachieve d
Ġdeli b
Ġacceler a
ĠAtlant a
Ġala r
Ġgonn a
Ġfla w
Ġdelib e
Ġdelibe r
Ġdeliber a
Ġfis c
Ġwall s
Ġdelibera t
Ġdiscriminat i
Ġnav i
Ġdestructi on
Ġac i
Ġfarmer s
Ġalar m
Ġslid e
Ġinevitab l
Ġaudi t
Ġpray e
ĠJas on
ĠGa n
Ġinco n
ĠDivis i
ĠRevo l
Ġunivers a
Ġaccount a
Ġuniversa l
Ġfisc a
Ġflexi b
ĠAcadem y
Ġoutra g
ĠPa g
ĠDieg o
Ġfisca l
Ġintegrat e
ĠMu n
Ġdiscriminati o
Ġdiscriminatio n
ĠLy n
Ġseg m
Ġsegm e
Ġsegme n
Ġ199 8
Ġsegmen t
ĠReut e
ĠNo b
Ġbroad e
Ġinterview s
ĠAnt on
Ġunder l
Ġcolon i
Ġcreat o
Ġaccelera t
Ġlanguage s
ĠBern ie
ĠWal t
Ġcreato r
Ġbare l
Ġpropo r
Ġbarel y
Ġcollaborat i
Ġaci d
________ ________
Ġoutrag e
Ġso i
ĠDe b
ĠBu i
Ġteam m
ĠLit t
Ġteamm a
ĠConn e
Ġteamma t
Ġteammat e
Ġbeg u
Ġstu p
Ġsal t
ĠBre a
ĠDivisi on
Ġeu r
ĠY O
Ġprove n
Ġincen t
ĠU C
Ġstructure s
ĠGia n
Ġpropor t
Ġfore v
Ġba i
Ġmai l
Ġproport i
ĠHea d
Ġforev e
Ġforeve r
Ġproporti on
Ġconten d
Ġdon o
Ġdeliver y
ĠTh i
Ġdisc re
Ġto x
ĠMexic a
ĠP s
ĠFe l
Ġincent i
Ġincenti v
ĠPer h
Ġprocess in
Ġforg o
Ġco g
Ġste m
Ġprocessin g
ĠAct ion
ĠPerh a
Ġcontaine d
Ġprint e
Ġuncle a
Ġsacri f
ĠInde p
Ġchalleng in
Ġchallengin g
Ġsacrif i
ĠKan s
Ġspr a
ĠPerha p
Ġdono r
Ġsacrifi c
ĠIndep e
Ġsimul a
ĠPerhap s
Ġreliab l
ĠIndepe n
ĠReute rs
Ġcur i
Ġdisp a
Ġeur o
Ġflav o
Ġinterf e
vel y
ĠHarr y
Ġinterfe r
Ġsilen c
ĠSte e
ĠTurk is
Ġune x
ĠFai r
ĠBrid g
Ġso p
Ġconvict e
Ġconvicte d
ĠFie l
ĠMa la
Ġ( âĢ
Ġclot h
ĠW I
ĠMassa c
ĠEn v
Ġcompe l
Ġweak e
ĠBr y
ĠBui l
Ġproduc in
Ġproducin g
ĠVan c
Ġpers is
Ġpersis t
ĠAbou t
ĠMinist r
ĠIndepen de
ĠIndepende n
Ġparti a
ĠTurkis h
inar y
Ġbow l
Ġpartia l
Ġrestriction s
ĠMexica n
Ġretire d
Ġsumma r
ĠFun d
ĠKans a
Ġnavi g
ĠTa b
Ġnavig a
ĠCit i
Ġreb o
Ġpreserv e
Ġask s
ĠS O
ĠMayo r
Ġindicate d
vide d
Ġrecogni t
Ġrecognit i
Ġamend m
Ġamendm e
Ġamendme n
Ġamendmen t
ĠAlle n
Ġnec k
Ġrecogniti o
Ġdevo t
Ġrecognitio n
Ġtox i
Ġprev a
Ġequal l
Ġrapid l
Ġrapidl y
ĠBran d
Ġdist u
ĠCir c
Ġtho r
Ġfantas t
Ġreview s
Ġcorporation s
ĠChristian s
Ġsuggest in
Ġsuggestin g
Ġ5 4
ĠFu rt
ĠCha i
Ġfantast i
Ġdistu r
Ġbegu n
Ġdistur b
ĠH D
Ġbai l
Ġblock e
Ġbranc h
Ġfantasti c
ĠSeas on
ĠReco r
Ġdepress i
Ġcab in
¸ Ð
ĠIc e
ĠSqua re
ĠInfor ma
ĠAut o
Ġelector a
Ġangl e
ĠBridg e
ĠCha p
Ġlandscap e
Ġnormal l
Ġcuri o
Ġnormall y
Ġpil l
ĠEx t
Ġwides p
Ġperpe t
Ġequall y
Ġwidesp re
Ġwidespre a
Ġwidesprea d
ĠO K
Ġun in
Ġ201 9
ĠIntel l
Ġconspira c
Ġintroduc t
Ġlisten in
ĠTy p
Ġlistenin g
ĠBe i
Ġticket s
Ġbur d
ĠVil la
Ġpass a
Ġreach in
Ġreachin g
Ġattach e
ĠMcCa in
ĠLin d
Ġseiz e
Ġtrans c
ĠGu l
ĠIntell i
ĠCle a
Ġgras s
Ġdele t
ĠSim p
Ġwebsite s
ĠBa b
Ġburd e
Ġfriendl y
Ġtransgen d
Ġtransgend e
Ġtransgende r
ĠAN D
Ġcharacteris t
Ġburde n
Ġpipe l
Ġje t
Ġcharacterist i
Ġcharacteristi c
Ġpipel in
ĠContinu e
ĠH E
Ġsoi l
Ġfrequen c
Ġscre a
ĠNex t
Ġscrea m
ĠCom ma
ĠHo o
Ġfra g
ĠPenn s
Ġnaviga t
Ġpol y
Ġtable t
Ġpublishe r
i ble
ĠTen n
Ġcampaign s
Ġsimula t
ĠUF C
Ġcau t
ĠLin k
Ġcareful l
Ġviewe rs
Ġprec e
Ġterrorist s
Ġpipelin e
Ġwel f
Ġten t
Ġwelf a
Ġsa u
Ġreplace m
Ġreplacem e
ĠWal ke
Ġreplaceme n
Ġreplacemen t
Ġshou t
Ġunifor m
Ġcarefull y
ĠDes i
Ġration a
Ġinc u
Ġrationa l
Ġpresc r
Ġprescr i
Ġappoint e
Ġexce e
Ġreduc in
Ġreducin g
Ġunclea r
ĠNA T
ĠUn f
Ġchr on
Ġdemonstrat i
Ġsensitiv e
ĠOn t
ĠKansa s
ĠFurt he
ĠG le
ĠBeac h
Ġshi r
Ġwelfa re
ĠFurthe r
Ġoverwhelm i
Ġoverwhelmi n
ĠPenns y
Ġoverwhelmin g
Ġspect r
ĠBro t
ĠHea t
ĠFree d
ĠPo t
ĠO N
Ġrespective l
Ġpercept i
ĠPennsy l
Ġrespectivel y
ĠComma n
ĠPennsyl v
Ġscore s
ĠPennsylv a
ĠPennsylva n
Ġexe m
Ġdeva s
ĠAB C
Ġexem p
ĠPennsylvan i
ĠPennsylvani a
ĠTo o
Ġcommande r
ĠESP N
ĠNS A
ĠBi o
ĠProfess o
Ġformat i
Ġdeput y
Ġcaut i
Ġextrem i
ĠFiel d
ĠTa i
ĠAn i
ĠCo re
Ġpack e
Ġbla n
Ġthrow n
Ġgl u
ĠElect r
Ġchick e
Ġunex p
Ġchicke n
ĠHos p
Ġconvince d
Ġfeatu r
ĠSch u
Ġlist s
ĠTho m
ĠLitt l
Ġportra y
Ġcalculat e
ĠLittl e
Ġfeatur in
ĠRe e
Ġgather e
Ġlen d
Ġdevas t
Ġfeaturin g
Ġunder m
ĠInforma t
Ġcrypt o
ĠPr ic
Ġconnection s
Ġtro p
Ġvar y
Ġdevast a
Ġeli g
ĠC H
ĠEconomi c
Ġel de
Ġcur v
Ġassum p
Ġgra ve
Ġdevasta t
Ġassump t
Ġassumpt i
Ġconcer t
Ġelig i
ĠRos s
Ġassumpti o
Ġassumptio n
ĠBre w
ĠNa n
Ġunderg r
ĠMil l
Ġeligi b
Ġann i
Ġcarrie r
Ġdeepe r
Ġcolou r
Ġswe a
ĠCle ve
ĠO w
Ġfantas y
ĠCo de
ĠS H
Ġstatistic s
ĠEva n
ĠA k
ĠUl t
Ġ9 5
Ġcen s
ĠColumb i
Ġtweet e
ĠSta d
ĠGo v
ĠColumbi a
Ġfort u
Ġunemploy me
Ġunemployme n
ĠMa h
Ġunemploymen t
ĠPa p
Ġimprovement s
Ġany b
Ġindependen c
ĠLe on
Ġjoin in
Ġanyb o
Ġanybo d
u sical
Ġspirit u
Ġimplement e
Ġjoinin g
Ġunderm in
Ġanybod y
ĠGaz a
Ġdemonstrati on
Ġcomplaint s
Ġmake r
Ġclot he
Ġrende r
Ġbarri e
Ġwar s
ĠJon a
ĠKi r
Ġgu it
Ġdetect i
Ġbarrie r
Ġguit a
Ġindependenc e
Ġbre e
Ġj i
Ġguita r
Ġsub u
Ġeast e
ĠMinistr y
ĠNe ver
Ġeaste r
ĠLe v
Ġsubmit t
ĠTa r
Ġspiritu a
Ġspiritua l
Ġsubject s
Ġscreen s
Ġscholar s
Ġrenew a
ĠTow n
Ġjur y
ĠInformat i
ĠSam s
Ġoutl in
Ġstup i
ĠF R
Ġingr e
ĠFe s
ĠChec k
Ġtouch d
Ġtouchd o
Ġtouchdo w
Ġtouchdow n
ĠZ u
Ġstupi d
Ġexc u
Ġtraine d
Ġarm o
Ġeconomi s
Ġincor p
Ġsociali s
Ġincorp o
Ġincorpo r
Ġdiscover y
ĠMo on
Ġgathere d
Ġcontrovers y
Ġfear s
ĠInformati on
Ġimplemente d
ĠIntelli g
Ġcomprehen s
Ġcomprehens i
Ġwage s
Ġtre m
ĠBrot her
F inal
Ġcapt a
Ġtheat e
Ġvers u
Ġdistinct i
ĠA rs
Ġtheate r
Ġspect a
ĠMuse u
ĠIntellig e
ĠIntellige n
ĠProte c
ĠHosp it
Ġleg s
ĠHospit a
Ġsham e
ĠX b
ĠHospita l
Ġeconomis t
Ġrecommend e
Ġcapta in
ĠOpera t
Ġw w
Ġserve s
ĠProtec t
ĠMuseu m
Ġsilenc e
ĠSe l
Ġsco p
ĠMedica l
Ġgri d
ima t
Ġsop h
Ġneighb ou
Ġimplicat i
Ġincorpor a
ĠCommunit y
Ġflavo r
Ġneighbou r
Ġdepos it
Ġcal m
Ġimplicati on
Ġtom o
Ġabsen c
Ġabsenc e
Ġjudg me
Ġjudgme n
Ġjudgmen t
Ġtele p
ĠII I
Ġreferr in
Ġreferrin g
ĠSi r
ĠAcc e
Ġtemporar y
Ġincorpora t
Ġversu s
ĠDoc t
ĠMatt he
Ġ199 6
ĠXb o
ĠO ra
Ġfat a
Ġtrac e
ĠCamer on
Ġsh in
Ġaware n
Ġawaren e
Ġawarene s
Ġawarenes s
Ġrecommende d
ĠBar b
ĠXbo x
Ġinfectio n
ĠGol de
Ġexecuti on
Ġfund e
Ġsymptom s
Ġtask s
Ġplatform s
Ġtesti m
Ġrepro d
Ġreprod u
Ġexpan de
Ġaid e
Ġ5 6
Ġremark s
Ġcompo u
Ġcompou n
Ġtestim o
Ġcompoun d
Ġtestimo n
Ġfire a
ĠRevol u
ĠProfesso r
Ġattempt i
ĠPatric k
Ġattempti n
Ġattack i
Ġattemptin g
Ġso a
Ġreprodu c
Ġattacki n
Ġattackin g
ĠBel l
n dling
ĠVega s
Ġdiscussion s
ĠDe e
Ġconven i
Ġspa n
Ġvisitor s
Ġbu re
Ã ¢
m usical
ĠPen t
Ġfata l
Ġconveni e
Ġconvenie n
Ġdesign a
ĠL I
Ġfirea r
Ġpresent a
Ġfirear m
Ġcommission e
Ġspace s
ĠAnth on
Ġsample s
Ġbure a
ĠR h
Ġpassa g
Ġww w
Ġra w
ĠLis t
Ġdesigna t
Ġingre d
Ġingred i
Ġentertain m
Ġentertainm e
Ġcivilian s
Ġentertainme n
Ġentertainmen t
ĠMatthe w
Ġburea u
Ġingredi e
Ġingredie n
Ġefficien c
Ġingredien t
a ndling
Ġexpande d
Ġprefe re
Ġshir t
Ġpassag e
ĠKn i
Ġmete r
ĠFe d
ĠWalke r
Ġground s
Ġec h
ĠRecor d
Ġfortu n
Ġari s
Ġcounter p
Ġenc r
ĠCu l
ĠHar d
ĠRevolu t
ĠG T
ĠAnthon y
ĠGolde n
ĠEnv i
Ġprete n
Ġparame t
ĠF le
Ġattache d
Ġstee l
ĠPhilip p
Ġbri l
ĠM M
ĠHa t
Ġsetting s
Ġpen s
ĠBalt i
Ġchee r
ĠRevolut ion
ĠBud d
Ġeaster n
Ġdiss e
ĠNor w
Ġprefere n
Ġsubu r
ĠFes t
Ġrank e
Ġbril l
Ġsubur b
ĠD I
Ġpurchase d
Ġdetain e
Ġslo t
Ġ199 7
Ġbu c
Ġextremi s
Ġout f
Ġ âĤ¬
ĠKenne d
Ġsorr y
ĠHistor y
Ġaffair s
ĠAust in
ĠKenned y
ĠN int
Ġsuspect e
ĠStad i
ĠEnvi r
Ġknoc k
Ġsuspecte d
Ġsuspend e
ĠBalti m
Ġtweete d
ĠSta rt
Ġfactor y
ĠBaltim o
ĠBro a
ĠBaltimo re
Ġranke d
Ġbrill i
Ġlitera t
Ġdisappea r
Ġ7 2
Ġbrilli a
Ġbrillia n
Ġclos in
Ġclosin g
Ġfall e
Ġbrother s
Ġinc a
Ġcertifi c
Ġforgo t
Ġactor s
Ġno de
à ¤
Ġcertific a
ĠB C
Ġviewe d
Ġpercepti on
Ġradi a
Ġswo r
Ġcertifica t
Ġag i
Ġbur i
Ġmandat e
Ġmas k
ĠMassac h
ĠSa b
ĠMassach u
Ġrace s
Ġ musical
ĠMassachu s
h andling
ĠGree c
ĠGreec e
a ding
Ġafford a
ĠEnvir on
Ġdivers it
ĠCB S
Ġembar ra
Ġseeming l
Ġembarra s
Ġseemingl y
Ġrepai r
ĠSuc h
ĠMassachus e
ĠMassachuse t
Ġstrengt he
Ġstrengthe n
ĠStud i
Ġqualif ie
Ġtomo r
ĠMassachuset t
Ġfalle n
Ġopinion s
Ġma d
Ġdistr a
Ġcoache s
Ġtomor r
ĠTra de
ĠJen n
Ġoverc o
Ġtomorr o
Ġembarras s
Ġtomorro w
ĠLoc a
ĠMoh a
ĠTe l
Ġami d
Ġconcentrat i
ĠG D
ĠH A
Ġdisp e
Ġtwi s
ĠMassachusett s
Ġsalar y
Ġtwis t
Ġdiversit y
Ġbar s
ĠChai r
Ġaccessi b
Ġconcentrati on
ĠBroa d
ĠEven t
Ġscop e
Ġspokes p
ĠStadi u
Ġpresenta t
Ġspokesp e
ĠStadiu m
ĠSwe de
Ġcover s
ĠUnf o
Ġtu b
Ġsustain a
Ġpraye r
Ġsustaina b
Ġtransport a
ĠBlo c
Ġstay e
Ġreferen d
ĠMa p
Ġbu m
ĠI M
Ġexplosi on
Ġoffice s
Ġpresentat i
Ġimagin a
Ġful f
Ġgar de
Ġpresentati o
Ġpresentatio n
Ġsuspende d
Ġfulf i
Ġea g
Ġfulfi l
Ġadvocate s
ĠCapit a
Ġcontaine r
Ġabs t
ĠBu n
Ġfos s
Ġstaye d
ĠStudi o
Ġafforda b
ĠBan g
Ġimpressi o
Ġimpressio n
ĠTe d
Ġali g
ĠMit c
Ġconspirac y
ĠEng ine
ĠBr on
ĠDu b
Ġprovider s
ĠLibe rt
Ġcog n
Ġpa d
ĠMor r
ĠCol l
Ġbu f
Ġpaper s
ĠMars h
Ġend u
ĠSupp o
ĠIll in
ĠHu g
Ġshel t
Ġ9 9
ĠLew is
ĠHow a
Ġconvict i
Ġshelt e
Ġconvicti on
Ġshelte r
Ġsil v
Ġech o
ĠW W
ĠCon c
ĠAnders on
Ġdepressi o
Ġdepressio n
ĠDa ve
d inary
r dinary
Ġauth e
ĠN P
Ġpor n
Ġformati on
Ġtransporta t
Ġauthe n
Ġtransportat i
Ġtransportati o
Ġtransportatio n
Ġthrow i
Ġauthen t
Ġauthent i
ĠPric e
Ġprece d
Ġthrowi n
Ġconsistent l
Ġconsistentl y
Ġauthori z
ĠHam i
Ġsilv e
ĠLo g
ĠRese r
Ġthrowin g
Ġauthenti c
Ġdisab l
i vided
Ġdepend s
Ġbarre l
Ġsuper i
Ġaddresse d
Ġbes i
Ġposte r
Ġparamet e
ĠSh u
Ġcolor s
Ġparamete r
Ġpersonalit y
Ġstra in
ĠE T
Ġlega c
ĠEmp i
ĠPit t
ĠIn v
Ġcompos e
Ġconfigu r
Ġinflat i
ĠPatr i
Ġinflati o
Ġinflatio n
ĠEnviron m
Ġlea n
ĠEnvironm e
Ġcover in
ĠEnvironme n
ĠDre a
ĠFreed o
ĠEnvironmen t
Ġclassifi e
ĠSte a
Ġreve l
Ġcoverin g
Ġunl o
Ġ5 7
Ġcommunicat e
ĠMem o
Ġinfa n
Ġread s
Ġsilve r
Ġreferend u
Ġreferendu m
ĠVanc ou
Ġnot ing
ĠVancou v
ĠVancouv e
ĠVancouve r
Ġclothe s
Ġgarde n
Ġchee s
Ġsea l
ĠFreedo m
ĠMag ic
ĠWh ic
Ġmanu a
d ivided
Ġbox e
ĠChang e
ĠMount a
: "
Ġmanua l
Ġwhere a
Ġconversation s
ĠMounta in
ĠShe l
Ġg y
Ġgen o
d fiel
Ġpredict i
ĠC R
Ġspeak s
Ġfoss i
Ġgain s
Ġprofit s
Ġparal l
Ġfossi l
. ]
Ġincentiv e
Ġdismiss e
Ġgen re
ĠIntelligen c
Ġ8 5
ĠBu re
Ġproto c
ĠIntelligenc e
ĠDrag on
Ġbuc k
ĠFig h
ĠFigh t
? )
ĠCoo k
Ġc in
Ġtrie s
ĠCleve l
o rdinary
Ġteenage r
Ġastro n
ĠFami ly
Ġ9 1
Ġtril l
ĠPre v
ĠUnfo rt
Ġ12 0
ĠClevel a
ĠClevela n
ĠClevelan d
ĠGovern o
ĠUnfort u
Ġindicat i
Ġsuper v
Ġfli p
Ġwre s
ĠAnn a
ĠHowa r
ĠUnfortu n
i dfiel
ĠHowar d
Ġwres t
ĠUnfortun a
ĠUnfortuna t
ĠPas s
Ġstarte r
ĠPro v
ĠIllin o
ĠIllino i
ĠIllinoi s
Ġcontribution s
Ġincident s
ĠUnfortunat e
Ġ handling
ĠGoverno r
Ġaccom m
ĠR O
Ġaccomm o
Ġaccommo d
Ġaccommod a
Ġaccommoda t
Ġqu i
Ġmark s
Ġprotoc o
Ġprotoco l
Ġimpe r
Ġprincip a
Ġla k
s ions
ĠTri b
Ġrai d
Ġbac t
ĠPo la
ĠCre d
Ġadopt i
Ġcha o
Ġpe s
Ġspokespe r
Ġmap s
Ġclea re
Ġspokesper s
ĠW on
Ġspokespers on
Ġad e
Ġprincipa l
ĠBu f
Ġbact e
Ġconvention a
Ġconventiona l
Ġencourage d
Ġrank s
Ġfi b
Ġent ra
Ġspoke n
Ġout d
Ġto y
Ġintroduct i
Ġintroducti o
Ġyell o
Ġintroductio n
Ġpromise s
Ġyello w
ĠBer l
Ġbacte r
Ġtrill i
Ġswi m
Ġoverco m
ĠCal l
Ġmani f
Ġdonat e
Ġvaria t
Ġbacter i
Ġboo m
ĠLi ver
Ġpaint in
ĠUnfortunate ly
Ġ divided
ĠRe i
Ġpaintin g
ĠW H
ĠBre n
ĠEmpi re
Ġjudge s
Ġvariat ion
Ġtrilli o
Ġtrillio n
Ġpremi u
Ġmine r
â Ķ
Ġpremiu m
Ġyiel d
Ġtime l
Ġbrow n
Ġsuperv i
Ġcheck s
Ġsli c
Ġbuf f
ĠWhic h
Ġextra o
r olle
ĠCri me
Ġnut r
ĠIraq i
ĠBo e
Ġaccounta b
ĠTa s
ĠPlu s
Ġindu c
Ġep i
ĠGett y
ĠMar ve
Ġextrao r
Ġthre w
ĠEa g
Ġextraor d
ĠCapita l
Ġeas e
Ġsent i
ĠAnt i
Ġ5 8
Ġextraord in
Ġconsen s
Ġimprov ing
Ġextraordin a
Ġrepea l
Ġliterat u
Ġto k
ĠCos t
Ġminist r
Ġefficienc y
Ġinterview e
Ġdistribute d
Ġbrea c
Ġinter s
Ġmer g
Ġtwent y
Ġliteratu re
Ġconsens u
ĠOl i
ĠInde e
ĠIndee d
Ġcogn i
ĠMic he
ĠSon y
ĠDesi g
Ġtemperature s
ĠWith o
ĠNe v
ĠWitho u
Ġacknowledge d
ĠWithou t
ĠDesig n
ĠDo l
Ġanxi e
Ġanxie t
Ġkey s
ĠMarve l
Ġachieve m
Ġachievem e
Ġachieveme n
Ġachievemen t
ĠPhoto s
Ġsme l
Ġ lying
Ġpass w
Ġparall e
Ġresponse s
Ġcomed y
Ġparalle l
Ġ199 5
ĠExe c
Ġprotect in
Ġpriorit i
Ġarriv a
Ġbrew e
Ġint a
Ġbreak s
Ġprotectin g
ĠChe l
Ġrepresentati o
Ġrepresentatio n
ĠConne c
ĠBel g
ĠSou r
ĠConnec t
ĠDo m
ĠSams u
Ġexcu s
Ġlegac y
ĠSomet i
ĠSometi me
Ġva g
Ġne o
m idfiel
Ġcurv e
ĠCart e
Ġcompos i
ĠSamsu n
Ġlet s
ĠNAT O
Ġf on
Ġabandon e
ĠBa d
Ġabr o
Ġcompetit o
Ġcompetito r
Ġver t
Ġ6 2
Ġbot he
Ġcomposi t
Ġabandone d
Ġusa g
ĠHin d
Ġbothe r
Ġusag e
Ġpassw o
Ġpasswo r
ĠVictor i
Ġjo y
Ġpasswor d
ĠFoot b
ĠSamsun g
ĠGat e
Ġmembers h
Ġmembersh i
Ġmembershi p
Ġisolat e
ĠJes s
ĠB is
ĠNO T
ĠJan e
Ġtrai t
Ġpassenger s
Ġarriva l
Ġforec a
Ġforeca s
Ġforecas t
ĠFootb a
Ġsurviv a
Ġ ordinary
Ġlen s
Ġpropaga n
Ġalig n
Ġconfigur a
ĠFootba l
Ġpropagan d
Ġcheap e
Ġstart u
Ġstartu p
Ġp on
ĠSou n
o lling
Ġspeculat i
Ġconc re
Ġexh a
Ġcommon l
ĠDea t
ĠKon g
Ġcommonl y
Ġdivers e
ĠMO R
Ġel a
Ġconcre t
Ġinterc e
ĠHar v
Ġdemonstrate d
Ġcopie s
ĠInd u
ĠJul i
Ġshort e
Ġstole n
Ġprov o
Ġqualif y
Ġconfus e
Ġutil i
Ġshak e
ĠGala x
Ġsuperi o
ĠFr on
Ġnationali s
ĠCoo p
Ġemp i
ĠSim on
Ġfunde d
Ġland ing
Ġ midfiel
Ġfall s
Ġmagn e
ĠBuf f
ĠLabo r
ĠVa r
Ġutili z
ĠDoe s
ĠSc he
ĠAb u
ĠRe m
ĠW y
Ġnatural l
Ġ(âĢ ľ
Ġton i
Ġfir in
Ġches t
Ġnaturall y
Ġstrik in
Ġacquire d
Ġfirin g
Ġstrikin g
ĠWol f
Ġextraordina r
Ġdisciplin e
Ġsuperio r
Ġcredi b
Ġ18 0
Ġstudie d
ĠRec e
ĠCu s
Ġtouris t
Ġadmi r
ĠFe a
Ġmeasure d
Ġgather i
Ġgatheri n
Ġgatherin g
Ġbu b
ĠTrea s
Ġmaintain e
ĠS I
Ġdestin a
Ġtransaction s
Ġequal it
Ġsacrific e
Ġcompel l
Ġride r
ĠBib le
Ġna i
Ġcount s
ĠSoun d
ĠUt a
Ġce a
Ġanimat i
Ġelde r
ĠOnt a
ĠS U
ĠOri g
Ġinterfer e
Ġartif i
Ġartifi c
ĠNe a
Ġclose s
Ġmarc h
Ġtip s
ĠRo l
ĠAtlant ic
Ġsupervi s
Ġinsiste d
ĠL ion
ĠHa v
Ġstage s
Ġske p
Ġfat e
Ġdestina t
ĠOnta r
Ġreplie d
ĠExec u
ĠCred i
Ġvacc ine
ĠOntar i
Ġcapabilit i
ĠSi x
Ġcapabiliti e
Ġcapabilitie s
Ġbin d
Ġinterpret a
Ġtim i
ĠAm b
Ġmat he
Ġar b
Ġa x
Ġskep t
ĠExecu t
Ġskept i
Ġarchitectur e
Ġbomb in
Ġdiscou r
Ġrepresent in
Ġdestinat i
Ġbombin g
Ġrepresentin g
Ġanalyz e
Ġskepti c
Ġdestinati o
Ġdestinatio n
Ġtok e
Ġ âĢ¢
Ġmathe m
ĠFron t
Ġgi g
Ġtrack i
ĠEag le
ĠVictori a
ĠFootbal l
ĠP D
Ġmathem a
Ġdistra c
Ġconcret e
Ġb is
Ġpresiden c
Ġtracki n
Ġdistrac t
Ġmathema t
Ġra g
Ġtrackin g
Ġsupplie s
Ġmathemat i
ĠLe f
ĠMiche l
Ġant h
Ġsup re
Ġdisp o
Ġperform in
Ġperformin g
Ġ6 1
ĠEma i
ĠDeat h
Ġmathemati c
Ġexcus e
ĠGir l
Ġpu p
ĠRe la
ĠL O
Ġunion s
ĠCou l
Ġracis m
Ġmel t
Ġconservative s
Ġuniversit i
Ġuniversiti e
Ġuniversitie s
Ġflow e
Ġproposal s
Ġ199 4
ĠKni g
Ġstr o
ĠScien t
Ġdeliberat e
Ġbrea s
ĠEmai l
Ġbreas t
Ġequalit y
Ġfasc in
Ġwrest l
ĠAuthor it
Ġcriticize d
Ġwater s
Ġdispo s
Ġcea s
Ġgra v
ĠStr i
ĠCor n
ĠBur n
Ġconsen t
ĠKnig h
ĠMaste r
ĠKnigh t
Ġfascin a
Ġlett in
Ġtravel l
ĠBure a
ĠBurea u
Ġsupre m
ĠSometime s
Ġtravel e
ĠSw it
Ġfascina t
Ġlettin g
Ġen l
Ġbeaut y
Ġshopp in
Ġcusto d
Ġshoppin g
ĠDen ver
Ġrequest e
Ġtoke n
Ġram p
Ġappointe d
ĠCoop e
Ġinterpreta t
ĠTo k
Ġpreferen c
Ġreliabl e
Ġinterpretat i
Ġterri f
ĠAm on
ĠOk la
Ġ202 0
ĠTreas u
ĠE b
Ġine q
Ġineq u
ĠOffice r
ĠGian t
Ġemphas i
Ġemphasi z
Ġthri l
ĠKee p
Ġretire m
Ġretirem e
Ġretireme n
Ġthril l
ĠGalax y
Ġretiremen t
Ġpreferenc e
ĠCredi t
ĠJe t
Ġabso r
ĠSl o
Ġdismisse d
Ġequa t
Ġabro a
Ġabroa d
ĠSto re
Ġdisabl e
Ġbub b
ĠCorp o
Ã Ĺ
Ġcongress i
Ġphenomen o
Ġcongressi o
Ġcongressio n
Ġcongression a
Ġcongressiona l
ĠRo me
Ġincom p
Ġbrea d
ĠWr it
Ġoutlin e
Ġarrange m
ĠV ice
Ġarrangem e
Ġarrangeme n
Ġarrangemen t
Ġvisit in
Ġup l
Ġbel l
Ġappearance s
Ġprob e
Ġvisitin g
Ġregulat e
Ġleve r
ĠAssociate d
ĠSil ve
Ġdelegat e
ĠMa u
ĠRa s
ĠPort la
Ġbubb l
Ġclassifie d
ĠMor g
ĠUta h
Ġsc u
ĠStand a
Ġinterpretati o
Ġcomprehensi v
Ġcomprehensiv e
ĠCo w
Ġweek l
Ġinterpretatio n
Ġpunish m
Ġpunishm e
Ġpunishme n
ĠProduc t
Ġpunishmen t
Ġentitle d
ĠDoct o
ĠPortla n
e time
Ġpresidenc y
ĠCorpo ra
Ġae r
Ġtrail e
Ġhero i
ĠPers on
Ġfollowe r
Ġcontrolle r
Ġ âĢĿ
ĠNon e
ĠNint e
ĠTechnolog y
Ġcrea m
ĠNinte n
ĠJust in
ĠTw e
Ġmanif e
Ġspokes w
Ġmanife s
Ġspokesw o
Ġspokeswo m
Ġmanifes t
Ġpatc h
Ġcenter s
Ġurge d
r iding
Ġ rolle
Ġblocke d
Ġclinic a
ĠOntari o
Ġclinica l
ĠNinten d
Ġreview e
d dit
Ġpopulation s
ĠSaf e
Ġartific i
Ġshi e
Ġphotograp he
ĠPag e
Ġba k
Ġ6 6
Ġspokeswom a
Ġspokeswoma n
ĠR is
ĠSwede n
ĠDrea m
Ġartifici a
Ġartificia l
ĠFu t
ĠRo t
Ġpredict e
Ġpredicte d
ĠRe l
ĠCl ic
ĠNintend o
ĠE f
Ġwhen e
Ġci g
Ġpolitical l
Ġwide r
Ġpoliticall y
Ġwhene v
Ġquestion e
Ġwhenev e
Ġwheneve r
ĠTrans p
Ġtarget i
Ġcorre l
Ġtargeti n
Ġtargetin g
ĠMo b
Ġsurviva l
ĠMe g
Ġpeace f
Ġcorrel a
Ġpeacef u
Ġpeacefu l
Ġcorrela t
Ġ ~
Ġsmel l
ĠPortlan d
Ġrequeste d
ĠT R
Ġquant it
Ġconfigura t
Ġtouch e
Ġinterce p
Ġpsycholog i
Ġintercep t
Ġchees e
Ġsco u
Ġtestimon y
ĠT E
Ġinse c
Ġfree l
ĠAu d
Ġcogni t
Ġperson s
Ġguide l
Ġguidel in
ĠPla t
Ġguidelin e
Ġpi g
ĠStanda r
ĠLiver p
Ġdeadl in
Ġdeadlin e
ĠStandar d
ĠIns i
Ġapproache d
Ġinclu s
imat e
Ġtoxi c
Ġkille r
ĠWar n
Ġconfigurat i
ĠBen g
ĠK it
Ġforc in
Ġconfigurati on
Ġsoc c
Ġcognit i
Ġforcin g
Ġintr i
Ġceas e
Ġpsychologi c
Ġsecond a
Ġrese m
ĠRobert s
Ġtranslat i
ĠOrgan i
Ġresem b
ĠP E
Ġentre p
Ġresemb l
Ġcig a
Ġrepresentative s
Ġtactic s
Ġemploye d
Ġpsychologic a
Ġpsychologica l
Ġsocc e
ĠKno w
Ġsocce r
Ġjump e
Ġsp y
Ġpopular it
Ġbrillian t
ĠLiverp o
ĠLiverpo o
Ġ25 0
Ġcontemp o
ĠLiverpoo l
ĠAlexand e
ĠAlexande r
ĠThe o
Ġcontempo r
Ġpopularit y
Ġrece s
Ġre u
Ġanni v
Ġstan c
Ġanniv e
Ġcontra d
Ġannive r
Ġja c
Ġseconda r
Ġanniver s
Ġannivers a
Ġreces s
Ġdisclos e
Ġanimati o
Ġanimatio n
ĠBuil d
Ġanniversa r
Ġcontrad i
ĠI d
Ġcontempor a
Ġsilen t
Ġinspir a
**** ****
ĠTh in
Ä ĥ
ĠHel l
Ġnon p
Ġpri e
Ġinclus i
ĠTh ing
Ġmeaning f
Ġmeaningf u
Ġmeaningfu l
ĠDe r
ĠOkla h
ĠOklah o
Ġthor o
ĠOklaho m
Ġstepp e
ĠHami l
ĠOklahom a
ĠIndu s
Ġbank in
Ġrestaurant s
Ġbound a
Ġbankin g
ĠMac h
Ġbounda r
Ġencr y
Ġthoro u
Ġthorou g
Ġencry p
Ġinspira t
Ġunexp e
Ġdesign s
Ġencryp t
Ġthoroug h
Ġenter p
Ġprisoner s
ĠBri g
Ġvaria n
Ġenterp r
ĠOrgani z
ĠK ra
ĠFa s
Ġcontradi c
ĠSour c
Ġenterpr is
Ġentrep re
Ġinspirat i
ĠDut c
Ġinspirati o
Ġinspiratio n
Ġentrepre n
Ġassur e
ici p
Ġaccus a
Ġremov a
Ġcontradic t
Ġunexpe c
Ġunexpec t
ĠGle n
Ġfocus in
ĠLa d
Ġregistr a
Ġfocusin g
ĠPent a
Ġentrepren e
Ġaccusa t
Ġentreprene u
Ġtesti f
Ġ6 3
Ġentrepreneu r
Ġbacteri a
Ġunexpect e
Ġexperiment s
Ġunexpecte d
Ġwed d
ĠClic k
ĠTi g
ĠSub s
Ġanonym o
ĠJer u
Ġanonymo u
Ġanonymou s
ĠSuppo rt
ĠAff a
ĠC C
Ġaffiliat e
Ġgeneration s
Ġattacke r
Ġproducer s
Ġchannel s
ĠJa m
ĠJeru s
Ġinfan t
ĠSilve r
Ġchron i
Ġabilit i
Ġoverse a
Ġserver s
ĠOc e
Ġabiliti e
Ġstabili t
Ġabilitie s
Ġprepar a
ĠJerus a
Ġphenomeno n
ĠBei j
ĠPu r
Ġdemand ing
Ġspeciali s
Ġkick e
Ġut t
ĠJerusa le
icip a
ĠJerusale m
Ġblan k
Ġentra n
Ġanxiet y
Ġair l
ĠCr y
Ġchroni c
Ġflag s
Ġoversea s
Ġsmok in
ĠG A
Ġbuy e
Ġsettle d
Ġsuc k
Ġbuye r
ĠAffa i
Ġactive l
ĠS ie
Ġchild h
Ġchildh o
Ġchildho o
Ġchildhoo d
Ġargue s
Ġemb e
Ġstun n
Ġprepar in
Ġactivel y
Ġpreparin g
ĠMary la
Ġgri p
ĠMaryla n
ĠPs y
ĠYO U
Ġslow e
ĠI v
Ġstanc e
Ġnos e
ĠBal l
Ġsu e
Ġsimpl i
ĠHa mp
Ġexplosi ve
Ġsubmitt e
Ġstabilit y
Ġpoe t
Ġweekl y
ĠOrig in
Ġmort a
ĠSourc e
ĠGor d
ĠHarv a
ĠBeij ing
Ġutt e
ĠLan g
Ġbit t
ĠJe a
ĠDutc h
ĠHarva r
ĠHarvar d
Ġmaintaine d
ĠObama c
Ġcav e
Ġprepara t
Ġwealth y
ĠGla s
Ġfoo l
ĠObamac a
Ġsearc he
ĠObamaca re
i zing
Ġpha r
ĠAmon g
Ġargu i
Ġaffordab l
Ġfulfil l
ĠAsse m
Ġargui n
Ġred i
Ġrelease s
ĠWar re
Ġarguin g
Ġdelet e
Ġsure l
Ġsurel y
Ġexha u
Ġexhau s
Ø §
Ġlegislati v
Ġexhaus t
ĠMem b
Ġspot s
Ġset u
ĠReser ve
ĠRed d
Ġprie s
Ġaccusat i
Ġanniversar y
ĠAssem b
Ġpens i
Ġpois on
Ġsecondar y
ĠA y
ĠWarre n
ĠRe b
Ġsaving s
ĠUn l
ĠNig e
Ġpartic l
Ġanticipat e
ĠSy d
ĠTra c
ĠBudd h
ĠWe i
Ġparticl e
Ġlegislativ e
ĠG on
Ġtitle d
ĠGra h
Ġpost in
Ġsymp a
Ġarb i
Ġradia t
Ġtransfer r
Ġpries t
ĠFil m
Ġreveal s
Ġsmokin g
Ġtoni g
Ġrein f
Ġarbi t
Ġtonig h
Ġsympa t
ĠPete rs
Ġtonigh t
ĠPla c
Ġsta m
Ġbroade r
Ġscra p
Ġrela x
ĠLe b
Ġsubmitte d
Ġoverl o
Ġsetu p
Ġ riding
ĠBru c
Ġquestione d
ĠMarylan d
Ġtu m
Ġwindow s
ĠCorpora t
Ġsuspen s
Ġinc he
Ġuncon s
ĠVa le
Ġcross e
ĠKur dis
ĠO x
Ġburn in
Ġdeadl y
f etime
i fetime
ĠSa v
ĠGrah a
Ġsort s
Ġaccusati o
Ġaward e
Ġaccusatio n
Ġ5 9
Ġtown s
Ġquote d
ĠPatri o
Ġburnin g
Ġrating s
ĠPatrio t
Ġexperiment a
ĠDic k
Ġkey b
ĠHar p
Ġreinf o
ĠAla s
Ġline u
Ġreinfo r
Ġlineu p
Ġerror s
Ġreinfor c
ĠFest i
s icia
Ġaffordabl e
ĠWor d
Ġbesi d
sicia n
Ġbesid e
Ġmort g
Ġmortg a
Ġmortga g
Ġbel t
ĠAr me
Ġdeli c
Ġbird s
Ġcircula t
Ġbutt e
ĠCont e
Ġregre t
ĠSa d
ĠGul f
Ġreform s
Ġalli a
Ġattracti v
Ġbeat in
Ġallia n
ĠMemb e
Ġattractiv e
Ġfl ou
ĠStor y
Ġthreaten i
Ġthreateni n
Ġ âĪĴ
Ġthreatenin g
Ġallian c
Ġallianc e
Ġseven t
ĠHea rt
Ġbitt e
Ġgui d
Ġbeatin g
Ġpropagand a
Ġprosecutor s
Ġimportant ly
ĠK ic
ĠVietna m
ĠHu s
Ġpostin g
Ġstore d
Ġpers u
ĠAdd it
ĠTenn e
Ġwrap p
ĠEli z
ĠOce a
Ġsp u
Ġinstruction s
ĠA A
Ġdisg u
Ġwis he
Ġrepli c
Ġprecise l
Ġprecisel y
ĠAddit i
Ġceremon y
ĠAr k
Ġmortgag e
Ġpu z
ĠOcea n
Ġreplic a
Ġstruggle d
Ġpuz z
ĠFesti v
Ġpersu a
ĠK l
Ġ199 2
Ġlab ou
ĠBerl in
Ġlegal i
Ġpuzz l
Ġawarde d
Ġshie l
Ġshiel d
ĠOr de
ĠE qu
Ġcontempora r
ĠJona t
ĠBar c
Ġrec re
Ġlegali z
Ġclu s
Ġrecre a
Ġwedd in
Ġp is
Ġnew e
Ġweddin g
ĠLef t
Ġadver s
Ġtrem e
Ġclus t
Ġvoice s
Ġrecrea t
Ġclust e
ĠHu r
Ġren o
Ġpick s
Ġtreme n
r olling
Ġmagne t
ĠLib ra
ĠMorr is
Ġage s
ĠCo le
Ġborder s
Ġclari f
Ġglo r
ĠGraha m
Ġpoint in
ĠNet f
Ġwave s
ĠJonat h
l ifetime
Ġpointin g
Ġcooperati on
Ġassa s
Ġstream in
Ġtremen d
âĸ Ī
Ġstreamin g
Ġpredicti o
ĠIndus t
Ġpredictio n
Ġsimul t
ĠCam b
ĠVen e
ĠKr is
ĠPalestinian s
Ġbiolog i
ĠBre x
ĠIndust r
Ġshut t
Ġtremend o
Ġsimult a
ĠStat ion
Ġundermin e
ĠFul l
Ġtremendo u
Ġsimulta n
Ġtremendou s
ĠNetf l
Ġpensi on
Ġfacilit a
Ġauto n
Ġderi ve
ĠGo t
Ġlan de
Ġcham b
ĠNetfl i
Ġgu t
Ġstay in
ĠNetfli x
ĠBrex i
ĠBrexi t
ĠChel s
ĠRub y
ĠMOR E
Ġstayin g
ĠF D
Ġresu m
ĠEliz a
Ġassas s
Ġkeyb o
ĠThe a
Ġsimultan e
Ġassass i
Ġassassi n
ĠBloo m
Ġbiologi c
Ġfacilita t
Ġkeybo a
Ġkeyboa r
ĠMon s
Ġdevot e
Ġairl i
ĠJea n
Ġcollaborati on
Ġkeyboar d
Ġauton o
Ġdistin g
Ġarchi v
Ġautono m
Ġdisting u
Ġtimi n
ĠAdditi on
Ġtimin g
Ġcategori e
Ġconsensu s
ĠAni ma
Ġfood s
Ġfeminis t
ĠYe me
Ġassume d
Ġsteppe d
Ġcategorie s
Ġassign e
Ġpromis in
Ġpromisin g
ĠKic k
ĠNe u
ĠF it
Ġaffect i
Ġpros t
Ġenterpris e
Ġdistingu i
ĠBelg i
ĠScott is
ĠFestiv a
ĠMorg a
Ġsenti m
ĠScottis h
Ġchamb e
Ġphysical l
Ġdistingui s
Ġsur re
Ġstrategi e
ĠChels e
Ġphysicall y
ĠYeme n
Ġplayoff s
ĠMean w
ĠCarte r
ĠFestiva l
Ġgreat l
Ġdis h
Ġwant in
ĠBry a
Ġgreatl y
Ġtrea s
ĠMeanw h
Ġnurs e
ĠMeanwh i
ĠSher i
ĠMeanwhi le
Ġstrategie s
Ġsentim e
Ġsentime n
Ġpleas u
Ġsentimen t
Ġbrewe r
Ġwantin g
Ġref in
Ġimplication s
Ġwherea s
ĠTenne s
ĠPro c
ĠBrya n
Ġsimultane o
Ġsimultaneo u
Ġsimultaneou s
Ġinequ a
ĠGran t
Ġfab r
Ġinequa l
Ġfabr i
Ġallo c
Ġinche s
ĠPhilipp in
ĠSara h
Ġinequal i
ĠChelse a
Ġinequali t
ĠPhilippin e
Ġcentur i
Ġsai l
ĠL t
Ġblock c
ĠAnge l
ĠSe s
Ġexecutive s
Ġassigne d
ĠMorga n
ĠE V
ĠTennes s
Ġcontact e
Ġblockc h
Ġenr o
Ġblockch a
Ġblockcha in
ĠHamil t
ĠHamilt on
Ġdefeat e
ĠTenness e
Ġparticipat i
Ġfe t
Ġfabri c
Ġaccessib l
ĠKha n
Ġfrequenc y
Ġremarkabl e
Ġcontinu o
Ġdefeate d
ĠHa d
Ġproto t
ĠRi o
Ġmat u
Ġpreparat i
Ġcoc k
Ġfla m
Ġenro l
Ġlisten e
Ġevaluat e
ĠWe n
Ġcircu i
ĠPu n
Ġcircui t
Ġpreparati o
Ġpreparatio n
Ġcontacte d
Ġemerg ing
Ġult ra
Ġaccessibl e
Ġfree z
Ġgro s
Ġcoin c
Ġprotot y
u sician
Ġprototy p
Ġtun n
Ġwound e
ĠDo g
ĠTow e
ĠArs e
Ġmerg e
Ġbree d
Ġrevel a
Ġwounde d
Ġparticipati on
Ġcontinuo u
ĠBar n
Ġcoinc i
Ġcontinuou s
Ġcoinci d
ina c
ĠSyd n
Ġtunn e
ĠAd ve
Ġmanag ing
Ġeducat e
ĠHan d
ĠB h
Ġtunne l
ĠFut u
Ġplea d
ĠSydn e
ĠMar x
Ġque r
Ġso v
Ġappoint m
Ġappointm e
ĠChild re
Ġappointme n
Ġappointmen t
ĠSydne y
Ġcompet in
Ġcompetin g
ĠKing s
Ġdonation s
ĠMc K
Ġout b
ĠMcD on
ĠHon g
Ġrevela t
Ġministr y
Ġpro x
Ġmemori e
ĠBruc e
ĠIr on
Ġcenturi e
Ġgros s
ĠArse n
Ġcenturie s
ĠV A
Ġbutte r
Ġmemorie s
Ġ199 3
ĠAffai rs
Ġcloth in
Ġclothin g
Ġsn i
Ġpick in
ĠUb e
ĠMes s
Ġpromot in
Ġwild l
Ġpromotin g
ĠS it
ĠLibra r
Ġindicate s
ĠDa w
ĠBel o
Ġswee p
ĠJonath a
Ġtrial s
Ġchambe r
ĠJonatha n
Ġbiologic a
ĠConve n
Ġbiologica l
Ġathlete s
ĠSea n
Ġti s
Ġrebu i
Ġrebui l
Ġpreten d
Ġ dimension
Ġcounterp a
ĠNe i
Ġpickin g
ĠLi m
Ġdeser t
ĠPho e
Ġcounterpa r
Ġcre e
Ġguideline s
Ġcounterpar t
ĠCa u
Ġalloc a
ĠInsta g
ĠHer o
Ġgrav it
ĠOrde r
ĠBat ma
Ġrealis t
Ġresiden c
Ġtire d
Ġenthusias t
Ġeducation a
² Ð
Ġeducationa l
ĠInstag ra
Ġlegal l
ĠLa m
Ġlegall y
ĠBatma n
Ġphar m
Ġsuspect s
Ġeligib le
Ġun ve
Ġ195 0
ĠM rs
Ġunfa i
ĠInstagra m
ĠPa re
Ġcelebr i
Ġathlet i
Ġunder t
Ġathleti c
ĠManage me
Ġgl i
ĠRela t
Ġpharm a
ĠJe re
ĠRep re
ĠManageme n
Ġalloca t
ĠManagemen t
Ġcelebri t
Ġapologi z
ĠD V
m usician
Ġbra c
Ġcustod y
ĠRepre s
ĠMemo r
ĠAssemb ly
Ġbattle s
ĠEs p
ĠPenta g
ĠPic t
Ġtrib e
Ġtherap y
Ġreso r
Ġcelebrat i
ĠPsy c
ĠSn a
Ġcelebrati on
ĠSu re
ĠPlac e
Ġge s
ĠOperat i
ĠWa le
ĠAll i
Ġdefend ing
Ġage d
Ġ6 7
Ġdominan t
Ġstudy in
Ġcharit y
Ġ18 9
Ġgradua l
Ġtrib u
Ġseparat i
Ġstudyin g
Ġsupp re
Ġsuppre s
ĠEf f
Ġsuppres s
Ġrac ing
Ġperceive d
Ġcontract o
Ġcontracto r
ĠUp d
ĠThr ou
Ġpe p
ĠHaw a
Ġspectr u
s hed
Ġbubbl e
ĠEt h
Ġspectru m
Ġst in
Ġaddresse s
ĠThrou g
Ġlap t
ĠThroug h
Ġste re
Ġback in
Ġovercom e
ĠPer r
ĠE i
Ġstere o
Ġbackin g
Ġexpand ing
Ġmanager s
Ġtransform a
ĠUbe r
ĠHun g
Ġfil in
ĠChan n
Ġtis s
Ġfilin g
Ġbur g
ĠMon e
Ġtiss u
Ġnegotiat e
Ġ lifetime
Ġtra u
Ġresor t
Ġtable s
Ġdiscuss in
Ġtissu e
Ġminim a
Ġdiscussin g
Ġdiscou n
Ġdiscoun t
ĠThea t
Ġemphas is
âĢ ĭ
Ġdefend a
Ġle c
Ġrenewa b
Ġtheori e
Ġ ling
Ġdisc on
Ġtheorie s
ĠExecut i
Ġrenewab l
ĠPentag on
d ified
Ġtrau m
a nding
Ġaddict i
ĠHa rt
Ġgla d
Ġlapt o
Ġlapto p
ĠExecuti ve
ĠChildre n
ĠB M
Ġtraum a
Ġsubt l
ĠAddition a
ĠAdditiona l
Ġunderl y
Ġindicati o
Ġrenewabl e
Ġindicatio n
Ġarbit r
Ġbirth d
Ġfollower s
Ġbirthd a
Ġspi l
Ġenc o
Ġse d
Ġindustri e
Ġsuit e
Ġcompar a
ĠCas e
Ġdefenda n
Ġdefendan t
Ġprocess o
Ġton s
Ġcapitalis m
ĠOak la
ĠGa b
Ġunderly ing
Ġarbitr a
Ġtraile r
Ġfen c
ĠRuss e
ĠEgypt i
ĠEgypti a
ĠEgyptia n
ĠRepres e
ĠReprese n
ĠMarsh a
ĠThin k
ĠMode l
Ġcos m
ĠRepresen t
Ġflowe r
ĠOakla n
ĠMet a
Ġincorporat e
Ġner v
o dified
Ġstop s
Ġdisease s
ĠYea h
Ġtransforma t
Ġ musician
Ġindustrie s
ĠCom ic
Ġadvis o
Ġinstall a
Ġadviso r
Ġtransformat i
Ġshipp in
Ġshippin g
Ġcompa t
ĠA e
Ġjud ic
Ġunfai r
Ġcoach in
Ġrevolution a
Ġfund r
Ġfundr a
Ġcoachin g
Ġbeing s
Ġbeac h
Ġsuppl e
ĠOaklan d
Ġtee t
Ġrevolutiona r
ĠVi k
Ġfundra is
ĠAnton i
" :"
Ġrevelat i
Ġrevelati o
Ġrevelatio n
Ġflee t
Ġremova l
Ġble n
Ġbi c
Ġ6 8
Ġtrend s
ĠCur re
Ġgraphic s
Ġca c
Ġscru t
Ġtu t
Ġess a
ĠOperati on
ĠMur ra
ĠGar y
Ġscrut in
Ġblen d
Ġjudic i
Ġprocesso r
ĠMan u
Ġcreature s
ĠML S
Ġexcee d
ĠCus t
ĠSec t
Ġfle d
ĠCons u
ĠS D
Ġeag e
ĠP T
ĠJac o
ĠNor ma
Ã ¨
Ġeage r
ĠS M
Ġexplain in
Ġexplainin g
Ġcoincid e
Ġprocedure s
ĠE me
ĠTennesse e
Ġcras he
ĠAre a
Ġsing e
ĠHawa i
ĠIn n
Ġinstalla t
Ġy o
Ġshoe s
ĠP L
ĠCurre n
Ġinstallat i
Ġinstallati o
Ġinstallatio n
Ġ( "
ĠHop e
Ġjustif y
ĠEliza b
ĠElizab e
ĠElizabe t
ĠUpd a
Ġbirthda y
ĠChrist o
ĠNa me
ĠUpda t
Ġanswer e
ĠThom p
Ġsov e
ĠElizabet h
ĠMo ve
ĠHe i
Ġretail e
ĠAssa d
Ġspil l
Ġanswere d
Ã ±
ĠT s
Ġregulator y
Ġbad l
ĠBo x
Ġarr o
Ġgr u
ĠNe l
Ġshoot e
Ġinteri o
Ġsove re
Ġegg s
Ġinsul t
Ġinterio r
Ġpull in
Ġsovere i
Ġsoverei g
Ġsovereig n
» Ð
Ġble s
Ġsac k
Ġshoote r
Ġprefer re
Ġpullin g
ĠBa g
Ġpreferre d
ĠMurra y
Ġmat h
Ġbank r
Ġengineer s
Ġrebel s
Ġregistra t
ĠWale s
Ġcoa t
ĠWar r
Ġrecogni s
Ġbles s
ĠFrie n
Ġessa y
ĠKent u
ĠKentu c
ĠPri v
ĠCome y
ĠKentuc k
Ġpri d
Ġadvertise m
Ġadvertisem e
Ġregistrat i
Ġadvertiseme n
Ġadvertisemen t
ĠTru s
ĠFrien d
Ġregistrati o
Ġregistratio n
Ġdesk t
Ġdeskt o
Ġdeskto p
Ġcontin e
Ġconstitut e
Ġairli n
Ġairlin e
Ġcharacteri z
Ġproject i
ĠAb d
Ġcontine n
mp t
ĠBa ke
Ġsearch in
ĠOb s
Ñ ĥ
Ġunlo c
Ġgene s
Ġsearchin g
Ġunn e
Ġretaile r
Ġtopic s
m odified
Ġbur s
ĠEm i
ĠThomp s
Ġmerc h
Ġprid e
ĠTal i
Ġ7 7
Ġprosecut i
ĠThomps on
Ġbenef i
Ġtweet s
Ġbadl y
Ġprosecuti on
Ġbenefi c
Ġpleasu re
ĠRusse l
ĠE C
ĠW int
ĠConven t
Ġpreced e
Ġfold e
Ġevery d
Ġsixt h
Ġmeasure m
Ġeveryd a
Ġmeasurem e
Ġmeasureme n
Ġeveryda y
Ġmeasuremen t
Ġideolog i
Ġperiod s
ĠPhoe n
ĠJere m
Ġga la
Ġcluste r
Ġengage me
Ġengageme n
Ġengagemen t
Ġcontinen t
ĠDel h
n icipa
u nicipa
ĠDig it
ĠPict u
Ġver b
Ġnotab le
Ġ( )
Ġsignal s
ĠUkrain i
Ġcle r
ĠPea c
Ġfa re
Ġsentence d
Ġexp i
ĠUkraini a
Ġbillion s
ĠUkrainia n
Ġcheck e
Ġoutlet s
Ġnerv ou
Ġnervou s
ĠUpdat e
Ġcho c
Ġhistori a
unicipa l
ĠPictu re
ĠNic o
Ġsupple m
Ġsupplem e
Ġsuppleme n
Ġsupplemen t
Ġpollut i
Ġemphasiz e
Ġpolluti on
Ġas c
ĠV la
Ġsinge r
Ġesca l
ĠSa r
ĠSc r
Ġlec t
Ġuncertain t
Ġpa u
Ġspecta c
Ġtelep h
ĠPan t
Ġteleph o
Ġpsych i
ĠCharl ie
m ble
Ġsection s
ĠRepresent a
ĠHarp e
ĠJaco b
ĠHa ma
Ġcompensat i
Ġcrit e
Ġcompensati on
Ġrequi r
Ġcrite r
Ġescal a
Ġminima l
Ġpharma c
Ġunpre c
m ice
Ġcriter i
ĠRat her
ĠUs ing
ĠRepresenta t
ĠRepresentat i
Ġunprec e
Ġcourt e
Ġcoll i
a bility
o ading
Ġrequir in
Ġrequirin g
ĠFac t
Ġbum p
Ġtea s
Ġintegrat i
ĠBet t
Ġtreat i
Ġsumm i
Ġspot t
Ġunprece d
Ġunpreced e
Ġunprecede n
Ġunpreceden t
Ġart s
ĠStra t
Ġsummi t
Ġunprecedent e
Ġunprecedente d
Ġescala t
Ġpart l
Ġsuspens i
Ġexemp t
ĠConvent i
Final l
ĠI de
Finall y
ĠDelh i
ĠGord on
Ġpartl y
ĠFinal l
Ġcart o
ĠFinall y
ĠConventi on
ĠWhe t
Ġurge n
M ich
Ġeconomic s
ĠAla n
Ġ7 6
Ġsuspensi on
Ġ inac
Ġtub e
ĠKentuck y
Ġcit in
Ġcitin g
Ġbol d
Ġins a
ĠO rt
ĠPa la
Ġmaint e
ĠThere f
ĠTheref o
ĠTherefo r
Ġmainte n
Ġconcept s
Ġapproache s
k on
Ġpain f
Ġpainf u
Ġcarrie s
Ġpainfu l
Ġinse r
Ġweak n
Ġtwi n
Ġweakn e
ĠMod i
Ġweakne s
Ġweaknes s
Ġarmo r
Ġextraordinar y
ĠTha i
Ġtranslati o
Ġtranslatio n
Ġ199 1
Ġato m
ĠChann e
ĠT A
Ġburs t
Ġmainten a
ĠTherefor e
Ġasp i
ĠPitt s
Ġmaintena n
Ġges t
ð Ł
Ġlabou r
Ġdepo r
Ġinser t
ĠTit a
ĠRea g
Ġdepor t
ĠPsyc h
Ġcurio u
Ġcuriou s
Ġattend a
Ġcabin e
Ġhistoria n
Ġupl o
Ġ rolling
Ġattenda n
Ġgame p
Ġuplo a
ĠAb e
ĠAre n
Ġgrab b
ĠBern a
Ġcabine t
ĠSh ou
ĠChanne l
Ġinstance s
ĠFin d
Ġbenefic i
ĠPro s
Ġsit s
Ġaspi r
Ġ mice
ĠW ou
Ġmaintenan c
Ġmaintenanc e
ĠReg ion
Ġabsor b
ĠMari a
Ġspeciali z
Ġtalent e
ĠGive n
Ġtalente d
ĠGD P
Ġshock e
Ġcomplex i
ĠSeve r
ĠGar de
ĠWhet he
ĠWhethe r
Ġski p
ĠN R
ĠWr i
Ġpublish in
Ġpublishin g
ĠTita n
ina u
ĠCapt a
Ġsubst i
Ġme g
Ã §
Ġsubsti t
ĠPe l
m unicipal
Ġg h
ĠMont re
ĠCharl o
Ġsubstit u
Ġbenefici a
ĠIndependen t
Ġdisplay e
Ġrecon s
Ġca f
Ġ) .
Ġdisplaye d
Ġtelepho n
ĠHarpe r
Ġburn e
ĠElect i
Ġcomic s
Ġmedica t
ĠColle c
Ġcontemporar y
Ġaim s
Ġdeman de
Ġutilit y
Ġentran c
Ġcorrect l
Ġcamp s
Ġcorrectl y
ĠRussel l
ĠCollec t
ĠUnl i
ĠSpe e
ĠI a
Ġ7 3
ĠSho rt
Ġconstitu e
Ġanalyst s
Ġunve i
Ġbath r
Ġunvei l
Ġbathr o
ĠMiss o
ĠWri g
ĠCapta in
Ġleak e
Ġunderw a
Ġstimul a
Ġdeploy e
Ġencourag in
Ġencouragin g
ĠReag a
ĠFutu re
ĠReaga n
ĠMisso u
Ġwis e
Ġcontra r
ĠTot a
Ġdeli g
Ġneighbo rs
Ġconstitue n
ĠCharlo t
Ġjudici a
ĠDu c
Ġreinforc e
Ġtop p
Ġrecommendation s
Ġdelig h
Ġcheape r
Ġsubstitu t
Ġdeligh t
Ġassert i
Ġsurviv o
ĠElecti on
Ġsurvivo r
ĠBelo w
Ġprompt e
ĠSum me
Ġdeploye d
Ġconsulta n
Ġbul k
Ġreserve d
Ġtrag e
ĠCharlot t
Ġmanufacturer s
Ġti d
ĠPhil l
Ġintegrati o
Ġintegratio n
ĠVo t
Ġreflect i
ĠChr o
Ġpoll in
ĠTyp e
Ġ municipal
ĠAcce s
º Ð
Ġdisappoint e
Ġdisappointe d
Ġentranc e
Ġsustainab l
vel o
ĠTa x
ĠCharlott e
ĠPro b
Ġprompte d
Ġfit t
Ġp y
Ġtende n
Ġjun i
ĠCust o
Ġpuzzl e
Ġmerch a
ĠArt ic
Ġmercha n
Ġtrage d
Ġfavour it
ĠSo f
ĠPhoen i
Ġemployer s
ĠSte w
Ġstatistic a
ĠAlli a
Ġeco s
ĠPhoeni x
Ġrealist i
Ġcivili z
Ġbitte r
Ġstatistica l
ĠSa le
ĠAa r
Ġinterviewe d
ĠSumme r
ĠTota l
ĠN D
Ġtheor e
ĠCo ve
Ġdemande d
ĠAllia n
Ġrealisti c
Ġboa s
Ġlande d
ĠDigit a
ĠAcces s
Ġaccu m
Ġwall e
Ġhero e
ĠBrook ly
ĠTransp o
Ġfight s
Ġpan t
Ġheroe s
ĠBrookly n
Ġscra t
Ġscrat c
Ġcouple s
ĠSu d
Ġcogniti v
Ġturn o
Ġseize d
Ġsession s
Ġpred e
ĠFan t
ĠDo d
Ġamp l
ĠChe n
Ġprospect s
ĠJava S
ĠDigita l
Ġas h
ĠLe ve
Ġinequalit y
ĠMari o
Ġingredient s
Ġoccasional l
Ġoccasionall y
Ġplease d
Ġpod c
ĠBen n
Ġcognitiv e
Ġafter w
Ġaccompan i
Ġboas t
ĠOc c
Ġpodc a
Ġpunc h
Ġstat in
Ġpaint e
ĠEP A
ĠAuthorit y
Ġpersist e
Ġlak e
Ġ modified
ĠCha l
ĠTrus t
Ġpermit t
Ġstress e
ĠJavaS c
Ġbathro o
ĠMontre a
Ġbathroo m
Ġspeculati on
ĠJavaSc r
ĠJavaScr i
ĠJavaScri p
ĠJavaScrip t
Ġguest s
Ġpodca s
Ġ7 4
Ġlesson s
Ġpodcas t
ĠPare n
e nding
Ġfavourit e
Ġconscious n
Ġouts t
ĠMontrea l
Ġconsciousn e
Ġconsciousne s
Ġconsciousnes s
Ġinfe r
Ġkni f
Ġecos y
T ime
ĠO R
Ġback u
Ġbacku p
ĠAntoni o
Ġecosy s
Ġu m
Ġdependen c
Ġdepart u
Ġ7 8
Ġdepartu re
Ġecosys t
Ġecosyst e
Ġecosyste m
Ġbo i
ĠParen t
ĠFi ve
ĠCapit o
Ġresum e
ĠEnte r
ĠNev a
ĠKer r
Ġlect u
Ġaccepta b
Ġdea le
Ġexclu de
ĠMan h
Ġade q
Ġadeq u
C lick
ĠSo r
ĠSta f
Ġdeale r
Ġadequ a
ĠEme r
Ġjur is
Ġperformance s
Ġpan i
Ġgr in
Ġabst r
Ġcata l
Ġtenden c
ĠL ie
Ġmeg a
ĠHawai i
Ġrevi v
Ġpregnan t
ĠPer f
Ġsk a
ĠRepresentati v
ĠRepresentativ e
Ġrealis e
ĠGa m
Ġrec u
Ġknif e
ĠC L
ĠStaf f
Ġemotion s
ĠPola n
Ġband s
ĠVene z
rae l
ĠMala y
t ile
ĠDu ke
ĠOr le
Ġair s
Ġterritor i
ĠCo c
Ġconse c
Ġextremis t
ĠBan d
ĠMob i
Ġmaintain in
Ġmaintainin g
Ġafterw a
ĠWarr i
Ġafterwa r
Ġafterwar d
Ġpani c
ĠAust r
ĠInsi de
r ime
ĠTranspo r
ĠTranspor t
Ġimpose d
Ġal u
Ġ> >
Ġoverse e
Ġboi l
Ġgri e
Ġcoordinat e
Ġstam p
Ġcorrespond e
Ġtur b
ĠLea r
ĠK re
ĠChristo p
ĠProtect ion
Ġbar g
Ġapologiz e
ĠWarri o
Ġfine s
ĠAv a
ĠAl p
ĠArg e
Ġsin k
Ġgirl f
ĠR P
Ġburi e
ĠV it
Ġprofessional s
Ġmilitant s
Ġ= =
Ġconfuse d
Ġtravel i
Ġtraveli n
Ġconstr a
Ġteet h
Ġgirlf r
Ġgirlfr i
Ġgirlfri e
Ġgirlfrie n
Ġgirlfrien d
f ication
Ġ7 1
ĠTali b
Ġjumpe d
Ġcancel l
Ġtravelin g
ĠOrganiz a
ĠAct i
ĠOrle a
ĠOrlea n
Ġabstr a
Ġla m
Ġswor d
ĠCre e
ĠHit l
Ġsynt he
ĠMissou r
s rael
ĠS N
Ġshocke d
Ġconstra in
Ġphysic i
Ġswitc he
I srael
Ġundergr ou
Ġundergrou n
Ġphysici a
Ġabstra c
Ġundergroun d
Ġprototyp e
ĠMissour i
Ġabstrac t
Ġphysicia n
ĠHitl e
Ġboxe s
ĠBea t
i fication
ĠStu de
Ġmedicat i
Ġmedicati on
Ġrecall e
ĠHitle r
Ġsol o
ĠOr la
Ġelectora l
Ġrecalle d
Ġcross in
ĠLin c
ĠNeva d
Ġcrossin g
ĠAlas k
ĠOrganiza t
Ġji h
ĠArtic le
Ġisolate d
Ġpatr i
ĠNaz i
ĠTreasu r
Ġsn e
g over
Ġp m
ĠOrganizat ion
ĠS r
ĠAlask a
ĠPitts b
ĠVenez u
ĠSheri f
Ġjuni o
ĠLibrar y
Ġpron o
z ie
Ġfu s
Ġthir t
Ġexiste d
ĠNevad a
Ġconcern in
Ġpil e
ĠT I
Ġconcernin g
ĠVenezu e
Ġaccum u
Ġport a
Ġaccumu l
Ġmass a
ĠCommun is
ĠPittsb u
ĠVenezue la
Ġgamep l
Ġgamepl a
ĠRe ve
ĠPittsbu r
Ġjih a
ĠArge n
Ġaccumul a
ĠPittsbur g
Ġanno y
Ġaccumula t
Ġwe t
ĠCoa l
Ġcontribut o
Ġsurround e
Ġsurrounde d
Ġjiha d
Ġ6 00
Ġmed a
Ġtelephon e
ĠMarsha l
Ġdescrib ing
Ġau s
Ġcontributo r
Ġfa d
ĠR S
ĠCapito l
ĠEdit i
ĠA de
Ġprono u
Ġboun c
Ġchoc o
ĠEditi on
ĠOrlean s
Ġam m
ĠCirc u
Ġpronou n
Ġalu m
ĠOrla n
ĠSy n
ĠSes s
ĠArsen a
Ġspecialis t
ĠAp o
Ġcarto on
Ġtext u
Ġno d
ĠR s
Ġdeclar a
Ġintegr i
Ġdefe c
ĠArgen t
Ġsoph i
ĠFig u
ĠHind u
Ġchoos in
ĠDa m
ĠAdam s
Ġkicke d
Ġep ic
ĠE R
ĠEm b
Ġchoosin g
Ġend le
Ġ18 6
Ġendle s
Ġpregnan c
Ġrefer s
ĠKi d
Ġdependen t
Ġmeda l
Ġendles s
ĠSherif f
ĠRedd it
Ġreference s
Ġsophi s
Ġintegri t
ĠOn l
Ġflou r
Ġath e
ĠP on
Ġsto m
ĠOrlan d
Ġarchiv e
Ġacceptab l
Ġintegrit y
ĠJo b
ĠIslam is
ĠStew a
Ġlea p
Ġovers i
Ġcompat i
ĠEl s
Ġideolog y
Ġcompati b
Ġsophis t
ĠGarde n
Ġacqui s
Ġstrange r
Ġpen d
Ġbankr u
Ġclu e
ĠEx a
Ġbankru p
Ķ âĢĶ
Ġburie d
ĠU I
Ġinf i
Ġbankrup t
Ġanc e
ĠAllian c
ĠAllianc e
Ġgra c
Ġyea h
ĠApp e
Ġstruggle s
ĠStude n
ĠO i
Ġvaca t
Ġteammate s
Ġeviden t
Ġchoco l
Ġcin e
Ġindic t
ĠCom b
Ġchocol a
Ġgeo g
ĠLeb a
Ġcredit s
Ġchocola t
Ġance s
Ġances t
Ġwonder in
Ġup r
ĠStuden t
Ġadequa t
ĠWarn e
ĠFollow ing
Ġtrust e
Ġasy l
Ġpatr o
Ġsustainabl e
ĠFe e
ĠMi g
Ġadequat e
ĠArsena l
Ġwonderin g
Ġcap s
Ġdeco r
ĠOnl ine
Ġra b
Ġconfus i
Ġcompr i
Ġbomb s
ĠAna ly
ĠChe r
Ġacceptabl e
Ġnic k
Ġ198 9
Ġconfusi on
Ġpatro l
Ġstati c
Ġconfe s
ĠTig e
Ġacquis i
Ġchas e
ĠPort u
Ġlever a
Ġcompri s
ĠLeba n
Ġacquisi t
Ġlevera g
Ġguard s
ĠRai l
Ġacquisit i
Ġconfes s
ĠWint e
Ġinsa n
ĠMa k
Ġpitche r
ĠRobin s
ĠTu n
Ġamb a
ĠSa y
Ġpred a
Ġbureau c
Ġradiat i
Ġgeog ra
Ġbureauc r
Ġbureaucr a
Ġfunctional i
Ġfrustrat i
ĠR T
Ġfrustrati on
ĠMar g
Ġcloses t
Ġdeclara t
Ġfie r
ĠPop e
Ġremov in
ĠMe e
ĠOrland o
ĠTab le
Ġremovin g
Ġcomplexi t
Ġexplo ra
Ġexpense s
Ġstead y
Ġprof ou
Ġprofou n
Ġprofoun d
ĠDocto r
ĠSu l
Ġamba s
Ġgeogra p
Ġex o
ĠW E
Ġreas s
Ġ inau
ĠRes t
ĠExp l
Ġdominate d
Ġrecess i
Ġconcentrat e
Ġstatin g
ĠPittsburg h
Ġuna n
Ġdisclos u
Ġdisclosu re
Ġasyl u
Ġasylu m
ĠN I
Ġdesignat e
Ġque e
Ġtempl a
Ġbrief l
Ġbriefl y
ĠTes la
ĠManh a
Ġspi t
Ġambas s
Ġambass a
ĠMag a
Ġambassa d
Ġunit e
Ġaw f
Ġassembl y
Ġ9 7
Ġcharacteristic s
Ġawf u
Ġexclusive l
Ġexclusivel y
ĠPortu g
ĠCul t
Ġawfu l
Ġambassad o
Ġengag ing
Ġambassado r
Ġcontinu a
Ġconsiderabl e
ĠH O
Ġsurvive d
Ġacquisiti o
Ġacquisitio n
Ġchocolat e
Ġdonor s
Ġjournalis m
Ġequ it
ĠCoul d
Ġexecute d
ĠInd on
ĠC F
Ġine x
Ġnor m
ĠEvery on
ĠEveryon e
ĠWinte r
ĠBrea k
Ġ logical
Ġtransc r
Ġdete n
Ġsophist i
Ġgy m
ĠAar on
Ġvert i
Ġsqu e
Ġsophisti c
Ġanal o
ĠPh y
ĠIndon e
ĠFore s
Ġanalo g
ĠIndone s
l oading
ĠIndones i
Ġsubsequent l
Ġsubsequentl y
Ġindi g
Ġexplora t
Ġfri g
Ġsyn c
Ġoutcome s
Ġrebo u
Ġcontrar y
ĠIndonesi a
ĠNe e
Ġsophistic a
ĠCan n
ĠCO N
Ġrebou n
Ġreboun d
Ġchao s
Ġaccompani e
lis he
ĠAnd y
ĠManha t
Ġprinte d
Ġ8 2
Ġminister s
Ġengine s
Ġbra v
ĠManhat t
ĠFant a
ĠTreasur y
Ġsophistica t
Ġ6 9
Ġgamepla y
Ġsuper s
ĠÂ ±
ĠManhatt a
ĠH B
ĠManhatta n
Ġsymbol i
Ġpi r
Ġidenti c
ĠLo t
ĠMo v
ĠRa j
Ġspeaker s
ĠSess ion
Ġdistrict s
Ġgra m
Ġback w
Ġactivat e
Ġgra in
Ġidentic a
Ġsexual l
Ġpress e
Ġsexuall y
Ġpreda t
Ġconvert e
Ġidentica l
Ġcomposit i
Ġcompositi on
ĠRol l
Ġnot o
Ġattend i
Ġpau s
Ġattendi n
a cks
Ġattendin g
ĠV inc
Ġproductiv e
Ġphysic s
Ġfuck in
Ġrecept i
´ Ð
Ġco e
ĠLinc o
ĠSto c
Ġbrand s
Ġfunctionali t
Ġutte r
Ġreco u
Ġdeten t
ĠQue s
ĠPriv a
Ġlectu re
Ġfail s
Ġrevolutionar y
ĠWrig h
Ġblog g
ĠWrigh t
ĠMai l
ĠC T
ĠCra i
ĠLinco l
Ġcertificat e
Ġfenc e
ĠLincol n
ĠEnte rt
Ġimagina t
ĠDom in
ĠCorporat i
ĠEntert a
ĠSing a
Ġimaginat i
Ġstu m
Ġdeclarat i
ĠEnterta in
ĠChr on
Ġena c
Ġshr in
ĠPy t
ĠCorporati on
ĠD R
ĠWin n
Ġenac t
Ġslic e
ĠHav ing
ĠB R
Ġnow he
Ġtempla t
ĠTalib a
Ġnowhe r
Ġfact i
Ġnowher e
Ġcriminal s
ĠTaliba n
Ġsubtl e
Ġdee me
Ġnoto r
Ġdeeme d
r ible
ĠPlan n
Ġnotor i
Ġwitnesse s
ĠP H
ĠVla d
Ġpackage s
ĠChristop he
Ġdemo g
Ġchallenge d
ï ¼
Ġwi p
Ġsa k
ĠMul t
Ġtut o
ĠG E
ĠR B
Ġdis re
Ġtraffic k
Ġdemog r
Ġcheck i
Ġtuto r
Ġdemogr a
r rible
Ġwors h
ĠCurren t
ĠAustr i
Ġworsh i
Ġchecki n
Ġsau c
Ġworshi p
Ġembe d
Ġvarian t
ĠFla s
ĠDa k
ĠHo ly
Ġrecessi o
Ġrecessio n
Ġawa i
Ġcine m
Ġcinem a
ĠAustri a
Ġawai t
ĠArgent in
ĠTri p
ĠPyt h
Ġdemogra p
ĠMode r
ĠGiant s
Ġeditor i
Ġtransformati o
Ġtransformatio n
ĠCor b
Ġuns e
Ġfer t
Ġpresent s
Ġeditori a
Ġcharg in
Ġeditoria l
ĠOs c
ĠCP U
Ġanalys e
Ġfacti on
ĠCrai g
Ġchargin g
ĠEngine e
ĠW ing
ĠStud ie
ĠEnginee r
ĠAl la
Ġeva c
Ġfert i
ĠSpe n
ĠLeg e
Ġguarantee d
ĠIn it
Ġ8 00
Ġtranscr i
ĠNatu ra
Ġwork f
ĠTra in
ĠNet her
Ġfigure d
ĠOp t
ĠR I
ĠRobins o
ĠRobinso n
Ġferti l
ĠSinga p
Ġpacke d
Ġbit s
Ġleake d
Ġgeograp h
ĠPie r
Ġtransmi t
Ġconc u
Ġintelligen t
ĠGri f
ĠRea c
Ġback l
ĠJuli a
Ġdefende d
Ġswea t
Ġattract e
Ġattracte d
ĠI b
ĠPerr y
Ġevac u
Ġproduce s
Ġbus t
ĠFores t
ĠTowe r
ĠJer r
Ġbackw a
ĠHan n
Ġcheckin g
ĠJerem y
ĠRes p
ĠSingap o
Ġ18 8
Ġdevelopment s
Ġcourte s
ĠSingapo r
ĠSingapor e
ĠUS B
Ġna s
Ġsimultaneous l
Ġsimultaneousl y
ĠNew t
Ġblock in
Ġwalle t
Ġau c
Ġmargin a
Ġradiati on
ĠGu e
Ġcorresponde n
Ġblockin g
Ġrecognis e
ĠLate r
Ġgla n
Ã ł
ĠExc e
Ġon s
Ġdetent i
ĠIm m
Ġdetenti on
Ġdisab i
Ġdisabi l
Ġintegrate d
Ġathe i
Ġfinger s
ĠWou l
Ġrel o
Ġathei s
Ġdisabil it
Ġrecove re
ĠCard in
Ġrecovere d
Ġimpl ie
Ġwire l
ĠChair ma
ĠLeg a
Ġu g
Ġmargina l
ĠWoul d
ĠChairma n
Ġmar in
Ġadministrat o
Ġdism a
Ġadministrato r
Ä ģ
ĠBuc k
Ġmetr i
Ġaris e
Ġjunio r
ĠDo o
Ġtrap p
ĠStudie s
Ġrevis i
Ġnonp r
Ġpir a
Ġvariable s
Ġpremi s
ĠFanta s
Ġna n
ĠIs a
Ġwrapp e
ĠUn t
ĠRe me
ĠGi b
Ġmer it
Ġtreas u
Ġtaxpayer s
Ġtreasu r
ĠO d
Ġagreement s
ĠExpl o
ĠCa rs
u mble
b lishe
Ġconsec u
Ġflight s
ĠCommun ic
Ġaren a
Ġsurprising l
Ġsurprisingl y
Ġca k
ĠHamp s
h ike
Ġ< /
Ġadmi s
ĠDri ve
Ġaccura c
ĠX i
ĠAir p
Ġraise s
ĠRussian s
ĠNatura l
Ġmetri c
Ġall y
ĠCommunic a
ĠAtt a
Ġexperimenta l
Ġnonpr o
ĠRam s
ĠMatt e
Ġpremis e
Ġtransmi s
Ġimpact s
Ġadmis s
ĠEntertain m
Ġthe f
Ġimpress e
ĠEntertainm e
ĠConnect i
Ġcapitalis t
ĠEntertainme n
ĠEntertainmen t
Ġana r
Ġstatu e
ĠMo l
Ġadmiss i
Ġblame d
ĠOtt a
r ick
ĠDa ma
ĠAl on
Ġgol f
Ġste r
Ġforgot t
Ġunne c
ĠOp p
ĠInit i
Ġcak e
? âĢĻ
Ġforgott e
Ġforgotte n
Ġstimula t
Ġscare d
Ġconsecu t
Ġconsecut i
Ġexpect s
Ġverti c
Ġciga re
Ġfire s
ĠCommunica t
ĠRe y
ĠSpi r
Ġcigare t
Ġsauc e
Ġconsecuti v
ĠGui de
ĠStoc k
ĠHunt e
ĠMP s
Ġadapt a
Ġcigaret t
Ġcigarett e
Ġelectr o
Ġtemplat e
ĠIniti a
Ġcour a
Ġbet a
Ġconsecutiv e
ĠDr o
ĠGrif f
ĠMiss is
Ġaccurac y
Ġunnec e
Ġintim i
Ġunnece s
ĠJim m
Ġpou r
Ġenable d
Ġprobab i
Ġprobabi l
Ġunneces s
Ġintimi d
Ġunnecess a
Ġunnecessa r
ĠColl in
ĠNat i
Ġburne d
Ġintimid a
Ġproceed in
Ġproceedin g
Ġmorta l
ĠStewa rt
ĠMissis s
ĠThing s
ĠMiss i
ĠTho r
ĠSim i
Ġbi z
ĠSun n
Ġintimida t
Ġtechnologi c
Ġanar c
ĠLoca l
ĠRon a
Ġanarc h
ĠPolan d
Ġcur s
Ġtol l
Ġcommuni s
Ġinfluence d
Ġtank s
Ġsak e
Ġtechnologic a
Ġtechnologica l
ĠHI V
Ġto i
Ġtax i
ĠRed s
ĠFal c
Ġretr o
ĠCoope r
o file
Ġcoura g
Ġtransmis s
Ġpep p
Ġcourag e
Ġinter m
ĠCapt ion
Ġundert a
ĠOlympic s
ĠI g
Ġgame r
Ġretr i
Ġexpect ing
ĠShou l
Ġtransmiss i
ĠBa i
Ġthri v
Ġphotographe r
ĠQueen s
Ġimpr is
ĠExp re
Ġcriteri a
Ġimpris on
ĠRoc ke
ĠShoul d
Ġball s
Ġauthoriz e
Ġdemograp h
ĠExpre s
ĠChro me
Ġdistincti o
Ġwirel e
Ġwirele s
ĠWarne r
Ġdistinctio n
Ġwireles s
Ġcourtes y
Ġbase s
Ġunre s
Ġslip p
ĠFO R
r ofile
Ġexplicit l
Ġinevitabl e
Ġexplicitl y
Ġstea m
ĠExpres s
ĠIslamis t
Ġunderta k
Ġconvers i
ĠComman d
Ġqualifie d
Ġdefec t
ĠQues t
Ġtrip l
ĠLu n
Ġintention a
Ġintentiona l
Ġconversi on
Ġassassin a
Ġvisit s
Ġcost u
Ġunb e
Ġassassina t
Ġbru s
Ġgam b
Ġtransparen c
Ġshop s
Ġtransferr e
Ġcens o
Ġevolve d
Ġline a
Ġtransferre d
Ġsenator s
Ġbab i
ĠSh in
Ġou g
ĠRu t
Ġwha l
ĠCl ou
Ġconflict s
Ġreleas in
Ġrefin e
ĠOtta w
ĠOttaw a
Ġret re
Ġreleasin g
Ġfunctionalit y
Ġchecke d
Ġnation w
Ġnationw i
Ġnationwi d
Ġnationwid e
ĠThi r
Ġuncertaint y
Ġscou t
ĠBloc k
Ġpol a
Ġcostu m
Ġska t
ĠCli ma
ĠCanadian s
Ġbabi e
ĠAb ra
Ġcond o
Ġoutd o
Ġchea t
Ġoug h
Ġcauti on
Ġflu i
ĠNel s
Ġpromote d
Ġshe d
ĠLo a
Ġough t
ĠChristophe r
Ġer u
Ġcomm o
Ġflui d
Ġinau g
ĠI B
ĠHan s
Ġsla m
ĠFor m
Ġmeter s
Ġinaug u
Ġbabie s
lis h
Ġimp u
Ġinaugu r
Ġju ic
ĠSect ion
Ġstatu t
ĠMot her
Ġinaugur a
ĠE y
ĠNige r
Ġcommenta r
Ġscre w
Ġcon j
Ġpepp e
Ġearth q
Ġearthq u
Ġearthqu a
Ġstat s
Ġearthqua k
Ġearthquak e
ĠGa s
ĠHaw k
Ġtransparenc y
Ġrel u
ĠDru g
ĠGra y
Ġrebuil d
Ġapplie s
ĠCons i
Ġwhis t
ĠEd g
ĠEvery t
Ġverif y
Ġpola r
Ġsole l
Ġsolel y
ĠRi d
Ġkee n
Ġuncom f
Ġaccident a
ĠTa t
Ġtextu r
Ġrelu c
Ġaccidenta l
Ġuncomf o
ĠP I
Ġuncomfo rt
Ġreluc t
Ġreluct a
Ġrelucta n
ĠMore o
Ġuncomfort a
Ġuncomforta b
ĠJerr y
ĠNether l
ĠRub i
ĠMoreo v
ĠMoreov e
ĠMoreove r
ĠPhoto g
Ġtransmissi o
Ġtransmissio n
Ġbar b
Ġinfluen t
ĠNetherl a
ĠNetherla n
ĠNetherlan d
Ġwhist l
ĠBe ing
ÃĤ Ã
Ġsuspici on
Ġregard e
Ġcompli a
Ġfam e
Ġ hike
Ġsubmi s
Ġcomment e
Ġcomplain e
ĠAss is
Ġsubmis s
Ġcomplia n
ĠNu m
ĠMedica i
Ġthef t
ĠEs s
ĠMedicai d
Ġsubmiss i
Ġbackwa r
Ġbackwar d
Ġvalid a
Ġtermina l
Ġsoci o
Ġimpresse d
ĠLege n
ĠB le
Ġbeat e
Ġmar t
ĠPu e
Ġinfluent i
Ġinfluenti a
Ġnonpro f
Ġinfluentia l
Ġre h
ĠLouis i
ĠPhotog ra
Ġdeclarati on
Ġvalida t
Ġcommissione r
Ġdisable d
ĠSa s
Ġemp o
Ġregarde d
ĠSha d
Ġ10 00
ĠLouisi a
Ġover r
ĠLouisia n
Ġanc h
ĠHamps h
ĠFinanc i
ĠHampsh i
e lling
ĠComp u
ĠLegen d
Ġguid a
ĠHampshi re
Ġchip s
ĠPhotogra p
ĠZe r
Ġspeed s
Ġnonprof i
Ġsimilar l
Ġspra y
Ġnonprofi t
Ġsimilarl y
l oving
Ġref r
Ġcu b
Ġrad a
Ġprovision s
Ġcostum e
Ġtoi l
Ġconsultan t
ĠH P
ĠStan f
Ġabs u
Ġ8 8
ĠDea n
Ġevacu a
Ġspott e
ĠSte in
Ġabsu r
Ġaccept i
Ù Ħ
ĠSever a
ĠNi k
ĠBec k
ĠSe x
ĠNot h
Ġabsur d
Ġevacua t
Ġoutf it
ĠCommunicat i
ĠG R
ĠLouisian a
ĠClo s
Ġaccepti n
Ġacceptin g
ĠB O
ĠSimi la
Ġguida n
Ġbomb e
Ġguidan c
Ġguidanc e
Ġanti b
ĠCr is
Ġuna c
ĠCol d
ĠUnli ke
ĠU P
Ġmagic a
ĠCommunicati on
Ġsatisf y
Ġcommu t
ĠPat t
Ġrei g
Ġdemograph i
Ġtear s
Ġdemographi c
Ġce i
Ġwas h
ĠNetherland s
ĠMi r
ĠRange rs
ĠSimila r
Ġreig n
Ġmagica l
Ġlaunch ing
ĠTre k
Ġassembl e
Ġrolle d
Ġmemor a
ĠInvest i
Ġrada r
Ġgrat e
Ġcal e
ĠFinanci a
Ġ8 1
Ġgent le
Ġconta m
Ġrec k
ĠBloo d
Ġthu m
Ġadmissi o
Ġadmissio n
ĠFinancia l
Ġpal e
Ġsm u
Ġglob e
ĠPlan e
Ġadjust m
Ġmale s
Ġadjustm e
Ġadjustme n
Ġadjustmen t
Ġcomplaine d
ĠObs e
Ġtraged y
Ġcontam in
ĠInvesti g
Ġinters e
ĠStea m
Ġspa re
Ġ-- -
Ġcontamin a
Ġshock in
Ġshockin g
ĠSch w
ĠInvestig a
ĠNels on
Ġpremie re
ĠTi l
ĠCommission e
Ġfac u
Ġboard s
I mp
ĠStan le
Ġlegislat u
ĠClima t
ĠFat her
ĠStanle y
ĠFl i
ĠMedica re
ĠSpir it
Ġpollin g
Ġlegislatu re
ĠSer g
ĠTok y
ĠEdit o
Ġcustom i
Ġsustain e
Ġcale n
ĠRu le
Ġexception a
Ġwind s
ĠSnow de
Ġsyn d
ĠSnowde n
Ġexceptiona l
Ġcompell in
Ġless e
Ġcompellin g
Ġempo w
ĠTrib u
Ġcalen d
Ġempow e
Ġbene a
ĠLeve l
Ġbenea t
Ġun h
Ġbeneat h
ĠToky o
ĠEdito r
ĠSevera l
x ide
Ġcontend e
Ġela b
Ġaward s
Ġtempl e
ĠPlay S
ĠFlas h
Ġfacu l
Ġbed r
ĠHar ve
Ġpaus e
ĠZi m
Ġfit s
Ġelab o
âĢ ³
Ġoutst a
ĠAv i
Ġacr e
ĠRou n
ĠInvestiga t
Ġfacul t
Ġfuckin g
ĠO P
Ġinitiat e
Ġelabo ra
ĠFigu re
ĠSe le
Ġinterr u
ĠU R
Ġexamine d
ĠAssis t
Ġphotograph s
Ġretre a
Ġnight s
ĠJimm y
Ġparticipat in
Ġideologi c
Ġparticipatin g
ĠOra n
Ġinterru p
Ġsustaine d
ĠPlayS t
Ġdeploy me
ĠPyth on
ĠStanf o
Ġdeployme n
Ġdeploymen t
Ġinterrup t
Ġfract i
Ġsocialis t
Ġadopti o
a sions
Ġadoptio n
Ġtermina t
Ġneighborhood s
c asions
Ġconsist s
ĠNoth ing
c casions
ĠStanfo r
ĠStanfor d
ĠPlaySt a
Ġcru e
o ccasions
ĠGu y
Ġideologic a
ĠPlaySta t
ĠPac k
o xide
ĠE D
Ġideologica l
ĠPlayStat i
ĠPlayStati on
ĠSi de
ĠNati ve
Ġambitio n
ĠAdv a
ĠMaga z
Ġfos t
Ġproject e
Ġnon s
Ġdisrupt i
Ġcrue l
Ġ occasions
Ġtrain s
Ġelabora t
Ġpre l
ĠPhilippine s
Ġprojecte d
ĠMin d
Ġmass e
Ġbag s
Ġequip p
ĠWay n
ĠMagaz in
Ġreflect s
Ġchil l
ĠLear n
ĠAirp o
ĠCommissione r
Ġmother s
Ġcei l
o rrible
ĠThir d
ĠSE C
Ġentit y
Ġimper i
Ġresident i
Ġaffect s
ina d
Ġaccusation s
ĠRoun d
Ġsupposed l
Ġjuris d
Ġsupposedl y
Ġresidenti a
Ġjurisd i
Ġresidentia l
Ġjurisdi c
Ġaccompanie d
ĠCat a
Ġto s
Ġpossibilit i
Ġflam e
Ġoutsta n
Ġoutstan d
Ġunco ve
ĠEveryt h
ĠMor m
ĠFi x
Ġpossibiliti e
Ġpossibilitie s
ĠCardin a
Ġoutstand in
Ġcalculat i
Ġoutstandin g
ĠCardina l
ĠEveryth in
Ġbi p
Ġstopp in
Ġsho re
ĠEverythin g
ĠBa rt
Ġjurisdic t
Ġjurisdict i
Ġjurisdicti on
ĠWayn e
Ġcook in
Ġdictat o
Ġdictato r
g inat
Ġthre s
ĠEar l
ĠAirpo rt
Ġgree t
Ġstoppin g
Ġthres h
Ġcop s
Ġsignifican c
ĠOsc a
Ġfel on
Ġsignificanc e
ĠHa p
ĠKick s
ĠSof t
Ġcalculati on
ĠMagazin e
ĠSpea ke
Ġspi k
Ġasc e
ĠNatu re
Ġseek s
Ġtextur e
ĠRo w
l over
Ġbrav e
Ġten u
ĠMalay s
Ġgest u
Ġoutdo o
Ġoutdoo r
ĠMorm on
Ġbiz a
Ġintim a
Ġcookin g
Ġprevent in
Ġpreventin g
Ġresidenc e
Ġbiza r
Ġconstruct e
Ġbreac h
ĠPic k
Ġceil in
Ġceilin g
Ġanimat e
Ġre o
ĠMcDon a
ĠUlt i
Ġintri g
Ġpot a
Ġsecu l
Ġconstructe d
Ġsecul a
Ġsecula r
Ġfacilitat e
Ġintrig u
Ġexplo de
Ġlayer s
ĠNic h
Ġtrac t
ĠOther s
Ġassist s
ĠMad r
Ġcalend a
ĠCu t
Ġwis d
gover n
Ġstaff e
ĠN ie
Ġwisd o
Ġwisdo m
Ġcalenda r
ĠAdva n
Ġexplorat i
Ġtheore t
Ġ `
h orrible
Ġtheoret i
i vely
Ġfrustrat e
Ġutiliz e
ĠBe y
Ġterr a
Ġbrain s
ĠHama s
Ġsleep in
Ġpla g
Ġbeate n
Ġforg i
Ġtheoreti c
Ġbit e
Ġforgi v
ĠT in
Ġswa p
Ġite r
Ġeru p
Ġprobabil it
Ġerup t
Ġfinish in
Ġplu m
s tile
ĠLar r
Ġfinishin g
ĠCommunis t
ĠD S
h iding
ĠSeve n
Ġciviliz a
Ġretrea t
Ġtrade d
Ġweake n
Ġexplorati on
ĠMann ing
Ġlas e
ĠC M
Ġtor n
i ginat
ĠFedera t
Ġwait e
r iginat
Ġcult i
Ġad h
Ġpraise d
ĠHot e
Ġpanel s
Ġreviewe d
ĠRubi o
Ġinteraction s
Ġpersua d
Ġelectric a
ĠD in
Ġview ing
ĠAbd u
Ġscan n
Ġnecess it
Ġelectrica l
Ġconf in
Ġcleare d
Ġciviliza t
Ġbo re
ĠCommon s
Ġfinal i
ĠBru s
ĠKurdis h
Ġtrip s
Ġcivilizat i
ĠVinc e
Ġspotte d
Ġcivilizati on
Ġvertic a
Ġvertica l
Ġsca t
Ġtripl e
Ġinf in
Ġshow c
p rofile
ĠTru e
Ġlase r
Ġminim i
ĠFi le
m ille
Ġsponsor s
Ġshowc a
Ġbic y
ĠMin e
ĠVe t
Ġdens it
ĠSing h
Ġpa v
Ġwhistl e
Ġbicy c
ĠPart n
Ġwalk s
ĠHa i
Ġbicyc l
ĠReme m
Ġfish in
ĠBake r
ĠRemem b
Ġrac k
ĠBer ke
ĠMadr i
ĠBe h
ĠBla k
ĠClou d
ĠNa p
ĠM D
Ġshowca s
Ġcrosse d
Ġrevenue s
Ġinfin i
Ġcru i
Ġ8 4
ĠFer g
o stile
o riginat
ĠComme r
ĠPatriot s
Ġanch o
Ġbizar re
â Ħ
Ġfishin g
ĠNas h
Ġdecor a
Ġcrui s
ĠB P
ĠPartn e
Ġproductiv it
ĠPi l
ĠCollin s
Ġover n
Ġthresh o
Ġthresho l
Ġthreshol d
ĠChan c
Ġtheat r
ĠCiti z
Ġinfini t
Ġenvironment s
ĠCompu t
ĠMalays i
ĠMalaysi a
Ġdecora t
ĠClimat e
ĠCitiz e
ĠCitize n
Ġambitio u
Ġambitiou s
Ġbla d
ĠAren a
Ġbarg a
u shed
Ġproductivit y
Ġpo k
Ġbarga in
Ġscreen in
ĠL L
Ġscreenin g
ĠM U
Ġbedr o
Ġlad y
Ġdeal t
Ġovern i
ĠAF P
Ġoverni g
Ġovernig h
ĠAd o
Ġovernigh t
Ġdisplay s
Ġearning s
ĠRa b
Ġadministrati v
Ġrang ing
ĠLow e
ĠHote l
ĠDo r
ĠB I
ĠVlad i
ĠT S
Ġunderg o
Ġrider s
ĠComp le
Ġtos s
Ġstructu r
ĠChanc e
Ġverif i
Ġprede c
Ġconvenien t
Ġaddicti o
Ġaddictio n
Ġadh e
ĠBea u
ĠOran g
ĠMarc o
ĠCorp s
ĠBlak e
ĠSp u
Ġconverte d
Ġsuit a
Ġunre l
ĠEff e
Ġgala x
ĠMur p
Ġsuita b
Ġcry s
.) ,
Ġadministrativ e
ĠPeac e
ĠMc M
Ġunfortunate ly
Ġwan d
ĠLarr y
Ġshort a
Ġpredec e
Ġunac c
h ostile
ĠDV D
ĠObse r
Ġshorta g
Ġshortag e
Ġcrys t
Ġconce i
ĠChron i
ĠMu c
Ġconce a
Ġconcea l
Ġdevastat ing
Ġcryst a
Ġaccomplish e
Ġcrysta l
Ġcalculate d
ĠDee p
ĠUlti ma
ĠFrank l
ĠYe l
Ġsafe l
Ġ hiding
ĠMurp h
Mich a
Ġaddress i
ĠPu l
Ġaddressi n
ĠKicks t
Ġaddressin g
ĠTal k
Ġ198 8
Ġprojecti on
Ġreflect e
ĠKickst a
Ġattorney s
Ġseque l
ĠNC A
Ġdispla c
ĠMississ i
Ġstereo t
ĠMississi p
Ġreflecte d
Ġleverag e
Ġpredece s
Ġreminde r
Ġcho r
ĠFederat i
ĠOx f
Ġpredeces s
ĠMon i
Ġpredecess o
Ġpredecesso r
Ġappear i
ĠMississip p
Ġreward s
ĠSma r
Ġrestrict e
ĠI V
Ġrestricte d
ĠMississipp i
Ġincor r
ĠProc e
Ġoverl a
Ġavailab i
Ġer o
Ġther m
Ġfro z
Ġavailabi l
Ġappeari n
Ġke r
Ġsleepin g
Ġappearin g
Ġreplica t
Ġconfirm a
Ġ18 7
ĠKicksta r
Ġresponde n
ĠKickstar t
Ġclass r
ĠMeg a
ĠChroni c
Ġclassr o
Ġsafel y
Ġavailabil i
Ġcree p
Ġfroz e
Ġclassro o
Ġavailabili t
Ġcorner s
Ġ originat
Ġclassroo m
Ġ9 2
Ġnewsletter s
h ort
Ġresponden t
Ġadapt e
ĠCommer c
Ġwo re
ĠFederati on
Ġuncomfortab le
ĠSk i
Ġlist in
ĠMcDona l
ĠBa h
Ġ36 0
ĠMcDonal d
ĠRona l
Ġcommo d
Ġa k
Ġson s
ĠMoha m
Ġlistin g
Ġclos u
Ġclosu re
Ġdetermin a
Ġcoordinat o
Ġcoordinato r
Ġsophisticat e
Ġparliament a
Ġparliamenta r
Ġtra s
Ġamong s
Ġscrutin y
Ġcompetitor s
ĠPar ke
Ġcoin s
Ġtheoretic a
Ġtheoretica l
Ġarrest s
Ġne s
Ġamongs t
Ġast o
Ġ horrible
Ġcompa s
ĠMadri d
Ġstereot y
Ġstereoty p
Ġavailabilit y
Ġsubmissi on
ĠRonal d
ĠMil it
Ġact e
Ġiter a
Ġexcess i
ĠBor de
Ġseed s
ĠYa h
ĠTai w
Ġrelie v
Ġpeppe r
Ġdelay e
Ġdepartment s
Ġnewspape rs
Ġcompas s
Ġfracti on
Ġexcessi ve
ĠHT M
ĠLu ke
Ġcomplexit y
ima l
Ġmeet s
ĠNich o
Ġexplo r
ĠMurph y
ĠM T
ina p
Ġrecip i
Ġvag u
Ġdelaye d
Ġrecipi e
Ġpi z
ĠDat e
ĠSwe d
Ġwinner s
Ġexplor ing
Ġconfirma t
Ġbuild s
ĠTaiw a
Ġsub c
Ġan e
ĠTaiwa n
Ġrecipie n
Ġpregnanc y
Ġcollect in
Ġrecipien t
Ġsophisticate d
Ġtough e
ĠJeff e
Ġcollectin g
ĠFurther m
ĠFurtherm o
ĠFurthermo r
ĠFurthermor e
ĠPa d
ĠOrang e
Ġcon q
ĠG S
Ġconq u
w ide
Ġstro k
ĠMcC on
ĠHTM L
ĠSmar t
f irst
ĠBerke le
ĠBerkele y
Ġnationalis t
Ġpersiste n
Ġempi re
Ġbee f
Ġ8 3
ĠTo y
ĠWe is
ĠRa in
ĠDen n
Ġcelebrate d
Ġalt o
ĠSo la
Ġpassion a
Ġcho p
Ġpiz z
ĠKickstart e
Ġabu n
Ġoverlo o
Ġoverloo k
Ġacte d
Ġchu n
Ġabun d
Ġtheme s
Ġpassiona t
Ġpassionat e
Ġpre a
Ġseparate d
Ġdeserve s
Ġconfin e
Ġrelative s
Ġabund a
ĠBan n
ĠCham b
Ġsuggestion s
Ġabunda n
Ġancho r
Ġdelegate s
Ġtranscri p
Ġparameter s
f ma
ĠQue b
ĠHung a
Ġtranscrip t
Ġfor b
Ġ inad
Ġto b
Ġmetr o
ĠPhy s
ĠHar b
Ġcourse s
Ġant e
ddit i
Ġworld s
Ġchemical s
Ġemb o
Ġsubscri p
Ġmechanic a
Ġmechanism s
Ġsubscrip t
Ġmechanica l
ĠCount r
Ġproc l
Ġ198 4
Ġgal le
ĠRes ou
Ġargu a
Ġdetaine d
Ġmean w
Ġargua b
Ġmeanw h
ĠReb e
Ġarguab l
Ġmeanwh i
Ġmeanwhi le
Ġbillion a
inap p
ĠHu f
Ġcommod i
ĠEagle s
Ġsti r
Ġwhal e
Ġquiet ly
Ġpol e
Ġpsychi a
ĠQueb e
Ġ9 8
Ġpsychia t
Ġbilliona i
ĠBuild ing
Ġnotori ou
Ġnotoriou s
Ġbillionai re
Ġpsychiat r
Ġbase m
Ġgal l
Ġce m
ĠHunga r
ĠQuebe c
âĶ Ģ
Micha e
ĠResou r
ĠSwed is
ĠEffe c
Ġfirearm s
ĠSwedis h
Ġinterse c
ĠEffec t
p tional
ĠNum b
ĠBr is
Michae l
ĠNicho l
Ġfortun e
ĠKickstarte r
ĠLu t
Ġintersec t
Ġprevent e
Ġcommand s
Ġover d
ĠResour c
ĠFi f
Ġded u
ĠCr it
ici de
Ġpend in
ĠResourc e
Ġpendin g
Ġconfirmat i
Ġequipp e
Ġequippe d
Ġbuff e
Ġconfirmati on
ĠD w
ĠM C
Ġbug s
ĠAbb o
Ġchun k
Ġincon s
Ġgradual l
Ġcem e
Ġgraduall y
ĠZa c
ĠST A
Ġfost e
ĠSw i
ĠMedic in
Ġremembe re
Ġside l
ĠDak o
ĠProg re
Ġensu r
Ġpronoun c
ĠAbbo t
Ġdebate s
Ġstrea k
ĠProgre s
Ġensur ing
Ġpursu it
ĠMel b
ĠSer ve
Ġremembere d
Ġnotab l
Ġneur on
Ġnotabl y
Ġrestr a
Ġcata s
Ġplay b
Ġwitnesse d
Ġfolde r
Ġcatas t
ĠSha w
Ġal p
Ġvagu e
Ġrepo s
Ġquestion in
Ġquestionin g
ĠSa la
Ġdeliver in
ĠFerg u
Ġdeliverin g
ĠHu l
Ġtend s
Ġcatast r
Ġmarr y
ĠFergu s
Ġrestra in
Ġspecializ e
Ġcatastr o
Ġcount l
Ġcountl e
Ġcountle s
Ġcountles s
ĠAtta c
ĠCult u
t ical
Ñ ı
ĠDako t
Ġgol de
ĠDakot a
ĠGh o
Ġcommentar y
Ġitera t
Ġcatastro p
Ġgolde n
ĠMitc he
Ġgh o
Ġgrant s
Ġtemp t
Ġaw k
ĠStra n
Ġauc t
Ġpric in
ĠLion s
Ġadapta t
Ġmeta p
Ġpricin g
ĠBer g
Ġcompl y
Ġadaptat i
Ġsla t
Ġact r
Ġ198 6
Ġprescri p
Ġshad e
ĠFly n
Ġadaptati o
Ġadaptatio n
ĠR C
Ġprescrip t
ĠArt s
ĠMor n
Ġswim m
r ican
ĠProgres s
Ġactr e
Ġactre s
Ġactres s
Ġgestu re
Ġpartial l
Ġaffi r
Ġ18 5
ĠMitche l
Ġac u
Ġaffir m
ĠNet a
Ġbond s
Ġnotif ic
ĠHur r
Ġher i
Ġpartiall y
Ġprescript i
ĠPhill i
Ġnotific a
ĠAt he
ĠG it
Ġauct i
Ġaucti o
Ġauctio n
ĠLad y
Ġsummar y
Ġannual l
Ġannuall y
Ġ16 0
ĠVladi m
Ġintensi t
Ġtil l
blishe d
ĠLa c
Ġcharacteriz e
ĠHuf f
Ġprospe r
ĠRoge r
Ġsubscript i
Ġsubscripti on
Ġreplac in
ĠPhilli p
Ġreplacin g
Ġgho s
Ġdeni a
Ġwip e
Ġoutb re
Ġnotifica t
Ġinca r
Ġreh a
Ġincorr e
Ġsize s
ĠChristian it
Ġnotificat i
Ġghos t
Ġnotificati on
Ġincorre c
Ġincorrec t
ĠF E
ĠFu r
ĠVladim i
ĠFalc on
ĠHu b
ĠManage r
Ġ7 9
Ġcomplet i
Ġunder c
inapp r
Ġinterpret e
Ġcle v
Ġcatc he
ĠVladimi r
inappr o
Ġdisappea re
ĠChristianit y
Ġtolera n
ĠAst r
inappro p
Ġdisappeare d
ĠSur ve
ĠCoal it
Ġtutor i
Ġpoor l
inapprop r
Ġstyle s
Ġpoorl y
i ability
Ġali k
inappropr i
ĠHa g
ĠCoalit i
Ġsatisf i
ĠT P
Ġheri t
Ġalik e
ĠCoaliti on
Ġclev e
Ġpermitt e
Ġreal m
Ġfur n
Ġherit a
ĠRei d
ĠCoa c
inappropri a
Ġprevente d
Ġconqu e
Ġnes t
inappropria t
Ġdesignate d
inappropriat e
Ġmilit i
ĠPo o
ĠMoto r
Ġmiliti a
Ġprevi e
Ġprevie w
Ġtob a
Ġconce d
Ġseri a
ĠB J
Ġdedu c
Ġoutbre a
Ġpermitte d
Ġsne a
ĠRelat i
Ġcitizens h
Ġtoba c
Ġcitizensh i
ĠBen j
Ġcitizenshi p
Ġimaginati o
Ġoutbrea k
Ġculti v
Ġimaginatio n
Ġplane s
ĠMit t
Ġ8 6
Ġrecepti o
ĠSpeake r
Ġpers e
Ġreceptio n
Ġethic a
Ġprotection s
Ġsnea k
Ġethica l
ĠLuc a
Ġtobac c
ĠNumb e
Ġp p
ĠHis p
Ġtobacc o
? '
ĠAlbert a
Ġcu re
Ġtras h
ĠBuddh is
ĠZ h
Ġindicat o
ĠReg is
Ġwork p
Ġgener ou
Ġgenerou s
Ġab d
ĠHisp a
Ġcompleti on
Ġexpi re
Ġtrag i
Ġcultiv a
Ġske t
ĠYan g
Ġindicato r
ĠOcc u
ĠWat s
ĠL S
Ġfascinat in
Ġfascinatin g
ĠIa n
Ġalto g
Ġrecreat i
ĠG I
Ġsatisfi e
Ġtrack e
Ġaltog e
ĠIn g
Ġrecreati o
Ġrecreatio n
Ġaltoge t
Ġaltoget h
Ġfrag m
Ġaltogeth e
Ġaltogethe r
Ġpark s
Ġun o
Ġfragm e
Ġfragme n
Ġfragmen t
Ġ mille
Ġpress in
Ġcontent s
ĠHispa n
Ġtie r
ĠRel i
Ġnutr it
ĠM V
Ġpressin g
Ġsmu g
ĠMcCa rt
Ġsket c
ĠSa i
c hed
Ġstretc he
ĠHe b
Ġinstant l
Ġinstantl y
Ġnutrit i
ĠUS D
ĠEnvironment a
ĠEnvironmenta l
ĠChar g
Ġfacult y
ĠCop y
Ġma m
ĠVik ing
Ġcou s
Ġepi de
Ġtragi c
ĠMelb ou
ĠMarshal l
Ġstructur a
ĠMelbou r
ĠMelbour n
ĠNCA A
ĠSw is
Ġagricultur e
Ġstunn in
Ġstunnin g
Ġcomed i
ĠGe a
ĠMo ra
Ġty r
Ġpowe re
Ġunre a
ĠMelbourn e
Ġcrow n
Ġpowere d
ĠCongress i
Ġsil l
ĠCent u
Ġstructura l
ĠSma l
Ġreaction s
ĠDisc o
ĠAr r
ĠCongressi o
Ġseria l
ĠMedicin e
ĠCongressio n
ĠCongression a
ĠCongressiona l
ĠLi v
Ġstrok e
Ġlay ou
Ġlayou t
ÑĤ Ð
ĠCa v
ĠConc e
ĠForce s
ĠHunte r
Ġcapabilit y
Ġfle w
ĠMitchel l
Ġworkp l
Ġfill in
Ġworkpl a
ĠCentu r
ĠCamp a
ĠEd m
Ġfillin g
Ġmaker s
Ġnominat e
ĠAdditional l
ĠMuc h
Ġsidel in
ĠAdditionall y
ĠPin t
Ġworkpla c
Ġfriends h
Ġworkplac e
Ġfriendsh i
Ġfriendshi p
Ġmarin e
Ġstom a
Ġaccomplishe d
ĠCarl o
ĠFlyn n
ĠWar d
Ġfilm m
Ġstresse d
Ġresembl e
Ġgro c
ĠModer n
r ocks
Ġfilmm a
ĠLaw re
ĠE M
Ġfilmma k
T witter
Ġgreen h
Ġgroc e
ĠVe rs
Ġelaborat e
Ġgreenh o
Ġspik e
Ġbak e
Ġethic s
ĠHap p
ĠStor m
Ġtruck s
Ġnight ma
ĠTribu n
ĠLawre n
Ġsing in
Ġrepl y
Ġ9 6
Ġ hostile
Ġsuitab l
ĠWats on
Ġ7 00
Ġreflecti o
Ġreflectio n
ĠLuc k
ĠBru n
Ġarguabl y
ĠEv i
.âĢĻ âĢ
ĠUltima t
Ġbuyer s
Ġadvise d
Ġcircle s
Ġsma s
ĠSafe t
Ġtransparen t
Ġmetap h
ĠTemp le
Ġtight e
Ġcru d
Ġdevote d
Ġsingin g
ĠHispan i
ĠBarc e
ĠGal le
Ġevaluat i
Ġav i
Ġclean e
Ġta t
Ġderive d
Ġscratc h
ĠHo c
Ġna k
Ġrab b
Ġtoil e
Ġgreenho u
Ġgreenhou s
Ġgreenhous e
ĠDev i
ĠVer i
ĠNeta n
Ġadvoca c
Ġchemi s
Ġsevent h
Ġpronounc e
Ġawk w
Ġawkw a
ĠTam p
Ġawkwa r
Ġawkwar d
Ġjustif ie
Ġcal i
Ġline b
ĠExpe r
Ġadvocac y
Ġboundar i
Ġboundari e
ĠIndian s
ĠBarce l
Ġcat s
Ġboundarie s
Ġprint in
Ġ10 1
ĠTr y
Ġprintin g
ĠSession s
ĠPhotograp h
ĠMat e
ĠLawren c
Ġpi x
ĠLawrenc e
Ġreveal in
Ġgrac e
ĠLe i
Ġtravele d
Ġrevealin g
Ġcous in
ĠSal t
ĠNetan y
Ġfib e
Ġdistan t
ĠEvan s
Ġcompani on
Ġmechanic s
Ġdist o
ĠNetany a
Ġchemis t
Ġtan g
Ġfibe r
ĠCamp b
ĠSafet y
Ġfreez e
Ġten a
Ġtwe a
ĠCampb e
ĠCampbe l
Ġaudience s
Ġlineb a
Ġhistorical l
Ġ) ;
Ġhistoricall y
Ġlineba c
Ġlinebac k
Ġped e
Ġtwea k
Ġspecifi e
Ġmandat o
ĠRememb e
Ġdisplac e
ĠBarb a
l ican
ĠM B
Ġdisto r
ĠMa ra
ĠHi de
Ġreact o
Ġentit i
Ġstal l
ĠBas ic
Ġplac in
ĠRose n
ĠCampbel l
Ġtransform e
Ġplacin g
Ġsti f
Ġapply i
Ġmidfiel de
Ġapplyi n
Ġmidfielde r
Ġapplyin g
ĠConsi d
Ġamb u
Ġoversi g
Ġentiti e
ĠInv a
Ġentitie s
Ġdis k
Ġdistor t
Ġlabo ra
ĠEn c
Ġfun e
Ġine f
Ġund o
Ġbun d
Ġoversig h
Ġoversigh t
ĠUltimat e
Ġsidelin e
Ġmandato r
ĠFergus on
Ġshift e
Ġprocl a
Ġexpert is
Ġexpertis e
Ġsystem a
Ġbri c
Ġinef f
Ġquant u
Ġpizz a
Ġquantu m
Ġso d
ĠB L
Ġreacto r
ĠBarcel on
Ġfocuse s
Ġattracti o
Ġattractio n
Ġunnecessar y
Ġpainte d
Ġsystema t
ĠClea r
Ġcommodi t
ĠSen s
Ġsystemat i
Ġja m
Ġvictor i
Ġstoma c
ĠBlo g
ĠNetanya h
Ġconclusion s
ĠTod d
Ġfran k
Ġprescripti o
Ġprescriptio n
ĠNetanyah u
Ġear s
Ġcustomi z
Ġslave r
Ġover he
Ġpenalt i
Ġpow d
ĠOxf o
Ġfrustrate d
Ġpowd e
n ational
ĠOxfo r
ĠOxfor d
Ġdep r
Ġpenalti e
Ġspu r
ĠMult i
Ġpenaltie s
Ġlabora t
Ġevaluati on
ĠPost s
ĠSam u
ĠChamb e
Ġcenso r
Ġillegal l
ĠBut t
Ġillegall y
Ġlaborat o
Ġsurre n
Ġstronge s
Ġstronges t
ĠBarcelon a
Ġsurren d
Ġoverhe a
Ġdisturb in
Ġstomac h
Ġmandator y
Ġdisturbin g
Ġsurrend e
ĠRu d
ĠCe rt
Ġ rocks
Ġcrop s
ĠBu y
ĠDan n
Ġlaborato r
Ġver d
ĠArk a
Ġstrike r
ĠParke r
Ġspo i
Ġreliev e
Ġspoi l
Ġdenia l
ĠRemembe r
Ġunderstand s
Ġlineback e
ĠAr n
Ġchart e
Ġlinebacke r
Ġarch a
Ġaccepta n
ĠMag n
Ġexperienc ing
Ġreproduc t
Ġintensit y
Ġbehav e
Ġreproduct i
ĠConsid e
Ġacceptan c
Ġacceptanc e
Ġenjoy ing
Ġ197 9
Ġgalle r
ĠMont a
Ġfune r
Ġsympat h
Ġfuner a
Ġbusiness m
Ġconcei v
Ġrespond in
Ġrespondin g
Ġaccelerat e
Ġcleve r
Ġconve y
Ġnan o
Ġ9 3
Ġbear s
ĠAgain s
Ġref re
à ¸
Ġblogg e
ĠAgains t
Ġmanipulat e
Ġpes t
Ġthum b
Ġresu r
Ġsafe r
ĠRa ve
Ġcount i
Ġvacat ion
Ġvers a
Ġflexib l
ĠThu n
Ġappl e
Ġunloc k
Ġcomput in
ĠDep u
ĠPe p
Ġcomputin g
ĠFC C
Ñ ĭ
ĠFriend s
Ġbric k
Ġparticle s
ĠCon d
ĠD J
Ġwar d
ĠDe la
Ġcontamina t
Ġdis in
ĠArc t
Ġcontribut in
Ġcontributin g
ĠEy e
Ġcounti e
ĠRi f
Ġcountie s
vide n
ĠDra f
Ġreceive s
ĠAl m
Ġcrud e
Ġcook i
Ġgroce r
Ġattendan c
ĠBenj a
Ġattendanc e
Ġcooki e
Ġdensit y
ĠDraf t
Ġdetecti ve
Ġpin k
ĠRichard s
Ġcompris e
Ġpede s
ĠLeg is
Ġ8 7
ĠHispani c
dditi on
Ġtreasur e
Ġfaste s
ĠMc L
Ġfastes t
Ġgain in
Ġgrate f
Ġgratef u
Ġgainin g
Ġgratefu l
ĠCo he
ĠSta l
ĠRai de
Ġchar m
Ġup w
Ġpedes t
Ġpi on
Ġsubstitut e
ĠDepu t
ĠBon d
Ġbund l
Ġconservati on
ĠCamb r
Ġimperi a
Ġaut i
ĠChe s
Ġ198 7
Ġelevat e
ĠBarn e
Ġtimel i
ĠChronic l
Ġequat i
Ġimperia l
Ġequati on
ĠSon g
ĠSte r
ĠD h
Ġrespect e
Ġfea s
ĠCas s
ĠChal le
ĠWalt e
Ġthrill e
Ġscenario s
ĠSwis s
¼ Ð
Ġbounc e
ĠBenja m
ĠSus a
ĠV u
ĠRegis t
Ġtro l
Ġmed it
ĠChalle n
ĠLegis l
ĠLegisl a
Ġauti s
Ġcompose d
ĠChronicl e
ĠB in
ĠOrigin a
Ġpar o
ĠLegisla t
Ġleas e
Ġrefre s
Ġchan t
Ġinsan e
Ġresto r
Ġner ve
c tions
Ġper v
Ġpar s
ĠMilit a
ĠCambr i
ĠAssist a
ĠHon d
ĠAssista n
Ġout e
r ushed
Ġwo l
Ġepide m
Ġplug in
Ġinsur e
Ġepidem i
ĠBenjam in
ĠBloom b
ĠHurr ic
ĠHurric a
ĠChallen g
ĠHor n
Ġug ly
ĠImp e
ĠBen e
ĠHurrica n
Ġinitiative s
ĠBloomb e
ĠBloombe r
Ġexchange s
Ġtrol l
ĠSo ma
ĠBloomber g
Ġscar y
Ġdesire d
ĠFa me
Ġfan c
ĠRod r
ĠHurrican e
Ġdeci d
ĠK ie
Ġrag e
Ġgo r
Ġrespecte d
Ġsuspici o
ĠKy le
Ġpion e
Ġbalance d
ina b
Ġsuspicio u
Ġsuspiciou s
Ġmedit a
Ġslo g
ĠCircu it
Ġcontroll in
Ġsentence s
Ġrese t
Ġcontrollin g
Ġpione e
Ġtimeli n
Ġcorrect i
Ġtimelin e
Ġmedita t
ĠJa r
Ġsens a
ĠPant her
Ġsuprem a
ĠNiger i
Ġunfo l
ĠSwit z
Ġcultiva t
ĠNigeri a
Ġjudicia l
ĠCollect i
ĠMain e
Ġcondemn e
Ġsystemati c
Ġbreak f
Ġpersuad e
Ġmap p
Ġpredat o
Ġslat e
Ġcondemne d
Ġpredato r
Ġbreakf a
ĠSwitz e
ĠPerson a
ĠMach in
ĠSwitze r
Ġtoile t
Ġwing s
Ġsuprema c
Ġbreakfa s
Ġcycl i
Ġrevis e
Ġfavor a
ĠClass ic
Ġbreakfas t
Ġshorte r
Ġtouche d
ĠR ing
Ġfavora b
Ġpeer s
Ġchurc he
Ġagricultur a
ĠMcCon n
Ġcrowd s
ĠRecord s
Ġcla u
Ġpart is
Ġcool e
ĠDis p
Ġtrapp e
Ġchurche s
ĠCor re
Ġsensa t
Ġalternat e
Ġagricultura l
Ġastron o
Ġpop p
Ġastrono m
ĠResp on
Ġtutori a
Ġtutoria l
Ġbas s
ĠWiki p
Ġherita g
Ġheritag e
Ġreserve s
Ġlegend a
Ġbone s
ĠVot e
Ġslaver y
Ġculture s
ĠMu h
ĠAb o
Ġfunera l
Ġpartis a
Ġpartisa n
Ġgras p
ĠRic e
Ġcri c
ĠAnn e
ĠBrand on
Ġlegenda r
ĠJet s
ĠBuff a
ĠProf i
ĠIs s
ĠLau re
Ġfrig h
Ġfrigh t
ĠArct ic
ĠAp a
ĠSusa n
Ġtreati n
Ġtreatin g
Ġpay s
Ġcac he
ĠDy n
Ġpresse d
Ġflexibl e
Ġles b
ĠSto p
ĠPri z
Ġsecure d
Ġclau s
Ġspace c
Ġtenu r
Ġfier c
Ġsubsidi e
Ġanimate d
ĠWikip e
ĠMcConn e
Ġisland s
Ġsubsidie s
ĠTamp a
Ġfierc e
Ġtenur e
ĠVer m
Ġinfr in
ĠCow b
Ġinfrin g
ĠMcConne l
ĠPi ra
ĠT D
ĠWikipe d
Ġanticipate d
Ġ198 5
ĠAb s
Ġden t
ĠLam b
Ġnak e
ĠBey on
Ġformal l
Ġspacec r
Ġsensat i
ĠBuffa l
Ġformall y
Ġspacecr a
ĠWikiped i
Ġspacecra f
Ġspacecraf t
Ġcric k
E dit
Ġsensati on
Ġsoc k
Ġflexib i
ĠWe in
Ġflexibi l
s ized
ĠMcConnel l
Ġtele c
Ġresign e
Ġnake d
ĠGui l
Ġcrypto c
Ġfreel y
Ġstaffe r
ĠBo m
Ġresigne d
Ġphilosoph i
ĠLan c
Ġsp he
ĠOrigina l
ĠWikipedi a
Ġjoke s
ĠCharg e
Ġlesb i
ĠMobi le
Ġbanne r
ĠAbbot t
Ġbu z
ĠClos e
Ġmac r
Ġcrick e
Ġlane s
Ġscr o
Ġrespondent s
Ġshe r
Ġattribute d
ĠBuffal o
Ġlesbi a
Ġlesbia n
Ġcricke t
Ġshar k
Ġar s
ĠHol o
Ġatheis t
Ġla g
Ġ13 0
Ġinstrument s
ĠKe it
Ġplu n
Ġflexibil it
Ġprioriti e
Ġprioritie s
ĠShad o
Ġ193 0
ĠE A
Ġdispa r
ĠKerr y
Ġcontende r
ĠPh on
Ġparticipate d
ĠAward s
Ġtribu t
govern m
Ġbuz z
governm e
governme n
ĠPriz e
governmen t
ĠCowb o
Ġelder l
Ġend a
ĠCowbo y
Ġidentifi c
Ġprovinc i
Ġspread in
ĠEp is
Ġelderl y
ĠHa c
ĠTurn e
Ġrecu r
n izing
Ġperpet r
Ġspreadin g
Ġperpetr a
Ġbrief in
Ġbriefin g
Ġsphe r
Ġprovinci a
ĠGal l
Ġquote s
Ġdis l
ĠNa r
Ġperpetra t
ĠArka n
Ġidentific a
Ġstee p
Ġworth y
ĠMissi on
Ġgar b
Ġflexibilit y
Ġexcite m
Ġexcitem e
Ġexciteme n
Ġexcitemen t
Ġemba s
Ġembas s
Ġbet r
ĠAdvan c
Ġ11 0
ĠBou l
ĠNi x
ĠChalleng e
Ġpal a
ddition a
Ġknoc ke
dditiona l
ĠTrea t
Ġcontent i
Ġappeal s
l iver
Ġprop he
ĠShado w
Ġheroi n
Ġext in
Ġendu re
Ġman g
ĠCohe n
Ġreache s
Ġ inappropriate
Ġprovincia l
Ġun ma
Ġexpe d
Ġabsen t
ĠSc re
Ġcruis e
Ġinst in
Ġreha b
Ġ lover
Ġdesigner s
ĠChu c
Ġeconomi e
ĠCan t
ĠPas t
Ġassum i
Ġpix e
Ġforgiv e
Ġafter m
Ġadvantage s
Ġinstin c
Ġinstinc t
Ġpixe l
ĠDou b
ĠCreat i
ĠNav a
Ġrap p
Ġafterm a
Ġspa t
ĠWi re
Ġrepu b
ĠFort u
Ġzone s
ĠRaide r
Ġdetermina t
Ġextin c
ĠFis he
ĠSpee d
Ġenda n
Ġinterr o
Ġinduc e
Ġendan g
ĠTex t
Ġendang e
Ġassumi n
Ġextinc t
Ġglan c
ĠCentur y
ĠB U
Ġassumin g
ĠBarr y
ĠOffic i
Ġeconomie s
W hich
Ġeditor s
Ġby t
Ġdiss o
Ġpreva i
Ġprevai l
Ġrepub l
Ġcorp s
Ġrepubl i
ĠAbdu l
ĠLyn c
ĠSwitzer l
ĠSwitzerl a
ĠSwitzerla n
ĠDomin i
ĠSwitzerlan d
Ġmassa c
ĠProfi le
ĠStrat e
Ġupw a
ĠBea s
ĠWal la
Ġknocke d
Ġwrappe d
Ġidentifica t
Ġessen c
Ġcryptoc u
ĠFrankl in
ĠP P
Ġupwa r
ĠSaint s
Ġupwar d
Ġsend s
Ġae s
Ġconj u
Ġcryptocu r
Ġbea m
ĠNei l
Ġdeliberate l
Ġdeliberatel y
Ġinterro g
Ġcryptocur re
Ġcommut e
Ġavoid e
Ġprofit a
Ġanarch i
ĠOffici a
Ġessenc e
Ġcryptocurre n
Ġidentificat i
Ġtension s
Ġfresh m
Ġprofita b
Ġidentificati on
Ġ rushed
Ġcryptocurren c
Ġcompre s
Ġannounc i
Ġannounci n
Ġalternative s
ĠCin c
ĠWor ke
Ġresolve d
Ġannouncin g
Ġrefus in
Ġcast in
ĠDa s
Ġredi s
Ġneg le
Ġrefusin g
ĠSubs c
Ġdetect e
Ġmet re
ĠRh o
Ġcastin g
Ġpose d
Ġlegendar y
Ġprobabilit y
Ġinterrog a
Ġnegle c
Ġneglec t
Ġdetecte d
ĠPue rt
ĠPol is
ĠJ S
Ġjuic e
ĠCri m
Ġta m
Ġpledge d
Ġinterroga t
Ġinfa m
Ġprecede n
ĠSubsc r
ĠSubscr i
Ġcompres s
ĠPlane t
ĠBir d
Ġfloat in
Ġwelcome d
Ġunp a
ĠSan c
ĠPartne rs
Ġgrabb e
ĠOccu p
Ġtext s
r kn
Ġcur r
Ġautomat e
ĠK ind
Ġbyt e
Ġinsec t
ĠTerr y
Ġfloatin g
Ġtrigger e
ĠChuc k
ĠJo a
Ġtriggere d
Ġabo l
ĠAnima l
Ġidentify ing
Ġparad e
ĠFa b
ĠAn c
Ġport f
Ġnightma re
Ġexpen d
Ġsubscribe r
ĠEar ly
ĠWork s
ĠW O
Ġmatu re
ĠBook s
Ġtrappe d
Ġdescen d
ĠBla n
ĠOfficia l
Ġportf o
Ġequit y
Ġabol i
Ġportfo l
Ġportfol i
Ġportfoli o
Ġavoide d
ĠPsych o
Ġsatisfie d
Ġga u
Ġpreva l
Ġpatr on
b lican
Ġreminde d
Ġshifte d
Ġsuitabl e
u blican
ĠUn c
ĠKir k
Ġperpet u
Ġnu l
Ġtendenc y
Ġretri e
ĠGho s
r vice
Ġtri u
Ġassure d
e rvice
ĠMorn ing
p ublican
ĠTer m
ĠArt h
ĠTra i
Ġexamin a
Ġconf o
Ġpreval e
ĠVer y
n side
ĠGP U
ĠTa c
Ġstock s
ĠHol la
Ġcal o
ĠJa g
e publican
Ġprevale n
Ġdist re
Ġindicat in
ĠArm s
Ġwood e
ĠHistor i
Ġindicatin g
R epublican
ĠSele c
Ġf t
Ġdistre s
Ġdistres s
Ġexamina t
Ġshare h
Ġshareh o
Ġren a
Ġprost it
Ġtemporar i
Ġexaminat i
Ġbedro o
Ġexaminati o
Ġexaminatio n
Ġprostit u
Ġfit n
ĠK le
Ġbedroo m
ĠEt her
Ġshareho l
Ġsharehol d
ĠPo k
ĠTru de
Ġtechnical l
ĠApp l
ĠBrus s
Ġtechnicall y
ĠStrate g
ĠLync h
ĠFantas y
ĠPuert o
ĠWal k
ĠMu m
Ġwhite s
Ġindig e
Ġearlie s
ĠE N
ĠProte s
Ġearlies t
Ġwaite d
ĠApp a
Ġthrow s
Ġ14 0
Ġsta i
Ġpresum a
ĠPen c
ĠFortu n
Ġpresuma b
Ġprostitu t
ĠDia n
Ġpresumab l
ĠRac e
ĠCreat e
ĠOsca r
ĠWon d
Ġadhe r
ĠCampa i
ĠTra ve
ĠCampai g
ĠCampaig n
Ġforb i
Ġprea c
Ġmacr o
N orth
Ġcalo r
Ġdecid ing
ĠO ma
Ġcorrespond in
Ġtemporari l
Ġforbi d
Ġtemporaril y
Ġcorrespondin g
Ġterrif i
Ġcomplian c
Ġtriu m
Ġtruste d
Ġsurvivor s
ĠArkan s
ĠAdvanc e
ĠGr u
ĠBom b
ĠBh a
Ġtat t
Ġden ou
Ġdeterminat i
Ġmassac re
Ġpresumabl y
Ġsk u
Ġcomplianc e
Ġcalor i
Ġshowe r
Ġfitn e
Ġgen i
Ġfitne s
ĠBruss e
Ġfitnes s
ĠArkans a
ĠD M
Ġblad e
H aving
ĠCla u
Ġfoste r
ĠProtes t
ĠPac ke
Ġcasual t
Ġplag u
Ġedit in
Ġbelo v
Ġnai l
ĠB T
ĠA G
Ġbundl e
Ġeditin g
Ġdefender s
Ġstrip p
ĠLibert y
Ġbelov e
ĠBrusse l
Ġbelove d
d ding
ĠCorn e
Ġbra k
ĠSelec t
ĠFishe r
Ġconduct in
Ġconductin g
Ġaer o
ĠAppe a
Ġovert u
Ġpass p
Ġfroze n
ĠCan c
Ġbranc he
ĠRoo m
ĠMi ra
Ġmille n
Ġwid t
Ġwidt h
Ġaes t
ĠTrude a
ĠPet r
ĠTrudea u
Ġreso n
Ġgrabbe d
Ġclick in
ĠConside r
Ġsociet i
Ġsocieti e
Ġsocietie s
ĠRoge rs
Ġendorse me
Ġendorseme n
Ġendorsemen t
Ġpen e
Ġgli m
ĠRef o
ĠÂ ©
Ġclickin g
ĠJeffe rs
Ġwithdraw a
ĠColo m
ĠChristi e
Ġcoc a
Ġwithdrawa l
Ġstee r
Ġsni p
ĠWW E
ĠIR S
Ġsex i
Ġprosecut e
Ġwarr i
ĠDoug l
ĠNorw a
ĠPubl is
Ġland m
Ġprol i
Ġalp h
Ġrall i
Ġwarri o
ĠNee d
ĠMal i
Ġparliamentar y
Ġralli e
Ġprel i
Ġreson a
Ġtwi t
Ġwarrio r
ĠRa l
Ġwishe s
Ġbutton s
ĠCha s
ĠDougl a
Ġspark e
Ġwar f
ĠMi le
Ġcollege s
ĠDougla s
Ġfle s
Ġinfect e
Ġbarrier s
Ġspectac u
Ġattitude s
Ġspectacu l
ĠMone y
t ice
Ġsque e
Ġalph a
Ġaest h
Ġsparke d
Ġcra n
Ġaesth e
ĠWrit e
Ġurgen t
ĠIv a
Ġspectacul a
Ġinfecte d
Ġco he
ĠArch i
ĠBeng a
ĠAlt e
Ġpen n
Ġspectacula r
Ġaesthe t
Ġpreli m
ĠMilita r
Ġmeta b
ĠKar l
ĠCambri d
ĠCambrid g
Ġtraditional l
Ġtraditionall y
ĠBrussel s
ĠBorde r
Ġplanet s
ĠCambridg e
Ġthere b
Ġtourist s
Ġexhibit i
ĠFD A
Ġpurchase s
ĠUnivers e
Ġker n
Ġexhibiti on
ĠIsland s
Ġproli f
Ġblogge r
Ġbin a
Ġrec y
Ġthereb y
ĠTheat r
Ġpene t
Ġbull y
ĠRefo r
Ġexport s
ĠTy le
ĠUr b
Ġga ra
Ġpenet r
ĠArkansa s
Ġsatisf a
ĠMemor i
Ġ Ï
Ġpremie r
Ġshrin k
Ġpenetr a
Ġverd i
Ġrecy c
Ġskill e
Ġseparati on
ĠKo s
Ġconfront a
Ġrecyc l
ĠU A
ĠColom b
ĠThun de
ĠBrad y
ĠBrazil i
Ġbetr a
Ġbreak d
ĠBea rs
Ġdecide s
Ġdeterminati o
Ġdeterminatio n
ĠConfe d
ĠBrazili a
ĠCle m
ĠUnt i
ĠTre n
Ġadmit s
Ġsatisfa c
ĠCorb y
Ġlegislat o
ĠHolla n
Ġconfronta t
Ġlegislato r
Ġadminist e
Ġconfrontat i
Ġadministe r
ĠVis it
Ġconfrontati on
ĠConfed e
ĠBrazilia n
ĠConfede r
ĠConfeder a
Ġeconomist s
Ġminimi z
Ġmedia n
ĠE X
Ġapproach i
Ġapproachi n
Ġje a
Ġmagn it
ĠNe p
Ġgrow s
ĠMuh a
Ġapproachin g
Ġmetab o
ĠSe g
Ġmagnit u
Ġpara g
Ġmagnitu d
Ġretrie v
ĠThunde r
Ġdispa t
Ġinclusi o
Ġsatisfac t
Ġinclusio n
Ġdispat c
ĠSpi de
ĠGar c
ĠSmal l
ĠEss e
ĠEb o
ĠUnti l
ĠKil l
Ġmeant i
Ġaccommodat e
Ġcor d
b ble
Ġcompara b
Ġmeanti me
Ġmagnitud e
ĠWarrio rs
Ġinteracti v
Ġpursu in
Ġpursuin g
Ġbetra y
ĠYah o
Ġslo p
Ġaus t
Ġconced e
ĠKris t
ĠStran g
ĠRave n
ĠStee le
ĠCol on
a nizing
Ġaesthet i
Ġlike l
ĠYaho o
ĠKat h
Ġaestheti c
Ġ9 4
Ġdisgu s
Ġrelo c
Ġdisgus t
ĠGo s
Ġaggre g
Ġtheo l
Ġado r
Ġverdi c
Ġcommenta t
Ġt s
Ġverdic t
ĠVale n
Ġaggreg a
ĠHarve y
g anizing
Ġmetabo l
Ġfon t
Ġaggrega t
r ganizing
Ġtheol o
Ġpenetra t
Ġtheolo g
Ġmas c
ĠCont a
Ġnutriti on
Ġunit y
ĠColumb u
ĠBenga l
Ġfeed in
ĠKeit h
Ġembed de
Ġincons i
Ġsimulat i
Ġfeedin g
ĠCy c
ĠBo d
Ġrew r
Ġsecret s
ĠFar m
ĠBea r
Ġdenou n
ĠSch a
Ġreloc a
Ġdenoun c
ĠColumbu s
Ġsharehold e
Ġassign m
Ġassignm e
Ġassignme n
Ġembedde d
Ġshareholde r
Ġassignmen t
ĠMemori a
Ġse w
Ġind o
Ġsimulati on
a rkn
Ġpure l
Ġbacke r
ĠCar n
Ġpurel y
Ġton g
ĠConservative s
Ġsquee z
o ptional
ĠBre i
ĠWiki L
Ġdonate d
Ġpis t
Ġbreakd o
Ġbreakdo w
Ġbreakdow n
ĠFo s
ĠJeffers on
ĠWikiL e
ĠCrow n
ĠWikiLe a
Ġ10 8
Ġende a
Ġindige n
ĠRodr i
Ġbicycl e
Ġshowcas e
Ġbea n
ĠBenn e
Ġ8 9
ĠPhon e
Ġreloca t
ĠW R
Ġinc h
Ġproblem a
Ġoute r
ĠLi l
Ġjac ke
ĠFor me
Ġtrium p
ĠVerm on
Ġfailure s
Ġpota t
â Ĩ
ĠYou t
Ġtriump h
Ġlicense d
Ġprogramme r
ĠAt h
Ġinex p
ĠWikiLea k
ĠPrev i
Ġpermit s
ĠVermon t
Ġpath o
ĠSoma l
Ġwarning s
Ġstum b
Ġpotat o
ĠRe le
Ġsher i
Ġstumb l
Ġ loving
Ġrecou n
Ġrecoun t
Ġco t
Ġsla s
Ġsheri f
ĠWi z
Ġdispe n
Ġcomparab l
Ñ Į
Ġsherif f
Ġbatter i
Ġaccountab l
Ġdispen s
Ġcorrelat i
ĠNorwa y
ĠWikiLeak s
ĠDeput y
Ġunin t
ĠJa z
Ġmal l
Ġbatteri e
Ġaccountabl e
Ġcred e
Ġlast e
Ġbottle s
ĠC z
Ġbelong in
ĠMon a
ĠWeb s
Ġappl a
ĠDet e
Ġbelongin g
Ġnul l
Ġarbitra r
Ġcriti q
Ġarriv i
Ġbatterie s
Ġcritiq u
ĠLatin o
Ġsuccess o
Ġappla u
Ġkern e
arkn e
Ġanarchi s
ĠHu d
Ġ hed
ĠSen i
ĠBerna r
Ġeva n
Ġkerne l
Ġsill y
Ġampl i
ĠCuba n
Ġinfinit e
Ġfinanc in
Ġbind in
Ġfinancin g
Ġasserti o
Ġassertio n
Ġcompar in
ĠCorby n
ĠA q
Ġdemo l
Ġbindin g
Ġcomparin g
ĠRE U
Ġsucceed e
Ġstai r
Ġover h
Ġsucceede d
Ġregulator s
Ġgra y
Ġarrivi n
ĠTurne r
Ġreluctan t
Ġfre a
ĠRoo s
Ġfarm s
Ġarrivin g
Ġprevent i
Ġint u
Ġwonde re
Ġafterma t
Ġaftermat h
Ġanaly t
Ġsuccesso r
Ġabus i
Ġwondere d
ĠConnecti c
Ġmeasu r
ĠVit a
Ġcount in
Ġcrede n
Ġgift s
ĠConnectic u
ĠConnecticu t
Ġinstitution a
Ġfire f
Ġinstitutiona l
ĠMerc e
Ġsupplie r
ĠLan e
ĠNat h
Ġcountin g
ĠMemoria l
o rganizing
ĠTo b
Ġsexual i
Ġserv a
Ġdecrease d
ĠCel t
Ġdisorder s
ĠJu a
Ġtreatment s
ĠMad is
Ġphenomen a
ĠDyn a
Ġdestroy ing
Ġsue d
ĠNea r
ĠSwa n
ĠBe g
Ġplain t
ĠDu e
Ġcu m
ĠYan ke
ĠHon o
Ġclaus e
Ġlaste d
ĠWA T
ĠFea t
ĠPap e
Ġadmir e
Ġfavorab l
ĠElectr i
Ġfou l
Ġbeneficia l
Ġfrea k
ĠUR L
Ġresign a
Ġclas he
Ġgovern in
Ġgovernin g
ĠFire f
ĠPint e
Ġmasse s
Ġreu n
ĠMet h
ĠSpen c
ĠSta rs
ĠVi o
ĠBro s
A dditional
ĠSpenc e
Ġrecons t
Ġfemale s
ĠSeni o
Ġintention s
Ġreun i
Ġinfam o
Ġinfamo u
Ġinfamou s
ĠDN C
Ġmillen n
Ġresigna t
Ġadvance s
Ġresignat i
Ġportra it
Ġresignati o
Ġresignatio n
Ġmillenn i
Ġsoon e
ĠHill s
Ġlack ing
ĠMadis on
Ġdisp r
Ġcorrelati o
Ġcorrelatio n
ĠPinte r
ĠTheatr e
ĠREU T
Ġinterfere n
ĠLuca s
Ġintima t
ĠREUT E
ĠREUTE R
ĠKo c
Ġdispos a
Ġslowe r
ĠS is
ĠLet t
Ġinterferen c
Ġwre c
ĠCommunication s
Ġinterferenc e
ĠGalle r
Ġmemora b
ĠReg u
ĠMont e
Ġserva n
Ġwrec k
Ġcolli s
Ġanalyt i
Ġwai v
ĠQa t
Ġdispr o
Ġservan t
ĠCinc in
ĠREUTER S
ĠBernar d
Ġwarf a
ĠBron c
ĠArth u
Ġtreat y
Ġanalyti c
Ġbankrupt c
Ġisolat i
ĠÐ ¿
Ġcollis i
ĠRodri g
Ġcollisi on
Ġscu l
Ġcor t
Ġcontact s
Ġisolati on
Ġbou t
Ġfad e
Ġrent a
Ġtolera t
ĠMilitar y
Ġblack s
ĠWith in
Ġn it
Ġtestif i
ĠDes t
Ġprelim in
ĠMin o
Ġprelimin a
Ġenhance d
ĠTyle r
Ġtestifi e
Ġinsur g
Ġprelimina r
ĠGro w
ĠMan s
ĠUb u
ĠS L
Ġsolid a
Ġinsurg e
Ġinsurge n
ĠSola r
ĠDown l
ĠL ic
ĠEbo la
ĠAlp h
ĠCincin n
ĠRet u
Ġoutr i
ĠCincinn a
ĠCincinna t
Ġinfla m
ĠU T
Ġfea re
Ġfor k
Ġneed le
Ġretailer s
Ġcareer s
Ġbina r
Ġclean in
Ġcollapse d
ĠDod g
Ġele p
Ġcleanin g
Ġconsider s
Ġedit e
ĠRetu r
Ġelep h
Ġpedest r
ĠRetur n
Ġsi e
Ġbor in
Ġpedestr i
Ġedite d
Ġpedestri a
Ġpedestria n
Ġeleph a
Ġ18 4
Ġ198 2
ĠPolitic a
Ġfeare d
Ġelepha n
Ġfound in
Ġelephan t
Ġborin g
ĠS F
ĠMachin e
Ġup h
ĠDownl o
Ġfoundin g
Ġ' '
Ġfasc is
Ġcapti v
Ġtransforme d
Ġva p
Ġagi n
ĠDownlo a
Ġbeer s
Ġree l
Ġscat t
Ġinspect i
Ġinspecti o
Ġinspectio n
ĠPolitica l
Ġborrow e
Ġ198 3
Ġoutri g
ĠPlayer s
ĠYanke e
ĠScience s
ĠBrad le
ĠCincinnat i
Ġtrait s
Ġunint e
ĠInte re
Ġdeduc t
Ġgara g
ĠWond e
Ġsmug g
Ġverb a
Ġevan g
Ġskat e
Ġcredib i
Ġpowde r
Ġsolida r
Ġcredibi l
Ġencounte re
Ġsea m
Ġencountere d
ĠUrb a
Ġinconsi s
ĠRa f
Ġgarag e
ĠMer ke
ĠH R
Ġinconsis t
ĠAn s
ĠStudio s
Ġsoone r
Ġdiscre t
Ġperpetu a
Ġunc h
Ġthirt y
Ġevang e
ĠSna p
Ġcredibil i
Ġevange l
ĠHigh w
Ġair e
Ġsmugg l
Ġinconsist e
Ġinconsiste n
Ġfis he
ĠIntere s
Ġfright e
ĠArthu r
Ġenv is
ĠWonde r
Ġwand e
Ġslog a
Ġgravit y
Ġurg ing
Ġworkf o
Ġfrighte n
Ġpassp o
Ġworkfo r
Ġsloga n
ĠV P
Ġpasspo r
Ġcommentat o
Ġpasspor t
Ġagin g
Ġautonom o
Ġscatt e
Ġworkfor c
Ġworkforc e
ĠPA C
Ġsumm on
Ġintersect i
Ġbat c
ĠAttac k
Ġcredibili t
ĠOi l
Ġsolidar i
Ġautonomo u
Ġautonomou s
Ġintersecti o
Ġintersectio n
n iver
ĠBronc o
Ġcommentato r
ĠKa l
Ġbeliev in
ĠNorth w
Ġself i
Ġrenta l
Ġcredibilit y
Ġagree s
Ġbelievin g
Ġcas in
Ġpassi v
ĠOli ver
Ġslipp e
ĠSuper ma
ĠSa g
Ġbreath in
niver s
ĠPolis h
Ġsummar i
ze rs
Ġclassic a
ĠAl f
ĠLea f
ĠG B
ĠConsu m
ĠBis h
ĠMas on
Ġnovel s
Ġspa w
Ġbreathin g
ĠCla i
Ġclassica l
ĠElectri c
Ġuns a
ĠPinter e
ĠPintere s
d ification
Ġspaw n
Ġcost l
Ġoutrig h
Ġoutrigh t
ĠPinteres t
w ind
d arkne
ĠIva n
Ġdisappoint in
Ġcrus h
Ġdisappointin g
Ġboy f
Ġ ì
Ġtong u
ĠCountr y
ĠUbu n
Ġment o
Ġboyf r
Ġgamer s
Ġscro l
ĠKen y
Ġboyfr i
Ġboyfri e
Ġboyfrie n
Ġauthorize d
Ġboyfrien d
Ġscrol l
Ġtravell e
Ġcompile d
ĠPhys ic
ĠMerke l
ĠF L
Ġwarfa re
Ġmagnet ic
ĠL C
Ġaire d
Ġpilot s
Ġshift s
ĠUbun t
ĠSubscri b
ĠSea r
ĠTit l
ĠUbunt u
Ġthr u
Ġcry in
Ġspecif y
,âĢĻ âĢ
ĠAdve n
ĠFin n
Ġtongu e
Ġjustifie d
Ġrecruit in
Ġtribut e
Ġrecruitin g
ĠHighw a
ĠJa ke
Ġeliminate d
Ġuns t
Ġplead e
Ġeducate d
ĠAdven t
ĠPe re
ĠQat a
ĠInteres t
ĠPenc e
Ġglanc e
Ġtou t
ĠR N
Ġcode s
Ġcomparabl e
ĠBas h
Ġsolidari t
Ġtraffick i
Ġtrafficki n
Ġtraffickin g
ĠTitl e
o dification
ĠSant o
Ġbranche s
ĠSubscrib e
ĠHighwa y
Ġsponso re
Ġups t
ĠDann y
Ġwheel s
Ġpleade d
Ġso b
Ġawa k
ĠServe r
ĠPakistan i
Ġlicens ing
Ġsponsore d
Ġwrestl in
ĠGlas s
Ġlabel s
Ġwrestlin g
Ġcryin g
Ġscul p
ĠBre t
. âĢľ
ĠSca r
Ġacre s
Ġenable s
ĠSum m
Ġsna k
Ġcreator s
Ġher b
ĠCanc e
ĠAve r
Ġcard i
ĠAl ic
ĠCo in
ĠUrba n
ĠBenne t
Ġscream in
Ġproblema t
Ġspi c
Ġsub p
Ġbombe r
Ġindi r
Ġclimb e
Ġdiscour a
Ġdiscoura g
ĠAM D
Ġpok e
Ġunch a
ĠForme r
Ġsculp t
ĠBradle y
Ġble e
Ġmarke r
Ġcau c
Ġwhi p
ĠDownloa d
Ġquer y
Ġexploit a
ãģ ®
ĠFor u
h ief
Ġscreamin g
Ġfirm l
Ġ organizing
Ġincentive s
Ġfirml y
Ġlandm a
ĠCars on
ĠGhos t
ĠSpide r
ĠDevi l
Ġla me
Ġindir e
ĠExc h
Ġawak e
ĠGa u
ĠTw in
Ġfilmmak e
Ġfilmmake r
Ġcar p
Ġproblemat i
ĠExch a
ĠExcha n
Ġdeck s
ĠExchan g
Ġside w
Ġconnect in
ĠForu m
Ġintu i
Ġsimilar i
Ġconnectin g
ĠBab y
Å ¡
Ġintimat e
Ġentrepreneur s
ĠKa ra
ĠComput e
ĠRegu la
ĠD L
Ġintui t
Ġindire c
Ġindirec t
Ġsimilari t
Ġcoca in
ĠAg re
ĠJo y
ĠGenera t
Ġspo u
Ġcorrecti o
Ġtranslate d
Ġsolidarit y
Ġcorrectio n
Ġoverh a
Ġcocain e
ĠCowboy s
Ġmarket p
ĠTa p
Ġpreci o
ĠBur g
Ġmarketp la
ĠEr d
Ġmarketpla c
Ġmarketplac e
Ġpeople s
ĠFinanc e
Ġteen s
ĠN ine
Ġpon d
Ġunveil e
Ġregard s
Ġunveile d
Ġshee r
Ġpreliminar y
Ġmental l
Ġintroduc in
Ġsupers t
Ġintroducin g
Ġmentall y
Ġblu r
ĠImpe r
ĠJohn n
200 9
Ġsexi s
Ġdepr i
Ġrecruit e
Ġera s
ĠExchang e
ĠVilla g
ĠAlb a
ĠIns p
Ġbe r
ĠMun ic
Ġincl in
Ġinteractiv e
Ġconstrain t
Ġpredict a
ĠZ on
ĠWeis s
Ġbank e
Ġglo w
ĠBud g
ĠMuha m
ĠUnivers a
Ġappeal i
Ġappeali n
Ġtransmit t
Ġappealin g
Ġtouchdown s
Ġpredicta b
ĠLim it
Ġjump ing
ĠMove m
Ġpsycholog y
Ġ darkne
Ġdistinguis h
Ġbase l
Ġsensi b
ĠAg r
Ġsidew a
Ġtap p
Ġanim e
Ġrec l
m odification
ĠDodg e
Ġmanipulat i
Ġminer a
Ġjacke t
ĠUniversa l
Ġeco l
Ġcur b
Ġproceeding s
Ġexception s
Ġshoulder s
Ġunres t
Ġ192 0
ĠBlue s
ĠBelgi u
Ġbias e
ĠBelgiu m
Ġtradition s
ĠCol t
Ġsla p
Ġclimb in
Ġminera l
Ġcar v
ĠAud i
ĠSenio r
Ġalleg i
Ġclimbin g
Ġcommente d
ĠB Y
ĠN G
i zers
ĠNix on
Ġcompass i
Ġcompassi on
Ġecol o
Ġsnap s
ĠMan i
Ġc m
ĠMo rt
Ġaccurate l
Ġaccuratel y
Ġproblemati c
Ġplagu e
Ġconvinc in
Ġconvincin g
ĠMus t
Ġecolo g
Ġmatch ing
Ġrewr i
Ġrewri t
l ime
Ġcelebrit y
Ġblu n
ĠSocial is
ĠVillag e
ĠVeri z
ĠPR O
Ġwildl i
Ġcritiqu e
ĠR it
Ġwildli f
Ġwildlif e
Ġpast o
Ġkick s
ĠVeriz on
ĠQata r
ĠSou l
Ġpup p
Ġsector s
ĠFrie d
Ġcauc u
Ġcaucu s
Ġwilling n
Ġburg e
ĠCo b
Ġwillingn e
Ġwillingne s
ĠComme n
Ġdetecti on
Ġwillingnes s
ma la
Ġindigen o
Ġpath s
Ġindigeno u
Ġindigenou s
Ġprinc e
ĠHel p
Ġinterven e
Ġlikel i
ĠBJ P
Ġlikeli h
Ġlikelih o
Ġprecio u
Ġlikeliho o
Ġnick n
Ġlikelihoo d
Ġpreciou s
Ġsa g
Ġnickn a
ĠLeban on
Ġstab b
ĠD P
Ġshift in
ĠActi v
Ġcounte d
ĠJ in
Ġcounterpart s
Ġlength y
ĠSo x
ĠGa y
ĠK is
ĠBull s
Ġcreativ i
ĠS W
Ġcut e
Ġpasto r
Ġgo s
Ġdens e
ĠFas t
Ġcreativi t
Ġcent s
ĠQa e
Ġperforme r
Ġecho e
Ġapplica n
Ġaggressi o
Ġaggressio n
Ġavoid i
Ġwa re
Ġavoidi n
Ġavoidin g
Ġsand w
Ġapplican t
Ġnickna me
Ġtelec o
Ġcreativit y
Ġsmartphone s
Ġparag r
ĠQae d
Ġparagr a
ĠMov ie
Ġmeal s
Ġestablish in
Ġworks h
ĠLt d
Ġshiftin g
Ġestablishin g
Ġsuper he
ĠWo ma
Ġbear in
ĠWin s
ĠQaed a
Ġje w
Ġbearin g
Ġwaiv e
Ġgeograph ic
ĠMah a
Ġparagra p
ĠPr is
Ġalbum s
ĠT C
ĠSerg e
ĠNe g
ĠTar g
ĠSomal i
ĠNe b
Ġsevere l
Ġdisc h
Ġpoe m
Ġseverel y
Ġprohibit e
Ġprohibite d
ĠRem o
ĠCoac h
ĠMovem e
Ġaccount i
Ġparagrap h
ĠBudg e
ĠMoveme n
ĠGon z
ĠMovemen t
Ġcampaign e
Ġdisch a
Ġaccounti n
Ġdischa r
Ġplaint i
Ġworksh o
Ġdischar g
ĠAnaly s
Ġworksho p
Ġaccountin g
Ġchain s
ĠAgre e
ĠQ B
Ġsensor s
Ġendorse d
Ġet e
Ġrenew e
Ġassassinat i
Ġaverage d
ĠSwe e
Ġgenerat o
ĠF T
Ġvers e
Ġempowe r
Ġgenerat ing
Ġsca m
Ġrenewe d
Ġgrand m
Ġdelic i
Ġrepos i
Ġsku l
Ġadjust e
ĠStrang e
Ġwor n
Ġgenerato r
ĠO z
ĠNath a
Ġimplement in
Ġreposi t
ĠPok Ã
ĠGo a
Ġimplementin g
Ġsandw i
Ġbea s
Ġsandwi c
Ġbeas t
Ġconsume d
Ġmusician s
Ġspot l
ĠPat e
Ġ modification
Ġleague s
Ġreason in
r ving
Ġfiref i
ĠRead ing
ĠEnter p
Ġadher e
ĠRic o
ĠPerf o
Ġreasonin g
Ġdet r
Ġfirefi g
ĠPokÃ ©
Ġfilm in
ĠBrew e
Ġ198 1
Ġdelici ou
Ġdeliciou s
Ġfirefig h
ĠNorthw e
Ġfirefigh t
ĠColomb i
ĠZe n
Ġfilmin g
Ġwoode n
Ġque u
Ġaccompan y
ĠGlen n
m icide
Ġlawsuit s
ĠColombi a
Ġcompete n
Ġswi f
ĠEnterp r
ĠGate s
ĠMu e
Ġswif t
Ġlitera r
ĠArme n
Ġshape d
Ġmal ic
ĠNorthwe s
Ġspeculat e
ĠNorthwes t
ĠF S
ĠRelati on
ĠEnterpr is
ĠDoub l
ĠLE D
Ġassumption s
Ġauthorit a
Ġgener ic
o micide
Ġby p
Ġsuccess i
ĠHus s
Ġescape d
Ġden o
Ġscholars h
Ġscholarsh i
Ġgeni u
Ġsound e
Ġsnak e
Ġscholarshi p
ĠInc re
Ġsell e
Ġinta k
ĠK la
Ġat r
ĠSy m
Ġintuit i
Ġasce n
Ġunh a
ĠArgentin a
Ġphilosop he
Ġfles h
ĠFe n
Ġtrade m
Ġgeniu s
ĠSm o
Ġcalori e
Ġintak e
Ġtradem a
ĠPerfo r
Ġtradema r
Ġtrademar k
ĠNa g
Ġete r
ĠMil w
R ich
Ġselle r
Ġnons e
n time
ĠTi b
Ġrecall s
ĠBob b
Ġbus e
Ġliterar y
ĠEnterpris e
ĠM R
ĠReg a
Ġlesse r
ĠL T
ĠMilw a
ĠReli g
Ġgod s
Ġeter n
ĠCan d
ĠRocke t
Ġstereotyp e
Ġblee d
ĠBett e
Ġ ðŁ
ĠSteven s
Ġmarc he
Ġgarb a
Ġovertu r
Ġyo g
Ġovertur n
Ġcompatib l
ĠPlann e
ĠBronco s
ĠBa u
ĠWa g
Ġlea t
ĠQu in
ĠTribun e
ĠEll i
Ġeat e
Ġspecifie d
Ġslave s
Ġprovo k
Ġdec r
Ġam u
Ġlaugh ing
Ġbuffe r
ĠCap e
Ġ196 7
Ġbankruptc y
Ġaffecti n
ĠPersona l
Ġaffectin g
Ġlea f
ĠMilwa u
Ġunderwa y
ĠLes s
ĠGaller y
ĠSomet h
Ġinac c
Ġoutl a
ĠPres e
Ġindi s
ĠEls a
n izers
Ġleat he
Ġleathe r
e port
Ġcycl in
ĠCrit i
Ġphilosophe r
Ġdarkne s
ĠHoc ke
Ġcompatibl e
Ġdarknes s
Ġfarm in
Ġboot s
Ġfundrais in
Ġfundraisin g
a nizers
Å į
Ġfarmin g
g anizers
r ganizers
ĠBudge t
Ġwhere v
Ġwherev e
Ġexped it
Ġwhereve r
ĠPrin t
ĠRes o
ĠMons t
Ġmortal it
ĠAlte r
ĠKeny a
Ġprescri b
Ġsla u
ĠBrewe r
Ġdeg r
Ġslau g
ĠGM T
ĠRa ma
e side
Ġanonym i
Ġnavigat e
ĠPala c
Ġrelat in
Ġimpa i
Ġslaug h
Ġslaugh t
Ġrender in
Ġrelatin g
Ġsupport i
Ġrenderin g
Ġslaught e
Ġrecon c
ĠSometh ing
ĠRoman i
Ġnea t
Ġcommunis t
Ġpant s
Ġsupporti v
Ġsupportiv e
Ġboy c
Ġcomple m
Ġcomplem e
ĠAl c
Ġcompleme n
Ġcomplemen t
Ġshin e
ĠImper i
Ġcoincide n
Ġstatut e
Ġboyc o
Ġjihad is
Ġboyco t
ĠTel l
Ġcoloni a
ĠEll is
ĠWood s
Ø§ Ù
ĠPalestin e
ĠGa d
Ġboycot t
Ġporn o
ĠPira t
Ġswimm in
ĠMilwau ke
ĠMilwauke e
ĠCree k
ĠChap t
Ġsimpli f
ĠFour t
Ġundertak e
Ġemp a
Ġswimmin g
Ġcyclin g
Ġdelay s
Ġprediction s
Ġla z
Ġpol is
ĠLeon a
Ġman e
Ġmento r
ĠBeas t
ĠRes u
Ġqua d
ĠSea h
Ġlinea r
Ġbio g
Ġform in
ĠAlph a
Ġgarba g
ĠChapt e
ĠScho la
Ġ194 0
Ġformin g
Ġgarbag e
Ġpul s
Ġarro w
ĠSa ve
Ġtrib a
Ġpurchas in
Ġpurchasin g
Ġdisso l
Ġsuperhe r
ĠMM A
Ġ196 8
Ġsuperher o
Ġsuit s
Ġban g
Ġcrashe d
Ġpassiv e
Ġfuel s
Ġcharte r
ĠCelt ic
Ġshipp e
Ġwri s
ĠRee d
Ġwris t
Ġthorough l
Ġthoroughl y
Ġgar n
ĠSe m
ĠStat is
Ġde me
ĠAq u
ĠVal u
ĠEst a
ĠWalla c
Ġshooting s
Ġabuse d
Ġmortalit y
Ġskille d
Ġadjuste d
Ġtriba l
Ġreconst r
Ġencrypt i
Ġreconstr u
Ġencrypti on
ĠS ke
Ġ20 3
ĠH S
Ġmatch u
Ġdegr a
Ġmatchu p
ĠTH I
Ġwee d
ĠLiv ing
ĠSchw a
Ġca g
Ġcolonia l
Ġafterward s
ĠEdm on
ĠSuperma n
Ġlandma r
Ġlandmar k
Ġtwe l
ĠDa d
Ġexploita t
Ġpred o
Ġdis he
Ġexploitat i
Ġpractical l
Ġpracticall y
Ġper t
ĠOpp o
ĠHo g
ĠPot t
ĠSc ou
Ġreconstru c
ĠEd d
Ġart w
Ġscreens h
Ġtolerat e
ĠBish o
ĠDoubl e
ĠFer n
Ġbroad b
Ġreconstruc t
Ġreme d
Ġsalar i
Ġartw o
ĠWoma n
Ġsounde d
Ġartwo r
Ġperse c
Ġsh y
Ġplainti f
ĠStatis t
Ġapolog y
Ġpredo m
Ġplaintif f
ĠGerman s
ĠCast le
Ġpersec u
Ġout w
Ġpredom in
ĠBet w
Ġscreensh o
Ġbroadb a
ĠPirat e
ĠSurve y
Ġcostl y
Ġartwor k
Ġbuse s
Ġscreensho t
Ġpredomin a
Ġindependent l
Ġindependentl y
ĠSimp s
Ġsuper m
ĠWan t
Ġbroadba n
Ġbroadban d
ĠChi p
ĠHe ra
h omicide
Ġpersecu t
ĠW u
ĠCal g
i oxide
ĠMeta l
Ġconsol i
Ġpath w
d ioxide
Ġinterc o
ĠSimps on
ĠSystem s
Ġpres t
ĠCha rt
Ġinsist s
Ġrepubli c
ĠJua n
Ġskul l
Ġunw a
Ġautom o
Ġconsoli d
Ġtactic a
ĠAl g
Ġpathw a
ä ¸
Ġpathwa y
Ġtactica l
Ġunan i
ĠB S
Ġdisa d
ĠMi k
Ġpav e
ĠT B
Ġpublisher s
Ġconsolid a
Ġedge s
Ġreconc i
Ġreconci l
Ġdictat e
Ġtestifie d
Ġdea r
ĠG C
Ġdisad v
Ġdisadv a
ĠMembe r
Ġsensitiv i
ĠRa h
Ġranking s
Ġdisadva n
Ġsensitivi t
ĠNorma n
Ġdisadvan t
ĠNatha n
Ġdisadvant a
Ġdisadvanta g
Ġshr u
Ġstraight f
ici ou
ĠBu z
iciou s
Ġunani m
ĠOrt h
Ġstraightf o
Ġpet r
ĠTO D
ĠGold ma
ĠT ic
ĠHE R
ĠBisho p
Ġforum s
ĠBetw e
ĠBetwe e
ĠBetwee n
Ġpoo re
ĠTrave l
Ġunle a
ĠBrook s
Ġarcha e
Ġsubm a
ĠCalg a
Ġstraightfo r
Ġstraightfor w
Ġstraightforw a
Ġstraightforwa r
Ġstraightforwar d
Ġassassinati o
Ġassassinatio n
ĠPol l
ĠWalte r
Ġconsolida t
ĠCalga r
Ġpersisten t
t ilit
Ġto e
Ġcri e
Ġwork o
Ġinstitut e
ĠDenn is
Ġmeth a
ĠRele a
Ġsince r
Ġnut s
Ġac e
Ġcla n
Ġtena n
Ġmemori a
ĠSh ie
ĠSol o
ĠComic s
Ġswitche d
Ġlit i
Ġbench m
Ġbenchm a
ĠSeah a
ĠHo b
Ġworko u
inab i
Ġworkou t
Ġnonse n
Ġbenchma r
Ġspher e
Ġuploa d
Ġbenchmar k
Ġtatt o
ĠKoc h
ĠJohnn y
Ġsal v
Ġembass y
Ġoriginat e
Ġpreceden t
Ġje rs
Ġrate d
Ġfrustrat in
ĠFis h
Ġfrustratin g
ĠRelea s
ĠZer o
Ġjers e
Ġjerse y
Ġrebel l
Ġcl on
inabi l
Ġdisadvantag e
inabil i
Ġcycli s
Ġbeside s
ĠHall o
inabili t
Ġnonsen s
Ġtatto o
Ġlaborator y
Ġinside r
ĠS B
Ġcyclis t
ĠSeaha w
ĠSun s
ĠVet e
ĠParent h
Ġgre y
Ġleak s
Ġunacc e
ĠParenth o
ĠSeahaw k
ĠParentho o
ĠParenthoo d
Ġliti g
ĠPea r
ĠSo on
Ġchart s
ĠPan a
Ġgang s
Ġqualit i
ĠWiz a
ĠMee t
Ġmerchan t
Ġenthusias m
Ġqualiti e
Ġcur t
Ġqualitie s
ĠPal in
ĠLoc k
ĠTor y
ĠGoldma n
ĠSoft w
Ġvaca n
ĠWiza r
ĠWizar d
ĠMuham ma
inabilit y
Ġthriv e
Ġsac re
ĠRho de
ĠWhe e
Ġprivate l
ĠBrei t
Ġspotl i
Ġprivatel y
R eport
Ġ197 6
ĠMuhamma d
Ġinfring e
ĠStatist i
Ġge m
Ġmatche d
ĠStr ing
ĠAC L
Ġglim p
Ġglimp s
Ġemb r
r rican
u rrican
ĠGreat e
Ġgrin d
Ġspotli g
Ġspotlig h
ĠI E
Ġspotligh t
ĠMichel l
ĠBla i
Ġben d
Ġsacre d
ĠGua n
Ġnominate d
Ġrepres s
Ġbehavior s
Ġimagine d
ĠSil ic
Ġprohibit i
Ġamm u
Ġeight h
Ġintr u
Ġ homicide
ĠMar r
Ġsearche s
Ġ197 3
Ġseiz u
Ġdisse n
ĠWAT C
Ġche r
Ġammu n
Ġattribute s
Ġbio m
Ġseizu re
Ġem it
Ġread i
Ġunacce p
ĠWATC H
Ġunaccep t
ĠGP S
Ġexercise s
urrican e
Ġammun i
Ġcar g
Ġport s
ĠHT T
Ġdealer s
ĠFin l
ĠAm y
Ġammuni t
Ġpira t
Ġammunit i
Ġammuniti o
Ġammunitio n
ĠCommen t
ĠStatisti c
M ike
200 8
ĠHome l
ĠSer b
Ġempa t
ĠMcC o
Ġtoleran c
ĠVo ice
Ġsister s
Ġaccommodat i
ĠTransport a
Ġcag e
Ġshort c
Ġjew e
Ġbud d
ĠMan d
Ġanth r
ĠLis a
ĠChi le
Ġtoleranc e
Ġ197 2
ĠClea n
Ġstay s
o vely
ĠRelation s
Ġbanke r
ĠDen ma
ĠTransporta t
Ġps e
ĠTransportat i
ĠTransportati on
Ġsun s
Ġent a
Ġskeptic a
Ġskeptica l
ĠBrown s
ĠSear c
Ġterritori e
ĠBase d
Ġterritorie s
Ġ197 5
Ġmemoria l
ĠOb v
ĠKe a
Ġ ^
Ġflower s
Ġprocla i
Ġproclai m
ĠHy p
Ġglimps e
ĠHomel a
Ġgaller y
Ġglo ve
Ġthro a
Ġthroa t
ĠTe h
ĠHomela n
ĠHomelan d
ĠGlob e
Ġkilling s
Ġeffective n
Ġeffectiven e
Ġdemonstration s
Ġeffectivene s
Ġeffectivenes s
Ġunaccept a
ĠHocke y
Ġentr i
ĠMy s
Ġexa g
Ġunaccepta b
ĠEi g
ĠVa t
ĠEle m
Ġverba l
Ġentri e
ĠObv i
ĠEqu a
Ġentrie s
ĠDub l
ĠRaider s
Ġ dioxide
Ġimp la
ĠCa i
Ġporno g
Ġtrop h
Ġcarg o
Ġcare s
Ġpornog r
ĠArmen i
ĠExp o
Ġrefres h
Ġeg o
Ġcelebrat in
Ġrega in
ĠObvi ou
ĠErd o
Ġintr a
Ġcelebratin g
ĠObviou s
Ġpornogr a
Ġprox i
ĠCarlo s
Ġfundamental l
Ġfundamentall y
Ġrecept o
ĠJenn i
ĠRus h
ĠBennet t
Ġrecepto r
mine n
ĠMichell e
ĠNe s
ĠNumbe r
ĠRespon s
ĠTru t
Ġteleco m
ĠDubl in
Ġblood y
Ġcra p
Ġsalari e
Ġpornogra p
Ġpre j
ĠSl i
ĠJa ma
Ġrape d
ĠTrac k
ĠViking s
ĠArmeni a
ĠGriff in
Ġfract u
Ġsub w
Ġhed g
ĠTerr o
ĠGh a
ĠFif t
ĠGea r
Ġdesperate l
Ġdesperatel y
Ġ( Â
Ġphilosophi c
Ġwhil s
Ġprej u
ĠSet t
Ġmetre s
Ġexag g
Ġexagg e
Ġsubstantial l
Ġwhils t
Ġrele n
Ġsubstantiall y
Ġexagge ra
Ġexaggera t
ĠSeahawk s
Ġinevitabl y
: )
Ġreduce s
Ġchemist r
ĠPo r
Ġunder p
ĠBlai r
Ġappreciat i
Ġscar c
ĠCz e
Ġsu l
Ġpionee r
Ġformer l
Ġbreat he
Ġrelen t
Ġcarrier s
Ġformerl y
Ġconsci e
ĠPi p
Ġbip a
Ġconscie n
ĠDenma r
ĠDenmar k
ĠOrth o
ĠN y
Ġlet h
ĠAdv is
Ġpreju d
Ġaccountab i
Ġaccountabi l
ĠSho p
Ġaccountabil i
Ġalter e
ĠHTT P
Ġaccountabili t
Ġanalyse s
ĠD H
Ġfli e
Ġexpress in
Ġreta l
ĠEmp l
Ġexpressin g
Ġarrange d
ĠCalgar y
Ġleth a
Ġbike s
i lding
ĠVi rt
Ġmeasurement s
ĠI A
ĠYa r
ĠHarris on
Ġaltere d
ĠPa in
ĠRich m
ĠEmpl o
Ġlast ing
Ġbipa r
ĠLeona r
ĠElem e
Ġretal i
ĠRob o
Ġretali a
ĠSilic on
Ġbipar t
ĠEmplo y
ĠLeonar d
Ġretalia t
ĠSpo t
Ġcontinua l
Ġarchae o
ĠPalac e
Ġaccountabilit y
Ġatta i
Ġattai n
ĠTheo r
Ġunder n
Ġbelong s
ĠShie l
Ġconfus in
ĠSoftw a
ĠO T
Ġstri v
Ġconfusin g
Ġresponsibilit i
g ations
ĠEleme n
ĠSoftwa re
ĠSha ke
Ġvariation s
Ġpse u
Ġresponsibiliti e
Ġresponsibilitie s
Ġalgorithm s
ĠWhee l
o bility
Ġpseu d
ĠReac t
ĠElemen t
ĠMe c
ĠEdg e
Ġforeign e
Ġuncons c
Ġstring s
Ġunconsc i
Ġforeigne r
Ġphotograph y
ĠDi f
Ġrevise d
Ġtoy s
r illing
ĠMonst e
Ġnas t
i gations
ĠShel l
Ġenc l
ĠMonste r
ĠRE A
ĠLar g
Ġdischarg e
ĠTrans f
Ġfar t
Ġcorresponden t
Ġsolve d
ĠElli o
l igations
Ġsexuali t
ĠElectr on
ĠEllio t
Ġ197 8
ĠImm i
ĠRece n
ĠNov a
t imate
t ick
Ġrelie s
ĠTo g
Ġeconomic a
Ġover p
ĠMed it
Ġactivat i
ĠW re
ĠKre m
ĠÂ ĵ
Ġfilm e
Ġchemistr y
Ġbipart is
Ġbipartis a
Ġbipartisa n
Ġinterv a
Ġgovern a
e rving
Ġinterva l
Ġshape s
Ġdeb r
Ġsta re
Ġlitig a
Ġ Ñģ
ĠImmi g
ĠTele g
ĠNP R
b ligations
ĠRecen t
ĠWallac e
ĠPop u
ĠGra p
ĠPal m
ĠEm ma
ĠImmig ra
Ġaccidental l
l ovely
Ġaccidentall y
Ġpossess e
Ġbrus h
ĠSpence r
Ġembo d
Ġbattle f
ĠProduct ion
o bligations
Ġdelete d
ĠSchola r
ĠA W
Ġnewe s
Ġpermanent l
ĠLiberal s
Ġpermanentl y
ĠZ ion
Ġsymbol s
â Ļ
ĠM H
Ġeconomica l
Ġnewes t
Ġconsiderabl y
Ġmaintain s
ĠÐ ²
Ġdeclin in
O fficial
Ġdeclinin g
Ġpu c
Ġprest i
Ġplayb a
ĠOw e
Ġplayba c
Ġplaybac k
Ġcot t
ĠOb j
u ilding
Ġenrol l
Ġpredictab l
Ġfanc y
ĠProv i
ĠBuz z
Ġcook e
Ġartist i
Ġscheme s
Ġmanage s
Ġfinal s
ĠTerro r
ĠHo f
ĠStud y
Ġarchaeo l
Ġqueu e
ĠPe d
Ġarchaeol o
Ġarchaeolo g
ĠResource s
ĠReleas e
Ġslu m
ĠLos t
ĠPlanne d
Ġdel u
Ġancest o
Ġancesto r
Ġ obligations
ĠGreen s
ĠIll u
Ġacce n
ĠMi la
Ġnode s
Ġlabe le
Ġunli m
Ġartisti c
u minat
ĠSa ma
ĠHallo w
ĠHe y
ĠConsum e
ĠEdward s
Ġintercept i
ĠTo l
Ġairp l
Ġlabele d
ĠSud a
Ġairpl a
Ġintercepti o
Ġinterceptio n
Ġaccen t
ĠBang la
ĠRomani a
Ġpresti g
o rganizers
ĠConfedera t
Ġunlim it
Ġa q
Ġprec a
Ġunlimit e
Ġunlimite d
Ġshippe d
ĠTrut h
Ġfreshm a
ĠTeleg r
Ġfreshma n
Ġ18 3
Ġdefin in
Ġarch e
ĠTelegr a
Ġpi a
ĠCriti c
Ġtri m
Ġstrict l
Ġstrictl y
Ġspit e
Ġfilme d
ĠFact o
Ġunanim ou
Ġunanimou s
F ile
Ġ ÃĹ
Ġdefinin g
Ġtune d
ĠGu t
ĠVol u
ĠKa re
Ġtackle s
Ġpresident s
Ġtum o
Ġcancell e
Ġdeny ing
ĠDo t
ĠAdvent u
ĠTa le
ĠBil ly
Ġpuc k
ĠDuc k
Ġdissen t
Ġwound s
ĠNu t
Ġcreden t
ĠO C
Ġblank e
Ġreass u
Ġcredent i
ĠHB O
ĠDu ra
Ġprocesse d
ĠChapte r
ĠND P
ĠRegion a
Ġcredenti a
Ġspirit s
Ġcancelle d
Ġcredentia l
Ġgoverna n
ĠShi p
ĠPro m
ĠSunn i
f inal
ĠRegiona l
Ġcredib l
Ġteenager s
ĠRepresentative s
ĠConte n
Ġepidemi c
ĠTrai l
Ġpe c
Ġgenuine l
Ġgenuinel y
ĠRi de
Ġgovernan c
Ġgovernanc e
Ġgro o
Ġunderstand a
Ġpornograp h
ĠDif f
Ġglu t
Ġunderstanda b
Ġautomate d
Ġstream s
ĠMue l
Ġcorr i
Ġsell s
Ġtenan t
ĠHal f
Ġrestore d
ĠYea rs
ĠI O
Ġbe v
Ġ inability
Ġpre y
ĠJenni f
Ġpirat e
Ġcatal o
Ġdemonstrate s
ĠTre e
Ġcriticis e
Ġphilosophic a
Ġcatalo g
Ġsnap p
m obility
ĠGe ra
Ġmathematic a
ĠN is
Ġ organizers
Ġprejud i
Ġche f
Ġphilosophica l
Ġprejudi c
Ġoutline d
Ġallocat e
ĠAL L
Ġprovo c
ĠSen t
ĠShiel d
ĠAgen t
ĠChe e
Ġshut d
ĠKo r
Ġshutd o
= âĢĿ
ĠCat he
Ġshutdo w
Ġshutdow n
ĠRic a
Ġrevol v
Ġconsulta t
ĠSel f
ĠEpis o
Ġconsisten c
Ġprop r
Ġama t
Ġclarif y
Ġunacceptab le
ĠPre d
ĠJoh a
Ġmathematica l
ĠEpiso d
Ġreasonabl y
ĠJennif e
Ġsubma r
Ġconsultat i
ĠMuel le
Ġske l
Ġfactor i
Ġchi m
ĠMuelle r
Ġ lovely
Ġinspect o
ĠJennife r
Ġconfident i
ĠTu c
Ġinspecto r
Ġjustif ic
Ġaq u
Ġconfidenti a
ĠS le
Ġconfidentia l
ĠAnt a
Ġdisappoint m
Ġdisappointm e
Ġem u
Ġdisappointme n
Ġdisappointmen t
ĠJam ie
ĠKo b
Ġfigu r
Ġprovoc a
Ġextend s
Ġspend s
Ġjustific a
ĠGan d
ĠFit z
Ġscra m
ĠBette r
Ġabo a
Ġsynd r
ĠInvestigat i
ĠInva l
Ġglor i
Ġaboa r
Ġaboar d
ĠNan c
Ġsyndr o
Ġsyndro m
Ġbattlef i
ĠVen t
Ġbattlefi e
Ġbattlefie l
Ġbattlefiel d
ĠObvious l
ĠObviousl y
Ġalb e
Ġsexualit y
ĠPokÃ© m
ĠSi d
ĠCze c
Ġe re
ĠPokÃ©m on
ĠCusto m
Ġoverha u
Ġstepp in
Ġoverhau l
Ġundern e
Ġmeditat i
ĠInval i
Ġsubmar in
Ġbasem e
Ġsqueez e
ĠConve r
ĠSoc c
Ġdiscour s
Ġbaseme n
ĠCzec h
Ġland l
l iability
minen t
Ġpleas a
Ġunderne a
Ġundernea t
Ġpleasa n
Ġvictori e
Ġpleasan t
Ġunderneat h
ĠBreit b
Ġsteppin g
ĠJ P
d rilling
Ġsubmarin e
ãĢ Ĥ
Ġsyndrom e
Ġvictorie s
ĠAdventu re
Ġpunc he
Ġvac u
ĠA U
Ġvacc in
Ġname l
Ġgall on
Ġreposit o
ĠEpisod e
Ġrefus a
ĠAd r
Ġreposito r
ĠBreitb a
Ġboat s
Ġ17 0
Ġtrick s
ÃĤ Ã
Ġrefusa l
Ġskel e
Ġjustifica t
Ġspeec he
Ġincu m
ĠBreitba r
ĠAde l
Ġpublication s
Ġspeeche s
Ġflow s
Ġsovereign t
Ġlistene r
ĠBangla de
ĠBanglade s
Ġquee n
ĠBanglades h
ĠBreitbar t
Ġfelon y
Ġdisrupti on
Ġcoast a
ĠOk a
Ġcoasta l
ĠImag in
Ġba y
Ġconsistenc y
ĠOwe n
Ġmention s
Ġnamel y
Ġtherap i
Ġskele t
Ġsa b
ĠN in
Ġwrestl e
Ġincom in
Ġbackl a
Ġincum b
Ġimport e
ĠIce la
Ġincomin g
ĠRun n
ĠContr a
Ġamat e
Ġpopul is
ĠInvali d
ĠMcCart h
ĠIcela n
ĠEsp e
Ġcorri d
ĠBoo t
ĠMcCarth y
Ġpropr i
ĠEig h
Ġjustificat i
ĠSamu e
Ġprovoca t
Ġincumb e
Ġamate u
Ġamateu r
Ġline d
ĠSocc e
ĠScr i
Ġincumbe n
Ġdiscours e
Ġunlea s
ĠLe o
ĠRot h
Ġanonymi t
ĠMarx is
Ġcontractor s
Ġsubw a
ĠML B
Ġjustificati on
Ġanonymit y
Ġaf o
ĠEigh t
Ġbackla s
Ġevolution a
Ġbri b
Ġprese a
Ġwi e
Ġpresea s
Ġax i
Ġarrive s
Ġpreseas o
Ġpreseaso n
Ġclas h
ĠTige rs
ĠBeyon d
ĠStep h
l ocks
ĠMeth o
ĠMarg a
ĠPacke rs
ĠThai la
ĠJulia n
ĠThaila n
ĠSocce r
ĠThailan d
ĠSamue l
Ġevolutiona r
ĠTro p
Ġcorrid o
Ġfunction in
Ġtouris m
Ġbrak e
Ġcurt a
ĠChambe r
Ġtrouble s
Ġfunctionin g
ĠBryan t
ĠA x
ĠRob b
Ġpatc he
ĠCar i
Ġsubwa y
Ġsignature s
Ġexpend it
Ġwarm e
Ġexpendit u
Ġexpenditu re
Ġspecifica t
ĠTra d
ĠSu t
Ġpi v
ĠTarg e
Ġprotecti v
Ġprotectiv e
Ġspecificat i
ĠSha h
Ġspecificati on
ĠBag h
Ġadvers e
ĠMarc u
ĠRA M
Ġvaccin a
Ġsurvey s
Ġelectronic s
Ġman s
Ġautis m
ĠCrime a
Ġcorrido r
ĠDia m
ĠLL C
ĠKat e
Ġpiv o
Ġups i
Ġmat r
Ġlicense s
ĠBut le
Ġsubject e
Ġsubjecte d
Ġoverla p
ĠCe le
ĠTarge t
Ġconfront e
Ġclari t
ĠCommerc e
ĠRes i
ĠButle r
ĠScou t
Ġpivo t
Ġamu s
Ġvaccina t
Ġshort s
Ġconfronte d
ĠHol d
Ġbinar y
Ġfrank l
Ġarrangement s
ĠSpu rs
Ġjewe l
Ġbacklas h
Ġnegotiat ing
Ġrail w
Ġsi b
Ġtravell i
Ġtravelli n
ĠJo ine
Ġtravellin g
ĠRe q
ĠRichm on
Ġwhis k
ĠAng l
ĠVirt u
Ġrailw a
Ġrea p
Ġrailwa y
Ġat e
ĠSu g
l ication
ĠRichmon d
Ġiterat i
Ġnar c
ĠMV P
Ġclu t
Ġembrace d
ĠWorke rs
Ġgrocer y
ĠBrother s
Ġrec t
Ġfrankl y
ĠCo t
Ġscram b
Ġinde f
Ġscramb l
Ġimp ly
Ġunite d
Ġsqu i
Ġinf u
Ġblanke t
Ġ liver
Ġcloud s
ĠNob o
Ġsovereignt y
ĠSand y
Ġindict m
Ġindictm e
Ġindictme n
Ġindictmen t
Ġartic u
Ġmetaph o
ĠEvent u
Ġarticu l
Ġplun g
Ġclarit y
ĠAcc ou
ĠImperi a
Ġmetapho r
Ġ196 9
ĠEventu a
Ġupsi de
ĠDh a
Ġtrade r
Ġsupervis o
ĠEventua l
ĠGonz a
Ġsuperviso r
Ġdisclose d
Ġlack s
ĠPers i
Ġacu t
ĠCO M
Ġsport in
ĠAssistan t
Ġexempt i
Ġunderw e
Ġwhat s
Ġanalyze d
Ġexempti on
Ġmal w
Ġ197 7
ĠHistori c
Ġchr o
ĠAccou n
Ġarticul a
ĠAccoun t
Ġrende re
Ġmalw a
N ational
ĠCab in
Ġmalwa re
Ġune a
ĠDiam on
ĠDefen c
Ġslam m
Ġstar r
Ġplate s
ĠDefenc e
Ġastron a
Ġsteal in
ĠNaz is
Ġregre s
Ġutter ly
Ġastrona u
Ġastronau t
Ġpatri o
Ġmark ing
ĠPri o
ĠLau n
ĠP B
Ġpatrio t
Ġstabili z
ĠG in
Ġstealin g
ĠEs c
ĠPal me
Ġfi d
Ġbureaucra t
Ġsalarie s
Ġunp r
Ġairpla n
Ġsportin g
Ġglass e
Ġairplan e
Ġenr ic
Ġ optional
Ġstar v
Ġ drilling
Ġframe s
ĠImperia l
ĠBroad w
ĠT ie
ĠLett e
ĠEventual l
ĠEventuall y
ĠDiamon d
Ġur in
ĠL P
ĠFeat u
Ġfitt in
Ġuse le
Ġlegislator s
Ġglor y
Ġusele s
ĠJoha n
s erving
Ġuseles s
Ġstripp e
ĠEr i
Ġfittin g
Ġdetermin in
Ġbiog r
Ġlaug he
ĠTH A
Ġdeterminin g
ĠGra c
Ġconsultati on
Ġbiogr a
Ġtwel v
ĠNobo d
Ġtwelv e
Ġtende r
Ġemu l
Ġacut e
Ġcasualt i
ĠBrig h
ĠStri ke
Ġcasualti e
Ġcasualtie s
ĠAppea l
ĠBi de
ĠM Ã
Ġ91 1
ĠFli g
Ġprofitab l
Ġ liability
ĠSal v
Ġcru m
Ġaccelerat i
Ġconce s
Ġnecessit y
ĠCardinal s
Ġfortun a
ĠRac he
Ġclarif i
Ġpe l
ĠLarg e
Ġunn a
Ġcatch in
ĠSearc h
ĠConsume r
ĠWa it
Ġsuperm a
ĠFlig h
ĠIr v
ĠLit e
Ġbiogra p
Ġpsycholog is
Ġpla u
ĠGil l
ĠFligh t
ĠOrtho d
Ġfon d
ĠNobod y
ĠZo o
Ġ) ,
Ñ ĩ
Ġregres s
ĠBobb y
ĠG y
Ġconstituen t
ĠLi a
ĠRod g
Ġelement a
Ġnavigat i
Ġquarte rs
Ġnavigati on
Ġaust e
ĠKa p
Ġreg e
Ġincumben t
Ġpsychologis t
Ġun he
ĠQu ick
ĠArchi ve
Ġsensitivit y
ĠRen a
Ġconces s
Ġblow n
ĠJ A
Ġalum i
ĠQua rt
ĠDes c
ĠMarcu s
Ġstimul u
ĠRodg e
Ġstimulu s
Ġfortuna t
Ġenthusiast ic
Ġalumi n
ĠRan k
Ġman t
ĠOrthod o
ĠHolo c
Ġcatchin g
ĠOrthodo x
Ġsweep in
Ġminimiz e
ĠWi i
Ġflood in
Ġachiev i
Ġachievi n
Ġfloodin g
Ġfortunat e
ĠOw n
Ġsho v
Ġconcess i
Ä į
ĠAgree m
Ġachievin g
ĠAgreem e
ĠAgreeme n
ĠAgreemen t
Ġlate l
Ġ197 1
Ġglasse s
Ġspell s
Ġlatel y
Ġcharacterize d
Ġtil e
Ġsweepin g
ĠProt o
Ġconcessi on
Ġlaughe d
Ġele g
Ġreadi l
Ġreadil y
ĠDea l
ĠSpring s
ĠRe in
ĠSca n
Ġauste r
Ġcomplet in
Ġswitch in
ĠMi x
Ġauthentic a
Ġcompletin g
Ġbrac k
ĠRache l
ĠPhillip s
ĠLa de
ĠObj e
Ġswitchin g
Ġdefendant s
Ġpia n
ĠTe e
Ġ197 4
Ġenab l
ĠTOD A
ĠJoine d
Ġlitiga t
Ġenabl ing
ĠSuda n
ĠTODA Y
ĠAff o
ĠMu t
ĠPanther s
Ġadapte d
Ġund ou
ĠCove r
Ġwit c
ĠMetho d
Ġportray e
ĠLoa d
ĠGre y
ĠMonta n
Ġfishe r
Ġundou b
ĠCha t
Ġdecisi v
ĠMino r
Ġundoub t
Ġrat s
zon t
ĠV M
Ġinflam m
ĠSimilar l
ĠSimilarl y
ĠEv o
ĠÐ ½
Ġcontemp l
ĠZon e
ĠE it
Ġinflamm a
Ġcontempl a
Ġmanipulati on
ĠNewt on
Ġalien s
Ġbroadcast e
ĠLau ra
Ġtoo t
ĠAlm o
!! !!
ĠHo m
Ġcool in
Ġdisabilit y
Ġforest s
ĠBarba ra
ĠAffo r
Ġdecisiv e
Ġcoolin g
Ġterra i
i zont
Ġfaith f
ĠReq u
Ġterrai n
Ġfaithf u
Ġglobal ly
ĠPrio r
Ġfaithfu l
r izont
ĠJob s
o rizont
Ġconfigu re
Ġbasemen t
Ġpunis he
Ġcollect o
ĠAffor d
Ġcollecto r
Ġling e
Ġpreventi o
Ġpreventio n
Ġaccumulat e
ĠAgr ic
ĠHou r
Ġportraye d
Ġaccess o
Ġlinge r
Ġdenounc e
Ġcontempla t
ĠAir l
Ġspou s
ĠRep la
Ġexploitati on
Ġhedg e
Ġextend ing
orizont a
Ġasto n
ĠNever t
orizonta l
Ġgig a
ĠCla y
Ġneuron s
ĠHu t
Ġanarchis t
ĠHol de
Ġaccesso r
Ġaston i
ĠObje c
Ġastoni s
Ġastonis h
Ġpad d
ĠNevert he
ĠObjec t
ĠVa u
ĠConten t
ĠNeverthe l
ĠNeverthel e
ĠMI T
ĠNeverthele s
ĠNevertheles s
Ġbiolog y
Ġinsight s
ĠArab ic
Ġnewe r
Ġbi b
Ġsta in
ĠPrev e
ĠTer ra
Ġchro m
velo c
Ġarm i
ĠNico l
Ġbusinessm a
Ġ10 2
Ġbusinessma n
Ġtom a
ĠO U
Ġuncons t
Ġevolutionar y
ĠTri a
Ġprope l
Ġspl a
ĠDa le
ĠCost a
Ġex i
Ġsettlement s
Ġsib l
Ġundoubt e
ĠTib e
Ġ12 5
Ġantib i
Ġthru s
ĠDaw n
Ġundoubte d
Ġchat t
Ġsurp a
Ġpose s
Ġreplicat e
Ġattacker s
Ġsurpa s
ĠUS S
Ġtablet s
Ġreview in
Ġsurpas s
Ġsibl in
00 3
Ġreviewin g
Ġtid e
Ġsiblin g
Ä ĩ
Ġere c
Ġbol s
Ġendea v
ĠValu e
Ġerec t
ĠShe e
Ġmalic i
Ġantibi o
Ġcompile r
Ġarticula t
Ġcredit e
ĠDu s
Ġfinancial l
ĠOff e
Ġfinanciall y
ĠP is
ĠIcelan d
Ġmalici ou
Ġmaliciou s
Ġworry in
Ġsubscrib in
Ġsubscribin g
Ġgrand f
Ġbuck e
h urricane
Ġpurpo r
Ġredis t
Ġantibio t
Ġrei t
Ġworryin g
ĠWhat e
Ġstra w
Ġpurpor t
Ġantibiot i
Ġreserv a
Ġballo on
Ġlistene d
Ġsa r
Ġgrandf a
Ġartif a
Ġgrandfa t
Ġdiscourag e
Ġartifa c
Ġgrandfat he
Ġgrandfathe r
Ġquick e
Ġartifac t
Ġantibioti c
Ġcredite d
Ġassemble d
Ġpist o
Ġ{ \
ĠNe it
Ġtrouble d
t anding
Ġembarrass ing
ĠTwe e
ĠAlter n
Ġbarrel s
Ġcaf e
ĠHa it
Ġbad g
Ġstar k
Ġcra w
Ġreit e
Ġredist r
Ġpisto l
Ġredistr i
ĠAfford a
Ġreite r
Ġcommitt in
Ġcommittin g
ĠWell s
Ġarbitrar y
Ġprejudic e
Ġrecreation a
Ġrecreationa l
ĠAfforda b
Ġelevate d
Ġreviv e
Ġreno v
ĠYor ke
Ġreiter a
Ġscann e
f line
ĠCrim in
ĠRou t
ĠBide n
O riginal
Ġme me
e mpt
Ġpronounce d
Ġdefiniti v
ĠLaure n
Ġ mobility
Ġpair s
ĠSch m
Ġe in
ĠRodrig u
Ġ35 0
Ġramp a
ĠElectron i
ĠLabo ra
Ġrenov a
Ġmam ma
Ġreitera t
ĠRodrigu e
Ġrein s
Ġlicen c
ĠShe p
Ġsli m
Ġseparate l
Ġseparatel y
ĠCau c
ĠHallow e
ĠCS S
Ġdis b
Ġcredibl e
Ġast e
ĠMc A
ĠBagh d
ĠGar d
Ġletha l
Ġtournament s
Ġmaxim i
ĠBrew in
ĠAle p
Ġneu ra
Ġinflamma t
Ġsymboli c
ĠContinue d
Ġplace m
ĠJa i
Ġnea re
ĠSur f
Ġreserva t
Ġars e
ĠBaghd a
Ġdeclar ing
Ġga z
ĠSchu l
ĠFinl a
Ġcolumn i
Ġmaximi z
ĠElectroni c
Ġrelie d
Ġtribe s
Ġpocket s
ĠLabora t
Ġreject i
ĠInn o
Ġcensor s
Ġcolumni s
Ġcolumnis t
Ġenvis i
Ġenvisi on
Ġreservat i
Ġreservati o
Ġrejecti o
Ġrejectio n
Ġreservatio n
ĠLut her
ĠTea c
ĠLaborat o
ĠBar re
ĠExt e
ĠTexa n
ĠChas e
Ġretriev e
ĠMo m
ĠTeh ra
Ġunfol d
Ġshel v
Ġcurs e
ĠSt y
Ġdebr is
ĠTehra n
ĠJul ie
Ġrenova t
Ġconvenien c
ĠBou r
ĠInde x
Ġbrack e
ĠNE W
ĠSer i
Ġbear d
Ġrevisi o
Ġrevisio n
ĠPreve n
Ġfavorabl e
ĠWhate ver
ĠRab b
Ġuna w
ĠDis e
ĠBaghda d
Ġsynthe s
ĠEmer g
Ġconvenienc e
Ġsubscriber s
ĠBrewin g
Ġunaw a
Ġdeter i
ĠMa de
ĠPer c
ĠKa z
ĠIB M
ĠLade n
Ġovert i
Ġdeteri o
Ġcla m
Ġdeterio r
Ġinteri m
ĠJon g
ĠRa w
ĠPha r
ĠÐ½ Ð
d inan
ĠBe d
ĠAthe n
ĠGarc i
Ġ dit
Ġunawa re
Ġstick in
Ġbols t
Ġthrus t
Ġbolst e
Ġpara n
Ġfire w
Ġnational l
Ġdeterior a
Ġpetr o
r dinan
Ġidentit i
ĠCB C
Ġnationall y
Ġbadg e
Ġvary ing
ĠAth le
Ġing e
ĠQuin n
Ġprovin g
Ġaste r
Ġfinal e
ĠChe v
Ġdefinitiv e
ĠLaborato r
Ġgeno me
ĠJud ic
Ġidentiti e
Ġtraine r
Ġdeteriora t
Ġkick ing
Ġrevelation s
ĠPreven t
Ġunha p
Ġidentitie s
ĠKrem l
Ġunhap p
Ġpatien c
ĠAthle t
Ġmethod o
Ġaccus i
Ġpatienc e
Ġsurp l
Ġaccusi n
Ġaccusin g
ĠCu m
ĠGarci a
Ġmethodo l
ĠGreg o
ĠPott e
Ġbracke t
Ġempat h
Ġmagazine s
Ġvarie d
Ġback d
ĠBann on
Ġstra p
ĠNeit he
ĠNeithe r
ĠSul l
Ġmethodol o
Ġrebell i
Ġmethodolo g
Ġgarn e
Ġteas e
Ġrebelli o
Ġware h
Ġwareh o
Ġwareho u
h umble
Ġoverti m
Ġovertim e
Ġampli f
Ġlay ing
Ġwarehou s
Ġcop p
ĠAirl in
Ġsurpl u
Ġsurplu s
Ġaide s
Ġunconsci o
Ġunconscio u
Ġbig o
Ġ loading
Ġunconsciou s
ĠI L
Ġdeduct i
Ġneura l
ĠDol p
Ġnotice a
Ġbreak t
Ġnoticea b
ĠKreml in
Ġinaugura t
Ġprescrib e
Ġunsu c
ĠHon e
Ġbroke r
Ġstead i
ĠAirlin e
Ġfu m
ĠNob e
Ġbreakt h
Ġbigo t
ĠAh me
Ġpreference s
f fline
Ġap e
ĠBee r
Ġunsuc c
Ġbreakth r
Ġunsucc e
Ġunsucce s
ĠDis a
Ġtransport e
Ġ hurricane
ĠStee l
Ġbreakthr o
Ġbreakthro u
Ġbreakthrou g
Ġbreakthroug h
ĠMitc h
Ġrecipe s
Ġtheatr e
Ġtrick y
Ġvacu u
Ġmane u
ĠKr u
Ġsynthes i
Ġbullet s
ĠWa de
Ġimplie s
Ġbrib e
Ġstumbl e
Ġlicenc e
Ġassess e
ĠCount e
ĠDolp h
ĠLive s
Ġalbe i
Ġexclude d
Ġalbei t
Ġunsucces s
Ġinfluence s
Ġquot a
Ġinterm e
Ġunsuccess f
Ġunsuccessf u
Ġcu e
Ġunsuccessfu l
ĠMembe rs
Ġmart i
Ġaccomplish m
Ġaccomplishm e
h orizontal
Ġaccomplishme n
Ġaccomplishmen t
ĠNobe l
Ġtransmitt e
ĠJudic i
Ġgalax y
ĠChan d
Ġacc l
Ġblog s
ĠTi p
ĠStri p
Ġbatc h
Ġ} )
Ġfactori e
ĠPat h
Ġprofitabl e
Ġfamous l
ĠVete ra
Ġfactorie s
Ġfamousl y
Ġmaneu ve
Ġnit r
Ġeleg a
ĠVetera n
ĠG ing
Ġcurr i
Ġinstrument a
ĠFer ra
ĠIns u
Ġpost u
Ġtoot h
Ġelega n
Ġbelieve r
Ġintentional l
ĠDi l
Ġintentionall y
ĠSac ra
u blished
Ġplacem e
ĠAlep p
Ġincome s
Ġplaceme n
Ġbroad l
Ġmillenni a
ĠPopu la
Ġrefr a
Ġbacker s
Ġprinte r
Ġmete o
ĠGab r
Ġinfl i
ĠRoos e
Ġpropri e
Ġsketc h
Ġplacemen t
ĠSwi f
Ġrely in
ĠMS N
Ġpredomina n
Ġrelyin g
ĠAltern a
ĠProvi de
ĠPrince s
Ġassociation s
Ġgraduate d
Ġboost e
Ġparan o
Ġcycle s
Ġcali b
ĠMila n
Ġfi a
ĠJudici a
ĠJess e
Ġexpression s
ĠEit he
ĠEithe r
t imal
Ġbail ou
Ġbailou t
ĠBel t
ĠAlepp o
ĠAffordab le
ĠFourt h
ĠChe m
ĠSing l
Ġmemorab le
ĠAgric u
ĠAgricu l
Ġtwit t
ĠAgricul t
Ġundoubted l
Ġundoubtedl y
p timal
veloc it
Ġfaci a
Ġmarti a
ĠAgricult u
Ġmeteo r
ĠAlba n
Ġaim i
Ġsurrende r
ĠFl u
Ġsocial l
ĠHait i
Ġaimi n
Ġan k
ĠSocialis t
Ġapplica b
Ġsociall y
Ġaimin g
ĠDay s
ĠNanc y
ĠVat ic
Ġwi c
ĠAlterna t
ĠHallowe e
ĠPi x
ĠPo ly
Ġworrie s
ĠToo l
ĠVatic a
Ġmeasur ing
d ice
ĠVatica n
Ġderi v
Ġproprie t
Ġtwitt e
ĠLa ma
ĠHallowee n
ĠScre e
ĠSwif t
ĠPolitic s
Ġfiction a
Ġincu r
Ġfictiona l
ĠER A
Ġfacia l
ĠNex u
ĠIsrael is
ĠDon n
Ġreceiver s
Ġchop p
Ġstick s
ĠSpeci f
ĠFos t
l uminat
ĠNash v
ĠAlon g
ĠNashv i
ĠChief s
ĠNashvi l
ĠCo f
Ġcomput a
Ġtwitte r
ĠU g
Ġpropos it
Ġcompensat e
Ġseal e
ĠOccup y
ĠYankee s
Ġesc o
ĠEa t
ĠCrimin a
Ġtri v
ĠGirl s
ĠCy b
Ġcauti o
ĠCrimina l
Ġbann in
Ġcautio u
Ġcautiou s
Ġmeditati on
l luminat
ĠR F
Ġbannin g
Ġvacuu m
Ġu b
ĠSur v
ĠNexu s
Ġtighte n
Ġproposit i
Ġtheater s
Ġreven g
Ġstarr in
ĠPo ke
Ġpropositi on
Ġprayer s
ĠJun i
Ġstarrin g
Ġbroadl y
Ġimport s
Ġbright e
ĠSav a
ĠNe o
Ġreveng e
ĠSe b
Ġprove s
Ġflaw s
Ġdispro p
Ġatr o
Ġstickin g
ĠMo z
ĠY i
Ġdisprop o
Ġdispropo r
Ġsatisfact i
ĠFost e
Ġseek e
ĠAe r
Ġdispropor t
ĠComman de
Ġprot a
Ġsatisfacti on
Ġtrop i
ĠNashvil le
Ġdisproport i
Ġcat t
Ġinitiate d
Ġdisproporti on
Ġtip p
Ġvalue d
ĠMa z
ĠMal l
ĠSr i
ĠH U
ĠCur r
Ġstun t
Ġcrew s
ĠComp e
Ġplau s
Ġbou r
ĠTra f
ĠBoe h
Ġstag g
ĠMic k
Ġsheet s
ĠNH S
Ġovert h
ĠTrans it
Ġunconst i
Ġunconsti t
Ġsearche d
Ġon i
Ġstagg e
ĠAssa n
ĠRP G
Ġunconstit u
ĠGO O
Ġstran d
Ġsupplie d
Ġunconstitu t
Ġunconstitut i
Ġbroadcaste r
Ġanxi o
ĠMontan a
Ġunconstituti on
Ġspir a
ĠDe u
Ġunconstitution a
Ġplaus i
rdinan c
Ġplausi b
rdinanc e
ĠOtt o
Ġunconstitutiona l
Ġretain e
ĠSacra me
ĠSacrame n
Ġcomedi a
Ġe b
ĠBla s
ĠSacramen t
Ġca d
Ġcra t
Ġdominan c
ĠBes i
ĠS Q
Ġgeno c
ĠHa b
Ġdevi a
Ġdominanc e
Ġemul a
ĠBay e
Ġcomedia n
ĠWork ing
Ġgenoc i
Ġinta c
Ġcraw l
Ġintac t
Ġemula t
ĠFiref o
Ġaspir a
Ġcho k
ĠMetro p
Ġyounge s
Ġyounges t
ĠLea ve
Ġbol t
ĠChance l
Ġcli f
ĠSpec t
Ġsynt a
ĠJo int
Ġnorthe a
Ġnorthea s
Ġnortheas t
Ġinterprete d
ĠSit e
Ġcopp e
M obile
Ġcomb o
Ġswe p
ĠGabr ie
ĠHol me
Ġtru m
Ġindi e
Ġunpr o
Ġpen c
Ġswep t
ĠFirefo x
Ġoverl y
âĦ ¢
Ġflip p
o rdinance
Ġseeke r
Ġclif f
Ġ âĨ
Ġtropi c
ĠIS P
ĠAlmo s
Ġnav a
Ġjihadis t
ĠSH A
Ġachievement s
ĠTic k
Ġflour is
ĠRos a
ĠPin k
ĠBir m
ĠBy r
Ġquestion a
Ġassault e
Ġ humble
o ptimal
Ġtrum p
ĠCommande r
ĠGe e
ĠFI F
ĠAndre a
Ġprota g
ĠAlmos t
Ġgap s
Ġentertain in
Ġinfli c
ĠBirm ing
Ġinflic t
Ġcasin o
ĠNeu r
Ġentertainin g
Ġdece p
Ġprovince s
ĠBase b
ĠBirming h
ĠBirmingh a
Ġsoli c
Ġintensi f
ĠBirmingha m
Ġspira l
Ġcy n
Ġdefine s
Ġfirefight e
Ġsolic i
Ġfirefighte r
Ġrena m
Ġsolici t
ĠPortug a
ĠSingl e
ĠAssan g
ĠBaseb a
Ġ ordinance
Ġcong e
Ġ--- -
ĠAssang e
ĠF P
ĠCry s
Ġdecep t
ĠRa g
ĠPortuga l
Ġdisproportion a
Ġcart e
Ġdecept i
ĠAlla h
Ġneutral it
Ġdimension s
Ġmagn i
ĠK I
Ġcrat e
ĠHo rs
ĠMau r
Ġinterme d
Ġprotag on
Ġneutralit y
Ġtriv i
Ġprotagon i
ĠCarr o
ĠHoloc a
Ġnorth w
Ġterrif y
ĠHoloca u
ĠConst a
Ġquestiona b
ĠHolocau s
ĠHolocaus t
v icious
ĠOut s
Ġ12 8
a ins
Ġquestionab l
ĠEngineer in
ĠBaseba l
ĠDun c
ĠEngineerin g
Ġintermed i
ĠBasebal l
ĠBoe ing
Ġbless in
Ġblessin g
Ġgrandm o
Ġprotagoni s
Ġmamma l
Ġwhats o
ĠEn f
Ġnava l
Ġfo e
ĠPotte r
Ġmagni f
Ġprovok e
Ġimpu l
ĠAlic e
Ġimpul s
Ġtouch i
ĠGu r
Ġfixe s
Ġquantit y
ĠDro p
Ġtrivi a
ĠBa k
Ġdetaine e
ĠBl i
ĠSac h
ĠBroadw a
Ġgrandmo t
Ġgrandmot he
Ġgrandmothe r
Ġcop e
ĠNo a
Ġauthentica t
ĠPD F
Ġbasel in
ĠMid w
Ġesco r
Ġwhatso e
ĠKa y
Ġwhatsoe v
Ġwhatsoev e
Ġwhatsoeve r
Ġprotagonis t
Ġge e
Ġescor t
ĠPh D
ĠSalv a
ĠCu rt
ĠAnge la
Ġsem in
Ġnetwork ing
Ġtouchi n
Ġbaselin e
Ġbucke t
ĠScree n
Ġsan i
Ġmartia l
ĠSie r
ĠUse r
Ġrefere e
Ġnos t
Ġseale d
Ġstarter s
Ġalarm i
Ġsubject i
ĠTas k
Ġna m
Ġshelv e
Ġattende e
Ġdiss i
ĠEri k
ĠFoste r
ĠGrego r
ĠHolme s
ĠInter i
Ġtouchin g
Ġtoma t
Ġcarp e
Ġintermedi a
Ġassaulte d
Ġprecis i
Ġincar c
ĠAct u
ĠW T
Ġpurp l
Ġanthr o
Ġcrowd e
Ġcul m
Ġscript s
Ġremember s
Ġcrowde d
ĠRoose ve
Ġcompa c
ĠRooseve l
Ġincarc e
ĠLega l
Ġsha t
ĠRoosevel t
Ġwarehous e
Ġincarce r
Ġcompac t
ĠLa g
ĠYo s
ĠKa b
Ġprecisi o
Ġprecisio n
Ġbib l
Ġsidewa l
Ġange l
ĠCo x
ĠLo re
ĠSurv i
Ġtu i
Ġballot s
ĠD D
ĠGonza l
Ġfe v
Ġconsult in
Ġconsultin g
Ġincarcer a
Ġbe he
Ġincarcera t
Ġprison s
Ġprovocat i
Ġ10 5
ĠInitia t
ĠMc N
ĠRodge rs
ĠShu t
ĠCompute r
ĠFight e
ãĢ ģ
Ġsani t
Ġneighbour h
Ġnob le
Ġneighbourh o
ĠHera l
Ġneighbourho o
Ġannoy i
Ġrelent l
Ġrelentl e
Ġrelentle s
Ġneighbourhoo d
Ġsincer e
Ġannoyi n
Ġ196 4
Ġrelentles s
ĠDet a
Ġannoyin g
Ġuncove re
ĠDise a
Ġwas he
Ġuncovere d
ĠDisea s
ĠApo l
ĠJe d
ĠDiseas e
Ġap t
Ġcomputa t
ĠActu a
ĠSil v
Ġcomputat i
Ġeuro s
ĠBuddhis t
ĠBroadwa y
ĠFre s
ĠCollecti on
Ġseg re
Ġpredominan t
Ġcomputati on
Ġcomme m
Ġculm in
Ġpitch in
Ġdiscon t
Ġsemin a
Ġdestructi ve
Ġpitchin g
Ġminds e
Ġcommem o
Ġdesign ing
Ġcommemo r
Ġmindse t
Ġcommemor a
Ġwande r
ĠComple t
Ġculmin a
W ind
Ġfev e
Ġpresent in
Ġcommemora t
ĠPalme r
ĠDisco v
Ġconceiv e
ĠApp r
Ġpresentin g
Ġsave s
Ġpharmac e
Ġresi l
Ġpharmace u
Ġpharmaceu t
Ġpharmaceut i
ĠAr ou
ĠBra in
Ġpharmaceuti c
Ġauster i
Ġculmina t
Ġfli c
Ġdelic a
Ġprotein s
ĠHeral d
Ġtestif y
Ġcolumn s
Ġremind s
Ġcommitment s
Ġank l
ĠAppr o
Ġsuite d
Ġnotif i
Ġturno v
Ġturnov e
Ġconcentrate d
Ġturnove r
ĠDiscov e
Ġcooperat e
ĠInte g
Ġpharmaceutic a
Ġpharmaceutica l
Ġquestionabl e
Ġ196 5
Ġunde re
Ġnonsens e
Ġabuse s
Ġwic k
Ġbev e
Ġble w
Ġvan is
Ġsharp l
Ġspous e
Ġanthro p
Ġpack s
ĠCari b
Ġsharpl y
ĠHer it
Ġtui t
Ġprox y
Ġalien a
ĠHug he
ĠMartin e
Ġatom i
ĠImp o
Ġcurrenc i
Ġcurrenci e
ĠBrother h
ĠBrotherh o
ĠBrotherho o
Ġcurrencie s
Ġbackward s
Ġfis t
Ġtake o
Ġtele s
ĠBrotherhoo d
ĠDunc a
ĠRefor m
Ġ horizontal
ĠMoto rs
Ġflic k
ĠI G
ĠMer r
s tilit
Ġankl e
ĠDolph in
o stilit
ĠMoham me
Ġrendere d
Ġadministrator s
ĠMohamme d
ĠSch n
Ġflaw e
Ġflawe d
Ġcens u
Ġdivers i
Ġtuit i
ĠVince n
Ġado l
Ġthi e
ĠHerit a
Ġtuiti o
Ġtuitio n
ĠSull i
Ġambu l
ĠYel l
Ġsegre g
ĠDunca n
ĠMatte r
Ġregulate d
Ġja r
Ġsegreg a
Ġausteri t
Ġmaneuve r
Ġswa l
Ġback p
ĠSp ic
Ġresil i
Ġmake u
Ġtomat o
Ġconfo r
Ġevangel ic
ĠPicture s
Ġambul a
Ġanxio u
Ġanxiou s
Ġadol e
Ġcompromise d
ĠAs k
Ġmakeu p
ĠMat c
ĠHa z
ĠDan c
Ġadole s
Ġbo g
Ġcong r
c lick
Ġadoles c
Ġsegrega t
ĠPan e
Ġnotifi e
Ġaliena t
Ġble a
Ġdispe r
ĠStr on
Ġadolesc e
Ġadolesce n
Ġevangelic a
Ġnast y
ĠJ O
Ġresili e
Ġresilie n
Ġpolit e
Ġevangelica l
ĠSier ra
ĠFinla n
ĠImp r
ĠPart ic
ĠCultu re
ĠFinlan d
ĠCreati v
Ġpressure s
Ġsou p
ĠRef e
ĠP G
ĠIndiana p
Ġdeport a
ĠIndianap o
Ġsteadi l
Ġsteadil y
i lluminat
ĠHerita g
ĠHeritag e
ĠIss u
Ġshat t
ĠNa d
Ġcyn i
ĠHughe s
Ġcontin g
Ġtotal i
Ġformula t
Ġau g
Ġclon e
Ġsco o
ĠChancel l
ĠChancell o
Ġshatt e
Ġconting e
Ġcontinge n
Ġwo k
ĠKas h
ici e
Ġversa t
Ġsound t
Ġupgrade s
Ġcurri c
Ġcyni c
Ġpurpl e
Ġsoundt r
Ġdisper s
ĠPort e
Ġmanufacture d
Ġcurric u
Ġsoundtr a
Ġsolv in
Ġcurricu l
ĠIndianapo l
ĠIndianapol is
Ġdisl i
Ġsolvin g
Ġausterit y
Ġdisli k
Ġversat i
Ġunbe l
Ġsoundtra c
Ġsoundtrac k
ĠJoe l
ĠPsycho l
Ġversati l
ĠWat t
ĠEr n
ĠRodrigue z
ĠFo c
ĠTra v
ĠAppl ic
Ġadmir a
Ġcatt l
Ġappe t
Ġcattl e
ĠPeters on
ĠSulli v
Ġcredential s
Ġoverhea d
ĠSulliv a
ĠMon g
· Ð
ĠExt ra
Ġcoppe r
ĠApplic a
ĠAmb a
ĠSulliva n
Ġoutl o
ĠL l
Ġstif f
Ġsafe g
h ostilit
ĠCol in
Ġconcu r
ĠMont h
Ġavi a
Ġappet i
Ġprohibiti on
Ġbrewer y
Ġpublic it
Ġsafeg u
Ġsafegu a
Ġsafegua r
Ġsafeguar d
Ġ194 5
ĠMetrop o
Ġqualify ing
Ġselecti v
Ġoutlo o
ĠPlan t
Ġoutloo k
ĠHas s
.âĢĻâĢ Ŀ
ĠToy o
Ġbarb e
ĠJa re
Ġconfor m
Ġle v
Ġwho e
Ġcontainer s
Ġunbel ie
Ġoni on
Ġaggressive l
Ġaggressivel y
ĠFacto r
ĠI F
ĠHei g
ãģ Ħ
Ġeliminat in
Ġwhoe v
Ġanthrop o
Ġeliminatin g
Ġevacuat e
Ġwhoev e
Ġwhoeve r
ĠPr u
Ġrem i
Ġteles c
ĠZim me
Ġadj a
Ġdistract i
ĠMum b
Ġiterati on
Ġlegaliz e
ĠNew c
Ġadja c
ĠX e
Ġadjac e
Ġadjace n
Ġoutside r
ĠMar l
Ġsecret l
Ġstrategi s
ĠScient is
Ġsecretl y
ĠCai r
ĠEsse n
Ġswal l
________________ ________________
Ġrese n
ĠBol t
s ervice
Ġreck l
Ġreckl e
Ġreckle s
Ġrecl a
Ġja w
Ġreckles s
Ġswall o
Ġaccommodati o
ĠAdr i
Ġaccommodatio n
Ġswallo w
ĠHa u
Ġpublicit y
Ġcup s
Ġsuburb a
Ġsuburba n
Ġconstraint s
ĠE in
ĠQueens la
ĠZimme r
Ġsidewal k
ĠQueensla n
Ġsalv a
Ġup he
Ġdisproportiona t
ĠStudent s
ĠCast r
Ġcorrelat e
Ġban a
Ġplant e
Ġto a
Ġaccident s
Ġave n
Ġma ra
ĠProce s
Ġ vicious
Ġlack e
Ġtelesc o
Ġtelesco p
Ġsuper c
Ġgrie v
Ġdisproportionat e
ĠCitizen s
Ġtracke d
ĠFa u
ĠG U
ĠProp he
ĠArou n
ĠScientis t
ĠTr in
Ġblun t
Ġbid d
Ġemotional l
Ġemotionall y
Ġcomplain in
Ġmessag ing
e dit
ĠD U
Ġtoken s
Ġboot h
Ġdeporta t
Ġnutr i
ĠF on
Ġall u
Ġdeportat i
.) .
Ġ velocit
Ġsubjecti v
Ġpost p
Ġcomplainin g
ĠAstr o
ĠBesi de
ĠMen t
Ġdeportati on
Ġinfection s
ĠEdmon t
ĠMetropo l
ĠHer b
ĠCabin e
ĠAppa re
ĠThr on
ĠDemocra c
Ġjoin s
Ġlad de
ĠEqua l
ĠÂ °
ĠPresident i
ĠSon i
Ġtri o
Ġgri l
Ġrecording s
ĠOver a
ĠSch i
Ġmedia t
Ġtroubl i
Ġtroubli n
ĠPresidenti a
Ġarchaeolog i
Ġtroublin g
ĠPresidentia l
Ġcoe r
ĠPost e
Ġspin n
Ġtria n
Ġunw i
Ġprevent s
Ġfla n
ĠCabine t
Ġsatellite s
Ġprogressi o
Ġladde r
ĠChancello r
Ġprogressio n
Ġpsyc he
ĠJeff re
ĠEarl ie
ĠSouthe a
Ġadviser s
ĠAroun d
ĠSouthea s
Ġporta b
ĠSoutheas t
ĠAirline s
ĠInt r
ĠMys t
Ġbra s
Ġwhis p
Ġextremist s
ĠMcK e
Ġtrian g
ĠLu is
Ġdistracti on
Ġ hostilit
Ġenter s
Ġshee p
ĠArt is
ĠH ic
Ġjun g
ĠA H
Ġstrategis t
Ġnice l
Ġmiles t
Ġmilest on
Ġnicel y
ĠKu s
Ġmileston e
Ġski r
ĠEdmont on
ĠProces s
ĠL D
Ġbis h
ĠDre w
Ġexi le
Ġval le
Ġsurviv in
Ġride s
Ġwhisp e
Ġun la
Ġunwi l
Ġpunishe d
ĠKil le
Ġbudget s
ĠP ou
P ort
ĠTown s
ĠNeb ra
ĠSpa r
Ġclashe s
Ġsurvivin g
Ġunwil l
i ling
Ġnin t
Ġcentral i
Ġriver s
Ġdisc a
Ġunwill ing
ĠMSN B
ĠHu m
Ġforeigner s
Ä ±
ĠActua l
Ġpopulat e
ĠLaun c
Ġsoft e
ĠProp e
ĠC V
ĠThron e
Ġbyp a
Ġresen t
Ġdisma n
Ġdisman t
ĠMSNB C
ĠTou c
Ġdismant l
Ġterminat e
Ġcommittee s
ĠIN T
Ġimage r
ĠNebra s
Ġbypa s
Ġinacc u
Ġinaccu r
Ġbypas s
Ġrandom l
Ġinaccur a
ĠNebras k
Ġrandoml y
Ġgree d
Ġinclusi v
Ġstone s
Ġvalle y
ĠÂ »
ĠRu m
Ġtransfer s
Ġou n
Ġprem a
Ġpars e
ĠNebrask a
ĠHa le
ĠShan g
ĠSpecif ic
Ġstory l
Ġcoer c
Ġimplic it
ĠStron g
ĠSpea k
Ġcompound s
Ġlandl o
Ġbull s
Ġdisca r
ĠHeig h
Ġinsure r
ĠFor b
Ġbish o
Ġpointe r
Ġconclude s
Ġcommissione d
Ġcompli m
Ġmapp ing
Ġcomplim e
Ġboss e
Ġcomplime n
Ġcomplimen t
Ġdistincti v
Ġdistinctiv e
Ġneighbor ing
Ġnone t
Ġrapp e
ĠOvera l
ĠT N
ĠTibe t
ĠZion i
ĠVio le
Ġturno u
Ġturnou t
Ġinternational l
Ġinternationall y
Ġstoryl in
Ġexamin in
ĠOveral l
Ġexaminin g
ĠClark e
Ġstorylin e
Ù İ
Ġdenie s
ĠFIF A
ĠFern a
Ġteache s
Ġnonet he
Ġencourage s
ĠZioni s
Ġnonethe l
Ġterrify i
Ġterrifyi n
Ġnonethel e
ĠSacrament o
Ġ illuminat
Ġnonethele s
Ġnonetheles s
Ġterrifyin g
ĠIssu e
Ġadjacen t
ĠLu m
ĠGrou n
Ġdiscar d
Ġfoot p
Ġoun c
ĠLa y
Ġounc e
ĠGroun d
Ġbisho p
ĠMedit e
Ġreca p
Ġstand o
Ġna u
Ġle m
Ġgau g
ĠAc h
ĠImp a
ĠPrinces s
m minent
ĠReal ly
Ġuph o
ĠMedite r
ĠCrys t
ĠLind s
Ġpuls e
Ġupho l
ĠNY C
Ġactivati o
Ġactivatio n
Ġfeas i
ĠEV E
Ġfeasi b
ĠFor g
ĠGenerat i
Ġaggregat e
ĠMe y
ĠDel t
ĠDyna m
Ġder a
Ġmidfiel d
Ġtrade s
ĠCurrent l
Ġdisast r
Ġinad e
ĠCurrentl y
ĠW ic
ĠAh ma
Ġnutri e
Ġnint h
Ġnutrie n
Ġsub d
ĠRiver s
Ġdisastr o
Ġnutrien t
Ġcryptocurrenc y
ĠImagin e
ĠA V
ĠSta g
ĠMediter r
Ġgl it
Ġinfi l
Ġunemploy e
Ġperpetrat o
Ġperpetrato r
Ġdisastro u
Ġdisastrou s
Ġspi d
Ġinade q
Ġinadeq u
Ġallocat i
Ġunemploye d
Ġinadequ a
ĠAd de
Ġknee s
Ġdemonstrat o
Ġdemonstrato r
Ġapplicab l
Ġfeve r
icat e
ĠPr ie
[...]
