#version: 0.2
Ä ł
Äł t
Äł a
h e
i n
Äłt h
r e
Äłth e
o n
Äł o
Äł s
Äł i
Äł w
Ä Ĭ
¢ Ä
Äł c
Äł b
Äł f
Äł p
Äł h
v e
Äła n
l e
Äłt o
m e
Äł m
Äłi n
Äło f
d e
Äł d
Äłan d
Äł r
Äł e
Äł l
Äłc o
Ã ¢Ä
Ã¢Ä ¢Ä
u t
u s
Äł n
Äłr e
Äłb e
u n
g e
Äł g
Äłth a
Äłf o
Äłh a
Äł T
Äł I
Äłw i
Äłtha t
Äło n
k e
Äł S
Äłi s
Äłw h
Äłfo r
Äłw a
Ã¢Ä¢Ä »
Äłp r
Äł A
Äł u
Äł C
Äłs t
Äł y
Äłi t
Äłc a
Äłh e
Äłm a
Äłs e
Äłd e
Äłw e
Äł M
Äłn o
Äła r
Äłwi t
Äłm o
Äłwit h
Äła s
Äł B
Äł Ã
ÄłT h
Äła l
Äłs o
Äłs a
Äłw o
Äłh i
Äł P
Äły o
Äłwa s
ÄłÃ ¢
ÄłÃ¢ Ä
Äłyo u
ÄłÃ¢Ä ¢
ÄłÃ¢Ä¢ Ä
Äłco n
Äł v
Äłth i
Äłl i
Äłf r
Äłpr o
Äłd i
Äłd o
Äła t
Äł W
Äłp o
Äł H
Äłf i
Äłs u
Äłar e
Äłs h
Äł D
Äłp a
Äł 1
Äłco m
Äłn e
Äł R
Äłm e
ÄłTh e
Äł 2
Äłb u
Äł (
Äłha v
Äł F
Äłp e
Äłe x
Äłl o
Äłno t
Äłhav e
Äłl e
Äł N
Ã¢Ä¢Ä ¿
Äłfr o
Äło r
Äłt r
Äłb y
Äłl a
Äł G
Äłfro m
Äłf a
Äłc h
Äłh o
' s
Äłg o
Äło u
Äł L
Äłthi s
Äłs i
Äłb a
Äłt e
Äłst a
Äł E
Äłin t
Äłhi s
Äłm i
Äła b
Äł k
T he
Äłp l
Äłu n
Äłe n
0 0
Äła c
ÄłÃ¢Ä¢Ä ¾
Äłha s
Äł J
Äł O
Äł j
Äłe v
Äłt a
Äłwo r
Äłca n
Äłwh i
Äłpl a
Äłco u
Äłs p
Äłu s
Äłthe y
Äłal l
Äłwi l
Äłbu t
Äł2 0
Äłsa i
Äłwil l
Äłsai d
Äłwh e
Äł U
ÄłC o
Äłwh o
Äłb o
Äłg r
Äł "
Äłmo r
Äłsh o
Äłev e
Äłpr e
Äłc l
ÄłM a
Äłou t
Äłthe i
Äłthei r
Äłt i
Äłre s
Äłab o
Äłf e
Äłre a
Äłpe r
Äłc r
Äłu p
Äłg e
Äłmor e
Äłso m
Äły e
Äłsom e
Äłr a
Äłon e
Äła d
Äłch a
Äłabo u
Äłabou t
Äłd a
ÄłI n
Äłcom p
Äłp u
Äła g
Äłwe r
Äłwer e
Äłpa r
Äł K
Äłwo u
Äłhe r
Äłha d
Äłv i
Äłwou l
Äłwoul d
Äłbe e
Äłdi s
Äłi m
Äłwhi c
Äłwhic h
Äłcon t
Äłex p
Äłof f
Äłs c
ÄłS t
Äłbee n
in g
Äłli k
Äłb r
Äłlik e
Äłg a
Äłj u
Äłye a
Äłth r
Äłtr a
Äłm u
Äłma n
Äłyea r
Äłre c
Äłin c
Äłti m
Äłint e
Äłtim e
Äłb i
Äłle a
Äła p
Äłr i
Äłf u
z e
Äłse e
Äło t
Äłot h
Äłoth e
Äłothe r
Äło p
Äłthi n
Äłthe r
Äłus e
ÄłC h
ÄłR e
Äłe a
Äłst r
Äł20 1
Äłit s
Äło v
Äłwh a
Äłov e
Äłove r
Äłv e
Äłther e
Äłwha t
ÄłC a
Äłfi r
ÄłH e
Äłne w
Äłre p
Äłal s
Äłtha n
Äłals o
Äłbe c
Äłd r
Äłthe m
Äła f
Äłr o
Äłth o
Äłap p
Äłyou r
Äłwor k
Äłpar t
Äłwhe n
Äłpe o
Äłpeo p
Äłpeop l
Äłpeopl e
Äł q
Äłq u
ÄłA n
ÄłD e
Äłhe a
Äłma k
Äłju s
Äłan y
Äłjus t
Äł Y
Äłn a
ÄłI t
Äłk n
Äłcom m
Äłsa y
Äłsp e
Äł 3
Äłm y
Äłge t
Äłi f
Äł V
Äłpo l
ÄłW e
Äłint o
Äłcon s
. Ã¢Ä¢Ä¿
Äłt w
Äłsta t
ÄłP a
Äłac c
Äłfi n
ÄłS e
Äłc u
Äłeve n
Äłpla y
Äłim p
ÄłB u
Äłre l
Äłinte r
Äłou r
Äłon l
Äł -
Äłca r
Äłac t
ÄłP r
Äłpo s
Äłkn o
ÄłH o
Äłin s
Äłsh e
ÄłM o
ÄłN o
ÄłS o
Äłpr i
Äłc e
Äłst o
Äłaf t
Äłaft e
Äłafte r
Äłeve r
, Ã¢Ä¢Ä¿
Äłcou l
Äłcoul d
Äłfir s
Äłfirs t
Äłkno w
Äłho w
Äłpol i
Äłta k
Äł1 9
Äłve r
Äłhi m
Äłmak e
' t
ÄłM i
Äłde s
Äłgr o
Äłonl y
Äłbec a
Äłat t
Äłr u
ÄłN e
Äłrea l
Äłtw o
Äłb l
Äłsu p
ÄłT r
Äłdo n
ÄłS a
Äłba c
Äłde c
Äłun d
Äłse r
ÄłW h
Äłse c
Äłpre s
Äłe l
Äłbe t
Äłmo s
ÄłB r
Äłmo n
. "
Ã¢Ä¢Ä ¾
Äłbac k
Äłg i
Äłk i
Äłp i
ÄłB a
Äłmos t
Äłund e
Äłsu c
Äłe m
Äłstat e
Äłga m
Äłfo u
Äłfa c
ÄłB e
Äła m
ÄłÃ¢Ä¢Ä µ
Äłwa n
Äłdi d
Äłd u
Äłunde r
Äłag a
Äłexp e
Äłaga i
Äłagai n
Äł 4
ÄłA m
Äłc i
ÄłW a
Äłwa y
Äłf l
Äłwan t
Äłtak e
ÄłA l
ÄłF o
Äłv a
Äłgam e
Äłh u
Äłbeca u
Äłbecau s
Äłbecaus e
ÄłÃ¢Ä¢Ä ¶
ÄłH a
Äłno w
ÄłU n
Äłca l
ÄłY o
ÄłR o
Äłyear s
Äłin v
Äłne e
Äłnee d
Äłcou n
Äłthr o
Äł $
Äłte a
Äłin d
Äłsta r
Äłsu r
Äłw r
Äłmi l
Äłlo o
Äłcha n
ÄłSt a
Äład d
, "
Äłto o
Äłst u
Äłcr e
Äłme a
ÄłS h
Äłever y
Äłhe l
Äłmi n
Äł 5
Äłsup p
Äłthe s
ÄłD a
Äłg u
Äłca m
Äłthes e
ÄłJ a
Äłin f
Äłwhe r
Äłwher e
ÄłF r
Äłsho w
Äłri g
ÄłW i
Äłthr e
ÄłTh i
Äłcoun t
Äłbe i
Äłwe l
Äłthin k
Äłbei n
Äłbein g
Äłv o
Äłma r
ÄłL a
Äłloo k
ÄłAn d
Äłinc l
Äłsi n
Äłda y
Äłn u
Äłcont r
Äłhi g
Äłhig h
Äłst i
Äłrig h
Äłincl u
Äłrigh t
Äłre m
Äłma y
Äłde f
Äłthe n
ÄłJ o
ÄłT o
Äłman y
ÄłM e
Äłdi f
Äłsho u
Äłdif f
Äłco l
Äłla s
Äłrep o
ÄłBu t
Äłcal l
ÄłMa r
Äł [
Äłinclu d
Äłse n
Äłj o
Äłcomp a
Äłre g
ÄłL i
Äłthro u
Äłthrou g
Äłp h
Äłthroug h
Äłrec e
Äłrepo r
Äłrepor t
ÄłG o
Äłse a
Äłshou l
Äłshoul d
ÄłP o
Äłs y
Äłdo w
Äłcl a
Äłpa s
Äłthin g
Äłde v
Äłop e
Äłoff i
ÄłS u
Äłdow n
Äłoffi c
Äłas s
ÄłL e
Äłlas t
Äłver y
Äłtho s
Äłthos e
Äłmu c
ÄłAm e
Äłmuc h
Äło w
Äłmo v
Äłbe l
ÄłThi s
Äłpu b
Äłge n
Äł1 0
Äłca s
Äłlo n
Äłwel l
Äłpub l
Äłpubl i
Äłdo e
Äłdoe s
ÄłUn i
z a
Äłde a
Äłow n
Äłen d
Äł20 0
Äłfor m
Äłk e
Äłtho u
Äłstar t
Äła u
Äłgo v
ÄłAme r
Äłlon g
Äłgov e
Äłgove r
ÄłAmer i
Äłgover n
Äłbe f
ÄłAmeri c
ÄłAmeric a
Äłgro u
Äłsupp o
Äłe s
Äłgi v
Äłpro v
ÄłB o
Äłbef o
Äłbefo r
Äłbefor e
Äłgr e
Äłrec o
Äłma d
ÄłA s
ÄłA r
Äłpla n
Äłcom e
Äłba s
ÄłNe w
ÄłG r
Äłpo i
Äłtea m
ÄłG e
Äłna t
Äłmad e
ÄłP e
Äłla t
Äłi d
Äłsto r
Äłsa m
ÄłJ u
Äłgo o
Äłsuc h
ÄłL o
Äłfi l
Äłgo i
Äłgoi n
Äłgoin g
Äłs m
Äłchan g
Äłbo t
Äłwor l
Äłworl d
Äłwe e
ÄłCo n
Äłch i
Äłstu d
Äłgoo d
ÄłD o
Äłpoli c
Äłma t
ÄłT e
ÄłN a
Äłre f
Äłpro b
Äłfe e
Äłpoi n
Äłpoin t
Äłe f
Äłsu b
Äłfu n
Äłsh a
Äłef f
Äłagain s
Äłagains t
Äłwee k
Äłs l
Äłse t
Äłact i
Äł 6
Äłcha r
Äłcr i
Äłcre a
Äłea r
Äłen t
Äłt u
i on
Äłwhi l
Äłser v
Äłhel p
Äłplay e
Äłsi g
Äłsti l
Äłper s
Äłstil l
Äłid e
Äłgovern m
Äłgovernm e
Äłgovernme n
Äłgovernmen t
Äłacc o
Äłlat e
Äłel e
Äłwhil e
Äłwi n
Äłmea n
ÄłYo u
Äłlea d
Äłsuppo r
Äłsuppor t
Äłpro d
Äło b
Äłcon c
Äłdiff e
Äłdiffe r
Äłsay s
Äłcrea t
ÄłH i
Äłprod u
Äłcon f
Äłprodu c
Äłfr e
Äłgiv e
Äłchang e
Äłins t
ÄłR a
Äłre v
Äłdis c
Äłso u
Äłsi m
ÄłD i
Äłres p
Äłgr a
ÄłF i
Äłli n
Äłcomp l
ÄłC l
Äłsam e
ĥ Â
Äłra t
Äłdiffer e
ÄłFo r
Äłthou g
Äłthoug h
ÄłTr u
Äłbet w
Äłbetw e
Äłbetwe e
Äłbetwee n
Äłspe c
Äłdiffere n
Äła w
Äłmu s
Äłci t
Äłla w
Äłha n
Ã¢Ä¢Ä ¶
ÄłS c
Äłcl o
Äłtr i
Äłe d
Äła v
Äłnu m
Äłfo l
Äłsig n
Äłha r
Äłho m
ÄłF a
Äłar o
Äłtra n
Äłre t
Äłte r
Äłsome t
Äłex t
Äłru n
Äłcount r
Äłtran s
ÄłG a
Äłprov i
Äłaro u
Äłfou n
Äłpla c
Äłher e
Ĳ Â
Äłli v
Äłthre e
Äłfoun d
Äłarou n
Äłaroun d
Äłda t
Äł .
Äłme m
Äłbr o
Äłun i
Äłme d
ÄłSta t
Äłco r
Äłsy s
ÄłCo m
Äłuse d
Äłli f
Äłwa r
Äłsys t
Äłsyst e
Äłsyste m
Äłreal l
Äłho u
ÄłO n
Äłsc h
Äłreall y
ÄłS i
Äłgen e
Äłplac e
Äłex a
Äłmo d
Äłgrou p
Äłcou r
Äłex c
Äł 7
ÄłI s
Äłbot h
Äłcu r
Äłto l
Äłcompa n
Äłn i
ÄłS p
Äłhan d
Äłme n
Äłfa m
Äłpubli c
ve r
Äłsp o
Äłgre a
ÄłTh a
Äłsi t
Äłdu r
Äł 0
Äłmi s
Äłnum b
Äłgrea t
Äłhom e
Äłmed i
Äłnumb e
Äłnumbe r
Äłpo w
Äłha p
Äłca p
ÄłTru m
Äłlo c
Äład v
Äłwa t
Äłce n
Äłbu i
Äłbui l
Äłso l
Äłcas e
Äłta l
Äłhap p
Äłimp o
Äłdi r
Äłwo m
Äłfac t
Äłli t
ÄłTrum p
Äłpers o
Äłexpe r
Äłperso n
ÄłThe y
Äłde p
Äłpart i
Äłfin a
Äłqu e
Äłfin d
Äław a
Äłrea d
Äłinv e
ÄłCh i
Äłpro p
Äłpow e
Äłmov e
Äłpowe r
Äłde t
Äłan o
Äła i
ÄłStat e
Äłdur i
Äłmil l
Äłduri n
Äłdurin g
ÄłR u
Äłlif e
Äłau t
Äłpro t
ÄłPr e
Äłmon t
Äłfol l
Äłbi g
ÄłW o
Äłfi g
Äłdev e
Äłmont h
Äłdeve l
Äłdevel o
Äłdevelo p
Äłmi g
Äłcol l
Äłfoll o
Äłfollo w
Äłdec i
Äłcen t
Äł 8
Äłsin c
Äłsinc e
Äłis s
Äłtol d
Äłiss u
Äłtr u
ÄłAmerica n
Äłpoli t
Äłpro g
Äłspec i
Äłoff e
Äłdir e
ÄłR i
ÄłA u
Äłla r
Äłper c
Äłfe w
Äłbr i
Äłbl o
Äłcl e
Äłtu r
Äłmill i
Äłle g
Äłissu e
Äłprog r
Äłinc r
ÄłJ e
Äłpolit i
Äłlar g
Äłincr e
Äłlarg e
Äłdire c
Äłdirec t
Äłpoliti c
Äłar t
Äłperc e
Äłcont i
Äłag e
Äłwr i
Äłexp l
Äłfa r
Äłqu i
ÄłPa r
Äłconti n
Äłbel i
Äłrel a
Äłse l
Äłdr i
ÄłV i
Äłna m
Äłbeli e
Äłlo t
Äłmilli o
Äłmillio n
Äłplaye r
Äłbo o
Äłgene r
Äłpro c
Äłop p
Äł 9
Äłas k
Äłre q
Äłsm a
Äłreq u
Äłcomm u
ÄłB i
Äłnam e
Äłele c
Äłch e
Äłelec t
ÄłT a
Äłapp e
Äłpu t
Äłprovi d
Äłso c
ÄłI f
Äłwri t
Äłano t
Äłanot h
Äłanoth e
Äłanothe r
Äłbe s
Äłse v
Äłsev e
Äłsomet h
Äłsometh i
Äłsomethi n
Äłsomethin g
Äłchi l
Äłnat i
ÄłCh a
Äłst e
Äłba n
Äłbe g
Äłrel e
Äłdifferen t
Äłfam i
Äłmar k
Äłall o
Äłope n
Äłconc e
Äłinve s
ÄłE n
Äłinves t
Äłte l
Äłfami l
Äłcons i
Äłresp o
Äłrespo n
Äłhea r
Äłbu s
Äłlo s
Äłe c
Äł '
Äłpas s
Äłcommu n
Äłtr e
ÄłM u
Äłhea d
Äłwe a
Äłres u
Äłpa t
Äłcontin u
Äłthing s
ÄłF e
Äłatt e
Äłpos s
Äłfa i
Äłapp r
Äłopp o
Äłme t
Äłcle a
Äłvo t
Äłappe a
ÄłC r
Äłdef e
Äłcam p
Äłla n
Äłsea s
Äłproc e
ÄłPr o
Äłrela t
Äłloc a
Äłcommun i
Äłmig h
Äłmigh t
Äłfe a
Äłgener a
Äłea c
Äłeac h
Äłne v
Äłnev e
Äłneve r
Äłde m
Äłchil d
Äłam o
Äłne x
Äłtr y
Äłnex t
Äłear l
Äłseas o
Äłseaso n
Äłque s
Äłsec o
Äłseco n
Äłsecon d
Äłprot e
Äłgo t
Äłtur n
Äłques t
Äłmod e
Äłatt a
Äłfo o
Äłbec o
Äłfre e
Äłbeco m
ÄłÃ¢Ä¢Ä º
ÄłCo u
Äłind i
Äłbes t
ÄłRe p
Äłinf o
Äłallo w
Äłacc e
Äłsoc i
Äłstr e
ÄłTha t
Äłcar e
Äłclo s
Äłle t
Äłliv e
Äłsee m
ÄłU S
Äłfee l
Äłatta c
Äłpos t
Äłperce n
Äłpercen t
Äłto p
Äłbr e
Äłsta n
Äłexper i
Äłlin e
Äłres e
Äłdis t
Äłg l
Äłcam e
ÄłA f
Äłma i
Äłbas e
Äłnati o
Äłnatio n
ÄłB l
Äłquest i
Äłle s
Äłquesti o
Äłquestio n
Äłcontr o
Äłper f
Äłdat a
Äłor d
Äłoffic e
Äłresu l
Äłresul t
Äłcl i
Äłcur r
Äłhar d
Äłea s
Äłimpo r
Äłimpor t
ÄłT i
Äłbelie v
Äłcompl e
Äłhu m
Äłincre a
Äłincrea s
Äłdes i
Äłwith o
Äłwitho u
Äłwithou t
Äłwo n
Äłcon v
Äłinfo r
Äłinfor m
Äłinclud i
Äłincludi n
Äłincludin g
Äłprovid e
Äłmem b
Äłeven t
Äłdr a
Äłca u
Äłser i
Äłprob l
Äłprobl e
Äłproble m
Äłhapp e
Äłhappe n
Äłbuil d
Äłbet t
Äłfu l
Äłec o
Äłph o
Äłcountr y
Äłrem a
Äłmemb e
Äłmembe r
Äłvot e
Äłra n
Äłcurr e
Äłcurre n
Äłinclud e
Äłrele a
Äłlit t
Äłstan d
Äłbe h
Äłrelea s
Äłqu a
Äłsch o
ÄłK e
Äłfou r
Äłle v
Äłke e
Äłbett e
Äłbette r
Äłbi l
ÄłThe r
Äłbeliev e
Äłserv i
Äłpo p
Äłparti c
Äłfor c
Äłrece n
Äłrecen t
Äłcall e
Äłch o
Äłinter e
Äłintere s
ÄłK i
Äłinteres t
Äłles s
Äłtal k
Äłlitt l
Äłlittl e
B ut
Äłde l
Äłappr o
Äłclos e
Äłan n
Äłexa m
Äłlev e
Äłcalle d
Äłpre v
Äłne a
Äłpi c
Äłli s
ÄłSh e
ÄłTher e
Äłvi s
ÄłK a
Äłlis t
Äłposs i
Äłpossi b
Äłte c
Äłbil l
Äłpa y
Äłem p
Äłtec h
ÄłPre s
Äłattac k
ÄłIn d
Äłproduc t
Äłreleas e
Äłres t
Äłle f
Äłlef t
ÄłA c
Äłmark e
ÄłA p
Äłar r
Äłre d
Äłkee p
Äł Z
Äłpres i
Äłpresi d
Äłdid n
Äłact u
Äłactu a
Äłful l
Äłte s
Äłpolic e
Äłpresid e
Äłtes t
Äłoffic i
Äłactua l
Äłcreat e
Äłoffici a
Äłnea r
Äłmai n
Äłord e
Äłbl a
Äłal o
Äłcontinu e
Äłeff e
Ã¢Ä ¢
Äłs w
ÄłT u
Äłofficia l
Äłeffe c
Äłeffec t
Äłpreside n
£ Ä
ÄłA t
Äłho l
ÄłCa r
Äłprogr a
Äłprogra m
Äłus i
ÄłWh i
Äłusi n
Äłusin g
ÄłUni t
Äłto w
Äłstr a
Äłed i
Äłva l
Äłorde r
Äłpu r
ÄłMa n
Äłsp a
ÄłE a
_ _
Ã¢Ä¢ Â
Äłbecom e
Äłforc e
Äłappea r
Äłalo n
Äłs k
Äłki n
Äłimport a
Äłeco n
Äłrea s
Äłide a
Äłecon o
Äłecono m
Äłimporta n
Äłcoll e
Äłnew s
Äłsha r
Äłfr i
Äłleve l
Äłcla s
ÄłC i
ÄłCa n
Äłedi t
Äłcomm e
Äłcon d
Äłlo w
ÄłNa t
Äłto u
Äłmon e
Äłgro w
Äłsma l
Äłsmal l
ÄłP l
ÄłI r
Äłscho o
Äłhea l
Äłschoo l
Äłsc r
Äłpres e
Äłwr o
Äłce r
Äłki l
Äłpa i
Äłinform a
Äłservi c
' re
Äłproce s
Äłcont e
Äłare a
Äłproces s
Äłwom e
Äłwome n
Äłservic e
Äłtra d
Äłor g
Äłdefe n
Äłsim p
ÄłCh r
Äłsimp l
t ion
Äłart i
Äłbe a
Äłacti v
Äłhis t
Äłal r
Äłcurren t
Äłsi d
Äłpro m
Äłim m
Äłbre a
ÄłC e
Äłpos i
Äłhum a
Äłt y
Äłhuma n
Äłhist o
Äłrece i
Äłcompan y
Äłcontro l
Äłpresiden t
Äłorg a
Äłclea r
Äłva r
ÄłBr i
Äł- -
Äłreas o
ÄłIn t
Äłreaso n
Äłun t
Äłsid e
Äłhisto r
ÄłUnit e
Äłalr e
ÄłMo n
Äłalre a
Äłalrea d
Äłalread y
Äłen o
Äłco s
Äłri s
Äłsh i
Äło l
ÄłO b
Äłimp r
ÄłUnite d
Äłorga n
Äłbus i
ÄłNo r
Äł =
Äłwh y
Äładd i
Äłrelat i
ÄłP h
Äłposi t
Äłma j
Äłreco r
Äłrecor d
Äłrecei v
Äłal w
Äłalw a
Äłalwa y
Äłalway s
Äłmone y
ÄłCo l
Äłexpe c
Äłinforma t
Äłinformat i
Äłexpec t
Äłlea s
Äłconsi d
Äłconsid e
Äłconside r
Äłlate r
ÄłHo w
Äłreg i
Äłbusi n
Äłtech n
Äłoffe r
Äłbusin e
Äłbusine s
Äłbusines s
Äłdea l
Äłboo k
Äł Q
Äł1 2
Äłmaj o
Äłmajo r
Äłposit i
Äłpro j
Äłproj e
Äłclas s
Äłbr a
ÄłO r
Äłproje c
Äłprojec t
Äłmarke t
Äłrea c
Äłcla i
Äłinformati o
Äłinformatio n
Äłjo b
Äłrequ i
Äłclai m
Äłe i
Äłexperi e
Äłab l
Äłexperie n
Äłexperien c
Äłpro f
Äłseve r
Äłdesi g
Äłdesig n
Äłabl e
Äłrequi r
ÄłRu s
Äłpop u
Äłno n
Äłstor y
Äłra i
Äłform e
Äłdri v
Äłheal t
Äłhealt h
ÄłWh e
Äłpas t
Äłpopu l
Äłpr a
Äłlo v
ÄłA d
Äład m
Äłreport e
Äława y
Äłpolitic a
Äłope r
Äłpolitica l
Äłoper a
ÄłCom m
Äłcit y
Äłmus t
Äłaut h
Äładm i
Äłorgan i
Äłtra i
Äłty p
Äł1 8
ÄłD r
Äłimportan t
ÄłSa n
Äłman a
ÄłH u
Äłdoes n
Äłkil l
Äłol d
Äłes t
Äłho p
Äłcommuni t
Äłleas t
Äłma s
ÄłInt e
ÄłHo u
Äłapp l
Äłai r
Äłret u
Äłrespon s
Äłretu r
Äłretur n
Äłexperienc e
ÄłE v
Äło c
Äłfri e
ÄłE u
Äłfig h
Äłfigh t
Äłcos t
Äłtel l
Äłim a
Äłopera t
Äłbi t
Äłrema i
Äłremai n
Äłday s
Äłvi e
Äłpopul a
Äłunder s
Äłfina l
Äłno r
Äłro u
Äłcamp a
Äłsuc c
Äłcampa i
Äłcampai g
Äłcampaig n
Äłlov e
Äłeno u
Äłspe n
Äłcons t
Äłenou g
Äłenoug h
Äłaf f
Äłsec u
Äłwork e
Äłpossib l
Äłext r
Äłmana g
ÄłN i
Äłmak i
Äłmo t
Äłmaki n
Äłrev e
Äłro l
Äłmakin g
Äłima g
Äłkin d
Äłvie w
Äłrequir e
ÄłGr e
Äłcont a
ÄłJo h
Äłexam p
Äłexamp l
Äłexampl e
ÄłD u
Äłfamil y
Äłfrie n
Äłfrien d
Äłfa n
Äłte n
Äłfac e
Äłta x
Äłacco r
Äłaccor d
Äłlead e
Äłleade r
Äłdo c
Äłru l
ÄłRus s
Äł1 5
Äłcer t
Äłan t
Äłro o
Äłunt i
ÄłChr i
ÄłChri s
Äłsucc e
Äłvi d
Äłwork i
Äłworki n
Äłrese a
Äłworkin g
Äłresea r
Äłresear c
Äłresearc h
Äłunti l
ÄłWo r
Äłha l
Äłvid e
Äłvide o
Äłco a
ÄłRep u
Ĥ Â
Äłprese n
ÄłRepu b
ÄłSo u
Äłvis i
Äłthough t
ÄłRepub l
Äłvar i
ÄłRepubl i
Äłunders t
Äłde b
Äłcomple t
Äłtoo k
Äłsho r
ÄłRepubli c
Äłconf i
Äłra c
ÄłJoh n
Äłcau s
Äłmis s
Äłmedi a
Äłauth o
Äłautho r
Äłag r
Äłreceiv e
Äłincreas e
Äłfor e
ÄłEu r
Äłof t
Äłinter n
Äłsecu r
Äłhou s
ÄłHou s
Äłfea t
ÄłK o
Äłactual l
Äłactuall y
Äłval u
Äłcomm i
ÄłF l
Äłfun d
Äłoft e
Äłofte n
Äłco v
Äłwa l
Äłwat e
Äłwate r
Äłter m
ÄłP i
Äłex e
Äłmanag e
ÄłEur o
Äłcov e
Äłforme r
ÄłAl l
Äłaccord i
Äłme e
Äłfl o
Äłage n
ÄłG u
Äłaccordi n
Äłcr o
Äłaccordin g
ÄłC u
Äłter r
ÄłE l
Äłrel i
Äł3 0
Äłmee t
Äłgame s
Äłperf o
Äłperfo r
Äłstr i
Äłtime s
Äłsen s
Äłstr u
Äłstud e
Äłstude n
Äłstuden t
Äłdo i
Äłperfor m
Äł1 1
Äłwor d
ÄłNat i
Äłfr a
ÄłV a
Äłto d
Äłfa l
ÄłChi n
Äłsoci a
Äłba t
ÄłDe m
ÄłCl i
Äłrep r
Äłsocia l
Äłfil m
Äłres i
Äłinv o
ÄłOb a
Äłbe n
Äłfl a
Äłent i
Äłsu g
Äłop t
ÄłM c
Äłsin g
ÄłOba m
Äłni g
ÄłObam a
Äłlike l
ÄłS y
The r
Äłcove r
ÄłSt e
Äłshor t
Äłchar a
Äłsc i
Ther e
Äłcr a
Äłchara c
Äłcharac t
Äłcharact e
Äłcharacte r
ÄłFr a
Äłdoi n
Äłnig h
Äłdoin g
ÄłMa y
ÄłT w
ÄłRuss i
Äłloca l
ÄłRussi a
Äłba r
Äł19 9
Äłnigh t
Äłac r
Äłconv e
Äł ,
ÄłPres i
ÄłPresi d
Äłlea r
Äłlear n
Äłba l
Äłcomp e
Äłplayer s
ÄłSt r
Äłsc a
Äłtod a
ÄłWa r
ÄłPresid e
ÄłPreside n
Äłcour s
Äłtoda y
Äłfeat u
Äłfeatu r
Äłcours e
Äłhav i
Äłhavi n
Äłpo t
Äłhavin g
ÄłYo r
Äłsee n
Äłearl y
Äłstr o
Äłho s
ÄłMi n
i le
Ã¢Ä¢Â ¦
Äłfu t
Äłvi c
Äłor i
Äłex i
Äłmin i
Äłfe l
Äłsever a
/ /
Äłsto p
Äłwhe t
ÄłPresiden t
ÄłYor k
Äłchild r
Äłchildr e
Äłchildre n
Äłwhet h
Äłal t
Äłwheth e
Äłwhethe r
ÄłUni v
Äłwe n
Äłcri t
Äłver s
ÄłWi l
Äłcomplet e
Äłsevera l
Äłinvest i
Äłacti o
Äłactio n
Äłmil i
Äłfi v
Äłfiv e
Äłsur e
Äłpres s
Äłwen t
Äłdef i
Äłdeci s
ÄłUniv e
ÄłUnive r
Äłdecis i
ÄłUniver s
ÄłEuro p
Äłe q
ÄłMi c
Äłyou n
Äłyoun g
Äłmili t
Äłsub s
Äłcomme n
Äłlea v
Äłdes c
Äłeq u
Äłlikel y
Äłfut u
Äłfutu r
ÄłNati o
ÄłNatio n
Äłoc c
Äłen g
Äłmember s
Äłsci e
Äłcert a
Äłscie n
Äłann o
Äłcerta i
Äłcertai n
Äłen e
Äłind u
Äłdon e
ÄłHa r
Äłcontr a
Äłar g
Äłav a
ÄłSe n
Äłinvo l
Äłsucce s
ÄłState s
Äłdriv e
Äłsucces s
ÄłM r
Äłreal i
Äłfutur e
Äłalon g
ÄłEurop e
ÄłBr o
Äłunderst a
Äłagr e
Äłhou r
Äłins i
Äłtre a
Äłagre e
Äłon c
Äłdem o
Äłshar e
Äłmonth s
Äłhop e
Äłinvol v
ÄłRepublic a
ÄłRepublica n
Äłli g
Äłdi v
Äłpl e
Äłse x
Äłstart e
Äłfir e
Äłcour t
Äłla u
Äłwith i
Äłwithi n
Äłdecisi o
Äłdecisio n
Äłarg u
Äłdis p
Äłlan d
Äłdr o
Äłgenera l
Äłonc e
Äłhi t
Äłamo n
Äłamon g
Äłbo d
ÄłInd i
Äłca t
Äłacr o
Äłreg u
Äłinvesti g
Äłinvestig a
Äłsu s
Äłdet e
Äłpossibl e
Äłundersta n
Äłunderstan d
Äłinvestiga t
ÄłDem o
Äłconce r
Äłregu l
Äłregul a
ÄłV e
Äł ]
Äłvalu e
Äłmean s
ÄłWhe n
Äłchar g
Äłlig h
Äłligh t
Äłvi o
Äłvio l
Äłgo a
Äłsa l
Äłcommen t
Äłopt i
Äłcom i
Äłbri n
Äł /
Äłava i
Äłmilit a
ÄłInte r
Äłpri v
ÄłWe s
Äłuse r
ÄłEv e
Äłavai l
Äłnot e
Äłknow n
Äłrat e
Äłan a
Äłdis a
ÄłMo r
ÄłWh a
Äłye t
Äłacro s
ÄłNor t
Äłhol d
Äłacros s
Äłprote c
Äłco o
Äłprotec t
ÄłP u
Äłcu t
Äłcommunit y
ĳ Ä
Äłfai l
Äłrul e
Äłstro n
Äłce l
Äłexpl a
ÄłFr e
Äłcaus e
Äłso n
Äłstron g
Äłsug g
Äłsugg e
Äłsugge s
Äłsugges t
Äłavail a
Äłcons e
Äłavaila b
Äłfa s
Äłmi d
Äłant i
Äłpri c
Äłmov i
Äłmake s
Äłori g
Äłcrit i
ÄłPr i
Äł &
Äłev i
Äłorig i
Äłorigi n
Äłfeatur e
W he
Äłask e
Äł201 6
Äłaske d
re s
Äłbrin g
ÄłNort h
Äłgive n
Äłatte n
ÄłCou n
ÄłHous e
Äłe t
Äłreporte d
ÄłHe r
Äłgoa l
Äłout s
Äłthre a
Äłnation a
Äłnationa l
ÄłFra n
Äłother s
Äłserv e
Äłget t
Äłar m
ÄłCa l
ÄłCe n
Äłsc o
Äłsign i
ÄłWha t
Äłgett i
ÄłG i
Äłli m
Äłgetti n
ÄłUnivers i
Äłgettin g
ÄłWes t
ÄłPo l
Äłwe b
ÄłE x
Äłinst a
Äłcri m
ÄłUniversi t
ÄłDemo c
Äłext e
ÄłDemoc r
Äłanno u
Äłannou n
Äłannoun c
ÄłDemocr a
ÄłY e
Äłmat t
Äłide n
Äłiden t
Äłident i
Äłbo r
ÄłSc h
Äłres o
Äłsen t
Äłinter v
ÄłChris t
ÄłPl a
Äłne t
ÄłIn s
ÄłUniversit y
Äłsou r
Äłwrit e
Äłag o
Äłdesc r
Äłdescr i
Äłto g
Äłtrai n
Äłpartic u
Äłrepr e
Äłparticu l
Äłparticul a
Äłcor r
Äłpositi o
Äłpositio n
Ã¢Ä¢Ä µ
Äłmatt e
Äłwat c
Äłwatc h
ÄłBa r
in e
Äłcharg e
Äłfu r
Äłal m
' ve
ÄłO f
Äłspa c
Äłparticula r
Äłpresen t
Äłdi e
Äłrepre s
Äłdet a
Äłbel o
Äłsa f
Äłcriti c
Äł X
Äłorgani z
Äłi l
Äłfa t
Äłeconom i
Äłmatte r
ÄłSh a
Äłstarte d
Äłhous e
o me
ÄłCi t
Äłprob a
Äł201 5
Äłavailab l
Äłavailabl e
Äłsaf e
Äłdea t
Äłdeat h
Äłbeg i
Äłbegi n
Äłindu s
Äłindus t
Äłindust r
Äłalm o
Äłhigh e
ÄłTi m
Äłacco u
Äłbase d
ÄłDemocra t
Äłaccou n
Äłaccoun t
Äłemp l
Äłfollow i
Äłfollowi n
Äłfollowin g
Äłcu l
Äłhistor y
ÄłCen t
Äłmo m
Äłempl o
Äłemplo y
Äłtrea t
Äłpart y
Äłspac e
Äłnat u
Äłstud y
Äłnatu r
Äłspe e
Äłpric e
Äłexc e
Äłsit e
Äłsour c
Äłcommi t
ÄłIndi a
Äłany t
Äłsecur i
ÄłSou t
Äłtry i
Äłcome s
Äłtryi n
Äłsk i
Äłtryin g
ÄłSe c
re a
Äł #
Äłexi s
ÄłSout h
Äłexis t
Äłseri e
Äłalmo s
Äłalmos t
Äłserie s
ÄłTr a
Äłtog e
Äłtoge t
Äłtoget h
Äłtogeth e
Äłtogethe r
Äłconcer n
Äładdi t
Äładdit i
Äłsourc e
Äłstate m
Äłstatem e
Äłgl o
Äłstateme n
Äłstatemen t
ÄłIr a
Äłannounc e
Äłfo c
Äłdeta i
ÄłCan a
Äłmen t
Äłacce s
Äłimpr o
Äłke y
Äłactiv i
c on
Äłacces s
ÄłWa s
Äłdel i
Äłhal f
Äłcar r
Äłsi x
Äłis n
ÄłOn e
Äłref e
Äłil l
Äłrefe r
Äłind e
Äłproba b
Äłprop e
Äładd e
Äładditi o
Äładditio n
Äł1 6
Äłdeci d
Äłpra c
ÄłE d
Äłste p
Äłe r
Äłperson a
Äłprac t
Äłpract i
Äłbrea k
Äłrepres e
Äładde d
Äłreprese n
Äłrepresen t
Äłtyp e
Äłprev i
Äłinvolv e
Äłinte n
Äłfil e
Äłpot e
Äłpote n
Äłsp i
Äł5 0
Äłsing l
Äłdr u
Äłelect i
Äłfoc u
Äłfocu s
Äłcit i
Äłme s
Äłsingl e
Äłen c
Äłreac h
Äłmilita r
Äł201 4
Äłlook i
Äłlooki n
a ge
Äłpoten t
Äłsecuri t
Äłlookin g
ÄłO c
Äłta r
Ã £Ä
Äłanyt h
Äłanyth i
Äłanythi n
Äłanythin g
Äłproduc e
Äłleg a
ÄłGe r
Äłana l
Äłappl i
Äłmu l
Äłsur v
Äłfa v
Äłindi v
Äłindiv i
ÄłSu n
Äłpriv a
ÄłDo n
Äłprop o
Äłindivi d
Äłindivid u
Äłsay i
Äłsayi n
Äłindividu a
Äłbuild i
Äłbuildi n
Äłbuildin g
Äłcons u
Äłsayin g
Äłelecti o
Äłelectio n
Äłindividua l
Äłdist r
Äłbas i
Äłcu s
Äłpo r
Äłoperat i
Äłfav o
Äłdefi n
Äłvers i
Äłfe d
Äłversi o
ÄłCli n
Äłversio n
Äłlim i
Äłben e
Äłpersona l
Äłlimi t
Äłwi d
Äłba d
Äłeff o
Äłeffo r
Äłeffor t
Äłrol e
ÄłCana d
Äłvic t
Äł1 3
Äłintern a
Äłrev i
ÄłQ u
Äłthi r
ÄłMu s
Äłtake n
Äłsim i
ÄłWi t
Äłsimi l
Äłspe a
Äłmin u
Äłrep l
ÄłJa n
Äłenti r
ÄłEn g
Äłentir e
Äłcompe t
Äłpho t
Äłphot o
Äłsimil a
Äłsimila r
Äłbeh i
Äłbehi n
Äłbehin d
Äłpic k
' m
Äłbu r
Äłjo i
Äłorigin a
Äłgu y
Äł1 4
Äł z
Äłimpro v
Äłtra c
Äłjoi n
Äł )
Äłdisc o
Äłpotent i
Äłdisc u
Äłmode l
Äłmul t
ÄłHi s
Äłto t
Äłpotenti a
Äłfi e
Äłmilitar y
Äłsecurit y
ÄłMar c
Äłprope r
Äłspeci a
ÄłLe a
Äłpotentia l
Äłdiscu s
Äłmult i
Äłpracti c
Äłrelati o
Äłrelatio n
Äłspecia l
Äłbat t
Äłdiscus s
Äłfina n
ÄłDa v
Äłfinan c
Äłcus t
Äłde e
Äłrat h
Äłrath e
Äł |
Äłrathe r
Äłinc o
Äłtechn o
Äłdecid e
ÄłDe p
Äłqui c
Äłthrea t
Äłcust o
Äłquic k
ÄłBri t
Äłoppo s
ÄłGo o
Äłmin d
Äłnot i
Äłarti c
Äłpre t
ÄłÃ Ĥ
ÄłWa l
Äłspeci f
Äłprevi o
Äłprevio u
Äłpreviou s
Äłpubli s
Äłpublis h
Äłfal l
Äłwant e
Äłwante d
Äłmes s
Äłacc u
Äłprobab l
Äłoffice r
Äłwho l
Äłpolic y
Äłexpla i
Äłexplai n
Äłsome o
Äłsomeo n
Äłsomeon e
Äłcompa r
Äłpri m
Äłtot a
ÄłCo r
Äłtota l
ÄłBr a
Äłsu m
Äłimag e
Äłfoo d
Äłrem o
Whe n
ÄłA b
Äłspo k
Äłbla c
Äłblac k
Äłspok e
ÄłClin t
Äłcul t
ÄłTh o
Äłtechno l
Äłminu t
Äłtechnol o
Äłtechnolo g
ÄłIs l
Äłcon n
Äłspea k
Äłred u
Äłfoo t
Äłcom b
Äł1 7
Äłent e
Äłminut e
Äłbo a
Äłass e
Äłatte m
Äłattem p
Äłattemp t
Äłcompan i
Äłente r
ÄłAs s
Äłtak i
Äłtaki n
Äłen v
Äłmiss i
Äłtakin g
ÄłGr a
Äłtr o
ÄłAu s
Äłstat i
Äłmom e
Äłmome n
Äłmomen t
Äłmus i
Äłexpl o
Äłfun c
ÄłClint o
ÄłClinto n
ÄłSe r
ÄłNation a
ÄłNationa l
Äłl u
Äł2 5
ÄłFr i
Äłcl u
Äłsigni f
de r
ÄłPe r
* *
Äłin j
Äłexte n
Äłblo c
Äłdevelop m
Äłdevelopm e
Äłdevelopme n
Äłdevelopmen t
Äłel s
Äłmusi c
i me
Äłfro n
Äłbod y
Äłtow a
Äłdec l
Äłde n
Äłtowa r
Äłtowar d
Äłhu n
Äłels e
Äłevi d
Äłnot h
Äłevid e
Äłevide n
Äłfron t
Äłnoth i
Äłnothi n
ÄłI m
Äłdev i
Äłcan n
Äłprobabl y
Äłcol o
Äłnothin g
ÄłIs r
ÄłWor l
ÄłSo m
Äłwhol e
: //
ÄłIsr a
Äłpa c
Äłinf l
Äłsignif i
ÄłF u
ÄłIsra e
Äłconn e
ÄłIsrae l
ÄłBl a
ÄłWorl d
Äłcomi n
ÄłSu p
Äłfunc t
Äłcomin g
Äłvisi t
Äłconne c
Äłconnec t
Äłsp r
Äłall e
Äłcha l
ÄłIsl a
ÄłRe s
Äłanal y
Äładv a
Äłrai s
Äłmas s
Äłimp l
Äładva n
Äłredu c
Äłcolle c
Äłcollec t
Äłfunct i
Äłob s
Äłfuncti o
Äłfunctio n
ÄłCit y
Äłpoint s
Äłartic l
Äłhow e
Äłarticl e
Äłhowe v
Äłhowev e
Äłhoweve r
Äłdescri b
Äłfed e
Äłrun n
Äłfede r
Äłfeder a
Äłdetai l
Äł10 0
Äłorigina l
Äłint r
Äłbene f
Äł :
Äłdu e
Äłconte n
Äłei t
Äłeit h
Äłeith e
Äłeithe r
Äłsup e
Äłsl i
ÄłTw i
Äłsignifi c
Äłsupe r
Äłsignific a
Äłouts i
Äłun c
Äłban k
Äłspecif i
Äłsignifica n
Äłqui t
Äłcomm o
Äłfur t
o un
ÄłAus t
Äłab s
Äłsc e
ÄłNo t
Äłdo u
Äłda m
Äłbenef i
ÄłJu l
Äłtar g
Äłfurt h
Äłgu i
Äłfurth e
Äłtarg e
Äłtarge t
Äłlega l
Äłris k
Äłli b
Äłoutsi d
Äłoutsid e
Äłpri n
Äłright s
Äłeconomi c
ÄłWas h
re d
Äłco d
Äłfurthe r
Äłocc u
Äłbloc k
ÄłJu n
ÄłHow e
Äłbill i
Äłper i
Äłchal l
ÄłWit h
Äłwro t
Äłwrot e
Äłlau n
Äł201 3
Äłchall e
Äłchalle n
ÄłDi s
Äłfedera l
Äłchallen g
Äłwhi t
Äłsho t
Äłthir d
Äłsl o
Äłsa v
Äłfie l
Äłfiel d
Äłissue s
Äłav e
Äłrelation s
ÄłFa c
Äłref u
Äłwhit e
Äłwid e
Äłleav e
Äłseem s
Äłsce n
Äłevery t
ÄłWhi t
Äłte m
Äłmea s
Äłcreat i
Äłeveryt h
Äłeveryth i
Äłeverythi n
Äłeverythin g
Äłun l
Äładmi n
Äłcan d
ÄłGer m
Äłe y
Äłcompani e
Äłcompanie s
Äłexe c
Äłfig u
Äłscr e
Äłfigu r
ÄłWash i
Äłroo m
ÄłWashi n
ÄłWashin g
Äłey e
ÄłHe a
ÄłDe c
in t
Äłgenera t
ÄłGerm a
ÄłWashing t
ÄłWashingt o
ÄłWashingto n
Äłbilli o
Äłbillio n
Äłla b
Äł201 2
Äłtem p
Äłche c
Äłchec k
Äłpro s
ÄłWi n
Äłre n
Äłleader s
Äłsou n
Äłsoun d
Äłsel f
Äłstate s
ÄłHowe v
ÄłHowev e
ÄłHoweve r
ÄłGerma n
ÄłTh u
Äłne c
Äłco p
Äłpa g
Äłspen d
Äłcusto m
ÄłL u
Äłcou p
Äłbeg a
Äłes p
o ut
Äłofficial s
Äłrelease d
Äłbega n
Äłsus p
Äłin i
Äłstudent s
ÄłAp p
Äłmeas u
Äłmeasu r
Äłenv i
ÄłIns t
ÄłNo v
Äłbu y
Äłene r
Äłset t
Äłdoc u
Äłqua l
ÄłE m
Äłener g
Äłlong e
Äłwa i
Äłem a
Äł201 7
Äłdocu m
Äłdocum e
Äłdocume n
Äłdocumen t
Äłexec u
Äłhim s
Äłexecu t
Äłso r
Äłhims e
Äłhimse l
Äłhimsel f
d ing
Äłan i
Äłini t
ÄłPar t
Äładmin i
Äładmini s
Äładminis t
Äłabo v
Äłabov e
Äłits e
Äłitse l
Äłitsel f
Äłamo u
re e
Äłcar d
Äłamou n
Äłamoun t
Äłgu n
Äłthem s
Äłthems e
Äłthemse l
Äłsens e
Äłhour s
Äłthemsel v
Äłthemselv e
Äłthemselve s
Äłeviden c
Äłqual i
Äłevidenc e
Äłown e
Äłdou b
Äładd r
Äłtru e
Äłani m
Äłdefen s
Äłbeca m
Äłbecam e
Äłpropo s
Äłregi o
Äłregio n
ÄłInter n
Äłne g
Äładdr e
Äładdre s
Äładdres s
Äłopti o
Äłoptio n
Äłspecifi c
Äłpag e
Äłcountr i
Äłcountri e
Äłcountrie s
ÄłMic h
Äłimprov e
Äłpass e
ÄłA g
ÄłSom e
Äłwas n
Äłlaun c
Äł19 8
Äłlaunc h
Äłsimpl y
Äłmedi c
Äłcod e
ÄłJu s
Äłinit i
Äłinterv i
Äłintervi e
Äłiniti a
Äłintervie w
Äłest a
Äłsit u
ÄłDav i
a tion
' l
'l l
Äłsignifican t
Äłpe n
Äłave r
Äłpho n
Äłdo m
Äłgrou n
Äłgroun d
ÄłGe n
Äłdiff i
Äłdescrib e
Äłdevelop e
Äłauthor i
Äłdru g
Äłsitu a
Äłcommo n
Äłsum m
Äłdiffi c
ÄłEng l
Äłda n
Äłrunn i
Äłrunni n
Äłrunnin g
ÄłChin a
Äłimp a
ÄłJus t
Äłbal l
ÄłSe a
Äłsitua t
Äłmat c
Äłmatc h
Äłfigur e
Äłdiffic u
Äłdifficu l
Äłdifficul t
Äłs n
Äłprof e
Äłra d
Äłprofe s
Äłtrad e
Äłleg i
a me
Äłprofes s
Äłneed s
ÄłTim e
ÄłGre e
Äłan s
Äłevery o
Äłeveryo n
Äłeveryon e
Äłema i
Äłemai l
Äłappro a
Äłapproa c
Äłapproac h
Äłgroup s
ÄłSe p
Äłcult u
Äłcultu r
Äłsco r
Äłnet w
Äłnetw o
Äłnetwo r
Äłnetwor k
Äłemploy e
Äłinvestigat i
Äłshow s
Äłwal k
Äłwom a
Äłwoma n
Äłeas i
ÄłRo b
Äłph y
Äłbenefi t
Äłdes t
Äłans w
Äłansw e
Äłanswe r
Äłneed e
Äłchan c
Äłneede d
Äłtrad i
ÄłPol i
Äłpret t
Äłchanc e
Äłinj u
Äłfor w
Äłforw a
Äłforwa r
Äłforwar d
Äłbelo w
Äłpi e
Äłcond i
ÄłÃĤ Â
ÄłMe d
Äłphon e
Äłsa w
Äłsur p
Äłass i
Äłalle g
Äłdec a
Äłdee p
Äłma g
Äłprett y
Äłfavo r
Äłcondi t
Äłcondit i
Äłconditi o
Äłconditio n
Äłsho o
Äłpu s
Äłpriva t
Äł4 0
Äłdistr i
Äłmeasur e
Äłcand i
ÄłRe a
Äłquit e
Äłplaye d
Äłworke r
Äłdevi c
Äłdevic e
ÄłWhit e
Äłsituat i
ÄłCon s
Äłsituati o
Äłsituatio n
Äłab i
ÄłRi c
ÄłAc t
Äłindustr y
Äłcap t
Äłki d
ÄłSt o
Äłpublish e
Äłplay i
Äłloca t
Äłplayi n
Äłfas t
Äłenerg y
Äłsta y
Äłplayin g
Äłcandi d
ÄłTwi t
Äłglo b
Äłsec t
Äłne i
Äłdirect o
ÄłFran c
Äłdirecto r
Äłphy s
Äłpai n
Äłimm e
Äłphys i
Äłbeh a
ÄłAf t
Äłmeet i
Äłmeeti n
Äłmeetin g
Äłbig g
Äłso o
Äłaver a
Äłenvi r
Äłfriend s
Äłavera g
Äładminist r
Äłenvir o
Äładministr a
Äłdr e
Äłesp e
Äłconta i
Äłcontai n
Äłenviro n
Äładministra t
Äłrespons e
in c
Äłbigg e
ÄłAft e
Äłpus h
ÄłAfte r
Äłob j
Äłpo o
Äłinst e
Äłespe c
Äłinste a
Äłinstea d
ÄłFi r
Äłespec i
Äłgra n
Äłlos t
Äłespeci a
Äłespecia l
Äłprom i
Äłenviron m
Äłenvironm e
Äłenvironme n
Äłenvironmen t
Äłmess a
Äłmessa g
ÄłNew s
Äłproduct i
Äłespecial l
Äłespeciall y
Äłconten t
ĥ Ä
in a
Äłearl i
Äłearli e
Äłhos t
Äłrac e
Äłcandid a
Äława r
Äłobj e
Äłwor s
k ing
Äłfinanc i
Äłcomp u
Äłrecent l
Äłrecentl y
Äłaut o
Äłobje c
Äłobjec t
ÄłAust r
Äłtrac k
Äłconve r
Äłcontra c
Äłkill e
Äłdes p
Äłdro p
Äłsu f
ÄłWil l
Äłweek s
Äłoppo r
ÄłTwit t
Äłoppor t
Äłopport u
Äłopportu n
Äłcorr e
Äłdete r
Äłju d
ÄłTwitt e
ÄłTwitte r
Äłsuf f
Äłperi o
Äłanim a
Äłchange s
ÄłOc t
Äłpor t
Äłkn e
Äłperio d
Äłopportun i
Äłextr a
Äłmat e
Äłcoup l
Äłro a
Äłviol e
Äłlonge r
Äłpar a
Äłe p
Äłcompet i
Äłlow e
Äłstand a
Äłchalleng e
ÄłKi n
Äłabi l
ÄłSc o
Äłabil i
Äłabili t
ÄłSy r
Äłacce p
Äłci r
Äłaccep t
Äłenc o
ÄłMa t
Äłcli m
Äłlin k
Äłrais e
ÄłDep a
Äłstru c
Äłsoo n
Äłviole n
Äłshoo t
ve n
ÄłDepa r
ÄłMi l
ÄłCh e
ÄłDepar t
Äłcir c
Äłho r
ÄłLo n
Äłprivat e
ÄłCon g
Äłjo u
us t
l le
ÄłBa n
ÄłSen a
Äłti t
ÄłM y
Äłwork s
Äłpractic e
Äłpar e
Äłseri o
Äłcoupl e
Äłserio u
Äłseriou s
Äłwai t
ÄłDepart m
ÄłDepartm e
ÄłDepartme n
ÄłDepartmen t
Äłwro n
ÄłMarc h
Äłwron g
Äłfac i
Äł2 4
Äłgi r
Äłoffe n
Äłconsu m
Äł2 1
ÄłSep t
Äłaverag e
Äłreli g
ÄłS w
Äłremo v
Äłrelig i
Äłjou r
Äłreligi o
Äłri d
Äłinsi d
Äł {
Äłopportuni t
Äłed u
Äłhighe r
ÄłFac e
Äłbo u
ÄłHi l
Äłelect r
Äłorganiz a
Äłstor e
ÄłThe s
ÄłSena t
Äłtra v
Äłta b
Äłjour n
Äłedu c
Äłcre d
Äłpare n
Äłeduc a
Äłreg a
Äłhel d
Äłorganiza t
Äłple a
Äłparen t
Äłeduca t
Äłphysi c
Äłweb s
Äłorganizat i
Äłorganizati o
Äłorganizatio n
Äłstanda r
Äłstandar d
ÄłGe o
Äłonl i
Äłonli n
Äłonlin e
Äłlet t
ÄłBe r
ÄłEa s
Äłle d
Äłmessag e
Äłdem a
Äłcandida t
Äłword s
Äłtrav e
Äłcompu t
Äłpre d
Äłcann o
ÄłThes e
Äłdeca d
Äłinju r
Äłinsid e
Äłcandidat e
Äłrad i
Äłresi d
__ __
Äłresult s
Äłma l
Äł +
Äłgir l
Äłdecad e
ÄłSyr i
h ile
Äłci v
Äłrevi e
Äłstud i
Äłpopula t
Äłrevie w
ÄłHo l
Äłsol d
t ing
Äłlaw s
Äłcontrac t
Äłciv i
Äłwin d
The y
Äłwebs i
Äłwebsi t
Äłwebsit e
Äłindi c
ÄłLi n
ÄłAu g
Äłexp r
Äłau d
Äłappli c
Äłapplic a
Äłservice s
Äłpla t
Äłminute s
Äłpopula r
Äłany o
ÄłS m
Äłanyo n
ÄłSp a
Äłanyon e
ÄłSyri a
ÄłJun e
Äłsw i
Äłagen c
Äłep i
ÄłSi n
Äłmove m
Äłmovem e
Äłmoveme n
Äłmovemen t
Äłexa c
Äłdema n
Äłmet h
Äłdeman d
Äłanaly s
Äłem b
ÄłComm i
Äłcent r
Äłmovi e
Äłprote s
Äłprotes t
Äłsusp e
ÄłFi n
Äłnec e
Äłnece s
Äłexpr e
Äłexpre s
Äłdam a
Äłup d
Äłvo l
Äłexpres s
Äłmo u
Äłdama g
ÄłCong r
Äłh y
Äłupd a
Äłupda t
Äłearlie r
Äłdea d
Äłneces s
Äłcontr i
Äłvi a
Äłresp e
Äłsta g
Äłtea c
Äłinterna t
Äłinternat i
Äłinternati o
Äłinternatio n
Äłrespe c
Äłj a
Äłuni t
Äłinternation a
Äłwe i
Äłinternationa l
ÄłBe n
Äłpie c
Äł201 1
Äłperform a
Äłpe a
Äłrespec t
ÄłCoun t
Äłteac h
ÄłPa l
Äłtechnolog y
Äłaud i
Äłperforma n
ÄłMed i
Äłpiec e
ÄłAp r
Äłcap i
Äłexpect e
Äłexpecte d
i ke
Äłcreate d
Äłglob a
Äłgloba l
Äłla c
Äłsurp r
Äłidenti f
Äłlan g
Äłproblem s
Äłsurpr i
Äłmem o
Äłperforman c
Äłperformanc e
Äłsurpri s
Äłfamil i
Äłran g
ÄłBr e
Äłtrave l
Äłreceive d
Äłoperati o
Äłoperatio n
Äłhigh l
Äłtri e
Äłme r
ÄłCongr e
ÄłJul y
Äładministrat i
Äłcapi t
Äłscien t
Äłta s
Äłway s
Äłscient i
Äłreve a
Äłrevea l
Äłcoa c
Äłeas y
Äłcoac h
Äłsu i
Äłpu l
Äłsec r
Äłcontri b
Äłsecr e
Äłsel l
Äłquestion s
Äłcanno t
Äłtou r
ÄłMo s
Äł <
Äłfinanci a
Äłannounce d
Äłrespons i
Äłcontrib u
Äłfinancia l
Äłlang u
Äłpac k
Äłcommit t
ÄłCongre s
Äłcontribu t
ÄłGo d
ÄłMon d
Äłtit l
Äłrep e
ÄłCongres s
Äłimpa c
Äłimpac t
Äłcomp o
ÄłEas t
Äłeng i
Äłdi a
Äłengi n
Äłun a
Äłsi z
Äłengin e
Äłtitl e
Äłpa p
Äłmy s
Äłdra w
ÄłFace b
ÄłSa t
Äłsimpl e
ÄłFaceb o
Äłexp o
Äłsch e
ÄłFacebo o
ÄłFaceboo k
Äłstra t
ÄłFri d
Äłpa n
Äłinvolve d
Äłsupport e
ÄłSta r
Äłcivi l
Äłuni v
ÄłMin i
Äłpol l
Äłso f
Äłactivi t
Äłcap a
Äłresid e
C on
Äłuniv e
Äłunive r
Äłmate r
Äłuniver s
ÄłHil l
Äłauthori t
Äłu r
ÄłFrid a
Äłpopulat i
Äłper m
e ver
Äłexp a
ÄłFrida y
Äłpre p
Äłpopulati o
Äłpopulatio n
Äłterr o
Äłcapit a
Äłexac t
Äłmar r
Äłterro r
ÄłAustr a
Äłcr u
Äłnear l
Äłfact o
Äłnearl y
ÄłAustra l
Äłlangu a
Äłlangua g
Äłupdat e
Äłlanguag e
Äłho n
Äłdeli v
Äłcare e
Äłdeliv e
Äłdelive r
ÄłSh o
Äłin n
Äłmode r
Äłboa r
Äłrelations h
Äłrelationsh i
Äłrelationshi p
Äłsta f
Äłstaf f
Äłexecut i
ÄłGoo g
Äłrega r
ÄłGoog l
Äłregar d
Äłextr e
Äłextre m
Äłcaree r
ÄłAustral i
Äł19 7
Äłass o
ÄłStr e
Äłcase s
ÄłO p
ÄłCou r
ÄłTu e
ÄłAustrali a
ÄłMond a
ÄłGoogl e
Äłboar d
Äłsof t
Äłsea r
ÄłTu r
Äłhu g
ÄłPa t
Äłdifferen c
ÄłO l
Äłdifferenc e
Äłarr e
Äłus u
Äłs q
ÄłMonda y
ÄłRe d
Äłexpa n
Äłbro a
Äłfan s
ÄłApr i
Äłliv i
Äłsub j
Äłcred i
Äłinte l
Äłwor t
Äłlive s
Äłins u
Äłhear t
ÄłApri l
re n
ÄłCal i
Äłscre e
Äłdi g
Äłfin i
Äłarre s
Äłarres t
ÄłCl a
Äłc y
Äłrepl a
ÄłCha r
ÄłG l
Äłlivi n
ÄłTue s
Äłowne r
Äłlivin g
Äło i
Äłbroa d
ÄłTues d
ÄłTuesd a
ÄłTuesda y
Äłsiz e
Äłreport s
Äłwort h
Äłsecre t
Äłintr o
Äłra p
Äłkille d
Äłsear c
Äłsearc h
Äłjud g
us e
Äłass u
Äłcompeti t
Äłenco u
ÄłDa n
Äłtel e
Äłuser s
Äłworke d
Äłma c
Äłimme d
Äłimmed i
Äłstrat e
Äłimmedi a
Äłtw e
Äłstrate g
Äł201 0
Äłpap e
Äłsubj e
Äłoi l
Äłresponsi b
ÄłWhi l
Äłsubje c
Äłsubjec t
Äłesta b
Äłpape r
Äłintel l
Äłrespon d
ÄłAnd r
Äłclu b
ÄłAmerican s
Äłcel l
Äłestab l
Äłrequ e
Äłcha i
Äłestabl i
Äłestabli s
ÄłPo s
Äłimmedia t
Äłtake s
Äłestablis h
Äłreque s
Äłreques t
Äłmot h
Äłusu a
ÄłJa p
Äłscree n
Äłimmediat e
Äłabilit y
Äłobs e
Äłusua l
Äłmedic a
r ing
Äłasso c
Äłwea p
Äłweap o
Äłweapo n
Äłsel e
Äłvo i
ÄłKo r
Äłassoc i
ÄłJap a
Äłassoci a
Äłterm s
ÄłRussia n
ÄłJapa n
Äłassocia t
Äłtradi t
Äłworker s
Äłtradit i
Äłtraditi o
ÄłJa m
Äłtraditio n
Äłthe o
Äłcapita l
Äłtrans f
Äłdamag e
Äłhea v
Äłinvestigati o
Äłinvestigatio n
Äłroa d
Äłpublishe d
Äłbeha v
Äł2 2
ÄłSp e
Äłrem e
Äłfacto r
ÄłSun d
Äłsele c
Äłselec t
ÄłWhil e
ÄłChrist i
Äłlac k
Äłga v
Äłsen d
Äłlo a
ÄłO u
Äłdeter m
Äłdeterm i
Äłdetermi n
Äłgav e
Äłdefin i
Äłsq u
ÄłWe d
Äłcommitt e
Äłdecide d
Äłsor t
Äłlo g
Äłreside n
Äłlist e
Äłpat i
Äłlowe r
ÄłA i
Äłsl a
Äłmoth e
Äłmothe r
ÄłEurope a
Äłem e
ÄłEuropea n
Äłsal e
Äłmater i
Äłscor e
Äłbasi c
ÄłAf r
Äłcho i
Äłeme r
Äłgo e
Äłinfl u
Äłmateri a
Äłfea r
Äłfini s
Äłfinis h
Äłsa t
Äłhappen e
Äłmateria l
Äłhappene d
Äłpart n
Äłpartn e
Äłpartne r
ÄłNo w
Äłscen e
Äłoppos i
ÄłCali f
Äłregula t
ÄłB y
ÄłBe l
Äłdefen d
Äłvi r
Äł @
Äłnecess a
Äłnecessa r
¤ Â
Äłfore i
Äłforei g
Äłforeig n
Äłfe m
Äłseve n
Äłprim a
ÄłNov e
Äłgoe s
ÄłLi b
Äłcent e
ÄłJan u
Äłcurrent l
Äłcurrentl y
Äłtab l
Äłconst r
ÄłOf f
Äłwho s
Äłconfi r
Äłconfir m
ÄłGa m
Äłbra n
ÄłGeo r
Äłwhos e
Äłinco m
ÄłThu r
Äłaff e
ÄłPe n
ÄłGeor g
ÄłCa m
Äłdo o
Äłgreat e
Äłpati e
Äłpatie n
Äłindic a
Äłpartic i
Äłplan s
Äłpartici p
Äłaffe c
Äłaffec t
Äłmeth o
in d
Äłarr i
Äłdeb a
Äłpl u
Äłcrim e
ÄłJanu a
ÄłJanua r
Äłmetho d
Äłequ a
Äłsupp l
Äładministrati o
Äładministratio n
Äłarri v
Äłproper t
Äłindica t
ÄłJanuar y
Äłemer g
Äłparticip a
Äłchoi c
Äłchoic e
Äłpic t
Äłturn e
ÄłFe b
Äłreco g
ÄłAfr i
Äłdisco v
Äłdiscov e
Äłdiscove r
Äłrepla c
Äłteam s
Äłrecog n
Äłrecogn i
Äłequ i
Äłprev e
Äłqua r
ÄłPa u
Äłturne d
Äłcente r
Äłnatur a
ÄłSept e
Äłdiv i
Äłpreve n
ÄłSepte m
Äłpreven t
Äłnatura l
ÄłSeptem b
Äładv e
ÄłSeptemb e
Äłevent s
ÄłSeptembe r
ÄłCour t
ÄłKin g
Äłment i
Äłte x
Äłmenti o
Äłmentio n
Äłshi p
Äłslo w
Äłbatt l
Äłintro d
Äłprep a
Äłintrod u
Äłpict u
Äłpictu r
Äłintrodu c
Äłarea s
Äłnor m
Äłcomput e
Äłsex u
Äłdesign e
Äłtex t
Äłsexu a
Äłsexua l
Äłproducti o
Äłproductio n
Äłh t
Äłel i
ÄłSund a
Äłapplica t
ÄłIsla m
Äłhug e
Äłgo n
Äłpictur e
Äłapplicat i
ÄłPh o
Äłgu a
Äłapplicati o
Äłapplicatio n
Äłmulti p
ÄłPh i
ÄłT V
Äłlett e
Äłfl i
Äłlette r
Äłtoo l
ÄłAn g
Äłni c
ÄłThur s
Äłen s
Äłfel t
Äłfat h
Äłdat e
Äłreduc e
ÄłNove m
ÄłNovem b
ÄłNovemb e
ÄłNovembe r
ÄłAfri c
ÄłWed n
ÄłDavi d
ÄłWedn e
ÄłWedne s
Äłtabl e
ÄłWednes d
ÄłWednesd a
ÄłWednesda y
ÄłAfric a
ÄłRo m
ÄłCom p
Äłquick l
Äłhand s
Äłprepa r
Äłga i
Äłatt r
Äłquickl y
Äłse p
Äłeducat i
ÄłEve n
Äłcomb i
Äłrang e
Äłcombi n
Äłrou n
Äłroun d
ÄłMini s
Äłsoci e
ÄłJa c
b le
ÄłGen e
Äłpul l
ÄłThurs d
ÄłThursd a
ÄłThursda y
Äłsee k
ÄłPau l
Äłsocie t
Äłeffect i
Äłvict i
Äłvicti m
Äłho t
Äłgua r
ÄłJo n
Äłinflu e
Äłinflue n
Äłnumber s
Äłplan e
Äłconf e
ÄłMinis t
Äłprof i
Äłmultip l
Äłeffecti v
Äłplan t
Äłeffectiv e
Äłfath e
Äłprom o
Äłfathe r
Äłht t
Äłhtt p
Äłbuil t
ÄłBe a
ÄłAc c
Äłstag e
Äłlos s
Äłstre e
Äłgai n
Äłstree t
Äłdest r
ÄłSunda y
Äłha t
Äłen j
ÄłOct o
Äłenj o
Äłfl e
Äładv i
Äłpre c
Äłvote r
Äłthou s
Äłthous a
Äłthousa n
Äłthousan d
Äłinc i
ÄłSco t
Äłdeba t
Äłeconom y
Äłstri k
Äłhear d
Äłbo y
p le
ÄłTe x
ÄłEa r
Äłplan n
Äłenjo y
Äłoccu r
Äł. .
Äłprov e
ÄłY a
Äłallow e
Äłallowe d
Äłtechn i
ÄłMa s
ÄłAug u
Äłal i
Äłspen t
ÄłOcto b
ÄłCa p
ÄłOctob e
ÄłOctobe r
Äłmemo r
Äłprima r
ÄłAugu s
Äłalt e
ÄłAugus t
Äłda r
Äłeducati o
Äłeducatio n
Äłle n
Äłpromi s
Äłinclude d
Äłmini s
Äł2 3
Äłwant s
Äłalte r
Äłmarr i
Äłatten t
Äłdefini t
Äłmor n
Äłreme m
Äłattent i
Äłcustom e
Äłlegi s
Äłcustome r
Äłremem b
ÄłPar k
Äłlegis l
Äłlegisl a
ÄłPhi l
Äłtow n
Äłmorn i
Äłmorni n
Äłkne w
Äłnei g
Äłlegisla t
Äłmornin g
Äłneig h
ÄłÃ¢Ä¢ Â
Äłdo l
Äłneigh b
Äłneighb o
Äłi c
ÄłCalif o
ÄłBrit i
ÄłCalifo r
Äłsav e
ÄłCalifor n
ÄłCaliforn i
ÄłBriti s
ÄłBritis h
ÄłCaliforni a
Äłsep a
Äłsepa r
Äłsepar a
Äłperf e
ÄłPe t
Äłve h
ÄłCanad a
Äłar c
Äłget s
Äłare n
Äłspo t
Äłperfe c
Äłperfec t
Äłquar t
Äłei g
ÄłBu s
Äłsepara t
ÄłCon t
Äłplea s
ÄłCent e
Äłpromo t
Äłfai r
Äłpur p
Äłsa n
Äłrememb e
Äłremembe r
Äłdemo n
Äłrepe a
? Ã¢Ä¢Ä¿
Äłtrie d
ÄłFr o
Äłga s
ÄłMa c
Äłbi r
ÄłDec e
Äłmain t
Äłcompute r
Äłav o
Äłattenti o
Äłattentio n
Äłdisp l
Äłvari o
Äłinsta n
ÄłStre e
Äłpatien t
Äłstruc t
Äłbattl e
Äłvario u
Äłvariou s
Äłbehav i
ÄłBi l
Äłcollect i
Äłeig h
Äłeigh t
Äłforce s
Äłwi s
ÄłKe n
ÄłKor e
Äłaccu s
Äłpu n
Äłbro u
Äłcompar e
Äłread i
Äłminis t
Äłtheo r
Äł }
Äłpri s
Äłbrou g
ÄłStree t
Äłbroug h
Äłwin n
Äłbrough t
Äłlook s
ÄłCente r
Äłrat i
Äłlib e
Äłfir m
Äłfi t
Äłfel l
ÄłV o
Äłbu d
Äłstat u
ÄłKore a
ÄłFl o
ÄłK u
ÄłU K
Äłgrow t
Äłgrowt h
Äłquart e
Äłtrain in
Äłtrainin g
Äłimm i
' d
Äłdebat e
Äłshow e
Äłquali t
Äłveh i
Äłvehi c
Äłre b
Äłcount e
Äłassi s
Äłcond u
Äłassis t
Äłcolo r
Äłprogr e
Äł.. .
Äłprogre s
2 00
Äłsuff e
Äłsuffe r
Äłdan g
Äłdispl a
Äłprogres s
ÄłE r
Äłbehavi o
Äłac h
Äłan g
Äłterr i
Äłconv i
Äłform a
Äłconta c
Äłcontac t
ÄłDece m
Äłman u
ÄłBla c
ÄłDecem b
ÄłDecemb e
ÄłDecembe r
Äłbo n
Äłgr i
ÄłGa r
Äłest i
Äłdep e
Äłes s
ÄłBlac k
ÄłI S
Äłvehic l
Äłvehicl e
ÄłPoli c
ÄłAr m
Äłquarte r
Äł *
Äłjust i
Äłdefens e
Äłesti m
Äłson g
Äłestim a
Äłdepe n
ÄłPos t
Äłdepen d
Äłestima t
Äłtw i
W hile
Äłciti z
Äłcitiz e
Äłcitize n
Äłcultur e
Äłspo r
Äłmedica l
Äłavo i
Äłrule s
Äłlibe r
Äłab u
Äłanima l
Äłregula r
Äłgra d
Äłavoi d
Äłflo o
Äł19 6
Äłtalk i
Äłclim a
Äłtou c
Äłthro w
Äłlate s
Äłlates t
Äłit e
ÄłSat u
Äłto n
Äłtouc h
Äłcondu c
Äłtalki n
Äłcredi t
ÄłTo r
Äłstruct u
Äłstructu r
Äłup o
ÄłSatu r
Äłsomet i
Äłstru g
ÄłA v
Äłstrug g
Äłremov e
Äłsometi m
Äłstrugg l
Äłsometim e
ÄłHa l
Äłupo n
Äłvoi c
Äłconsi s
Äłdoo r
Äłconsis t
Äłun s
ÄłDe s
Äłsy m
Äłtalkin g
Äłinde p
Äłreplac e
Äłindep e
Äłindepe n
Äłindepen d
Äł6 0
Äłsuccess f
Äłsuccessf u
Äłsuccessfu l
Äłdesp i
Äłspee d
ÄłLa n
Äłch u
ÄłGo v
Äłindepend e
Äłindepende n
Äłmac h
ÄłGr o
Äłwon d
ÄłMar k
Äłach i
ÄłSenat e
Äłfeature s
Äłtrans p
Äłobse r
Äłobser v
ÄłFo u
Äłpoo r
Äłrelati v
Äłdang e
Äłopposi t
Äłdep a
Äłdange r
ÄłJe w
Äłdepa r
Äłp s
Äłdepar t
Äłjourn a
Äłear n
Äłjourna l
Äłcor p
ÄłBu r
ÄłTime s
Äłextrem e
Äłcompetit i
Äłpris o
Äłconsider e
Äłpriso n
Äłent r
Äłnoti c
Äłconsidere d
Äłatten d
Äłtest i
Äłconse r
Äłwond e
Äłwonde r
Äłconser v
Äłins p
Äłscien c
Äłstor i
Äłscienc e
ÄłPart y
Äłresiden t
Äłconduc t
Äłlevel s
Äłargu e
Äłwar n
Äłconsum e
Äłvoic e
ÄłCount y
Äłachi e
Äłachie v
Äłens u
ÄłDon a
Äłinci d
Äłincid e
Äłincide n
Äłemploye e
Äłpress u
Äłpressu r
ÄłCol l
ÄłAn t
S he
Äłwei g
Äłcro s
Äłweig h
Äłfi s
Äłcirc u
Äłcent u
Äłpri o
Äłcentu r
Äłcros s
Äłdol l
m on
Äłi r
Äłbra i
t ime
Äł200 8
Äłinst i
Äłop i
Äłpurp o
Äłprio r
Äłgu e
Äłfollow e
Äłbo x
ÄłIra n
Äłconstr u
Äłclima t
ÄłWa t
Äłnor t
Äłjob s
Äłrou t
Äłstra i
ÄłAl e
Äłmajor i
Äłnort h
ÄłChristi a
Äłbro k
Äłspor t
Äłbrok e
Äłreso u
ÄłChristia n
Äłsystem s
ÄłIm a
ÄłApp l
Äłnorm a
Äłparent s
Äłski l
ÄłIndia n
Äłsumm e
ÄłGam e
Äłspoke s
Äłmajori t
Äłwrit t
Äłmach i
Äłwritt e
Äłwritte n
ÄłSa m
Äłsi l
Äłhistor i
Äłoffen s
Äłinitia l
Äłrefer e
Äłincreas i
Äłincreasi n
Äłincreasin g
ÄłMar i
ÄłSo c
ÄłMus l
ÄłCa t
Äłestimat e
Äłrelativ e
Äłskil l
ÄłMusl i
ÄłNe t
Äłwal l
ÄłMusli m
ÄłBil l
Äłreac t
Äłmachi n
Äłst y
Äłexecuti v
Äłbl u
Äłpi t
Äłexecutiv e
Äłta c
Äłphysic a
Äłphysica l
Äłla y
Äłfi x
Äłgl a
Äłconc l
Äłwrit i
Äłwriti n
Äłwritin g
Äłterror i
Äłrac i
Äłblo o
Äłimmi g
Äłimmig r
Äłimmigr a
Äłcomplete l
Äłcompletel y
Äłcomm a
Äłnotic e
Äłspee c
Äłspeec h
Äłconserv a
Äłcha m
Äłconcl u
Äłemerg e
Äłbrai n
d ver
Äłu l
Äłob v
Äłconserva t
Äładvan c
Äłviolen c
ÄłCr e
Äłnorma l
Äłmid d
Äłban d
ÄłTex a
Äłviolenc e
Äłmot i
Äłbot t
Äłclimat e
Äłbu l
Äłcoll a
Äłpressur e
ÄłO t
Äłfin e
Äłconstru c
Äłsurv e
Äłgre e
Äł200 9
Äłconstruc t
Äłobv i
Äłresou r
Äłdespi t
Äłdespit e
Äłresour c
ÄłIra q
Äłreadi n
ÄłSatur d
dver t
ÄłSaturd a
ÄłSaturda y
ÄłOff i
ÄłLon d
Äłinterest i
Äłinteresti n
Äłinterestin g
Äłresourc e
Äłma p
Äłopportunit y
Äłun f
dvert i
dverti s
Äłconservat i
ÄłSer v
Äłclaim s
ÄłOffi c
ÄłHa m
Äłobvi o
Äłobvio u
ÄłLond o
Äłobviou s
Äłparticular l
Äłparticularl y
ÄłLondo n
Äłro c
Äłcomma n
Äłcomman d
Äłcolle g
Äłdrive r
Äłinsta l
ÄłSan d
Äłsociet y
Äłstori e
Äłroc k
Äłpar k
Äłsty l
Äłmajorit y
Äłdemon s
ÄłJe r
Äłattack s
Äłmachin e
Äłfind i
Äłfindi n
Äłfindin g
Äłexact l
Äłexactl y
Äłprotect i
Äłsw e
ÄłDona l
Äłcro w
Äłcarr y
Äłcarr i
Äłpat h
Äłbigge s
Äłbigges t
ÄłEve r
Äłinciden t
ÄłDonal d
Äłconver s
Äłsumme r
Äłequa l
ÄłWe l
Äłterrori s
Äłten d
Äłimpo s
Äłrequire d
ÄłMor e
Äłstati o
Äłstatio n
Äłreali t
Äłbea t
Äłsol u
Äłmu r
Äł2 6
Äłhun d
Äłdiscuss i
Äłmidd l
Äłmoder n
Äłhund r
Äłpai d
Äłhundr e
Äłhundre d
Äłexce p
Äłinfluen c
Äłexcep t
Äłinstal l
Äłofficer s
Äłconnect i
ÄłSt u
Äłhand l
Äłdetermin e
Äłlook e
Äłlocat i
Äłlooke d
A dvertis
Äłcertain l
Äłcertainl y
Äłjudg e
ÄłIma g
Äłfil l
Äłgue s
ÄłGree n
Äłtri a
Äł2 7
ÄłMc C
Äłsurv i
Äłexc i
Äłmiddl e
Äłsurvi v
ÄłAi r
Äłstorie s
Äłstudi e
Äł2 8
Äłvol u
Äłstu f
Äłti e
Äłstuf f
Äłul t
Äłcompl a
Äłfinal l
Äłfinall y
Äłsometime s
Äłcommuni c
Äłcommunic a
Äłsolu t
Äłcounte r
Äłproduct s
Äłthan k
ÄłJ i
ÄłSch o
Äłsolut i
Äłsoluti o
Äłsolutio n
ÄłWill i
Äłexpe n
Äłalleg e
Äłprofess i
Äłabs o
Äłlead i
Äłleadi n
Äłfeel i
Äłleadin g
Äłcommunica t
Äłfeeli n
Äłimpl e
Äłassu m
Äłfor g
Äłmi x
Äłimple m
Äłele m
Äłimplem e
Äłcan c
Äłimpleme n
Äłone s
Äłfeelin g
Äłimplemen t
Äłdescribe d
Äłreadin g
Äłsqu a
Äłappro v
Äłcanc e
ÄłFeb r
Äłde g
Äłcolleg e
Äłmet a
Äłdetail s
Äłconfe r
Äłsm o
ÄłFebr u
Äłchange d
ÄłFebru a
Äłprofessi o
Äłprofessio n
ÄłFebrua r
Äłelem e
Äłmanage r
Äłeleme n
Äłelemen t
ÄłFebruar y
Äłexper t
Äłbloo d
Äłlea g
Äłqualit y
Äłleag u
Äłleagu e
Äłcrim i
Äłcrimi n
Äłstart i
Äłstarti n
Äłstartin g
Äłshowe d
Äłdoll a
Äłdolla r
Äłsou t
Äłlocati o
Äłlocatio n
Äłgiv i
Äłgivi n
Äłass a
Äłgivin g
Äłsout h
Äłmultipl e
Äłprovide d
Äłname d
ÄłVa l
Äłchi e
Äłbud g
Äłeng a
Äłpred i
Äłensu r
ÄłLa b
Äłremain s
Äłenga g
Äłcost s
ÄłMich a
Äłcel e
ÄłT H
Äłchie f
Äłea t
Äłbudg e
Äłintell i
Äłintelli g
Äłpre f
Äłrelat e
Äłwea r
Äłapp a
Äłcrimin a
Äłcrimina l
Äłimag i
Äłinfluenc e
ÄłPo r
Äłexci t
Äłimagi n
ÄłÃ Ĳ
İ Â
Äłyour s
Äłmi c
Äłmo b
Äłris e
Äłsign a
Äłgrow i
Äłgrowi n
Äłdispla y
ÄłTr e
Äłgrowin g
ÄłBa l
Äłcarri e
Äłthink i
Äłthinki n
ÄłLea g
Äłpart s
ÄłLeag u
ÄłLeagu e
Äłcontinue d
Äłwor r
Äłdemons t
Äłun e
Äłdemonst r
Äłthinkin g
Äłintellig e
Äłintellige n
Äłdemonstr a
ÄłJam e
Äłread y
ÄłMa l
Äłrefu s
Äłcomment s
Äłcri s
Äłga t
S ome
Äłcompla i
Äłcomplai n
Äłresearch e
Äłpurpo s
Äłmaint a
ÄłBe c
Äłmainta i
Äłmaintai n
Äłargu m
Äłargum e
Äłargume n
Äłargumen t
Äłsl e
Advertis e
Äłpurpos e
Äłbudge t
Äłpost e
Äłro b
Äłwould n
Äłstrik e
ÄłDa y
Äłcho o
Äłbegin n
ÄłRepublican s
ÄłDemocrat i
Äłpi l
Äłpur c
Äłpurc h
Äłpurch a
Äłarc h
Äłpurcha s
Äładvanc e
Äłchoo s
ÄłDemocrati c
Äłret a
Advertise m
Advertisem e
Advertiseme n
Advertisemen t
Äła h
Äłhos p
Äłdie d
Äłincrease d
Äład o
Äłhosp i
Äłrefere n
ÄłMicha e
Äłreco m
ÄłMichae l
Äłvoter s
Äłtreat m
Äłtreatm e
Äłtreatme n
Äłachiev e
Äłtreatmen t
Äłepi s
Äłran k
Äłj e
Äłreali z
ÄłGene r
Äłnu c
Äłeffort s
Äłcame r
Äłacco m
Äłcamer a
Äłpredi c
Äłdemonstra t
Äłnuc l
ÄłMi s
Äłclea n
Äłplat f
Äłpromis e
Äłplatf o
Äłplatfo r
Äłcall s
Äłplatfor m
Äłstructur e
Äłbi o
Äłnucl e
ÄłJame s
Äłper h
Äłperh a
Äłperha p
Äłperhap s
Äłalon e
Äłdecl i
Äłdecli n
Äłite m
Äłgenerat i
Äłguy s
Äłhospi t
Äłhospit a
ÄłVe r
Äłprin c
Äłconfer e
ÄłCa s
Äłth u
Äłsurpris e
Äłsubs t
Äłtoward s
Äłalt h
Äłconfere n
Äłin e
Äłcritic i
Äładdition a
Äładditiona l
Äłalth o
Äłconferen c
Äłaltho u
Äłalthou g
Äłalthoug h
Äłusual l
Äłusuall y
Äłpass i
Äłabu s
Äłfoot b
Äłgui d
Äłbe y
Äłeffect s
Äłrealit y
Äłevent u
Äłcele b
Äłeventu a
Äłdirect l
Äłdirectl y
Äłconferenc e
ÄłN A
Äłbey o
ÄłAr a
Äłbeyo n
Äłwi f
Äłbeyon d
ÄłFir s
Äłkid s
Äłeventua l
ÄłFirs t
ÄłGener a
Äłfootb a
Äłfootba l
Äłfootbal l
Äłhospita l
ÄłCr o
ÄłChin e
ÄłZ e
ÄłRo s
Äłcould n
Äłcas t
ÄłBa s
ÄłChine s
Äł( @
ÄłChines e
Äłfar m
Äłbor d
Äłz o
ÄłMinist e
ÄłMiniste r
Äłrest r
Äłdoc t
Äłdo g
Äłbord e
Äłdeg r
ÄłAr t
ÄłTexa s
Äłopi n
Äłborde r
Ã ĤÂ
Äłthrough o
Äłthrougho u
Äłinclude s
Äłthroughou t
Äłceleb r
Äłmil e
Äłsafe t
Äłcomple x
Äłhelp e
Äłmean i
Äłimmediate l
Äłimmediatel y
Äłmeani n
Äłmeanin g
Äłbo m
Äłna r
Äłrecom m
Äłcomp r
Äłref l
ÄłJust i
Äłbom b
Äłconce p
Äłconcep t
ÄłHi g
Äłrepea t
Äłve n
ÄłGo l
Äłwif e
Äłepis o
Äłepiso d
Äłrecomm e
Äłrecomme n
Äłincom e
Äłfaci l
Äłcorp o
Äłdis e
ÄłFe d
Äłdirect i
Äłcorpo r
Äłrecommen d
Äłresearche r
Äłcorre c
Äłess e
Äłassociat e
Äłbook s
ÄłJac k
Äłcorrec t
Äłgon e
ÄłMar t
Äłneighbo r
ÄłTr i
Äłcop y
Äłps y
Äłinst r
ÄłÃ¢Ä¢Â ¦
Äłah e
ÄłU p
Äłsafet y
Äłrefl e
Äłinstr u
ÄłI I
Äłdesigne d
Äłsoft w
ÄłJo s
Äłcorpor a
Äłgo l
Äłfacil i
Äłend e
Äłfacili t
Äłagenc y
Äłreach e
Äłsoftw a
Äłsoftwa r
Äłsoftwar e
Äłclass i
Äłdiv e
Äłpositi v
Äłopin i
Äłahe a
Äłahea d
Äłsur r
Äłesse n
Äłbeginn i
Äłbeginni n
Äłbeginnin g
Äłseparat e
Äłpsy c
Äłtri p
ÄłSa l
ÄłPla y
Äłpsyc h
Äłappa r
ÄłRe v
Äłopini o
Äłopinio n
Äłminist e
Äłministe r
Äłhu r
Äłepisod e
Äłmur d
Äłmurd e
Äłmurde r
Äłblo g
Äłthousand s
ÄłCh u
ÄłS k
Äłd y
Äłarti s
Äłtal e
ÄłRe c
ÄłAppl e
? "
Äłdecl a
Äłstyl e
Äłu t
ÄłAng e
Äłmove d
Äłcorpora t
ÄłHa n
ÄłRic h
Äłi g
Äłmar i
ÄłAss o
Äłpasse d
ÄłOffic e
Äłne u
Äłappear s
Äłmissi o
Äłmissio n
Äłconfi d
Äłexpo s
Äłlos e
Äłdoub l
ÄłWilli a
Äłdistri b
Äłdistrib u
Äłpropert y
Äłpredic t
ÄłAsso c
Äłsma r
Äłinsu r
Äłno m
Äłdistribu t
Äłagree m
Äłagreem e
Äłagreeme n
Äłagreemen t
Äłhelpe d
Äłsen i
Äłpositiv e
ÄłSi m
Äłdisa p
Äłsh u
Äłfavor i
ÄłWillia m
Äłdisap p
ÄłAssoc i
Äłsmar t
ÄłAssoci a
r ding
Äłdar k
Äłarriv e
ÄłAssocia t
Äłsuppo s
ÄłThe n
ÄłSup e
Äłnatur e
ÄłDe a
Äł >
Äłseni o
Äłsenio r
Äłen a
Äłallege d
ÄłSupe r
Äłrol l
Äłsui t
Äłcondition s
Äłste a
Äłshoot i
ÄłImag e
Äłshooti n
Äłsuspe c
Äłsuspec t
ÄłRa n
Äłshootin g
Äłmovi n
ÄłK r
Äłmovin g
Äłreason s
Äłsca l
ÄłTe a
Äłig n
ÄłIntern a
Äłtria l
ÄłDemocrat s
ÄłDe l
Äłsett l
ÄłDa r
Äłen f
Äłconve n
Äłmys e
Äłmyse l
Äłpref e
Äłhapp y
Äłmysel f
Äłmay b
Äłmayb e
Äłpower f
Äłpowerf u
Äłpowerfu l
ÄłSh i
Äłnucle a
Äły a
Äłcoo l
re l
Äłsuppos e
Äłre i
Äłover a
Äłfail e
Äłfaile d
Äłsect i
Äłsecti o
Äłsectio n
Äłencou r
ÄłAnge l
ÄłFre n
Äłfem a
Äłencour a
Äłencoura g
Äłfema l
ÄłMat t
Äłfemal e
Äłcharacter s
Äłartis t
Äłliste n
Äłconfid e
ÄłRob e
Äłnuclea r
Äładve r
Äł x
Äłal b
Äłinvest m
Äłinvestm e
Äłinvestme n
Äłdecla r
Äłinvestmen t
Ļ Ä
Äłlab o
Äłrefle c
Äłai m
Äłreflec t
Äłreligio u
Äłreligiou s
Äłev a
Äłtradition a
Äłtraditiona l
de d
Äłes c
Äłcompare d
ÄłEngl i
Äłprofession a
Äłprofessiona l
ÄłEngli s
Äłyours e
Äłanalys i
Äłyourse l
ÄłEnglis h
Äłunc o
ÄłEx p
Äłenf o
Äłsche d
Äłlegislat i
ÄłFre e
oun d
ÄłS l
Äłfavori t
Äłeye s
Äłcentur y
Äłenfo r
Äłenfor c
Äłregi s
Äłsched u
Äłschedu l
ÄłPho t
Äłregis t
Äłlit e
Äłnic e
Äłfra m
ÄłFlo r
Äłsea t
Äłshow n
ÄłPhot o
Äłinsti t
Äłinstit u
Äłlimit e
ÄłHer e
Äłlarge s
ÄłFren c
ÄłFrenc h
Äłap a
Äłtru s
Äłye s
ÄłServ i
ÄłE s
ÄłRobe r
ÄłAcc o
Äładmi t
Äłer r
ÄłU s
ÄłAl t
Äłinstitu t
Äłstre n
Äłtas k
ve l
ÄłSm i
Äłconfide n
ÄłBl o
Äłlimite d
Äłli c
ÄłBa t
Äłagen t
Äłfavorit e
Äłnecessar y
Äłbran d
Äłprefe r
Äłscienti s
Äłmin o
ÄłSoc i
Äłcitizen s
Äłperm i
Äłforce d
Äłflo w
Äłconf l
Äłtrus t
Äłscientis t
Äłexpen s
Äłsur f
Äłactiv e
ÄłGeorg e
Äłlite r
Äłmino r
Äłlarges t
Äłri v
ÄłG O
Äłanalysi s
Äłspend i
Äłspendi n
Äłspendin g
ÄłRober t
ÄłCha n
Äłintroduc e
de n
Äłvari a
Äłpresident i
Äłtyp i
Äłni n
Äłpresidenti a
Äłpresidentia l
Äłsho p
ÄłHig h
ÄłMe t
Äł2 9
ÄłAl a
Äłconservati v
Äłconservativ e
Äłmob i
Äławar e
Äłte e
ÄłSp o
Äłschool s
ÄłRes e
Äłmean t
Äłpurchas e
Äłmobi l
Äłimpr e
Äłpea c
Äłeventual l
Äłeventuall y
Äłstre a
o rding
Äłreso l
Äłas p
in s
c ording
Äł8 0
ÄłTo m
Äłfollowe d
Äłill e
Äłstren g
Äłfamili e
Äłcentr a
Äłbro t
Äłdra f
Äłfamilie s
Äłille g
Äłdraf t
Äłcrow d
Äłto r
Äłcentra l
Äłstreng t
Äłconst i
Äłstrengt h
Äłsy n
Äłbrot h
Äłcor n
Äłbehavio r
Äłprin t
ÄłCol o
Äłli e
ÄłGov e
Äłdeclin e
ÄłWin d
Äłindependen t
Äłri c
Äłdri n
Äłeasi l
Äłfor t
ÄłServi c
Äłsign e
Äłeasil y
Äłdrin k
Äłam a
ÄłQu e
Äłensur e
Äłauto m
ÄłGa l
Äłnom i
Äłallow s
ÄłSc i
c cording
ÄłBro w
Äłexpan d
Äłnomi n
Äłfr u
ÄłServic e
Äłexc l
Äłgive s
Äłyoursel f
Äłdig i
Äłfee d
Äłuni q
ÄłÃĲ Â
Äłdevelope r
Äłaction s
ÄłCanad i
Äłuniq u
ÄłOp e
Äłuniqu e
Äłconsti t
Äłconstit u
Äłconsume r
Äłelectr i
Äłdigi t
ÄłChar l
Äłprinc i
Äłprinci p
Äłovera l
Äłappar e
Äłoveral l
Äłpolic i
ÄłMe x
Äłsol i
Äłsettl e
Äłshi f
Äłshif t
Äłgenerati o
Äłgeneratio n
ÄłAs i
Äłconvers a
ÄłMex i
Äłbut t
Äłstruggl e
ÄłChi c
Äłdoubl e
Äłappear e
Äłliter a
Äłspr e
ÄłMexi c
Äłidea s
Äłappeare d
Äłfram e
Äłem o
Äłapa r
ÄłGove r
Äłpolitic s
Äłmal e
Äłsigne d
Äłqu o
ÄłIslam i
Äłimpre s
Äłconversa t
Äłref o
Äłconversat i
Äłconversati o
Äłconversatio n
ÄłMi d
ÄłGover n
Äłdegr e
Äłweapon s
Äłidentif i
Äłcham p
Äłchu r
Äłfre q
ÄłGenera l
Äłdegre e
Äłdecade s
Äłabus e
Äłinstan c
Äłinte g
Äłfreq u
Äłuse s
Äłfrequ e
Äłfreque n
Äłschedul e
Äłapar t
Äłdiscussi o
Äłdiscussio n
Äłinstanc e
Äłinn o
Äłimpres s
Äłmis t
ÄłInterna t
ÄłInternat i
ÄłInternati o
ÄłInternatio n
Äłexperi m
Äłexperim e
ÄłInternation a
Äłexperime n
Äłexperimen t
ÄłInternationa l
Äłdestr o
ÄłLa s
Äłrealiz e
Äłdestro y
Äłbroth e
Äłdise a
Äłdisea s
Äłdiseas e
Äłtro u
ÄłPet e
Äłpeac e
Äłfree d
Äłbea u
Äłenforc e
Äłam b
Äłtru t
ÄłSmi t
Äłcris i
Äłtrut h
Äłra r
Äłcrisi s
Äłwrite r
ÄłUni o
ÄłUnio n
Äłjournal i
ÄłPor t
A ccording
Äłrev o
Äłalter n
Äłbenefit s
Äłviol a
ÄłScho o
Äłdevelope d
Äłconfl i
Äłaltern a
Äłalterna t
Äłengag e
Äłconfli c
Äłsett i
Äłpropos e
Äłconflic t
ÄłSta n
Äłnar r
Äłnote d
Äłsetti n
Äłsettin g
Äłev o
ÄłÃĤÂ £
Äłrelate d
Äłhistori c
Äłjournali s
Äłsale s
Äłilleg a
Äłgoal s
Äłillega l
m age
Äłmini m
Äłbeau t
Äłindividual s
Äłconsist e
Äłcontinue s
Äłviola t
Äłrefo r
ÄłSchoo l
ÄłAra b
Äłconnecti o
Äłconnectio n
Äłign o
ÄłE U
ÄłPolic e
ÄłEar t
ÄłEart h
Äłintelligen c
Äłrate s
Äłintelligenc e
Äłcustomer s
ÄłRi g
Äłproject s
Äłstrai g
Äłstraig h
Äłelectri c
Äłstraigh t
ÄłDe v
Äłrefor m
Äłappare n
Äłdre a
ÄłSmit h
Äłapparen t
Äłexplo r
ÄłNi c
ÄłCoun c
Äłpre m
ÄłCounc i
ÄłCent r
ÄłCounci l
Äłga r
Äłlic e
Äłparticipa t
Äł3 1
Äłcapa b
Äłprevious l
Äłout l
Äłpreviousl y
Äłfull y
Äłline s
Äłexten d
ÄłGerman y
Äłin a
Äłigno r
ÄłMa g
Äłve t
Äład u
Äładvan t
Äładvant a
Äładvanta g
Äłbrothe r
Äłlarge r
Äładvantag e
Äłreta i
Äłspi r
Äłweek e
Äłweeke n
Äłweeken d
Äłpleas e
Äłclear l
Äłhighl y
Äłvict o
Äłclearl y
Äładu l
Äłvicto r
ÄłMa d
ÄłTho m
Äłju m
ÄłPa c
Äłtrans i
Äłlice n
Äłseem e
ÄłCanadi a
ÄłCanadia n
Äłseeme d
ÄłTh r
ÄłSte v
Äłunl i
Äłknow l
Äłhy p
Äłknowl e
Äłwis h
Äłknowle d
Äłprepar e
Äłknowled g
Äłprimar y
Äłda i
Äłgree n
Äłtra f
Äłwar m
ÄłLa t
ÄłO v
Äłdepart m
Äłdepartm e
Äłdepartme n
Äłdepartmen t
Äłult i
ÄłTur k
ÄłMo d
l ike
Äłknowledg e
Äłattr a
Äłexcl u
Äłspre a
Äłsprea d
Äłda u
Äłrecogni z
Äłtraf f
Äłulti m
Äłtraff i
Äłtraffi c
Äładul t
Äłcritic a
Äłattra c
Äłattrac t
Äłdoct o
Äłdocto r
Äłcritica l
Äłresource s
Äłprogram s
Äłchoos e
Äłdoub t
ÄłRe g
Äłreache d
Äłgreate r
Äłultim a
Äłke p
Äłultima t
Äłexc h
Äłweigh t
Äłchai r
Äłemo t
Äłaccus e
Äłprogram m
Äłkep t
Äłessen t
Äłessent i
Äłessenti a
Äłessentia l
Äłhi d
ÄłAr e
Äłaudi e
Äłaudie n
Äłaudien c
Äłrar e
Äłaudienc e
ÄłIntern e
ÄłDe f
Äłsta b
Äłsle e
Äłta n
Äłexch a
Äłexcha n
ÄłJohn s
Äłexchan g
ÄłInterne t
Äłfee t
Äłann u
ÄłMi k
Äłstudie s
Äłplace s
Äłteach e
Äłabso l
ÄłLo s
Äłet h
Äłmanu f
Äłtypi c
Äłmanuf a
Äłtypic a
Äłmanufa c
Äłtypica l
Äłmanufac t
Äłemot i
ÄłBrow n
Äłbal a
Äłmanufact u
ÄłColl e
Äłmanufactu r
Äłme c
Äłinsp i
Äłinspi r
Äłhandl e
Äłag g
Äłcall i
Äłstatu s
Äłpros e
Äłknow s
Äłha i
ÄłN u
ÄłMe r
Äłchur c
Äłchurc h
Äłwea k
Äłjum p
Äłfight i
Äłfighti n
Äłmass i
Äłsource s
ÄłLo u
Äłfightin g
Äłbala n
ÄłStev e
ÄłWel l
Äłbalan c
Äładvi s
Äłlaunch e
ÄłEl e
Äłdeb t
ÄłBl u
Äłactivit y
ÄłSci e
ÄłScie n
Äłowner s
ÄłBo o
Äłagg r
ÄłAm a
Äłultimat e
Äłca b
Äłki c
Äłoption s
Äłkic k
ÄłLe t
ÄłFlor i
Äłsupporte r
Äłover s
Äłcompl i
Äłcause d
Äłmec h
ÄłAg e
Äłmassi v
Äłmassiv e
Äłclaim e
Äłvari e
Äłclaime d
Äłpo u
Äłende d
Äłabsol u
Äłciti e
ÄłN F
Äłcitie s
Äłcalli n
Äłtwe e
Äłabsolu t
Äłcallin g
Äłemoti o
Äłemotio n
ÄłCha m
ÄłGol d
Äłstop p
Äł200 7
ÄłVa n
Äł7 0
Äłene m
ÄłScot t
Äłold e
ÄłLi v
ÄłPal e
Äłinteg r
ÄłSec u
Äłdirecti o
Äłdirectio n
Äłsent e
ÄłFro m
Äłappea l
ÄłLab o
Äłsurf a
Äłsente n
Äłpit c
Äłsurfa c
Äłpitc h
Äłcy c
ÄłFranc e
Äłsu n
Äłfu e
Äłmou n
ÄłEver y
ÄłGu a
Äłwill i
Äłsenten c
Äłcyc l
Äłmile s
Äłhave n
Äłwors e
ÄłSu r
Äłhappen s
ÄłEngl a
ÄłHea l
ÄłEngla n
Äłshu t
Äłai d
ÄłEnglan d
ÄłFin a
Äłresearcher s
Äłexchang e
Äłbir t
1 00
Äłbirt h
Äłsha p
Äłdist i
ÄłInst i
Äłwilli n
Äłprice s
Äłwillin g
ÄłDe n
Äłcapt u
Äłcaptu r
Äłchamp i
Äłname s
Äłtele v
Äłinten t
ÄłAsi a
Äłsto c
Äłbul l
Äłsub m
Äłvir t
Äłchampi o
ÄłK n
Äłchampio n
Äłemployee s
Äłcreati n
ÄłC E
Äłinstitut i
Äładdi n
Äł3 5
ÄłCr i
Äładdin g
Äłany w
Äłvirt u
Äłabsolut e
ÄłTra n
Äłsli g
Äłslig h
Äłsuppose d
Äłmarri a
Äłmarria g
Äłmarriag e
Äłcommunicat i
Äłsligh t
Äłgran d
Äłbar r
ÄłVi r
Äłpolici e
Äłtelev i
ÄłN B
Äłpolicie s
Äłinv i
Äłsurfac e
Äłalb u
Äłreporte r
Äłdive r
Äłtelevi s
Äłraise d
Äłre j
Äłalbu m
Äłun p
ÄłFlori d
Äłerr o
Äłwind o
Äłreco v
Äłrecov e
Äłwindo w
Äłrecove r
Äłstoc k
ÄłDi r
Äłcharge s
Äłconcern s
Äłtwee t
ÄłAcco r
ÄłIn c
ÄłBa y
Äłvi l
ÄłCl e
Äłlearn e
Äłfl y
Äłac q
Äłacq u
Äłopen e
Äłcreatin g
ÄłAccor d
Äłfund i
Äłinstituti o
Äłdemo c
Äłinstitutio n
ÄłInsti t
ÄłInstit u
Äłpatient s
Äłannu a
ł Â
Äłfundi n
Äłfundin g
Äłannua l
ÄłDr a
Äłmech a
Äłbou n
ÄłSecu r
ÄłInstitu t
Äłdemoc r
Äłfue l
Äłdom i
Äłauthorit i
Äłde r
Äłtre e
Äłauthoriti e
Äłauthoritie s
Äłment a
Äłdemocr a
Äłuni o
Äłunio n
Äłfreed o
Äłfreedo m
Äłsee i
Äłseei n
ÄłRo c
. Ã¢Ä¢Ä»
Äłmenta l
Äłcomme r
Äłgran t
ÄłRig h
Äłseein g
Äłneg a
Äłpack a
Äłrevo l
Äłden i
ÄłPe o
ÄłRigh t
Äłcommer c
Äłpacka g
Äłnega t
Äłguid e
Äłindicat e
ÄłA P
ÄłWal l
Äłrefus e
ÄłC O
Äłactivi s
Äłleav i
Äłleavi n
Äłcr y
Äłwa g
Äłleavin g
ÄłMart i
l ing
Äłmecha n
Äłdomi n
c ke
ÄłSec r
Äłhear i
Äłheari n
Äłeasi e
Äłhearin g
ÄłSecr e
ÄłMedi c
Äłdau g
Äłcelebr a
Äłdaug h
Äłtemp e
Äłmic r
Äłdaugh t
ÄłVi c
ÄłFlorid a
Äłmechan i
Äłdaught e
Äłdaughte r
Äłmicr o
Äłtrou b
Äłconsiste n
Äłnin e
Äłgol d
¯ Â
ÄłLa w
Äłtroub l
Äł9 0
Äłserve r
Äłevo l
ÄłBi t
Äłtransi t
Äłcelebra t
ĺ Â
Äłoppo n
Äłpat t
Äłoppon e
Äłoppone n
Äłcat c
Äłopponen t
Äłarr a
ÄłS n
Äłoffer e
Äłengine e
Äłenginee r
ÄłSecre t
Äłoffere d
ÄłPeo p
ÄłPeop l
ÄłMos t
ÄłPeopl e
¥ Ä
£ Â
ÄłHill a
Äłautom a
Äłdefin e
ÄłÃ ĥ
Äłgra p
Äłthreat e
ÄłCommi t
Äłthreate n
Äłret i
Äłloc k
ÄłHilla r
Äłliber a
Äłcatc h
Äłva c
ÄłGra n
ÄłHillar y
Äłprose c
Äłreveal e
Äłsubst a
Äłhar m
Äłreveale d
Äłposte d
Äłprosec u
Äłprosecu t
Äłado p
Äłtempe r
Äłin h
Äładop t
Äłesc a
Äłan c
Äłvalue s
ÄłBo s
ÄłR y
ÄłTe r
Äłwho m
Äłunivers i
Äłblu e
ÄłChic a
ÄłSto r
ÄłAccord i
Äłmost l
Äłuniversi t
Äłmostl y
Äłparti e
Äłhea t
ÄłAccordi n
Äłinter a
Äłinf r
ÄłAccordin g
Äłdigit a
ÄłPete r
Äłbri e
Äłdigita l
Äłet c
Äłopen i
Äłcommitte e
Äłopeni n
Äłopenin g
Äłbl e
ÄłAle x
Äłwa v
Äład j
Äłbrie f
Äłcli e
Äłclie n
Äłbelieve d
Äłclien t
ÄłTran s
Äłsubsta n
Äłaccom p
Äłstrateg y
Äłti c
Äłrecord s
Äłlearne d
Äłshe l
ÄłIsrael i
ÄłMon t
Äłwhat e
Äłwhate v
Äłfloo r
Äłtransf e
Äłscal e
Äłarrest e
Äłwhatev e
Äłwhateve r
ÄłCommit t
Äłlaw y
Äłche a
Äłlawy e
Äłlawye r
Äłreferen c
ÄłChica g
ÄłChicag o
ÄłCommitt e
Äłintera c
Äłcar s
5 00
Äłinterac t
Äłmin e
Äłshow i
ÄłBan k
ÄłVi e
Äłshowi n
Äłguar d
ÄłMis s
Äłedit o
Äłmoun t
Äłdist a
Äłedito r
Äłshowin g
ÄłMil l
Äłinten d
ÄłOv e
ÄłIt a
Äłrest a
Äłsurr o
Ħ Ä
Äłtransfe r
ÄłSecur i
Äłrepresent a
Äłpartie s
ÄłBus h
Äłwil d
Äłsome w
Äłarreste d
Äłdra m
Äłdes e
ÄłGe t
ÄłCommitte e
Äłdevice s
Äłnegat i
Äłneg o
Äłpe t
Äłcat e
Äłbalanc e
Äłrem i
Äłquo t
Äłtou g
Äłtoug h
Äłrid e
Äłsomew h
Äłassa u
Äłassau l
Äłassaul t
Äłpatt e
Äłbro w
Äłdesi r
Äłtic k
Äłerro r
ÄłO h
ÄłSecuri t
Äłrepresenta t
ÄłWest e
Äłrepresentat i
w ever
o wever
Äłph a
Äłreve n
ÄłDu r
Äłask i
Äłaski n
Äłresponsib l
Äłaskin g
Äłnego t
ÄłCo o
ÄłWeste r
Äłnegot i
Äłsn a
Äłfocus e
Äłnegoti a
Äłstra n
Äłdram a
re c
Äłur g
ÄłMo o
ÄłStu d
Äłopposit i
Äłstrea m
Äłoppositi o
Äłoppositio n
Äłprovide s
ÄłYe a
ÄłHar r
Äłproduce d
Äłconfirm e
Äłdrop p
ÄłTha n
Äłpropos a
Äłhat e
Äłon t
Äłproposa l
Äłconfirme d
ÄłAn n
Äłoperation s
Äłimage s
Äłconstruct i
ÄłPres s
Äłgrad u
¥ Â
Äłcontrol l
ÄłFranc i
Äłnegotia t
Äłpatte r
ÄłAu t
Äłgradu a
Äłsam p
Äłprofi t
ÄłCommi s
Äłdomin a
Äłdrea m
Äłresident s
Äłsamp l
Äłrun s
Äłrec r
Äłba b
ÄłCommis s
ÄłSha r
ÄłHeal t
Äłdistri c
Äłdistric t
ÄłHealt h
Äłbur n
ÄłIta l
Äłpatter n
Äłconst a
Äłencourag e
H owever
Äłexten s
Äłprec i
Äłi P
Äłena b
Äłsold i
Äłenab l
Äłshap e
Äłsmall e
Äłlicen s
Äł19 5
Äławar d
Äłsoldi e
Äłsoldie r
Äłnegati v
ÄłMic r
ÄłPa n
Äłcor e
w ing
Äłprem i
Äłprotecti o
Äłprotectio n
Äłextens i
Äłher o
ÄłPu b
Äł3 2
ÄłMicr o
int e
ÄłCommiss i
ÄłCommissi o
ÄłCommissio n
Äłteache r
Äłtelevis i
Äłbor n
ÄłJusti c
ÄłFranci s
Äłont o
Äłpai r
Äłcoa l
ÄłWh y
Äłdisti n
Äłcompetiti o
Äłcompetitio n
ÄłFou n
Äłtelevisi o
Äłtelevisio n
Äłat h
Äłta p
Äłspir i
Äłcorn e
Äładv o
Äłspiri t
ÄłJustic e
Äłdisc r
ÄłOt h
Äładvo c
Äładvoc a
Äł19 4
Äłno v
Äłfl u
Äłdollar s
Äłcivil i
Äłvil l
Äłappear a
Äłappeara n
Äłappearan c
Äłappearanc e
ÄłOve r
ÄłPale s
Äłinf e
ÄłPales t
ÄłCu p
v ing
Äłinterest e
Äłmist a
Äłintereste d
ÄłPalest i
Äłlearn i
Äłlearni n
ÄłPalesti n
Äłlearnin g
Äłcaptur e
Äłmista k
Äłexe r
Äłdai l
in i
ÄłHo m
Äłsentenc e
Äłpain t
Äłtale n
Äłre w
ÄłOth e
Äłtalen t
ÄłBec a
Äłhighe s
Äłhighes t
a lle
Äłcommunicati o
Äłcommunicatio n
Äłtre n
ÄłSo n
Äłresponsibl e
Äłeff i
Äłbea r
Äłacqu i
Äłun r
Äłradi o
ÄłHe n
Äłya r
ÄłCo a
Äłdista n
Äłoffer s
Äłfis h
ÄłWind o
Äłrestr i
rea t
Äłdefinit e
Äłgenerat e
Äłforma t
Äłvill a
Äłrestri c
ÄłWindo w
Äłagree d
ÄłOthe r
ÄłE c
Äłrestric t
Äłmemor y
ÄłFed e
Äłoppos e
Äłautoma t
ÄłOu r
Äłdail y
Äłexplain e
Äłreferenc e
ÄłLib e
Äłrout e
ÄłHe l
ÄłEd i
Äłalternat i
ÄłIn f
Äłocc a
Äłhon e
Äłrecogniz e
ÄłWester n
Äłocca s
Äłmistak e
Äłcorne r
Äłsur g
Äł ;
Äłtype s
ÄłCar o
Äłterroris t
Äłfli g
Äłflig h
Äłfligh t
Äłgat h
Äłregulat i
ÄłAr c
Äłpros p
Äłprosp e
Äłgath e
Äłgathe r
Äłobserv e
Äłche m
Äłfound e
Äłoccas i
Äłoccasi o
Äłoccasio n
Äłsurve y
ÄłFede r
ÄłLibe r
ÄłBeca u
ÄłBecau s
ÄłBecaus e
Äłconsta n
Äłsca r
Äłtheor y
Äłbasi s
Äłmillion s
Äłhi r
Äłmor a
Äłheav y
Äłic e
Äłgeneral l
Äłexplaine d
Äłgenerall y
Äłoccur r
Äłunderstand i
Äłunderstandi n
Äłunderstandin g
Äłrec a
Äłob t
The s
Äłaggr e
h ing
Äłpropose d
Äłpossib i
Äłconstan t
ÄłSand e
Äłpossibi l
Äłequi p
Äłeffi c
ÄłAt t
Äłpur s
ÄłFoun d
Thes e
Äłlabo r
Äłdete c
Äłdefe a
Äłdetec t
ÄłMik e
Äłpossibil i
Äłreact i
Äłdefea t
Äłcommerc i
Äłdese r
Äłcommerci a
Äłcommercia l
Äłnegativ e
Äłspr i
Äłpossibili t
ÄłAd d
Äłpi n
Äłplane t
Äłtemper a
ÄłSp i
ÄłInstitut e
ÄłFa r
ÄłGre a
Äłslee p
ÄłWe b
ÄłMarti n
ÄłGro u
Äłrej e
Äłfail u
Äłfailu r
Äłfailur e
Äłcho s
Äładver t
Äłsti c
Äłreje c
Äłrejec t
ÄłJohns o
ÄłJohnso n
ÄłNF L
Äłchos e
Äłwav e
Äłidentifi e
Äłstic k
ÄłF B
Äłric h
Äłbecome s
Äłreti r
Äłpartner s
Äłsp l
ÄłBr u
ÄłMa i
Äłga y
Äłassociate d
ÄłT y
ÄłPat r
ÄłHu m
Äłloa d
Äłer a
Äłhundred s
Äłfal s
ÄłHu n
Äłhu s
Äłopene d
Äłresi s
ÄłDir e
ÄłSo l
Äłresis t
Äłsurro u
Äłsurrou n
Äłsurroun d
Äłdanger o
Äłdangero u
Äłdangerou s
Äłcom f
Äłidenti t
Äłcombin e
Äłv s
ÄłSande r
Ã ĥÄ
o ver
ÄłSecurit y
Äłfre s
ÄłHal l
ÄłAndr e
Äłobt a
Äłobta i
Äłobtai n
Äłmanage m
Äłmanagem e
Äłmanageme n
Äłmanagemen t
ÄłBi g
Äłreturn e
Äłkill i
Äłactivis t
Äłpolitic i
Äłrema r
Äłkilli n
Äłphoto g
Äłsoli d
Äłwinn i
Äłwinni n
Äłwinnin g
Äłmon i
Äłkillin g
Äłappl y
Äłtransp o
Äłpackag e
Äłcontro v
Äłcontrov e
Äłcontrove r
Äłassist a
Äłassista n
Äłeasie r
Äłunli k
Äłlegislati o
Äłlegislatio n
Äłro s
Äłspeci e
Äłcontrover s
Äłhor r
ÄłZ a
ÄłComm u
Äłcon g
Äłcli c
Äłput t
Äłrefer r
Äłbecom i
Äłbecomi n
ÄłCaro l
Äłbecomin g
Äłread e
Äłthu s
Äłaccuse d
Äłbee r
ÄłWindow s
ÄłSin c
Äłreade r
Äłama z
Äłunlik e
Äłphotog r
Äłphotogr a
Äłspecie s
ÄłU k
Äłalternati v
Äłfinish e
Äłwag e
Äłjusti c
Äłintern e
Äłalternativ e
ÄłGrea t
ÄłSander s
Äłphotogra p
ÄłMan y
Äłphotograp h
Äłjustic e
____ ____
Äłcomf o
Äłcomfo r
Äłcomfor t
Äłfres h
! !
Äłyar d
ÄłDire c
Äłconstitu t
Äłwea l
ÄłLi k
Äłweal t
Äłwealt h
l on
Äłserve d
ÄłJe s
Äłwe s
ÄłPla n
Äłbelie f
de s
ÄłCommu n
Äłshare d
ÄłKa r
Äłelectr o
Äłfai t
Äłwes t
Äłsca n
Äłextreme l
Äłextremel y
Äłatt o
Äłbott o
Äłscientist s
Äłdocument s
Äłbotto m
Äłatto r
Äłattor n
Äłbe d
Äłattorn e
Äłattorne y
Äłtroubl e
Äłas t
ÄłW r
ÄłJo e
ÄłIslami c
Äłincre d
Äłvictim s
Äł200 6
Äłremar k
Äłhon o
ÄłChu r
Äłreturne d
Äłmari j
Äłarch i
Äłmarij u
Äłfla g
Äłmariju a
Äłmarijua n
Äłmarijuan a
ÄłFl a
ÄłK h
Äłjournalis t
Äłfast e
Äłmobil e
Äłcas h
Äłpay m
Äłrese r
ÄłYou r
Äłexist i
Äłreser v
Äłprovi n
ÄłDis t
ÄłTe c
Äłexisti n
Äłexistin g
Äłcommunit i
Äłcommuniti e
Äłcommunitie s
Äłhold i
Äłholdi n
Äłpaym e
Äłpayme n
Äłpaymen t
Äłmas t
Äłnov e
Äłvictor y
Äłholdin g
Äłleaders h
Äłleadersh i
Äłleadershi p
ÄłAv e
Äłwatch i
Äłtranspo r
Äłwatchi n
Äłtranspor t
Äłcover a
ÄłDirec t
Äłwatchin g
ÄłPri m
Äłinterne t
Äłputt i
Äłfait h
Äłsho c
Äłputti n
Äłswi t
Äładvert i
ÄłCommun i
A me
Äłputtin g
Äłshoc k
Äłsigna l
Äłnote s
Äłimagin e
Äłswit c
Äłswitc h
Äłhai r
ÄłKa n
Äłnon e
Äłcontribut e
Äłcovera g
Äłcoverag e
Äładverti s
r ge
ÄłChur c
ÄłChurc h
ÄłAfrica n
Äłnove l
ÄłPo w
Äłexist e
Äłdis m
Äłsw a
ÄłFo o
Äłpan e
ÄłFeder a
Äłzo n
ÄłLik e
ÄłRi v
Äłback g
Äłsa c
ÄłBrit a
Äłreli e
Äłdefinite l
b ut
Äłdefinitel y
Äłpromot e
ÄłLe g
Äłcollecti o
Äłcollectio n
ÄłP M
Äłposs e
ÄłA M
I mage
Äłconsisten t
Äłtempera t
Äłview s
Äłmora l
ÄłSa u
Äłbackg r
Äłbu n
Äłbackgr o
Äłbackgro u
Äłbackgrou n
Äłbackgroun d
Äłdrug s
Äłall i
ÄłThan k
Äłrespond e
ÄłTH E
Äłspri n
Äłimp e
Äłpsych o
Äłsampl e
Äłregulati o
Äłregulatio n
Äłha c
ÄłCr a
Äłlaunche d
ÄłFo x
ÄłPub l
ÄłRoc k
Äłsupporter s
Äłissue d
Äłincred i
ÄłPubl i
Äłincredi b
Äłrepeat e
Äłtren d
Å ģ
Äłincredib l
Ã¢Ä¢Â ¢
Äłse s
Äłdesir e
Äłplay s
ÄłE g
ÄłTa l
Äłinter f
Äłfra n
Äłma x
Äłposse s
Äłdom e
ÄłFor c
Äłsuggest e
Äłsmo k
Äł3 6
Äłstre s
Äłfals e
Äłsuggeste d
ÄłAt l
Äłstres s
Äło d
Äłsite s
a ble
Äłdi n
ÄłLiv e
Äłex h
Äłcard s
Äłph i
Äłdec e
ÄłJu d
Äłpolitici a
ÄłMo t
Äłup s
Äłpoliticia n
Äłscr i
Äłru s
Äłchem i
Äłcance r
Äłitem s
Äłremi n
Äłrepeate d
Äłtechni c
Äłsecur e
ÄłTec h
Äłposses s
Äłstate d
ÄłBo t
Äłtell i
ÄłR E
Äłtelli n
ÄłLou i
Äłtellin g
Äłwors t
ÄłSinc e
Äłclose d
Äłinten s
Äłpurs u
Äłtemperat u
Äłtemperatu r
Äłcharge d
ÄłFB I
Äłtemperatur e
Äłasp e
ÄłDa l
Äłdiscover e
Äłbla m
ÄłAf g
Äłsmalle r
Äłaff o
Äłmoni t
Äłexpress i
ÄłRich a
Äłaffo r
ÄłAfg h
Äłresta u
Äłde d
Äłrestau r
Äłtool s
ÄłBrita i
ÄłBritai n
in k
ÄłAfgh a
Äłrestaur a
ÄłAfgha n
Äłmonit o
Äłorgani s
Äłmonito r
ÄłU N
Äłretir e
Äłaffor d
Äłunl e
Äłassum e
Äłdriv i
ÄłSi l
Äłdrivi n
ÄłRicha r
ÄłForc e
Äłdrivin g
Äłbatt e
ÄłDef e
Äłcra s
Äłeffic i
Äłti g
ÄłRichar d
Äłeffici e
Äłefficie n
Äłfour t
ÄłCr u
Äłentire l
Äłentirel y
ÄłPl e
ÄłBa c
Äłdiscovere d
Äłhac k
Äłap o
Äłexcit e
Äłman i
Äłexam i
Äłtee n
Äłexami n
Äłpane l
Äłprofess o
Äłprofesso r
ÄłMo u
Äłimpress i
Ame r
Äłreven u
Äłbr u
ÄłInd e
Äłrevenu e
Äłresponsib i
Äłresponsibi l
Äłconcern e
Äłinitia t
Äłexer c
Äłresponsibil i
Äłresponsibili t
Äłconcerne d
ÄłJon e
Äłsupporte d
Äłanimal s
Äłaspe c
Äłexerc i
Äłaspec t
Amer i
ÄłJone s
ÄłO s
Äłestablish e
Äłexerci s
ÄłRea d
Äłstran g
Äłbi n
Äłlen g
Äłco i
Äłolde r
ÄłUk r
ÄłHol l
Äłconstructi o
Äłconstructio n
Äłdep l
ÄłMu r
Äłplann e
inc e
Äłcate g
a king
Äłcateg o
Äłcatego r
n ge
Ameri c
Äłrestaura n
Äłrestauran t
ÄłAr i
Äłcandidate s
Americ a
Äł4 5
ÄłPow e
Äłhur t
Äłleng t
Äłlengt h
Äłrequire s
Äłreligio n
ÄłUkr a
Äłdeclar e
Äłrou g
Äłgrap h
Äłdon a
ÄłFran k
Äłconte x
Äłbusiness e
Äłcontex t
Äłbusinesse s
ÄłHo n
ÄłTo d
Äłactivit i
ÄłDe t
Äłactiviti e
Äłactivitie s
Äłtesti n
Äłcau g
Äłcaug h
Äłses s
Äłcaugh t
Äłlarge l
Äłtestin g
Äłlargel y
ÄłUkra i
ÄłUkrai n
Äłconse q
Äłconseq u
Äłallow i
Äłallowi n
Äłcras h
Äłinsur a
Äłsect o
Äłlu c
Äłallowin g
ÄłIsla n
Äłdona t
Äłsecto r
Äłroug h
Äłclic k
Äłconsequ e
Äłconseque n
ÄłIslan d
Äłinsura n
Äłinsuran c
Äłinsuranc e
Äłvarie t
Äłinvi t
Äłsess i
Äłtick e
Äłdo z
Äłsubm i
ÄłAssociat i
ÄłLoui s
ÄłP C
Äłdel e
Äłsessi o
Äłsessio n
Äłaccu r
ÄłAssociati o
ÄłAssociatio n
Äłgen d
Äłprincip l
Äłprincipl e
Äłstrateg i
Äłregist e
Äłoperat e
Äłregiste r
Äład a
Äłhighl i
ÄłPri n
Äłphi l
Äłhighli g
Äłtru l
Äłhighlig h
Äłhighligh t
ÄłCham p
Äłbelieve s
ÄłCu r
Äłlog i
Äłtrul y
Äłdoz e
Äłrefu g
Äłse q
Äłenabl e
Äłaccur a
Äłfam o
Äłcommi s
Äłdecision s
ÄłBlu e
Äłcompo n
ÄłFa l
Äłpresen c
Äłcompon e
Äłfamo u
Äłfamou s
Äłcompone n
Äłrefug e
Äłcomponen t
Äłvirtu a
Äłhome s
Äłvirtua l
Äłeas t
Äłpresenc e
ÄłTea m
ÄłTe l
ÄłCon f
ÄłAd a
Äłgues s
Äłspokes m
ÄłJew i
Äłregi m
Äłwit n
ÄłRese a
ÄłPa k
Äłwitn e
Äłwitne s
Äłwitnes s
Äłgend e
Äłgende r
ÄłResea r
Äłtu n
ÄłResear c
ÄłJewi s
ÄłResearc h
Äłregim e
ina l
Äłhus b
i ze
Äłhusb a
Äłhusba n
Äłhusban d
ÄłJewis h
E ven
Äłdoze n
Äłem i
Äłinv a
Äłbeaut i
Äłorganiz e
Äłapprov e
Äłill u
Äłsurg e
Äłcommis s
ÄłCat h
ÄłIn v
Äłcritici s
Äłdiver s
Äłunr e
Äłplann i
Äłplanni n
ÄłGl o
Äłplannin g
Äłsuppl y
Äłenti t
ÄłVir g
ÄłJi m
Äłasse s
ÄłAndr o
ÄłRa i
Äłspecific a
Äłlab e
ÄłC I
Äłbatte r
Äłmoti v
Äłlabe l
Äłjoin e
Äłplace d
Äłtell s
Äłsu d
ÄłGO P
ÄłSte p
Äłintegr a
Äłmention e
Äłseq u
Äłmentione d
Äłwait i
Äłwaiti n
Äłspokesm a
Äłspokesma n
Äłwaitin g
ÄłAngel e
Äłwas t
Äłstopp e
Äłview e
Äłjoine d
ÄłLo r
ÄłEr i
Äłche e
Äłinterna l
Äłidentif y
Äłurg e
con t
ÄłMe n
ÄłMicro s
Äłhas n
Äłir r
ÄłAtl a
ÄłC B
Äłdome s
Äłinsi s
Äłdep r
Äłinsis t
Äłreacti o
Äłreactio n
ÄłNi g
Äłoffens i
ÄłFo l
ÄłAl i
Äłindustr i
Äłed g
Äłrap i
Äłoffensi v
Äłmissi n
Äłoffensiv e
Äłmissin g
Äłbeauti f
ÄłVirg i
ÄłTe n
Äłret r
Äłse m
Äłcommiss i
Äłcommissi o
Äłcommissio n
Äłdec r
Äłzon e
Äłuse f
Äłusef u
Äłusefu l
Äłbank s
ÄłSup r
Äłinjur y
Äłtax e
ÄłAngele s
Äłenforce m
Äłenforcem e
Äłenforceme n
Äłenforcemen t
ÄłLa k
c tion
ÄłStr a
Äłinterest s
ÄłDefe n
ÄłM P
Äłintroduce d
Äłprovid i
Äłprovidi n
Äłprovidin g
Äłlib r
Äłsport s
Äłlibera l
ÄłYe s
Äłoccu p
Äłestablishe d
Äłcell s
Äłswe e
Äłrep u
ÄłInst e
Äłnews p
Äłcontribut i
Äłconven t
ÄłSyria n
ÄłJe f
Äłremove d
Äłcar b
Äłstand i
Äłsequ e
Äłdown l
Äłsuggest i
Äłstandi n
Äłwel c
ÄłRiv e
ÄłInste a
ÄłInstea d
Äłconvi n
Äłstandin g
ÄłMedic a
Äłdomes t
Äłdomest i
Äłchan n
ÄłHom e
Äłchann e
Äłchanne l
Äłbeautif u
Äłbeautifu l
Äłstoppe d
Äłfan t
ÄłC A
Äłconvin c
Äłdomesti c
Äłroo t
Äłtro o
Äłother w
Äłamaz i
Äłamazi n
ÄłFor e
Äłamazin g
Äłasses s
Äłfant a
Äłbl i
Äłtroo p
ÄłI l
Äłwelc o
Äłwelco m
Äłmast e
ÄłComp a
Äłnewsp a
ÄłFe r
Äłfanta s
Äłnewspa p
Äłnewspap e
Äłnewspape r
Äłhous i
Äłsubs c
Äłhousi n
Äłhousin g
ÄłTe s
Äłten s
ÄłSupr e
ÄłJef f
Äłbi k
ÄłRe l
Äłdownl o
ÄłSupre m
Äłdownlo a
Äłdownloa d
Äłcal c
Äłsupport i
Äłfourt h
ÄłPalestin i
ÄłCE O
ÄłFi l
Äłcoo k
ÄłPalestini a
ÄłPalestinia n
Äłticke t
Äłphoto s
ÄłB B
Äłtrans l
Äłmodel s
Äłear t
Äł200 5
Äłimpl i
Äłtrai l
Äł201 8
Äłeart h
ÄłBe t
Äłmeasure s
ÄłMicros o
Äłcapa c
Äłrati o
ÄłMicroso f
ÄłMicrosof t
ÄłGovern m
ÄłGovernm e
ÄłGovernme n
ÄłGovernmen t
ÄłCons t
Äłcapac i
Äłgirl s
ÄłGrou p
Äłmaste r
Äłtechni q
Äłthere f
Äłtechniq u
Äłtechniqu e
Äłdis s
Äłti p
Äłsubsc r
Äłsubscr i
ÄłA w
ÄłUn d
Äłlicens e
Äłlocat e
Äłmanage d
Äłfile s
ÄłOn l
Äłconvent i
Äłconventi o
Äłconventio n
Äłidentifie d
Äłac k
Äłrec i
Äłva s
Äłenvironment a
Äłenvironmenta l
ÄłVirgi n
ÄłLe e
Äłfocuse d
Äłtheref o
Äłtherefo r
Äłcapaci t
Äłappro p
Äłsol v
Äłinfr a
Äłemerge n
Äłdeb u
Äłskill s
Äłapprop r
Äłappropr i
Äłoccurr e
ÄłMe l
Äłappropri a
Äłappropria t
Äłfinishe d
ÄłPro f
Äłarrive d
Äłconsider a
ÄłDist r
ÄłRy a
Äłvet e
Äłvete r
Äłfigure s
ÄłSw i
Äłlibr a
ÄłPak i
ÄłJapan e
Äłkeep i
Äłack n
¸ Ä
Äłackn o
ÄłJapane s
Äłkeepi n
ÄłJapanes e
Äłackno w
Äłconclu d
Äłacknow l
Äłfrequen t
Äłacknowl e
Äłcommitte d
Äłtherefor e
Äłdefens i
Äłacknowle d
Äłacknowled g
Äłact o
Äłkeepin g
Äłfund s
ÄłPaki s
Äłlibra r
ÄłGr i
Äłappr e
Äłexclu s
Äładj u
ÄłPakis t
ÄłDa i
Äłexclus i
ÄłCarol i
Äłe g
ÄłPakist a
ÄłPakista n
Äłrevol u
ÄłCaroli n
Äłoffer i
Äłofferi n
Äłacto r
Äłofferin g
Äłout c
Äłpoint e
a use
ÄłMexic o
Äłidentit y
ÄłSuprem e
ÄłColle g
ÄłRa m
ÄłRive r
Äłcapt i
Äłreve r
Äłside s
ÄłAl s
Äłv u
Äłexercis e
Äłrevolu t
Äłrevolut i
Äłrevoluti o
Äłrevolutio n
Äłstrang e
Äłfeel s
Äłotherw i
Äłotherwi s
Äłotherwis e
Äłstep s
Äłcomplain t
Äłfamili a
Äłfell o
Äłdi p
Äłfello w
Äłski n
Äłattack e
Äłinstru c
ÄłAndro i
ÄłAndroi d
Äłreca l
Äłinstruc t
ÄłRya n
Äłquot e
Äłrelative l
Äłrelativel y
ÄłSpe c
Äłtransf o
Äłappli e
Äłtechnic a
Äłtransfo r
Äłtransfor m
ÄłAl b
Äłtechnica l
ÄłS E
Äłimpos s
Äłimposs i
Äłimmigra t
Äłimpossi b
Äłspa r
ÄłJo u
Äł200 0
Äłga l
Äłcircu m
Äłloa n
ÄłSe e
Äłslight l
Äłslightl y
ÄłSt i
Äłgui l
ÄłEdi t
Äłcontroll e
Äłinter p
Äłva n
Äłexcept i
Äłprim e
ÄłZ i
Äłdefensi v
Äłdefensiv e
Äłquali f
Äłchea p
ÄłArm y
ÄłDistr i
ÄłWh o
Äłsk e
Äłsha l
Äłhappen i
Äłhappeni n
Äłaff i
ÄłAlt h
Äłhappenin g
ÄłAma z
Äłmer e
Äłcoi n
ÄłSpo r
ÄłFir e
Äłsym p
ÄłSa r
Äłedg e
ÄłKa t
Äłexcepti o
Äłexceptio n
Äłvisi o
Äłvisio n
Äłemergen c
Äłforg e
ÄłMe m
Äłtop i
Äłut i
Äłelement s
Äłblam e
Äłuti l
Äładvoca t
Äłdeni e
Ã łÂ
Äłtopi c
ÄłColleg e
Äłpl o
ÄłSw e
ÄłBit c
Äłclo t
Äłblo w
Äłapp o
D on
Äłsuggest s
ÄłBer n
ÄłScien c
ÄłScienc e
ÄłMcC a
Äłaggre s
ÄłSu b
Äłneu r
Äłconvi c
re t
Äłsus t
Äłclassi c
ÄłSecret a
Äłaggres s
Äłconvic t
Äłacc i
ÄłSecreta r
Äłwo o
ÄłBo w
Äłis l
Äłti n
ÄłChamp i
ÄłAlth o
Äłtransl a
Äłtransla t
ÄłChampi o
ÄłD N
ÄłChampio n
ÄłAltho u
Äłtaxe s
ÄłPatr i
Äłselect i
Äłz e
ÄłAlthou g
ÄłAlthoug h
Äłacci d
Äłdivi s
Äłaccid e
Äłaccide n
s ing
ÄłThe i
Äłacciden t
Äłbigge r
Äłutil i
ÄłLak e
ÄłHo r
Äłcli n
Äłtig h
Äłout p
Äłmag i
Äłmu t
Äłtigh t
Äłcoun c
ÄłSp r
Äłprovin c
Äłcounc i
Äłcounci l
Äłfamilia r
Äłremin d
Äłpresent e
Äłdel a
ÄłMar s
ÄłSpor t
Äłspeak i
Äłspeaki n
Äłstart s
Äłconsu l
Äłspeakin g
Äłlau g
Äłlaug h
ÄłOu t
Äłvu l
Äłdistan c
Ã ĥÂ
Äłorganization s
ÄłAustralia n
Äłimpossib l
Äłsud d
Äłrequire m
Äłrequirem e
Äłrequireme n
Äłrequiremen t
Äłplanne d
Äłsudd e
Äłimmigrat i
Äłsudde n
Äłdemonstrat e
ÄłJou r
Äłdivis i
Äłmig r
ÄłTor o
Äłmigr a
ÄłJos e
ÄłAd v
ÄłPar i
ÄłGoo d
ÄłCons e
Äłsat i
Äłtalk s
Äłcre w
Äłsuspe n
Äłspec t
Äłrecal l
** **
Äłemb a
ÄłThom a
Äłdepl o
Äłthank s
Äłimmigrati o
Äłimmigratio n
Äłdela y
Äłautomat i
Äłscri p
Äłscienti f
Äłscientif i
Äłarm y
ÄłPro t
Äłcut s
Äłcarrie d
ÄłBitc o
Äłsecond s
ÄłCl o
Äł19 3
Äłscientifi c
Äłappo i
Äłappoi n
Äłappoin t
ÄłPrim e
Äłcompar i
Äłhelp i
Äłhelpi n
Äłasse t
Äłsust a
Äłcreati v
Äłac a
ÄłThoma s
Äłhelpin g
Äłfight e
Äłfighte r
ÄłBitco i
ÄłBitcoi n
ÄłT O
Äłscrip t
ÄłL y
Äłsusta i
Äłsustai n
Äłvolu n
Äłvolun t
ÄłJour n
Äłste e
ÄłMar y
Äłpromot i
Äłcompo s
ÄłUnd e
E ver
ÄłMid d
ÄłGua r
Äłmo o
Äłesca p
ÄłThei r
Äłphil o
Äłturn s
Äłba g
res s
Äłisl a
Äłhistoric a
Äłhistorica l
ÄłPa s
Äłada p
Äłbutt o
Äładap t
Äłconsequen c
Äłconsequenc e
ÄłAls o
Äłdi c
ÄłC N
Äłfile d
Äłopti m
ÄłMidd l
ÄłSecretar y
ÄłMiddl e
Äłstandard s
ÄłFound a
Äłdistanc e
Äłri n
Äłdropp e
ÄłN O
ÄłFounda t
ÄłFoundat i
ÄłFoundati o
ÄłFoundatio n
ÄłWor k
Äłvariet y
Äłsol a
Äłprior i
Äłmarket s
Äłignor e
Äłpa l
Äłphilo s
Äłsound s
ÄłRo a
Äłhe i
ÄłCor p
Äłwast e
Äłphilos o
Äłphiloso p
Äłphilosop h
Äłsens i
Äłcong r
ÄłE S
ÄłSi g
Äłconclud e
ÄłAtla n
Äłimpossibl e
Äłtac k
ÄłUS A
n der
Äłaggress i
ÄłOpe n
ÄłEn t
ÄłAtlan t
ÄłRom a
Äłaccount s
Äłbroad c
Äłvote s
Äłobject i
Äłaca d
Äłprospe c
Äłprospec t
Äłdroppe d
Äłbroadc a
Äłbroadca s
Äłbroadcas t
Äł3 3
Äładvis e
Äłcomb a
Äłinteract i
Äłcomba t
Äłacad e
Äłacade m
Äłterri t
Äłneighbor h
Äłneighborh o
Äłneighborho o
Äłneighborhoo d
Äłcol d
Äłterrit o
Äłpossibl y
Äłisla n
Äłislan d
ÄłBo r
Äłdivi d
Äłhard e
ÄłTw o
Äłoperati n
Äłterrito r
Äłoperatin g
Äłveter a
Äłvetera n
Äłhone s
Äłthem e
Äłrefuge e
ÄłFi g
Äłtest s
Äłcarb o
Äłclot h
Äłworr y
Äłhones t
ÄłP A
ÄłMan a
Äłrul i
Äłruli n
Äłbik e
Äłrulin g
ÄłRo y
ÄłA N
Äłrus h
Äłincreasing l
Äłincreasingl y
ÄłKe l
Äłple n
ÄłMe a
Äłscr a
Äłchang i
Äłlos i
Äłperform e
Äłchangi n
Äłlosi n
Äłlive d
ÄłWo o
Äłlosin g
Äłchangin g
Äłrei n
Äłapparent l
Äłapparentl y
ÄłEl i
Äłagenc i
Äłdeveloper s
Äłultimate l
Äłclose r
Äłultimatel y
Äłhuman s
Äłagenci e
Äłagencie s
ÄłCarolin a
Äłcorporat e
Äłsit t
Äłyard s
Äłchai n
Äłtwi c
Äłtwic e
Äłbutto n
Äłpriori t
ÄłPari s
ÄłLas t
ÄłImage s
ÄłPowe r
Äłfund a
Äłcultur a
Äłabsolute l
Äłabsolutel y
Äłju r
ÄłFrancis c
Äłexpress e
ÄłRa d
Äłwi r
Äłcolle a
Äłsoldier s
Äłcollea g
Äłspl i
Äłcolleag u
Äłcolleagu e
ÄłWe i
ÄłDa t
Äłinno v
Äłdef a
ÄłEle c
Äłinnov a
Äłunit s
Äłgi a
Äłcentr e
Äłpen a
ÄłChi l
Äłvis u
Äłfunda m
Äłinnova t
Äłfundam e
Äłcultura l
Äłfundame n
Äłhealth y
Äłauthorit y
Äłfundamen t
Äłtas t
Äłunf o
ÄłUnde r
ÄłSin g
Äłpossibilit y
Äłpay i
Äłpayi n
Äłexpens i
Äłvilla g
ÄłE i
ÄłElec t
Äłpayin g
Äłfundament a
Äłtri b
Äłvillag e
Äłconf u
Äłfundamenta l
Äłcalc u
ÄłHum a
Äłvas t
Äłcalcu l
ÄłCentr a
ÄłPle a
Äłexpensi v
Äłexpensiv e
Äłour s
Äłra l
Äłdevelop i
Äłdevelopi n
Äłdevelopin g
ÄłLa u
Äłconfu s
Äłboun d
ÄłS T
Äłath l
Äłgia n
Äłathl e
America n
Äłgian t
Äłappropriat e
Äłcontain e
Äłja i
Äłwarn i
Äłland s
Äłathle t
Äłwarni n
Äłwarnin g
Äłvisu a
Äłraci s
Äłcare f
Äłvisua l
ÄłCentra l
Äłtransit i
Äłlea k
Äłpun i
Äłoff s
Äłral l
Äłregard i
Äłregardi n
Äłregardin g
Äłnum e
Äłjai l
ÄłToro n
Äładju s
Äładjus t
Äłchar t
Äłseek i
Äłseeki n
Äłseekin g
Äłsurviv e
Äłdeplo y
Äłexpert s
ÄłToron t
ÄłToront o
Äłnume r
Äłstati s
ÄłVe n
Äłsitt i
Äłsitti n
Äłinvest o
Äłinvesto r
Äłfi f
Äłsola r
Äłsittin g
Äłrati n
Äłratin g
u ring
ÄłGuar d
Äłlaws u
Äłlawsu i
Äłlawsui t
Äłcons o
Äłnomin a
Äłsubs e
Äłspo n
Äłplen t
ÄłHa v
Äłban n
Äłapplication s
Äłmax i
Äłcomi c
Äłpena l
ÄłPlea s
Äłfif t
ÄłA C
Äłwelcom e
Äłpercent a
Äłprot o
Äłpercenta g
Äłpercentag e
ÄłDistri c
ÄłDistric t
ÄłBos t
Äłcapacit y
Äłstatis t
ÄłCam p
Äłintegra t
a nge
ÄłDi e
ÄłWilliam s
Äłsche m
Äłcover e
ÄłFrancisc o
Äłge o
Äłcovere d
Äłgradua t
Äłher s
% )
Äłshe e
ÄłMa k
Äłrew a
ÄłChi e
ÄłAmaz o
ÄłDi a
Äłhono r
Äłeli m
Äłarm s
Äłtransiti o
Äłtransitio n
Äłcaref u
Äłcarefu l
Äłdep o
ÄłAmazo n
Äłpers p
Äłunle s
ÄłTa k
Äłunles s
c ause
Äłtru c
ÄłIm p
Äłresponsibilit y
Äłelim i
Äłelection s
Äłelimi n
Äłlo b
Äłmag a
Äłimprove m
Äłimprovem e
Äłimproveme n
Äłimprovemen t
Äłelimin a
Äłpermi t
ÄłAw a
ÄłTo w
Äłdefinit i
Äłmanufactur e
ÄłPu t
Äłelimina t
Äłbab y
ÄłEm p
Äłguil t
Äłmagi c
Äłuniversit y
ÄłMas s
Äł200 4
Äłmaga z
Äłdead l
Äłmagaz i
Äłmagazi n
Äłmagazin e
Äłviolat i
Äłillu s
Äłtechnolog i
y le
in n
Äłpresente d
Äłform s
Äłsa d
Äłsh r
Äłhir e
Äłod d
ÄłE t
Äłguar a
Äłguara n
ÄłGo r
ÄłGu i
Äłrewa r
Äłran d
Äłmaxi m
c le
ÄłAn o
Äłguaran t
Äłrewar d
ÄłNe v
Äłstatist i
Äłintent i
Äłdis r
Äłintenti o
Äłintentio n
Äłpersp e
Äłbod i
ÄłEg y
Äłstatisti c
Äłsym b
Äłinfra s
Äłki t
ÄłEgy p
Äłexpan s
ÄłEgyp t
ÄłDo w
Äłperspe c
Äładmit t
Äłl y
Äłperspec t
Äłperspect i
ÄłM A
Äłperspecti v
Äłimmigra n
Äłimmigran t
ÄłDan i
Äłbroke n
Äłboo s
Äłintend e
Äłperspectiv e
Äłhelp s
Äłrob o
Äłintende d
ÄłRa t
ÄłColo r
Äłgun s
ÄłI N
Äłinfras t
J ust
ÄłNa v
Äłhead s
Äłinfrast r
ÄłBost o
Äłtri c
Äłbri g
Äłinfrastr u
Äłsprin g
Äłoutc o
ÄłVirgin i
Äłvehicle s
Ã¢Ä¢Ä º
Äłstri n
Äłinfrastru c
ÄłAda m
Äłinfrastruc t
ÄłBe s
ÄłQu a
Äłstrin g
Äłdistribut i
Äłinfrastruct u
Äłinfrastructu r
Äłestimate d
Äłoutco m
ÄłPubli c
ÄłAge n
Äłrecord e
Äłexclusi v
ÄłBosto n
ÄłOn c
Äłstreet s
Äłrapi d
Äłconsul t
Äłoccurre d
Äłshal l
Äłluc k
Äłhan g
ÄłVirgini a
Äłrid i
ÄłTho s
ÄłChie f
Äłpiece s
Äłyou t
Äłdre s
Äłinterp r
ÄłThos e
ÄłTo u
Äłoutcom e
ÄłMod e
Äłdres s
Äłrap e
ÄłJourn a
ÄłLu c
Äłabo r
ÄłJourna l
Äłfire d
Äłacknowledg e
Äłguarant e
Äłguarante e
ÄłHuma n
Äłpat r
Äłtroop s
Äłjo k
Äłrepl i
Äłren e
Äłend o
Äłsha d
Äłreci p
Äłse i
Äłexce l
Äłmeta l
Äłproduce r
Äłout r
Äłinfrastructur e
Äłlocate d
Äłstar s
Äłdi m
Äłren t
Äłinterpr e
Äłinterpre t
ÄłPe a
Äłtemp o
Äłcorr u
Äłcalcul a
Äłexplor e
Äłdistin c
Äłprepare d
Äłdistinc t
Äłcalcula t
ÄłSoci a
ÄłBu l
ÄłAn y
Äłmag n
Äłsn o
Äłcharacter i
Äłrecr u
ÄłBo b
Äłspecifica l
Äłbring i
Äłmys t
Äłbringi n
Äłspecifical l
Äłspecificall y
Äłwar r
Äłbringin g
Äłam e
Äłpotential l
Äłpotentiall y
ÄłSho w
Äłsil e
Äłpi p
Äłrecru i
Äłrecrui t
Äłtan k
Äłcompli c
Äłrand o
Äłelectro n
Äłsile n
ÄłSocia l
Äłvul n
Äładvocat e
Äłsi s
Äłconclu s
ÄłRea l
Äłsan c
Äłha b
ÄłYea r
Äłgi f
Äłequip m
Äłequipm e
Äłequipme n
Äłequipmen t
Äłinspir e
Äłtack l
Äłconclus i
Äłfaste r
Äłtour n
Äłdivid e
Äłgovernment s
ÄłDirect o
ÄłOnc e
Äłlu n
ÄłDirecto r
Äłrando m
Äłplent y
Äłboos t
Äłdy n
Äłsanc t
Äłsell i
Äłselli n
Äłvuln e
Äłvulne r
Äłfin g
Äłvulner a
Äłsellin g
Äłvulnera b
ÄłTer r
Äłsim u
ÄłStep h
ÄłFa m
Äłfing e
Äłcons c
Äłbrea t
Äłfinge r
Äłbreat h
Äłgra v
Äłsimu l
¿ Â
ÄłRu b
Äłseason s
Äłcorru p
ÄłWe e
ÄłBra d
Äłchemi c
Äłheav i
Äłchemic a
Äłchemica l
ÄłSan t
ÄłHa s
Äłplu s
ÄłIS I
ÄłLi t
Äłrepresentati v
Äłcorrup t
Äłrepresentativ e
ÄłFedera l
Äłrefuse d
Äłoffens e
Äłfactor s
Äłwou n
Äłwoun d
Äłexpressi o
Äłexpressio n
Äłdefend e
Äłretai l
Äłexpos e
Äłyoung e
ÄłC y
Äłhun t
Äłwinn e
Äłwinne r
Äłexpans i
Äł= >
Äłamb i
Äłr h
ÄłLi f
ÄłTr o
Äłmod i
Äłeven i
Äłdivisi o
Äłdivisio n
Äłcarbo n
Äłresol u
ÄłRo n
Äłexpresse d
Äłvote d
Äłpe e
Äłeveni n
Äłresolu t
Äłevenin g
Äłchallenge s
ÄłNi n
ÄłFu n
Äłdyn a
Äłconduct e
ÄłInte l
ÄłSc a
Äłconducte d
Äłmethod s
Äłcurren c
Äłdisa s
Äłspi n
Äłrai n
Äłgovern o
Äłemb r
Äłexclusiv e
ÄłAct i
Äłsis t
Äłme l
Äłfla t
m me
Äłpush e
Äłescap e
Äłelect e
Äłelecte d
Ever y
Äłcycl e
ÄłPleas e
Äłcreati o
Äłwin g
un i
Äłsymb o
Äłcreatio n
Äłpuni s
Äłsymbo l
Äłcombin a
Äłpunis h
ÄłCh o
ÄłM O
Äłsist e
Äłpointe d
ÄłMi t
Äłmot o
Äłremain e
Äłposition s
Äłrobo t
Äłcompet e
Äłtri g
Äłcombina t
ÄłJa v
ÄłSpa c
Äłremaine d
Äłsolv e
Äłgoverno r
ÄłN H
Äłrin g
ÄłDur i
ÄłWo m
Äłriv a
Äłoriginal l
Äłoriginall y
ÄłCont r
Äłinfe c
Äłal c
Äłviolen t
Äłinfec t
Äłriva l
Äłprogress i
Äłtruc k
Äłins e
Äłvolu m
Äłreserv e
Äłwere n
Äłalleg a
Äłvot i
Äłallega t
Äłsign s
Äłallegat i
Äłallegati o
Äłallegatio n
Äłcriticis m
Äłtourn a
ÄłChampion s
Äłnarr a
ÄłFina l
Äłtourna m
Äłtournam e
Äłtourname n
Äłtournamen t
Äłtrans a
Äłgif t
Äłnarra t
Äłgreate s
Äł3 4
Äłgreates t
Äłfaci n
ÄłDuri n
Äłfacin g
ÄłSpac e
Äłbou g
ÄłTo n
Äłmiss e
Äłsignificant l
Äłsignificantl y
Äłspli t
Äłvoti n
Äłvotin g
Äłfol k
Äłyout h
ÄłPrin c
ÄłDurin g
Äłded i
Äłcra c
Äłdecr e
Äłair p
Äłcrac k
Äłstre t
Äłve g
ÄłDo c
Äłdeser v
Äłprofi l
Äłmodi f
Äłhol e
Äłaffect e
Ã ¯Â
Äłfore s
Äłaffecte d
Äłboug h
Äłdedi c
Äłstret c
Äłstretc h
Äłdedic a
Äłmoto r
Äłwear i
Äłsm i
ÄłAn a
ÄłBot h
ª Ä
Äłdetermine d
ÄłRo u
ÄłBo a
ÄłPi n
Äłsiste r
ÄłRe m
Äłstrong e
Äłreduce d
ÄłRoma n
Äłafter n
Äłdedica t
Äłaftern o
Äłafterno o
Äłjusti f
Äłafternoo n
Äłho o
Äłinterv e
Äłwoo d
Äł50 0
ÄłDr e
Äłbough t
ÄłK l
ÄłSau d
Äłsever e
Äłtric k
Äłhers e
Äłsig h
Äłherse l
Äłinterve n
Äłhersel f
Äłpick e
ÄłPro g
ÄłDi v
Äłabor t
Äłinde e
Äłwatch e
Äłindee d
ÄłPi c
Äłminim u
Äłpull e
Äłobvious l
Äłobviousl y
S ince
Äłmar g
Äłminimu m
Äłgre w
Äłannounce m
Äłemotion a
Äłemotiona l
f ree
Äłannouncem e
Äłannounceme n
Äłannouncemen t
Äłcombinat i
Äłcombinati o
Äłcombinatio n
Äłcoa s
Äłcoas t
Äłremain i
Äłcontra s
Äłremaini n
Äłradi c
Äłremainin g
rel a
ÄłLa r
ÄłBar a
Äłweari n
Äłinve n
Äłradic a
Äłdu t
Äłvolum e
Äłinven t
Äłturn i
Äłcontras t
ÄłFa i
Äłradica l
ÄłLe v
ÄłCla r
Äłconstitut i
Äłuna b
Äłpolitician s
ÄłAd m
Äłinnovat i
Äłargue d
Äłab a
ÄłLo c
Äłwir e
Äłsupporti n
Äłsupportin g
Äłedit i
Äłrai l
Äłair c
in u
Äłrecorde d
Äłover l
Äłdiscuss e
Äłpou n
Äłval i
ÄłKh a
Äłapo l
Äłworr i
Äłlead s
Äłconvinc e
Äłsqua r
Äłsurpris i
Äłcivili a
Äłsurprisi n
Äłcivilia n
Äłlif t
Äłsurprisin g
Äłappre c
Äłconsc i
Äłearn e
Äłapprec i
Äłappreci a
Äłemp h
Äłwearin g
Äłcol u
Äłsal a
Äłmatch e
Äłairc r
w he
Äłbrow s
Äłfilm s
Äłexcite d
Äłtac t
r ound
Äłconsider i
ÄłSa i
Äłqua n
Äłconsideri n
Äłconsiderin g
Äłvideo s
ÄłConse r
Äłconse n
Äłunder g
Äłclo u
ÄłDai l
ÄłLi s
ÄłConser v
Äłcolu m
ÄłBoo k
Äłexplo s
Äłresolut i
¤ Ä
ÄłPr a
Äłresoluti o
Äłresolutio n
Äłbasic a
Äłexplos i
ÄłKu r
Äłbasica l
Äłover t
Äłproce d
ÄłBu d
Äł199 0
Äłbasical l
Äłtalk e
Äłbasicall y
Äłtrig g
ÄłOl y
Äłtrigg e
Äłgla s
Äłautomati c
Äłturni n
ÄłQu i
Äłtrigge r
ÄłBe i
Äłturnin g
Äłexperience d
Äłdifference s
Äłconce n
Äłsav i
Äłnegotiat i
ÄłConserv a
ÄłMedi a
Äłconcen t
ÄłPen n
Äłconcent r
Äłemph a
Äłhot e
Äłprogramm e
Äłexiste n
ÄłProg r
Äłco f
Äłhttp s
Äłopportunit i
Äłconte s
Äłproced u
Äłopportuniti e
Äłopportunitie s
Äłprocedu r
Äłbelo n
Äłcontes t
Äłbelon g
Äłpulle d
Äłhote l
ÄłPro j
ÄłZ o
Äłcommit m
Äłaircr a
Äłcommitm e
Äłcommitme n
Äłcommitmen t
ren t
Äłcolum n
res i
Äłserious l
Äłseriousl y
Äłaircra f
Äłaircraf t
Äłis o
Äłpip e
Äłwr e
Äłreb e
Äłglas s
l ine
Äłcamp u
ÄłHa w
Äłcampu s
ÄłLif e
Äłrebe l
Äłplo t
Äłfix e
ÄłProj e
Äłconsumer s
Äłna v
Äłsquar e
Äłend s
Äłbi d
ÄłN S
Äłreali s
Äłmet r
Äłnomina t
ÄłJack s
Äłqui e
Äłdec k
Äłtreat e
Äłmotiv a
Äłemergenc y
Äłcomplete d
Äłcolla p
Äłcollap s
Äłco c
Äłtreate d
Äłtransa c
Äłmotiva t
Äłperm a
Äłtransac t
Äłstudi o
ÄłBo n
¦ Ä
Äłcapital i
Äłsuppl i
ÄłDail y
Äłman n
Äłpreci s
Äłcombine d
ı Ä
Äłmarg i
ÄłSaud i
Äłstand s
Äłmargi n
Äłapp s
ÄłRoa d
Äłenem y
ÄłI P
Äłto m
Äłdrama t
Äłdisas t
Äłpassi n
Äłmor t
Äłhope s
Äłpassin g
Äłlot s
ÄłOly m
Äłame n
ÄłOlym p
Äłapprecia t
Äłacadem i
Äłinjur i
Äłtalke d
Äłdia g
Äłconclusi o
Äłconclusio n
Äłapol o
Äłapolo g
Äłpar l
Äłsuffer e
Äłdramat i
Äłpost s
Äłconstituti o
Äłhuman i
Äłconstitutio n
Äłpriva c
Äłneur o
Äłconcentr a
ÄłDo u
ÄłSy s
Äłprivac y
ÄłCar l
ÄłJacks o
ÄłJackso n
ÄłAdm i
Äłwea t
Äłpenal t
Äłweat h
Äłtact i
Äłconcentra t
Äłdan c
Äłbo w
Äłweath e
Äłpower s
Äłweathe r
Äłinfl a
ÄłRec o
Äłparticipa n
Äłinitiat i
Äłdepr e
Äłplant s
Äłparticipan t
Äłdisc l
Äłoppose d
Äłfe r
Äłexcel l
Äłwide l
Äłwidel y
Äłdism i
Äłga p
Äłschem e
Äłcolla b
Äłdismi s
Äłdismis s
Äłnorth e
Äłproce e
s ion
Äłprocee d
ÄłProje c
ÄłProjec t
ÄłUs e
Äłattempt s
Äłpage s
Äłover w
ÄłKorea n
Äłsuppli e
Äłbri d
Äłdefa u
Äłdefau l
alle d
Äłdefaul t
Äłcopy r
Äłcopyr i
Äłcopyri g
Äłcopyrig h
Äłcopyrigh t
ÄłCl u
o ple
Äłcar t
ÄłiP h
ÄłSpr i
ÄłRos e
ÄłiPh o
Äłinjur e
Äłfru s
ÄłBB C
ÄłS q
Äłfrus t
Äłtempo r
Äłsui c
ÄłCath o
Äłsuic i
Äłsuici d
Äłbodi e
ÄłEc o
Äłpla s
Äłpil o
Äłdistributi o
Äłdistributio n
Äłconso l
Äłtransact i
Äłsto o
Äłstor m
ÄłTod a
Äłreporter s
Äłcollab o
Äłup g
ÄłRe i
Äłupg r
ÄłCatho l
Äłupgr a
Äładdress e
Äłcollabo r
ÄłConserva t
Äłrele v
Äłupgra d
ÄłCathol i
Äłtypical l
Äłtypicall y
Äłcollabor a
ÄłO k
Äłconver t
Äłlay e
ÄłRo o
Äłfill e
Äłfrust r
Äłcapti o
Äłgra b
Äł200 3
Äłpilo t
Äłvali d
ÄłiPho n
Äłcollabora t
ÄłCatholi c
Äłcontributi o
Äłcontributio n
Äłcaptio n
ÄłiPhon e
Äłfrustr a
Äłexcell e
Äłquan t
Äłfrustra t
Äłrelev a
e cause
Äłcoo r
Äłalc o
Äłdis o
Äłreleva n
Äłrep a
Äłcoo p
Äłcoor d
Äłlaye r
Äłquie t
Äłforge t
ÄłLi g
Äłencou n
Äłpsycho l
Äłencoun t
e ople
Äłencount e
Äłencounte r
ÄłCar d
ÄłSea t
Äłback e
Äłhab i
Äłdisapp o
Äłwrite s
Äłdisappo i
Äłdisappoi n
Äłdisappoin t
Äłpsychol o
Äłsecret a
Äłpsycholo g
ÄłEn e
ÄłSo v
Äłtransacti o
Äłtransactio n
ÄłPo p
r ke
Äłsecreta r
Äłinvestigat e
Äłtempor a
Äłdenie d
Äłpoun d
Äłpha s
Äłsubmi t
Äłnati v
ÄłA T
Äłapprove d
ÄłFol l
Äłbodie s
Äłexpect a
Äłcapab l
Äłcoord i
Äłacqui r
Äłprotest e
ÄłSys t
ÄłRep o
Äłcoordi n
Äłcongr e
Äłcoordin a
ÄłBra n
Äłcircum s
Äłmatter s
ÄłVi s
Äłenter t
Äł20 2
Äłentert a
Äłenterta i
Äłentertai n
ÄłToda y
Äłcoordina t
Äłresponde d
Äłworri e
Äłset s
Äłno b
Äłvi t
Äłconfiden c
Äłconfidenc e
Äł/ /
ÄłA B
Äłexpansi o
Äłexpansio n
Äłalco h
ÄłSq u
Äłalcoh o
Äłalcoho l
Äłhabi t
Äłnumer o
ÄłCharl e
Äłmo l
ÄłNA S
Äł19 2
ÄłRo d
Äłcapabl e
ÄłKel l
ÄłDa m
Äłlob b
Äłmann e
Äłrene w
Äłdra g
ÄłConservat i
ÄłKen n
Äłbrig h
Äłdeserv e
Äłbrigh t
ÄłWi s
Äłexplo i
Äł3 7
ÄłFor t
Äłexploi t
Äłforma l
Äłcomplic a
Äłinstitution s
ÄłOlymp i
ÄłH y
Äłparticipat e
Äłob l
ÄłSyst e
ÄłAfghan i
ÄłMin n
ÄłSpec i
Äłju n
Äłro t
ÄłSyste m
Äłcomplica t
ÄłCap i
ÄłYe t
Äłfran c
ÄłTurk e
ÄłIl l
ÄłMill e
Äłcof f
ÄłF C
ÄłRe n
Äłclin i
ÄłThi n
Äłdramati c
Äłlitera l
Äłsati s
Äłconfiden t
Äłcra z
Äłunab l
Äłunabl e
Äłclini c
Äłreason a
Äłidea l
Äłreasona b
Äłprom p
ÄłOh i
Äłreasonab l
ÄłLabo u
Äłsatis f
Äłpromp t
Äł200 1
Äłmi r
Äłclou d
Äłpro u
Äłreli a
Äłcra f
Äłcraf t
Äłman d
ÄłLabou r
ÄłAfghani s
Äłjok e
Äłaccura t
Äłhi n
Äłaccurat e
ÄłOhi o
Äłnumero u
Äłnumerou s
Äłmarri e
Äłcompr e
ÄłAfghanis t
ÄłAfghanist a
ÄłAfghanista n
Äłtacti c
Äłball o
Äłattac h
ÄłVal l
Äłprou d
Äł( Ã
Äładvi c
Äładvic e
Äłreported l
Äłreportedl y
ÄłTurke y
Äłabort i
Äłcrime s
Äłdebu t
Äłpra y
Äłrest o
Äłwa k
Äłrespect i
ÄłBro o
ÄłCu b
ÄłShe r
Äłlogi c
Äłshould n
i tion
Äłpicture s
Äłorder e
Äłordere d
Äłlove d
Äłface s
Äłne r
Äłsavi n
ÄłGran d
ÄłConf e
Äłdemocra c
Äłexperience s
Äłsavin g
Äłexplain s
Äłoptim i
ÄłCapi t
Äłprofil e
Äłfavo u
Äłfavou r
ÄłAndre w
Äłdeclare d
Äłon g
Äłsuffere d
ÄłW A
Äłappro x
Äłreport i
Äłreporti n
Äłrestrict i
Äłreportin g
Äłbit c
ÄłSpri n
ÄłJe n
Äłmessage s
ÄłFoll o
ÄłFollo w
Äłcoop e
Äłobl i
Äłchampion s
Äłmovie s
Äłsubstan t
Äłsubstant i
Äłong o
Äłongo i
Äłongoi n
Äłongoin g
Äłscen a
ÄłI D
ÄłArc h
Äłcircums t
ÄłBar r
Äłscena r
Äłscenar i
Äłdeliver e
ÄłTho u
Äłphas e
Äłwalk i
Äłscenari o
Äłassi g
Äłconnect e
Äłassig n
Äłcircumst a
Äłcircumsta n
Äłcit e
Äłcoope r
ÄłWee k
Äłdecline d
O ver
Äłconnecte d
Äłdisco u
ÄłSe l
Äłno d
ÄłQue e
ÄłD O
ÄłChrist m
ÄłChristm a
Äłwr a
Äłinjure d
Äłdelivere d
rela t
Äłthought s
Äłpicke d
Äłsubscri b
y ing
Äłtast e
Äłtackl e
Äłdiscr i
Äłeva l
Äłnativ e
Äłdiscri m
Äłempha s
Äłcooper a
ÄłIr e
Äłexcelle n
Äłdiscrim i
Äłdiscrimi n
Äłaccomp l
Äłdiscrimin a
Äłaccompl i
Äłfinding s
Äładmitt e
Äładmitte d
Äłmoti o
ÄłChristma s
Äłmotio n
Äłattr i
ÄłGi l
ÄłJav a
Äłcoopera t
Äłsouth e
ÄłCol u
con s
Äłdia l
Äłbu g
Äłleave s
ÄłRepo r
ÄłWar r
de f
ÄłRepor t
oun t
Äłe u
ÄłSig n
Äłgues t
ÄłLo v
ÄłReg i
ÄłCre a
Äłinvit e
Äłemphas i
Äłmarrie d
ÄłVo l
Äłdiscrimina t
ÄłSer i
Äłmod u
, Ã¢Ä¢Ä»
Äłaborti o
Äłabortio n
Äłpublic l
ÄłMich i
Äłpublicl y
Äłfinanc e
Äłcreativ e
Äłun u
D uring
Äłarchi t
ÄłDev e
ÄłCom e
Äłwalki n
ÄłP R
Äłupdate s
Äłarchit e
Äłreader s
ÄłColu m
Äłmat h
Äłperma n
ÄłFa n
ÄłDow n
Äłarchite c
Äłminor i
ÄłWoo d
ÄłRa c
Äłarchitec t
ÄłBra z
Äłwalkin g
ÄłP y
c alled
Äłemail s
Äłresto r
ÄłSu m
Äłperman e
Äłminori t
ÄłFu r
Äł3 8
ÄłM L
Äłsen a
ÄłSouth e
Äłnu t
Äłpermane n
Äłstatement s
Äłarm e
Äłours e
Äłourse l
Äłdriver s
Äłgo d
ÄłBac k
Äłstri p
Äłdiscl o
Äłdisclo s
Äłlegi t
Äłsmi l
Äłanima t
ÄłMuslim s
Äłactivist s
Äłcomfort a
Äłcomforta b
Äłoursel v
Äłourselv e
Äłsac r
Äłourselve s
Äł19 1
Äłsena t
ÄłWr i
Äł7 5
Äłcomfortab l
Äłpoo l
Äłarme d
Äłagent s
Äłcontain s
Äłren d
Äł4 8
ÄłStud i
ÄłCharle s
Äłye l
Äłapprox i
Äłapproxi m
Äłapproxim a
Äłquarter b
Äłatt i
Äłquarterb a
Äłquarterba c
Äłquarterbac k
ÄłI o
Äłze r
Äłobject s
Äłapproxima t
Äłthe a
Äłmand a
Äłhard w
Äłfille d
ÄłAb o
ÄłProt e
Äłbuilding s
Äłfra u
Äł4 2
Äłdip l
Äłcompari s
ÄłSov i
Äłhal l
ÄłMou n
Äłeval u
Äłcelebrat e
ÄłSovi e
Äłdipl o
ÄłSovie t
Äłpractice s
Äłbo s
Äłcomparis o
Äłcompariso n
ÄłJo r
Äłunu s
Äłevalu a
Äłcircumstan c
ÄłCap t
Äłcircumstanc e
Äłdyna m
Äłsurround i
Äłsurroundi n
Äłsurroundin g
Äłrever s
Äłarra n
Äłdisa b
Äłprovinc e
Äłbo l
Äłsem i
Äł198 0
Äłcollaps e
ÄłTech n
Äłlink e
Äłevalua t
Äłeffective l
Äłeffectivel y
ÄłMichi g
ÄłMichig a
Äłthr i
Äłmisse d
ÄłMichiga n
Äłbann e
Äłsi c
ÄłG M
Äłarran g
r me
Äłexample s
Äłpermanen t
ÄłUkrain e
o le
Äłph e
Äłaggressi v
Äłcause s
Äłyes t
Äłaba n
Äłyest e
ÄłQuee n
Äłattract i
Äłsubse q
Äłgot t
Äłyeste r
Äłtotal l
ÄłGlo b
Äłsubseq u
Äłaggressiv e
Äłsubsequ e
Äłaban d
Äłsubseque n
Äłallegation s
Äłaband o
ÄłArab i
Äłabando n
ÄłCompa n
Äłuni f
ÄłSeat t
ÄłSeatt l
Äłboo t
ÄłSeattl e
Äłsecretar y
ÄłVic t
Äłmodu l
Äłru m
t yle
Äłbon d
ÄłA I
Äłinjuri e
Äłinjurie s
Äłdiplo m
Äłthink s
ÄłBoa r
Äłic o
Äłsubsequen t
Äłdiplom a
Äłessential l
Äłessentiall y
ÄłKi m
Äłhel l
Äłeli t
Äłinc e
Äłspecial i
re m
Äłdomina t
Äłbar e
ÄłPer s
ÄłDu n
Äłvaria b
Äłyel l
Äłro w
ÄłBat t
Äłnecessar i
ÄłAss a
Äłinitial l
Äłapproach e
Äłexpla n
Äłinitiall y
Äłsubs i
Äłthea t
Äłico n
Äłpur e
ÄłBraz i
p on
Äłsanct i
Äłwhe e
Äłcolo n
Äłresist a
Äłres c
Äłresista n
ÄłSec o
Äłmaterial s
Äłgraph i
ÄłI d
ÄłHo s
Äłclim b
Äłsan d
Äłfranc h
Äłfranch i
Äłexplan a
Äłfranchi s
Äłimpli c
Äłuns u
Äłcontrovers i
ÄłAg a
us s
Äłexplana t
Äłfact s
n ing
Äłnecessari l
Äłat m
Äłnecessaril y
Äłinf a
Äłprovide r
Äłdynam i
Äłdocument a
ÄłP S
Äłinco r
Äłin g
Äłdu m
ÄłBoar d
ÄłLo o
Äłsei z
ÄłBrazi l
Äłcond e
ÄłLor d
Äłhyp o
Äłwarn e
Äłaccept e
Äłdata b
Äłlinke d
Äłperforme d
Äłattri b
Äłconte m
Äłschedule d
ÄłMinn e
Äłmyst e
Äłattrib u
Äłcontem p
Äłkin g
Äłaccepte d
Äłmyste r
Äłdev o
Äłwarne d
Äłlo u
Äłattribu t
Äłclass e
Äłliste d
ÄłCon n
g le
Äłshar p
Äłgra s
Äłhei g
ÄłMoun t
Äłdatab a
Äłheig h
Äłhumani t
Äłplay o
Äłunp r
Äłmanda t
Äłheigh t
Äłincrease s
Äłdefiniti o
Äłdefinitio n
Äłjoin t
Äładvance d
Äłplayo f
Äłplayof f
Äłface d
ÄłL G
Äłla p
Äłyester d
Äłyesterd a
Äłyesterda y
Äłnei t
Äłneit h
Äłneith e
Äłneithe r
Äłkno c
Äłknoc k
Äłfranchis e
Äłin p
Äłdataba s
Äłang e
Äłdatabas e
ÄłVall e
Äłcompetiti v
Äłevery b
Äłprocess e
ÄłMana g
Äłeveryb o
Äłeverybo d
ÄłSeco n
Äłreco n
Äłfo s
Äłeverybod y
Äłse g
Äłnation s
ÄłSecon d
Äłti r
Äłpasse n
Äłcompetitiv e
Äłnarrat i
ÄłG P
ÄłEl l
Äłviolati o
Äłviolatio n
Äłmount a
Äłrespecti v
Äłpassen g
Äłpasseng e
Äłpassenge r
Äłfi c
Äłprocedur e
Äłpossess i
Äłatm o
ÄłPhil i
Äłnear b
Äłnearb y
Äłatmo s
Äłdie t
Äłmounta i
Äłinter c
Äłmountai n
Äłfollow s
e ven
Äłdepre s
ÄłDeve l
Äłbegin s
m ing
Äłatmos p
Äłovers e
Äłatmosp h
Äłatmosph e
Äłatmosphe r
Äłrespectiv e
ÄłComm o
Äłhead e
Äłmove s
Äłch r
Äłconsequence s
Äłdepres s
ÄłIre l
Äłsurprise d
ÄłSpa n
ÄłBroo k
ÄłD E
Äłbrows e
ÄłBo u
ÄłHarr i
Äłmissi l
Äłmissil e
Äłsmok e
Äłapart m
Äłapartm e
Äłapartme n
Äłapartmen t
Äłimprove d
Äłamen d
Äł \
Äłapplie d
Äłwhee l
ÄłIrel a
ÄłIrela n
Äłspon s
ÄłIrelan d
ÄłDevel o
Äłrepresent s
ÄłDevelo p
ÄłCN N
Äłdeal i
Äłspons o
ÄłWa y
ÄłDefen s
Äłen h
Äłfounde r
Äłcu p
Äłstoo d
Äłphe n
Äłsigni n
ÄłSport s
Äładd s
Äłdeali n
Äłalli e
Äłchar i
Äłsignin g
Äłsponso r
Äłsuicid e
Äłenh a
Äłdealin g
Äłbre w
ÄłRom n
Äłparl i
ÄłRomn e
Äłconfi g
Äłinitiati v
Äłparli a
Äłparlia m
Äłparliam e
Äłparliame n
Äłinitiativ e
Äłparliamen t
ÄłRomne y
ÄłColum b
Äłris i
Äłenha n
ÄłSk y
Äłmer c
Äłdemocrac y
Äłenhan c
Äłbott l
lon g
ÄłL A
Äłsong s
ÄłBara c
Äłmay o
Äłprese r
ÄłAf f
Äłfloo d
Äłpreser v
Äłupgrad e
Äłacademi c
Äłguilt y
Äłthreat s
Äł4 9
ÄłMay b
Äłpushe d
ÄłJes u
ÄłNB A
ÄłM I
Äłbring s
Äłattend e
Äłoutp u
Äłunco n
ÄłIt s
Äłshot s
ÄłBarac k
Äłoutpu t
Äłexamin e
Äłzer o
The n
ÄłPhili p
Äłir o
ÄłAve n
Äłfew e
ÄłJew s
Äłexisten c
Äłwith d
Äłelectron i
Äłtotall y
Äłelectroni c
Äłcirc l
Äłwithd r
Äłbran c
Äłiro n
Äłexistenc e
Äłdiscusse d
Äłstor a
Äłprimar i
Äłbranc h
ÄłSwe d
ÄłPre m
Äłsou g
Äłsoug h
ÄłSe v
Äłrisi n
Äłtour i
ÄłOnl y
Äłrisin g
Äłsough t
Äłcomp i
Äłgraduat e
Äłmain s
Äłunlike l
Äłentr y
Con t
Äłreceiv i
Äłreceivi n
Äłenter e
Äłreceivin g
Äłinvestor s
ÄłU t
Äłentere d
Äłgraphi c
Äłboy s
ÄłCe l
Äłstora g
Äłstorag e
Äłaccompli s
Äłunc l
Äłhead l
Äłanalys t
Äłdisapp e
Äłaccomplis h
Äłspe l
Äłdisappe a
Äłdisappea r
Äłopposit e
Äłide o
Äłvisi b
ÄłCo s
ÄłOr i
Äłga n
Äłarticle s
ÄłEri c
Äł200 2
ÄłWal k
Äłdepend e
ÄłLon g
Äłcompi l
ÄłS A
Äłasse m
ÄłBel l
Äłcorre s
Äłcoff e
Äłagen d
Äłcorres p
Äłassem b
Äłcorresp o
Äłcorrespo n
Äłassemb l
Äłscore d
Äłcorrespon d
Äłrough l
Äłroughl y
Äłpos e
Äłjourn e
b out
Äłjourne y
Äłinp u
Äłclasse s
Äłinpu t
Äłmanne r
ÄłD C
Äłarrang e
Äłport i
Äłdedicat e
Äłunlikel y
ÄłMayb e
Äłaff a
ÄłLan d
Äłcorporat i
Äłagend a
ÄłF I
ÄłAri z
Äłknow i
Äłanc i
Äłideo l
Äłknowi n
Äłvic e
Äłbos s
ÄłAno t
Äłknowin g
Äł30 0
Äłdecre a
Äłdecrea s
Äłspec u
Äłlegit i
Äłexplanat i
Äłexplanati o
Äłlegiti m
Äłexplanatio n
Äłideol o
Äłphen o
Äłspecu l
Äłideolo g
ÄłAnot h
Äłnetwork s
ÄłAnoth e
ÄłAnothe r
Äłcha p
Äłtest e
ÄłRe f
ÄłSenat o
Äłriv e
ÄłA F
Äłfair l
Äłexpecta t
Äłrecord i
Äłexpectat i
Äłmea t
Äłfairl y
Äłsk y
Äłspecul a
ÄłY u
ÄłSenato r
Äłemi s
Äłsucce e
Äłcat a
ÄłISI S
Äłselecti o
Äłselectio n
Äłsuccee d
Äłexpectati o
Äłexpectatio n
Äłseque n
ÄłHar v
Äłdisp u
Äłrecordi n
Äłcolleague s
Äłsla v
ÄłHis t
Äłsno w
Äłrecordin g
Äłabs e
Äłdiso r
Äłfunction s
Äłplat e
ÄłM s
s tyle
Äłheavi l
Äłheavil y
ÄłClu b
ÄłYa n
Äłlibrar y
Äłun k
Äłemis s
ÄłGeorg i
Äłhouse h
Äłdeath s
Äłdispu t
Äłtea r
ÄłTo p
Äłhouseh o
Äłhouseho l
Äłhousehol d
re p
ÄłPrinc e
Äław e
Äłapproximat e
Äłpro h
ÄłRight s
Äłanyw h
ÄłO a
ÄłYou T
Äłanywh e
Äłabse n
Äłanywhe r
Äłanywher e
Äłhost i
ÄłYouT u
Äłproh i
ÄłYouTu b
Äłprohi b
Äłsigh t
ÄłYouTub e
Äłshar i
Äłcab l
Äłprohib i
ÄłSe t
Äłprotest s
Äłbottl e
Äłfla s
Äłcurrenc y
Äłpra i
Äłyounge r
Äłliber t
ÄłLov e
Äłexpo r
Äłimportan c
Äłtarget s
Äłprohibi t
Äłexpor t
Äłspecula t
Äłsenat o
Äłmechani s
Äłsenato r
ÄłEne r
Äłexte r
ÄłColor a
Äłbreak i
Äłbreaki n
Äłimportanc e
Äłbrid g
ÄłOlympi c
Äłdestroy e
Äłhol i
Äłdefine d
Äłnot a
ÄłColora d
Äłbreakin g
Äłwalk e
Äłbir d
Äłfrau d
Äłrall y
ÄłHist o
Äłdescri p
Äłbli n
Äłevol u
Äłsubsi d
Äłfas h
Äłpassi o
Äłpassio n
Äłdescrip t
Äłlink s
Äłdynami c
Äłcer e
ÄłF O
Äłlat t
Äłproteste r
Äłpromi n
Äłstore s
Äłbas k
ÄłEa c
Äłmarket i
Äłfash i
Äłreplace d
Äłfashi o
Äłpromin e
Äłfashio n
Äłpromine n
ÄłEac h
Äłdoctor s
Äłtempora r
Äłevolu t
Äłport r
Äłpre g
ÄłDani e
ÄłA R
Äłemp t
ÄłMa j
Äłcance l
Äłevolut i
Äłportr a
Äłspel l
Äłwin t
Äłbuy i
ÄłWat c
Äłbuyi n
Äłevoluti o
Äłevolutio n
Äłmains t
ÄłWatc h
Äłsensi t
Äłbuyin g
Äłconf r
Äłsensit i
Äłelit e
ÄłDanie l
Äłfound a
Äłfounda t
Äłmarketi n
Äłfoundat i
Äłfoundati o
Äłfoundatio n
ÄłSm a
Äłpractic a
Äłcabl e
Äłmarketin g
Äłterm i
Äłfacilit y
ÄłSqu a
Äłaffa i
Äłregulation s
Äłaffai r
Äłdefi c
Äłsomewh a
Äłsomewha t
Äłdefic i
ÄłEner g
ÄłAwa r
Äłconfr o
ÄłHous t
Äłfle e
Äłconfro n
Äłconfron t
Äłdestr u
ÄłHoust o
Äłindustri a
Äłscho l
ÄłMu l
Äłalleged l
Äłallegedl y
ÄłHousto n
ÄłConst i
Äłillus t
Äłillust r
ÄłLiber a
Äłhold s
ÄłColorad o
Äłdes k
ÄłBo y
Äła e
Äłschol a
ÄłTre a
Äłindustria l
Äłasse r
Äłslav e
Äłdestru c
ÄłPrem i
Äłversion s
Äłasser t
ÄłF A
ÄłThr e
ÄłConsti t
Äłdep t
Äłdestruc t
ÄłConstit u
Äłrelevan t
Äłprosecut o
Äłprosecuto r
resi d
Äłcapitali s
ÄłSteph e
Äłsubstanti a
Äłunivers e
Äłmoment s
ÄłStephe n
Äłhardw a
ÄłBlo o
Äłlobb y
Äłemiss i
Äłhardwa r
Äłhardwar e
Äłbio l
Äłcut t
Äładult s
Äłmayo r
Äłfun n
ÄłDr i
Äłswee t
ÄłHisto r
Äłcorporati o
Äłcorporatio n
Äłmain l
Äłfic t
Äłcome d
Äłresi g
Äłfe s
Äłfict i
Äłresig n
ÄłCam e
Äłsee s
Äłsuffer i
Äłsufferi n
Äłanci e
Äłancie n
Äłsufferin g
Äłwint e
Äłnarrati v
Äłwinte r
Äłsancti o
Äłsanctio n
Äłirr e
ÄłLig h
Äłemissi o
Äłemissio n
Äłprovi s
Äł4 1
Äłla d
ÄłValle y
Äłhop i
Äłassociat i
ÄłLigh t
ÄłLat i
Äłvit a
Äłhopi n
ÄłU l
Äłendo r
Äłnarrativ e
ÄłMari n
Äłhopin g
Äłharde r
Äłclose l
Äłclosel y
Äłdeep e
Äłrout i
Äłfewe r
Äłfarm e
Äłrouti n
Äłregulat o
Äłregulato r
Äłsic k
Äłapprov a
Äłdown t
Äłregion a
ÄłWat e
Äłpla i
Äłregiona l
Äłcru c
Äłpersonal i
Äłact s
ÄłSc r
ÄłGame s
Äłapprova l
Äłterri b
Äłas i
re v
Äłancien t
Äłcruc i
Äłexten t
ÄłPl u
Äłterrib l
Äłvolunt e
ÄłWate r
Äłtrain e
Äłvolunte e
Äłvoluntee r
Äłexcellen t
resid e
ÄłHoll y
Äłfunction a
ÄłO F
ÄłCI A
Äłal e
Äłporti o
Äłportio n
Äłschola r
Äłreturn s
Äłfes t
Äłpractica l
ÄłWi k
ÄłNe x
Äłdec o
ÄłOr l
Äłmechanis m
relat e
ÄłU r
Äłcreat u
Äłwak e
Äłdisput e
Äłcreatu r
Äłbiol o
Äłparticipant s
Äłcreatur e
Äłsqua d
Äłbiolo g
ÄłH T
Äłacquir e
Äłiso l
Äłrend e
reside n
ÄłDavi s
ÄłC P
Äłrel y
Äłpe d
Äłsensiti v
inte r
ÄłCo p
Äłcontroversi a
Äłtermi n
Äłcontroversia l
ÄłU b
ÄłManag e
Äłgrow n
Äłprovis i
relate d
ÄłEnt e
Äłisol a
Äłprovisi o
Äłprovisio n
Äłcircl e
Äłunk n
Äłpoll s
Äłhor s
Äłunkn o
Äłcircumstance s
Äłisola t
Äłanyw a
re g
Äłanywa y
Äłbridg e
Äłacti n
ÄłConservati v
Äłunkno w
ÄłConservativ e
Äłresol v
ÄłEx c
Äł4 4
ÄłEco n
ÄłNet w
Äłendor s
Äłservi n
o wing
Äłservin g
Äłatti t
Äłchair m
Äłmou t
Äłdetail e
Äłwin s
Äłattit u
Äłattitu d
ÄłVict o
a rge
Äłpara m
Äłta u
Äłmout h
Äłdetaile d
ÄłTa r
ÄłNetw o
Äłdece n
Äłsee d
ÄłI c
ÄłNetwo r
Äłflas h
ÄłMo v
ÄłStr i
ÄłNetwor k
Äłdestruct i
ÄłFou r
Äłemba r
Äłcapab i
ÄłVicto r
Äłcapabi l
Äłmix e
Äłcapabil i
Äłcapabili t
Äłbask e
ÄłConstitu t
Äłcraz y
ÄłYou n
Äłpublic a
ÄłHun t
ÄłDu t
Äłal g
Äłteach i
Äłteachi n
Äłrelationship s
Äłteachin g
Äłgene t
ÄłConstitut i
Äłattitud e
Äłsto n
Äł5 5
Äłlie s
ÄłWik i
ÄłEast e
Äłcarry i
Äłcarryi n
Äłcarryin g
Äłgenet i
ÄłSpan i
ÄłConstituti o
Äłgeneti c
Äłtir e
ÄłConstitutio n
ÄłGa t
Äłindicat i
Äłkind s
Äłexh i
ÄłIr i
ÄłJesu s
Äłhors e
ÄłEaste r
Äłimmigrant s
Äłcontinu i
ÄłGeorgi a
¬ Ä
ÄłMi a
Äłtin y
Äłlatt e
ÄłNo n
Äłbaske t
Äłfeature d
Äłchi p
Äłsurve i
Äłsurvei l
Äłcons p
Äłreferr e
Äłearne d
Äłra m
ÄłCla s
Äłspeak e
Äłbitc o
Äłclassi f
Äłfru i
Äłplai n
Äłauthor s
Äłup c
ÄłKe r
Äłfrui t
Äłdonat i
ÄłEcon o
Äł6 5
Äłtal l
Äłpush i
Äłactin g
Äłartist s
Äłforme d
Äłpushi n
Äłefficien t
Äłfunctiona l
Äłprai s
m ple
ÄłAriz o
Äładve n
ÄłArizo n
ÄłCri m
Äłbitco i
Äłbitcoi n
ÄłLea d
Äłur b
Äładven t
Äłpushin g
Äłther a
ÄłArizon a
ÄłPut i
Äłembr a
Äłlaw m
Äłcritici z
Äłinstru m
Äłinstrum e
Äłinstrume n
Äłinstrumen t
Äłillustr a
ÄłA L
Äłheadl i
Äłobjecti v
Äłillustra t
Äłshould e
a ut
Äłli q
ÄłEnte r
Äłembra c
Äłshoulde r
ÄłEcono m
Äłcoffe e
Äłste r
Äłliq u
ÄłS C
ÄłPuti n
residen t
Äłshari n
Äłurb a
Äłsharin g
Äłpermi s
Äłthera p
Äłconsp i
Äłurba n
Äłcomfortabl e
ÄłAsia n
Äłreferre d
Äłfrequent l
Äłfrequentl y
ÄłCommo n
Äłstea l
Äłuncl e
L ike
Äłowne d
Äłlawm a
ÄłKe v
Äłevi l
Äłless o
Äłrive r
Äłchairm a
ÄłSup p
Äłpermis s
Äłchairma n
ÄłWil d
Äłupdate d
Äłalong s
Äłvariab l
Äłchr o
ÄłBi r
Äłalongs i
Äłalongsi d
Äłalongsid e
Äłpermiss i
Äłsurveil l
Äłrepeated l
Äłrepeatedl y
ÄłCro s
Äłupc o
ÄłNorth e
ÄłInf o
Äłdescript i
Äłobserv a
Äłattempt e
Äłextensi o
Äłhit t
Äłextensio n
Äłremo t
ÄłRo g
ÄłOr e
Äłplas t
£Ä ¤
Äłspeake r
ÄłAut h
Äłtend e
Äłattempte d
ÄłGl a
Äłlesso n
ÄłCi v
Äłfem i
Äłvariabl e
ÄłWar s
ÄłItal i
Äłun w
Äłparticipat i
ÄłWo l
Äłupco m
Äłfil t
Äłinstruct i
ÄłDiv i
Äłremot e
Äłsettle m
Äłsettlem e
Äłsettleme n
Äłsettlemen t
ÄłOl d
Äłupcom i
Äłupcomi n
Äłupcomin g
ÄłAs h
Äłeg g
ÄłN Y
Äłmet e
ÄłEnerg y
Äłlawma k
Äłimpressi v
Äłimpressiv e
Äłairp o
ÄłNig h
Äłdisast e
Äłfemi n
Äłdisaste r
Äłpea k
Äłfarme r
Äłrealize d
¦ Â
Äł3 9
ÄłLe o
Äłdept h
Äłdedicate d
Äłdic t
Äłti l
Äłlegitim a
ÄłWil s
Äłstruc k
ÄłM S
ÄłCru z
ÄłCrea t
Äłdepende n
Äłfemin i
ÄłAgen c
Äłben c
ÄłDefens e
Äłbenc h
Äłpreg n
Äłrepu t
Äłinspire d
Äłno i
ÄłAll e
Äłboa t
Äłvalu a
ÄłNigh t
Äłpregn a
Äłup p
Äłanti c
Äłpregna n
Äłrende r
Äłmon s
Äłunder w
Äłwalke d
ÄłBas e
ÄłDes p
Äłord i
ÄłMiss i
Äłtarget e
Äłmainst r
ÄłÃĥ Â
Äłmainstr e
ÄłTa n
Äłordi n
ÄłRad i
Äłcert i
ÄłFi s
Äłlawmak e
Äłlawmake r
Äłmainstre a
Äłinterf a
Äłsequen c
Äłtargete d
Äłmainstrea m
Äłairpo r
Äłfas c
ÄłBul l
Äłairpor t
Äłge a
Äłple d
Äłfra c
ÄłCont i
ÄłU F
Äłsala r
d ge
Äłteen a
Äłteena g
Äłdest i
Äłteenag e
g ame
Äłoccasion a
Äłoccasiona l
Äłopponent s
Äłstu n
Äłele v
Äłcaus i
Äłbrowse r
Äłordin a
Äłfasc i
Äłcausi n
Äłrock e
Äłorder s
Äłasset s
Äłcausin g
Äłnews l
Äłgea r
ÄłItali a
Äłnewsl e
Äłnewsle t
Äłnewslet t
Äłnewslett e
Äłnewslette r
rea d
Äłsli d
Äłwra p
Äłcollecti v
ÄłKo n
Äł6 4
ÄłThou g
ÄłThoug h
Äłsurveill a
Äłenhanc e
Äłsurveilla n
Äłreduc t
Äłassociati o
Äłassociatio n
ÄłAga i
ÄłTa y
ÄłAgai n
Äłsurveillan c
Äłsurveillanc e
ÄłBow l
ÄłN E
ÄłChr o
P eople
Äłficti o
Äłwatche d
Äłoverw h
Äłfictio n
Äłoverwh e
Äłasi d
ind e
Äłoverwhe l
Äłoverwhel m
Äłwhi s
ÄłSoci e
Äłasid e
Äłta g
Äłtor t
Äłlatte r
ÄłYoun g
ÄłTi t
Äłprotect e
ÄłVe g
ÄłFu l
ÄłHo p
Äłliteral l
Äłliterall y
Äłobserve d
Äłali e
ÄłLa m
ÄłA S
Äłalie n
ÄłAdmi n
Äłston e
Äłprotecte d
Äłevol v
Äłreduct i
ÄłAwar d
Äłven t
Äłmus c
Äłunus u
Äłteacher s
Äłunusu a
Äłunusua l
Äłpublica t
ÄłCiv i
Äłbatter y
Äłassistan t
Äłfu c
Äłprecis e
Äłprogressi v
Äłpublicat i
Äłsubstantia l
Äłpublicati o
§ Ä
Äłpublicatio n
Äł4 3
Äłdeep l
Äłimpe r
Äłsend i
ÄłDo m
Äłdeepl y
Äłtow e
Äłsendi n
ÄłLati n
ÄłSev e
Äłsendin g
Äłnegotiati o
Äłnegotiatio n
Äłhorr i
ÄłTes t
Äłsha m
Äłpheno m
Äłcongre s
Äłk a
Äłdep u
Äłcerti f
Äłcongres s
Äłfolk s
Äłvo c
ÄłPi t
ÄłTak e
Äłpun c
Äłcha s
ÄłConti n
Äłimpos e
Äłdro n
Äłpropert i
ÄłCas t
Äłnotice d
Äłproperti e
Äłexcit i
Äłlock e
Äłexciti n
ÄłCar r
Äłexcitin g
ÄłNot e
Äłtrans m
Äłfixe d
Äłfort h
Äładvertis e
Äłextend e
Äłsuff i
Äłali v
ÄłInv e
Äłend i
Äłune m
Äłaliv e
ÄłJ r
Äłexpens e
£Ä ¤
Äłpropertie s
Äłnorthe r
ÄłSocie t
ÄłPoli t
Äłgan g
Äłpossessi o
Äłpossessio n
Äłrisk s
Äłmind s
Äłbarr i
ÄłC S
Äłconsci o
Äłrequirement s
Äłconscio u
ÄłÃ İ
ÄłTa m
Äłconsciou s
Äłab r
Äłneu t
Äłsha k
Äłmemor i
Äłnarr o
Äłrefugee s
Äłdepu t
Äłnarro w
ÄłSprin g
ÄłBu c
Äłresc u
ÄłStan d
ÄłTra d
Äłmar c
Äłinterfa c
Äłta i
ÄłCal l
Äłexhi b
ÄłI T
Äłfa u
Äłreducti o
Äłdisor d
Äłnu r
Äłpled g
Äłfuc k
Äłexhib i
Ã ĻÄ
Äłdisord e
Äłdisorde r
ÄłMille r
Äłder i
Äł197 0
Äłunem p
i lle
Äłunknow n
Äłexhibi t
ÄłAc a
Äłam i
ÄłDet r
ÄłThr o
ÄłQ a
ÄłJor d
ÄłMa x
Äłfa k
Äłteste d
Äłeat i
Äłsol e
Äłeati n
Äłpromise d
Äłunemp l
Äłunempl o
Äłunemplo y
Äłfores t
ÄłIri s
Äłunfo r
ÄłKenn e
Äłeatin g
Äłinvolv i
Äłinvolvi n
Äłinvolvin g
Äłover c
Äłreductio n
Äłattacke d
Äłdron e
Äłobjectiv e
ÄłEd w
ÄłFa t
Äłmechani c
Äłphenom e
Äłnorther n
Äłpro o
Äłang r
Äłphenome n
Äłlocation s
Äłdestroye d
Äłinteracti o
Äłinteractio n
ÄłChil d
ÄłSome t
Äłproper l
Äłproperl y
ÄłRev i
Äłmon o
Äłextende d
Äłproo f
ÄłO S
Äłequi v
ÄłRoy a
Äłsta k
ÄłE p
ÄłMoo r
Äłput s
ÄłHi t
ÄłFri e
ÄłBes t
Äłprogressiv e
Äłsudden l
Äł15 0
Äłsuddenl y
Äłmodif i
ÄłKev i
Äłendi n
ÄłWom e
Äłapproximate l
Äłapproximatel y
Äłtap e
Äłmatche s
Ã ĲÂ
Äłendin g
ÄłKevi n
ÄłWome n
Äłterritor y
ÄłHarri s
ÄłPo i
Äłpo v
Äłinh e
Äłmaxim u
ÄłRoya l
Äłinhe r
Äłdr y
Äłent h
Äłrelia b
Äłprotester s
Äłraci a
Äłracia l
Äłslow l
Äłpat e
in f
ÄłVi l
Äłen r
Äłslowl y
Äłinterfac e
Äłhyp e
Äłmere l
Äłheadli n
Äłmerel y
Äłbun c
Äłterroris m
Äłinsu l
Äłbunc h
Äłmaximu m
ÄłFor m
ÄłWils o
ÄłWilso n
Äłhom o
Äłdesti n
Äłselect e
Äłroutin e
Äłattribut e
Äłmarc h
Äłreput a
ÄłHi n
Äłrequest s
Äłdiag n
Äłselecte d
ÄłK y
ÄłG h
ÄłSn o
Äłdiagn o
ÄłSum m
Äłdiagno s
Äł5 1
Äłdistribut e
ÄłHen r
Äłver i
Äłupp e
Äłconfig u
Äłconfigu r
ÄłBo l
ÄłStat i
Äłobli g
Äłhar a
Äłfall i
Äłnota b
Äłviewe r
Äłoc e
Äłdanc e
ÄłDetr o
Äłempt y
Äłpov e
Äłimm u
Äłdisa g
Äłresistan c
Äłresistanc e
ÄłDetro i
ÄłDetroi t
Äłdescripti o
Äłdescriptio n
Äłmoder a
Äłdecreas e
Äłworrie d
n ame
Äłunf a
Äłmodera t
Äłappreciat e
Äłstab i
ÄłGree k
Äłstabi l
Äł _
Äłfest i
ÄłAlex a
ÄłHo t
ÄłMas t
ÄłCame r
Äłbi a
Äłdecen t
Äłfesti v
ÄłHolly w
Äłtra p
ÄłFor d
Äłpove r
con d
Äłeliminat e
Äłmons t
ÄłC D
ÄłMai n
Äłru b
ÄłTel e
ÄłAgenc y
Äłcomplicat e
Äłdeal s
Äłsupport s
ÄłHollyw o
ÄłHollywo o
ÄłItalia n
ÄłClas s
Äłpac e
ÄłHollywoo d
Äłpover t
Äłunderst o
Äłholi d
Äłholid a
Äłstabil i
Äłreg r
Äłpovert y
Äłholida y
Äłlike s
Äłnotab l
Äłoce a
Äłcollectiv e
Äłocea n
Äłun b
ÄłAdmin i
ÄłJer s
ÄłAdmini s
Äłnomin e
ÄłAdminis t
Äłstri c
ÄłSu c
Äłstak e
Äłfacilit i
Äłnomine e
Äłallie s
Äłfaciliti e
Äłfacilitie s
Äłcruci a
Äłcop i
Äłdivers i
ÄłEn d
Äłmedic i
Äłdisag r
Äłdisagr e
ÄłJers e
Äłdisagre e
ÄłSociet y
ÄłJerse y
Äłargument s
ÄłAtt o
Äłsub t
Äłundersto o
ÄłEt h
Äłunderstoo d
ÄłOr g
Äłano n
Äłsouthe r
Äłmedici n
Äłros t
Äłtransm i
Äłprominen t
Äłelectric i
Äłcontrolle d
Äłinc h
Äłfee s
ÄłCon v
Äłresolv e
Äłplu g
ÄłNic k
Äłsome h
Äłinsi g
ÄłTur n
ve s
ÄłVi d
Äłsomeh o
ÄłJa s
Äłendors e
Äłsomeho w
Äłwarr a
ÄłNat u
Äłwarra n
Äłwarran t
ÄłAtto r
ÄłA h
ÄłAdminist r
ÄłEd u
ÄłAdministr a
ÄłAttor n
ÄłAttorn e
ÄłAttorne y
ÄłBri a
Äłneut r
ÄłItal y
ÄłVi n
Äłeth i
ÄłProf e
ÄłCompan y
Äłinstan t
Äłcritic s
ÄłMark e
Äłequiv a
Äłequiva l
Äłsmil e
Äłjournalist s
Äłinstall e
Äłvoc a
Äłregion s
Äłkn i
ÄłAdministra t
Äłequival e
Äłcommunication s
Äłsti m
Äłwithdr a
Äłwithdra w
Äłequivale n
Äłun n
Äłpromoti o
ÄłAca d
Äłpromotio n
Äłobtain e
ÄłProfe s
Äłethi c
Äłobtaine d
ÄłGal l
Äłlimit s
Äłpersonal l
Äłpersonall y
Äłcutt i
Äłsou l
Äłcutti n
ÄłWe a
ÄłPolit i
Äłpitch e
Äłcuttin g
Äłexpose d
Äłner v
ÄłProfes s
Äłdisc i
Äłsurge r
ÄłSpani s
inc l
ÄłSpanis h
Äłdisci p
ħ Â
Äłdiscip l
Äłemploye r
w hile
Äłfalli n
Äłno s
ÄłMan c
Äłaudi o
Äłsouther n
Äłthrea d
Äłfallin g
Äłstrong l
Äłnoi s
Äłsomewh e
l ling
Äłstrongl y
ÄłD A
Äłdemonstrat i
ÄłGa z
ÄłSl a
Äłsomewhe r
Äłsomewher e
ÄłLe s
Äłfla v
Äłpo e
Äłtemp l
Äłconde m
Äłfak e
Äłvac c
ÄłAuth o
ÄłDesp i
ÄłNAS A
ÄłAutho r
Äłcondem n
Äłve s
Äłcrucia l
Äłhara s
Äłsw o
Äłtouri s
Äłharas s
Äłdraw i
Äłheadlin e
Äłcertif i
Äłsuffi c
Äłdrawi n
Äłcoal i
Äłkne e
Äłdrawin g
Äłediti o
Äłri f
Äłvacc i
Äłeditio n
Äłvacci n
Äławe s
Äłimplement a
Äłrestricti o
Äłchi c
Äłrestrictio n
Äłrescu e
ÄłSar a
ÄłTou r
ÄłD y
Äłplast i
Äłint i
Äłconspi r
Äłrost e
Äłroste r
Äłesta t
ÄłR A
ÄłNatu r
ÄłRan d
ÄłLe n
Äłmeeting s
Äłcoali t
Äłcoalit i
Äłfle x
ÄłKn o
Äłcoaliti o
Äłcoalitio n
ÄłMia m
Äłsuspen d
ÄłMiam i
Äłhy d
Äłbarr e
Äłanon y
Äłtra g
ÄłLabo r
Äłanony m
Äłemission s
Äłinf i
Äłballo t
Äłstim u
Äłstimu l
Äłinstructi o
Äłinstructio n
Äłimplementa t
ÄłKn i
ÄłCo d
Äłestat e
Äłimplementat i
Äłast r
Äłimplementati o
Äłimplementatio n
ÄłMak e
Äłplasti c
Äłcompr o
Äłhyd r
ÄłArt i
Äłdirect e
Äłdesp e
ÄłJul i
Äłhit s
Äłcru s
Äłflav o
Äłcompro m
Äłsmart p
Äłtree s
Äłsna p
ÄłCar t
Äłclassif i
Äłsmartp h
Äłsmartph o
Äłsmartpho n
Äłsmartphon e
Äłcooperat i
Äłdespe r
Äłhope f
Äłhopef u
Äłhopefu l
ÄłDespi t
ÄłDespit e
Äłbia s
ÄłS P
ÄłJord a
ÄłNH L
Äłcomprom i
Äłgood s
Äłcompromi s
Äławes o
Äławeso m
Äłan x
Äłstronge r
Äłba i
Äłdesper a
Äłanx i
Äławesom e
Äłgott e
Äłgotte n
Äłlou d
ÄłIris h
ÄłBria n
ÄłDe r
ÄłAnd e
Äłpurpose s
Äłqualif i
Äłdirecte d
ÄłRa y
Äłleg e
Äłdespera t
Äłhun g
Äłin q
Äłdele g
mon t
Äłinq u
Äłintell e
Äłwei r
Äłreasonabl e
Äłclaim i
Äłchari t
Äłclaimi n
Äłclaimin g
Äłarti f
ÄłKi l
ÄłDal l
Äłdonati o
Äłdonatio n
ÄłJorda n
Äłintelle c
ÄłCha i
Äłintellec t
ÄłDar k
Äłfind s
ÄłNation s
Äłpermissi o
Äłpermissio n
ÄłVie w
Äłsigna t
Äłuppe r
Äłprais e
Äłcla r
Äłchose n
ÄłNa z
Äłfift h
Äłofficial l
Äłofficiall y
Äłintens i
Äłdisr u
Äłdisru p
ÄłAll i
Äłdisrup t
ÄłGi v
Äłproducti v
ÄłAme n
Äłwin e
Äłelectrici t
Äłelectricit y
Äłdrive n
Äłextensi v
ÄłJa y
Äłextensiv e
ÄłRo l
Äłamount s
Äłpat c
Äłfol d
Äłinvestigat o
Äłinvestigato r
Äłlege n
Äłpatc h
ÄłKe e
ÄłSa v
Äłtie s
Äłlegen d
Äłenth u
Äłrule d
ÄłDN A
Äłdraw n
Äłenthu s
Äłsubscrib e
Äłweir d
Äłvisib l
Äładvent u
ÄłSouthe r
Äłinfla t
Äładventu r
Äłcha t
Äłinter r
Äłdog s
Äłpayment s
Äłsequenc e
Äłthreaten e
s ome
Äłatmospher e
Äłthreatene d
Äłretai n
Äłha m
Äłpo d
Äłpara l
incl u
Äłreject e
Äłpara d
Äłsome b
Äłsomeb o
Äłsomebo d
Äłrejecte d
Äłperfect l
Äłperfectl y
Äłaspect s
ÄłSti l
Äłcapture d
ÄłGre g
Äłsomebod y
Äłanswer s
ÄłDat a
3 00
Äłor a
Äłpledg e
Äłbru t
Äłstep p
Äłstric t
Äłreceive r
Äłinti m
Äłprimari l
ÄłV I
Äłchoice s
Äłprimaril y
Äłconstant l
Äłconstantl y
Äłmanufacture r
ÄłFi e
Äłtradi n
Äłtradin g
Äłpark i
C he
ÄłFl i
Äłfighter s
ÄłLibera l
Äłparki n
Äłfield s
Äłseat s
Äłaccept a
ÄłSouther n
ÄłEv a
Äłdiploma t
Äłinform e
Äł5 2
ÄłHe i
Äłrais i
Äłraisi n
Äłpsycholog i
Äłhouse s
Äłexpos u
Äłexposu r
Äłexposur e
Äłfly i
Äłreputa t
ÄłService s
Äłflyi n
Äłreputat i
Äłreputati o
Äłany m
Äłden y
Äłreputatio n
ÄłPac i
Äłparkin g
Äłanym o
Äłanymo r
Äłanymor e
Äłtermin a
Äłunc e
Äłnob o
ÄłPro p
Äłestimate s
Äłnobo d
ÄłAnt h
Äłflyin g
ÄłDr u
Äłtechnologi e
Äłdemocra t
Äłclar i
Äłnoti o
Äłnotio n
Äłsolution s
Äłtechnologie s
ÄłOrg a
ÄłDis n
ÄłGuard i
ÄłSeri e
ÄłDisn e
ÄłDisne y
Äłhi p
Äłsmo o
Äłla i
Äłelse w
Äłpursu e
Äłextra c
Äłelsew h
Äłelsewh e
Äłresult i
Äłcourt s
Äłregular l
Äłregularl y
Äłelsewhe r
Äłelsewher e
Äłemploy m
Äłemploym e
Äłemployme n
Äłemploymen t
Äłresulti n
Äłbla s
Äłresultin g
Äłaccess i
Con s
ÄłMoor e
Äłsto l
ÄłWhe r
Äłdis h
ÄłKe y
ÄłLe w
ve d
ÄłPar l
Äłprote i
Äłbase b
Äłprotei n
Äłnobod y
ren c
ÄłPremi e
ÄłPremie r
ÄłWher e
ÄłMot o
Äłchap t
Äłexist s
ÄłPlay e
Äłchapt e
Äłchapte r
Äładopt e
ÄłFam i
ÄłE P
Äłapolog i
Äłexi t
ÄłPi e
ÄłAcad e
ÄłEdw a
ÄłAcade m
Äłrevi s
ÄłÃ ĳ
Äłbaseb a
Äłkeep s
Äłwitness e
ÄłEdwa r
Äłcontrol s
ÄłMay o
ÄłDi g
ÄłIndian a
ÄłEdwar d
ÄłScot l
ÄłOrga n
ÄłScotl a
ÄłScotla n
ÄłScotlan d
ÄłÃĳ Ä
Äł(Ã ¢
Äłlan e
Äłcomponent s
Äłgen u
Äł4 7
ÄłCros s
ÄłPar a
Äłinterven t
Äł(Ã¢ Ä
Äłmixe d
ÄłLa d
Äłimplic a
ÄłKi r
Äłletter s
Äłcontribute d
Äłintervent i
ÄłKell y
Äłcompe n
Äłworld w
Äł4 6
Äłsmoo t
Äłworldw i
Äłinterventi o
Äłinterventio n
Äłworldwi d
Äłworldwid e
Äłsmoot h
Äłcann a
ÄłInst a
Äłexecut e
Äłincredibl e
Äłsituation s
Äłdefen c
ÄłGet t
Äłstu c
Äłimplica t
ÄłGi r
Äłstol e
Äłequivalen t
Äłdefenc e
Äłdeleg a
ÄłEm a
ÄłTra i
Äłconclude d
ÄłVeg a
Äłbaseba l
Äłbasebal l
Äłam p
ÄłDall a
Äłgam i
Äłnew l
ÄłRe t
ÄłClar k
Äłenem i
ÄłSil v
Äłton e
Äłcy b
ÄłSteve n
ÄłChan g
Äłcanna b
Äłdesigne r
Äłpersonali t
ÄłPoliti c
Äłclient s
Äłenemi e
p ing
Äłenemie s
Äłdelega t
Äłince n
Äłveri f
Äłbat h
ÄłMet r
ÄłChampions h
ÄłChampionsh i
ÄłRe u
ÄłChampionshi p
Äłbill s
Äłinfect i
ÄłMe s
Äłfilt e
Äłfilte r
ÄłExp e
Äłcannab i
Äłambi t
Äłcontinui n
Äłcontinuin g
Äłregister e
Äłregistere d
ÄłSto n
Äłdo s
Äłimmu n
Äłwonder f
Äłincredibl y
Äłrot a
Äłenthus i
Äłdemand s
Äłwonderf u
Äłinforme d
Äłwonderfu l
Äłfeed b
Äłfeedb a
Äłfeedba c
Äłfeedbac k
Äłregr e
Äłdrink i
Äłdrinki n
Äł %
Äłathlet e
Äłtie d
ÄłJose p
Äłsyn t
Äłcommand e
ÄłMinne s
Äłrum o
Äłcoun s
ÄłA D
Äłenthusi a
ÄłCivi l
Äłvir u
Äłale r
ÄłMinnes o
Äłcouns e
ÄłMinneso t
Äłcounse l
Äłsat e
ÄłMinnesot a
Äłenthusia s
Äłterribl e
Äłdrinkin g
Äłaler t
Äłvisit o
Äłestablish m
Äłestablishm e
Äłestablishme n
Äłestablishmen t
Äłvisito r
Äłangr y
ÄłSpa i
Äłprove d
Äłcategor y
Äłoperat o
ÄłContr o
Äłstuc k
Äłstea d
Äłoperato r
Äłscan d
ÄłAmen d
ÄłPro d
Äł19 0
ÄłGal a
Äłobserva t
ÄłRob i
f un
Äłinsp e
£Ä £Ä
Äłshort l
ÄłTe m
ÄłLin u
Äłship p
ÄłJud g
ÄłManc h
Äłinspe c
Äłmachine s
ÄłMus i
Äłgrant e
Äłconsum p
Äłconsump t
Äłconsumpt i
ÄłAss e
Äłscand a
Äłinspec t
Äłdefende r
Äłscanda l
ÄłSpai n
ÄłConv e
Äłaf r
Äłgrad e
Äłraisin g
Äłreturn i
Äłreturni n
Äłambit i
i ven
Äłreturnin g
Äłinno c
Äłdepress i
Äłcro p
Äłambiti o
Äłrepresent e
Äłnewl y
Äłwriter s
Äłgami n
Äłnominat i
Äłhome l
Äłrepresente d
Äłexce s
." [
ÄłJosep h
Äłmani p
Äłcelebrat i
Äłrevers e
Äłmy t
ÄłPhil a
Äłvalua b
Äłconsumpti o
Äłconsumptio n
Äłvaluab l
Äłrecover y
ÄłL E
Äłvaluabl e
Äłexces s
ÄłThank s
Äłgamin g
ÄłProgr a
ÄłDalla s
Äłmanip u
Äłswi n
Äłmanipu l
ÄłProgra m
Äłtort u
Äłcompen s
Äłunce r
Äłpo c
Äłper p
Äłcompens a
Äłmanipul a
ÄłNa s
Äłche s
Äłmyt h
Äłchic k
ÄłCar e
o king
ÄłAnde r
Äłal a
Äłsli p
Äłpenalt y
Äłorganis a
Äłprogramm i
Äłcompensa t
Äłprogrammi n
Äłorganisa t
Äłsubsid i
ÄłStil l
Äłprogrammin g
ÄłOa k
ÄłAP I
Äłorganize d
ÄłMos c
Äłorganisat i
cont r
ÄłI C
Äłorganisati o
Äłorganisatio n
f ile
ÄłEconom i
rec t
Äłdoor s
ÄłMast e
ÄłWa n
Äłmanipula t
Äłtrans g
Äłassu r
ÄłEdu c
Äłpee r
Äłmusc l
Äłsate l
Äłloo p
ÄłSw a
Äłcomplicate d
Äłph r
Äłshi t
Äłtransp a
Äłsatel l
Äłsatell i
Äłgrante d
Äłsatelli t
Äłar i
Äłsatellit e
Äł( $
Äłchance s
ÄłMer c
Äłassistan c
Äłpatr o
Äłassistanc e
Äłus a
Äłblin d
Äłtranspa r
ÄłFal l
Äłconsol e
B ecause
Ã ĥÄ
Äłembrac e
inclu d
ÄłEduc a
M on
c ation
ÄłPaci f
Äło k
Äłcount y
Äłsymp t
ÄłPacif i
Äłsympt o
Äłsympto m
Äłtranspar e
Äłtranspare n
ÄłParl i
Äłgl i
ÄłMaste r
ÄłNe i
ÄłMea n
Äłprison e
Äłfore c
ÄłLo w
Äłprisone r
Äłmuscl e
Äłshare s
Äłrepa i
Äłsuccessful l
ÄłZe a
ÄłDra g
Äłca v
ÄłEduca t
ÄłOpe r
Äłsuccessfull y
Äłtri l
Äłbon e
Äłwest e
Äłcorrupt i
ÄłCoa s
Äłweste r
Äłframe w
ÄłParli a
ÄłPatri c
Äłframew o
ÄłParlia m
Äłframewo r
Äłframewor k
ÄłTay l
ÄłParliam e
ÄłParliame n
ÄłParliamen t
ÄłSha n
ÄłTo t
re f
ÄłBal t
Äłcriticiz e
Äłtechnique s
Äłsocial i
ÄłBea c
Äłcollaborat i
Äłlawmaker s
Äłearn i
Äłearni n
Äłj i
Äłdominat e
Äłearnin g
Äłgal l
Äłexpl i
Äłtortu r
ÄłAn i
ÄłOper a
Äłange r
Äładdi c
Äłantic i
ÄłSpeci a
Äłastr o
Äłautomatic a
Äładdic t
Äłshel l
ÄłLG B
ÄłZea l
Äłdegree s
Äłautomatica l
Äłsug a
Äłantici p
Äłautomatical l
Äłscene s
Äłautomaticall y
ÄłMosc o
ÄłSpecia l
Äłderi v
Äłanticip a
Äłinqu i
Äłsuga r
Äłviolat e
ÄłPacifi c
Äłaim e
Äłanticipa t
ÄłAlexa n
ÄłMarke t
Äłphr a
Äłpriv i
ÄłMa h
ÄłOrgan i
Äłeth n
ÄłCur r
ÄłAlexan d
ÄłTayl o
Äłexpli c
Äłphra s
Äłmodul e
Äłcompil e
ÄłCoas t
Äłrocke t
Äłengage d
Äłpro n
Äłprop a
Äłextrac t
ÄłRan g
Äłblock s
ÄłTaylo r
Äłpu m
ÄłMc D
ÄłBus i
ÄłRu n
Äłpres c
Äład s
Äłaime d
Äłkil o
ÄłH I
Äłtau g
Äłtaug h
Äłtaugh t
Äłinfecti o
ÄłSa f
ÄłEs t
Äłinstalle d
ÄłPlaye r
Äłtitle s
Äłnational i
ÄłTechn o
Äłhapp i
Äł199 9
Äłpredict i
Äłpoc k
ÄłAven u
Äłdefici t
ÄłAvenu e
Äłentr e
ÄłIo w
Äłsuffic i
Äłattende d
Äłreb u
ÄłIow a
ÄłArabi a
ÄłFore i
Äłsuffici e
Äłsufficie n
Äłcyb e
Äłwester n
ÄłContin u
Äłnoti f
ÄłForei g
ÄłSton e
ÄłForeig n
ÄłAdd i
Äłmarke d
Äłcybe r
Äłmai l
ÄłNB C
ÄłAnt o
Äłuncer t
Äłsta c
Äłunpr e
Äłaccomp a
Äłprocess i
ÄłMi r
Äłmilita n
Äłprivi l
Äłvulnerab l
Äłinde x
ÄłContro l
Äłvulnerabl e
Äłhid d
ÄłMusi c
£Ä £Ä
Äłla m
Äłaccompa n
Äłhidd e
Äłhidde n
ÄłBusi n
ÄłB A
Äłhi l
Äłuncert a
Äłuncerta i
Äłuncertai n
ÄłGi a
Äłor b
Äłprivil e
Äłdin n
ÄłVil l
Äłlawyer s
Äłwarm i
ÄłDis c
Äłdev a
ÄłBusin e
ÄłLinu x
ÄłLoo k
ina t
ÄłBusine s
Äłperson n
ÄłBusines s
Äłdepend i
Äłref r
ÄłLGB T
Äłmen u
Äłspar k
Äłprivile g
Äłarra y
Äłdependi n
ÄłAssociat e
Äłdependin g
Äłvisit e
ÄłHar d
ÄłDea d
Äłoutl i
Äłdinn e
ÄłRic k
Äłdownt o
Äłregard l
Äłdinne r
Äłregardl e
Äłsusp i
Äłregardle s
Äłregardles s
Äłsignat u
Äłcollect e
Äłratio n
Äłtrack s
Äłsignatu r
Äłsuspi c
Äłsignatur e
Äłrecip e
Äłdemocrat i
ÄłRobi n
Äłcollecte d
Äłsuspic i
ÄłAmend m
ÄłAmendm e
ÄłAmendme n
ÄłAmendmen t
Äłchampions h
Äłchampionsh i
Äłchampionshi p
Äłafr a
Äłpate n
ÄłCi n
Äłpasse s
Äłsuspici o
ÄłEar l
ÄłBri d
Äłpersonn e
ÄłMarin e
Äłdownto w
Äłdowntow n
Äłafra i
Äłafrai d
ÄłTon y
ÄłAlb e
Äłvisite d
ÄłAnder s
ÄłCi r
Äłdis g
ÄłAdministrat i
Äłwarmi n
Äłsm e
Äłpaten t
Äłwarmin g
Äłpoi s
ÄłÃİ Â
Äłsufficien t
Äłagr i
Äłrai d
ÄłShar e
Äłpock e
Äłrota t
Äłsurger y
Äłcli p
Äłshad o
ÄłUn l
Äłshado w
Äłinnovati o
Äłinnovatio n
ÄłFami l
Äłcategor i
Äłhid e
Äłenjoy e
Äłtai l
Äłmea l
Äłbus y
Äłenjoye d
Äłcompre h
Äłcompreh e
Äłcomprehe n
r ation
Äły i
ÄłChe c
ÄłMosco w
Äłcompromis e
Äłpret e
Äłsl u
l ion
Äłprinciple s
Äłpocke t
g ing
Äłcry p
Äłstac k
Äłconstitution a
Äłconstitutiona l
Äłimprov i
Äłintellect u
Äłthi c
Äłphone s
ÄłOre g
Äłthic k
Äłbon u
Äłmedicin e
ÄłZeal a
ÄłZeala n
ÄłZealan d
Äłprivileg e
Äłgenerate d
Äłprocesse s
Äłpartners h
Äłpartnersh i
Äłpartnershi p
Äłcryp t
ÄłSerie s
Äłsens o
ÄłÃ¢Ä¢Ä »
Äłintellectu a
Äłintellectua l
Äłbonu s
ÄłInve s
Äłpersonne l
Äłhard l
Äłcoach e
Äłpres u
Äłintens e
Äłtwe n
Äłstrategi c
Äłquant i
den t
ÄłProd u
Äłnegotiation s
Äłtwen t
ÄłKa s
Äłoutl e
Äłdomina n
ÄłSai n
Äłcook i
mont h
ÄłJos h
ÄłMetr o
Äłsenso r
Äłmainl y
ÄłSu s
Äłdut y
Äłoutle t
ÄłIran i
ÄłInves t
ÄłOreg o
ÄłOrego n
ÄłVie t
ÄłN C
Äłtens i
Äłcharacteri s
ÄłBran d
ÄłEaster n
Äłresult e
ÄłGiv e
Äłresulte d
Äłentit l
Äłnois e
ÄłBi b
h on
Äłfunn y
ÄłEducat i
Äłat o
ÄłBalt i
Äłelect o
Äłpound s
Äłinter i
Äłpet i
ÄłBe f
Äłfemini s
Äłelecto r
ÄłMc G
ÄłBatt l
ÄłNorthe r
ÄłGu l
Äłemerge d
Äłbea c
ÄłProdu c
Äłmonst e
Äłdescribe s
Äłmonste r
Äłevery w
Äłentitl e
Äłdiscriminat i
Äłcorrupti o
Äłcorruptio n
Äłengineer i
Äłengineeri n
Äłengineerin g
Äłpattern s
ÄłKur d
ÄłGlob a
ÄłFl y
Äładopte d
Äłeveryw h
Äłeverywh e
Äłmedi u
Äłconsult a
Äłsuggesti o
Äłeverywhe r
ÄłEducati o
Äłeverywher e
Äłsuggestio n
ÄłEducatio n
Äłviru s
Äłfou g
ÄłNorther n
ÄłMaj o
Äłcas u
Äłexplic i
ÄłGloba l
Äłexplici t
Äłfoug h
Äłfough t
Äłhad n
ÄłKen t
Äłfriend l
Äł40 0
Äłpeti t
Äłtax p
Äłtaxp a
Äłdiscipl i
Äłtaxpa y
ÄłSea s
ÄłWis c
Äłdiscipli n
Äładventur e
ÄłI R
Äłmediu m
Äłfeeling s
ÄłEx e
ÄłPu r
Äłfor u
Äłtheor i
ÄłMajo r
ÄłAs t
ÄłBef o
ÄłGuardi a
Äłsix t
ÄłBefo r
ÄłDevelop m
n ding
ÄłDevelopm e
ÄłDevelopme n
Äłforu m
ÄłDevelopmen t
ÄłBattl e
ÄłOt t
Äłfestiv a
Äłpropa g
Äłflo a
Äłfestiva l
ÄłBefor e
us l
ÄłFoo d
ÄłMass a
Äłfloa t
Äłsho e
ÄłPa y
Äłphras e
Äłcopi e
Äłsanction s
Äłpoll u
Äłperce i
Äłeno r
Äłpercei v
Äłcite d
Äłstation s
Äłpollu t
Äłenor m
Äłcontract s
Äłcomment a
Äłobservat i
Äłobservati o
Äłobservatio n
Äłrare l
Äłrarel y
Äłros e
Äłpropag a
Äłexter n
ÄłBal l
ÄłTechno l
Äłcasu a
Äłtaxpay e
ÄłPolic y
Äłtaxpaye r
4 00
Äłtun e
Äłminorit y
Äłanaly z
Äłgat e
Äłcasua l
Äłrecommend a
ÄłFina n
ÄłAlbe r
ÄłFoo t
Äłine v
Äłroad s
Äłexpectation s
Äłco w
Äłinev i
Äłsta l
Äłinevi t
Äłinevit a
Äłcamera s
Äłinevita b
Äłshortl y
ÄłWisc o
Äłrecommenda t
Äłdetect i
Äłrecommendat i
Äłrecommendati o
Äłrecommendatio n
Äłtensi o
Äłtensio n
ÄłWisco n
ÄłCro w
Äłlight s
ÄłWiscon s
ÄłIrani a
ÄłTechnol o
ÄłIrania n
ÄłTechnolo g
ÄłWiscons i
Äłstab l
ÄłWisconsi n
Äłrepr o
Äłalg o
Äłpunc h
ÄłIntel l
ÄłVid e
ÄłAut o
Äłvac a
Äłrece p
Äłbull e
Äłinsist e
Äłflex i
Äłoffs e
Äłracis t
ÄłPhila d
Äłfirm s
Äłmode s
a ting
ÄłPhilad e
Äłrecep t
ÄłRa p
Äłhack e
Äłshop p
Äłscr u
Äłmilitan t
ÄłÃ¢Ä ª
Äłsubstan c
ÄłNav y
Äłbulle t
ÄłPhilade l
Äło x
Äłclo c
ÄłPhiladel p
Äłsubstanc e
ÄłPhiladelp h
Äłconspir a
ÄłÃĥ Ä
Äłdesperat e
Äłvisibl e
ÄłAla b
ÄłAb b
ÄłS S
ÄłPhiladelph i
Äłdetai n
Äłing r
ÄłPhiladelphi a
Äłpremi e
ÄłPac k
ÄłR h
Äłdict a
Äłpremie r
Äłsuper i
Äładvertis i
Äładvertisi n
Äładvertisin g
Äłfrustrat i
Äłdom a
ÄłBa k
Äłcloc k
Äłdri l
Äłinnoc e
Äłacce l
Äłinnoce n
ÄłFinan c
Äłinsig h
Äłinsigh t
Äłrea r
ÄłGar d
Äłcere m
Äłassess m
Äłpro l
Äłassessm e
Äłassessme n
Äłpriorit y
Äłassessmen t
Äłcerem o
Äłmis c
Äłceremo n
ħ Ä
ÄłSant a
Äłups e
Äłinqui r
ÄłRog e
ÄłGuardia n
ÄłHea r
ÄłPoi n
ÄłAlab a
Äłaccel e
Äłstabl e
Äłaccele r
ÄłRang e
ÄłAm o
Äłwide s
Äłnominati o
Äłnominatio n
Äłbrut a
reat e
Äłmu n
ÄłMag i
Äłbruta l
o ke
ÄłBu i
ÄłSi r
Äłoffen d
Äło m
Äłloss e
Äłparam e
Äłlosse s
l lion
Äłdril l
de l
Äłri p
ÄłHea d
Äłdicta t
ÄłHenr y
Äłaffi l
Äłgain e
ÄłP O
Äłdoma i
ÄłCe r
Äłdomai n
Äłactiv a
Äłaffil i
Äłaffili a
Äłshee t
Äłaffilia t
Äłsor r
Äłconsidera t
Äłconfus i
Äłextern a
oun de
ÄłTa i
ÄłNaz i
Äłactiva t
Äłveg e
Äłexterna l
Äłcreate s
Äłstrike s
Äłlai d
Äłsta d
Äłtranslat e
Äłupse t
Äłbehavio u
Äłdozen s
Äłcolo u
Äłbehaviou r
Äłcolou r
Äłutili t
ÄłFai r
Äłform u
Äłcomputer s
Äłarchitect u
Äłvege t
Äłtortur e
Äłobs t
ÄłLat e
Äłarchitectu r
Äłformu l
Äłveget a
ÄłBe e
Äłgenu i
p tion
Äłgen t
Äłunco m
Äłbeha l
Äłgenui n
Äłclub s
Äłscor i
ÄłES P
ÄłVide o
ÄłMo h
Äłalgo r
Äłfounde d
Äłgenuin e
ÄłLau r
Äłrestor e
Äłscori n
ÄłJudg e
ÄłHav e
Äłbehal f
Äłscorin g
ÄłAlaba m
Äłyi e
Äł0 0
Äłyie l
Äłalgor i
Äłyiel d
Äłformul a
Äłalgori t
ÄłAlber t
Äłagri c
Äłne o
Äłstad i
Äłback s
Äłtol e
Äłalgorit h
Äłremind e
s ize
ÄłAr g
Äłoutr a
Äłswin g
Äłre e
Äłfau l
Äłalgorith m
Äłgaine d
Äłcur i
Äładvise r
Äłlegitima t
Äłfaul t
Äłepisode s
Äłtole r
Äłconsidera b
Äłbasket b
Äłpum p
Äłbasketb a
Äłbasketba l
Äłbasketbal l
ÄłSpe a
Äłconsiderab l
Äłrepli e
ÄłSno w
ÄłInfo r
ÄłConfe r
Äłmanufactur i
Äłmanufacturi n
Äłtoler a
Äłmanufacturin g
Äłenorm o
Äłgra t
Äłenormo u
Äłenormou s
ÄłBern i
ÄłCentr e
uss i
ÄłDi c
ÄłInfor m
ÄłThre e
Äłseem i
ÄłA a
i llion
Äłelev a
Äłseemi n
Äłseemin g
Äłperceiv e
Äłprevent i
Äłridi c
ÄłConfer e
Äłneutr a
ÄłRadi o
Äłagric u
Äłpri z
Äłagricu l
ÄłConfere n
Äłagricul t
Äłneutra l
ÄłConferen c
ÄłTem p
de p
Äłunfor t
ÄłGu n
Äłlo y
Äłagricult u
Äłagricultu r
ÄłDi d
Äłtowe r
ÄłB E
Äłeleva t
ÄłLead e
ÄłConferenc e
Äłfrac t
Äłrelie f
ÄłAlabam a
Äłloy a
Äłunfort u
Äłunfortu n
Äłang l
Äłphilosoph y
Äłunfortun a
Äłloya l
Äłunfortuna t
ÄłCa b
ÄłCommuni t
Äłunif o
ÄłSa c
Äłunifo r
ÄłLeade r
Äłunifor m
Äłremark a
Äłperce p
Äłremarka b
Äłunfortunat e
Äłsave d
Äłremarkab l
Äłridic u
ÄłDou g
ÄłViet n
Äłhorr o
ÄłVietn a
Äłridicu l
ÄłVietna m
Äłevolv e
Äłhorro r
Äłden s
ÄłKing d
Äłlegitimat e
ÄłRevi e
ÄłTurk i
Äłrepai r
ÄłPh a
Äłpercep t
ÄłA k
Äłas y
ÄłKingd o
ÄłAbo u
Äłpriz e
ÄłRev o
Äłbor r
ÄłLib y
ÄłThu s
ÄłCit i
Äłwe d
ÄłCamer o
n while
a nwhile
Äłfe n
e anwhile
M eanwhile
ÄłM E
Äłenter i
ÄłRevie w
ÄłManch e
ÄłCub a
Äłstadi u
Äłrank i
ÄłKingdo m
Äłfail i
Äłblas t
Äłsumm a
ÄłSain t
Äłfaili n
Äłdep i
Äłstadiu m
Äłfoot a
ÄłFre d
Äłfailin g
Äłfoota g
Äłfootag e
ÄłLiby a
Äłranki n
Äłpetit i
ÄłMayo r
Äłrankin g
Äłnur s
Äłpetiti o
cke d
i ver
Äłpetitio n
t ation
Äłdemocrati c
ÄłComm e
Äłborr o
Äłstruggl i
Äłstruggli n
Äłheade d
ÄłPoin t
Äłstrugglin g
Äłborro w
Äłlands c
Äłmil k
Äłlandsc a
Äłlandsca p
ÄłTo o
Äłpresu m
ÄłAdministrati o
Äłfa b
ÄłAdministratio n
Äłperp e
Äłrecognize d
Äłcannabi s
ÄłManche s
Äłbanne d
Äł5 3
ÄłA z
ÄłManches t
ÄłManchest e
ÄłMancheste r
Äłdepi c
Äłdepic t
Äłethn i
Äłcircu l
o mme
Äłregist r
Äłscar e
Äłethni c
Äłbelief s
Äłrole s
Äłcircul a
Äłdesc e
ÄłHa i
ÄłLin e
Äłda d
Äłdesce n
ÄłMus e
ÄłHa y
Äłdepo s
ÄłNa m
Äłsacr i
Äł196 0
Äłcontain i
Äłcontaini n
ÄłJo i
Äłbacke d
Äłcontainin g
Äłtransg e
Äłtransge n
Äłconsiderat i
Äłship s
ÄłDie g
ÄłV R
Äłconsiderati o
ÄłMan n
Äłconsideratio n
Äłloo s
ÄłEn v
Äłintr i
Äłlike d
ÄłReu t
ÄłDivi s
Äłenteri n
Äłorb i
Äłenterin g
Äłred e
ÄłCom i
Äłoblig a
ÄłJas o
Äł- >
Äłnav i
Äłgon n
ÄłDo e
Äłachieve d
Äłdeli b
Äłacceler a
ÄłAtlant a
Äłala r
Äłgonn a
Äłfla w
Äłdelib e
Äłdelibe r
Äłmovement s
Äłdeliber a
Äłeu r
ÄłFe l
Äłorbi t
Äłfis c
ÄłRoge r
Äłwall s
Äłdelibera t
Äłdestructi o
Äłdestructio n
Äłac i
Äłhire d
ÄłDo l
Äłfarmer s
Äłpursu i
¨ Ä
Äłbiolog i
Äłalar m
Äłslid e
Äłinevitab l
Äłaudi t
ÄłRevo l
Äłpray e
ÄłJaso n
ÄłGa n
Äłinco n
Äłobliga t
ÄłDivis i
Äłmol e
Äłdir t
Äłunivers a
Äłaccount a
Äłuniversa l
Äłfisc a
Äłflexi b
ÄłAcadem y
Äłoutra g
ÄłPa g
ÄłDieg o
Äłfisca l
Äłintegrat e
ÄłFun d
ÄłMu n
Äłdiscriminati o
Äłdiscriminatio n
ÄłLy n
Äłseg m
e ing
Äłsegm e
Äłsegme n
Äł199 8
Äłunder l
ÄłLe i
Äłsegmen t
ÄłReut e
ÄłNo b
Äłbroad e
Äłinterview s
Äłliqu i
ÄłHel l
Äłjustif i
Äłforg o
ÄłAnto n
Äłcolon i
Äłcreat o
ÄłReute r
Äłaccelera t
Äłlanguage s
ÄłBerni e
Äłcreato r
ÄłWal t
Äłbare l
Äłso i
Äłpropo r
ÄłMatt h
Äłbarel y
Äłhypo t
ÄłFul l
Äłconcentrat i
Äłaci d
ÄłIraq i
Äłoutrag e
Äłvita l
ÄłDe b
Äł(Ã¢Ä ¢
Äłteam m
ÄłLit t
ÄłAt h
Äłteamm a
ÄłConn e
Äłteamma t
Äłteammat e
Äłbeg u
ÄłDivisi o
Äłstu p
Äłsal t
ÄłBre a
ÄłDivisio n
Äłli a
ÄłY O
Äłprove n
Äłincen t
ÄłU C
e cond
Äłstructure s
ÄłGia n
Äłpropor t
Äłfore v
Äłproport i
ÄłO m
Äłpers i
Äłforev e
Äłforeve r
Äłproporti o
Äłdon o
Äłproportio n
Äłconten d
ÄłMar v
Äłliqui d
ÄłJoi n
Äłdeliver y
Äłdiscr e
Äłto x
ÄłMexic a
Äłloos e
Äłequal i
Äłspect r
ÄłP s
o rme
Äłincent i
ÄłPer h
Äłincenti v
Äłprocessi n
Äłco g
Äłste m
Äłprocessin g
ÄłVa r
ÄłActi o
Äłeur o
ÄłActio n
ÄłPerh a
Äłcontaine d
Äłprint e
Äłuncle a
Äłsacri f
________ ________
ÄłInde p
ÄłLi m
Äłchalleng i
Äłchallengi n
Äłsacrif i
Äłchallengin g
ÄłKan s
Äłspr a
Äłmoo n
Äłequal l
ÄłPerha p
Äłdono r
Äłsacrifi c
ÄłIndep e
Äłsimul a
ÄłPerhap s
Äłreliab l
ÄłIndepe n
ÄłReuter s
Äłdisp a
ÄłIndepen d
ÄłCoo k
Äłproduc i
Äłinterf e
ÄłAnt i
ÄłHarr y
Äłinterfe r
Äłsilen c
ÄłSte e
ÄłTurki s
Äłune x
Äłlegal i
ÄłFie l
Äłflavo r
ÄłBrid g
Äłso p
Äłconvict e
Äłconvicte d
ÄłRes o
ÄłDo r
ÄłRi d
ÄłMal a
ÄłMcC o
ÄłW I
ÄłMassa c
ÄłFiel d
ÄłBui l
Äłcompe l
Äłweak e
ÄłBr y
ÄłBi o
Äłproduci n
Äłproducin g
ÄłVan c
Äłhitt i
Äłpersi s
Äłswo r
Äłpersis t
Äłhitti n
ÄłAbou t
ÄłMinist r
u me
ÄłIndepend e
ÄłIndepende n
Äłparti a
ÄłTurkis h
Äłbow l
Äłpartia l
Äłrestriction s
Äłhypot h
ÄłMexica n
Äłhittin g
Äłretire d
Äłsumma r
Äłill n
Äłilln e
Äłillne s
Äłillnes s
ÄłKans a
Äłnavi g
Äłoccup a
ÄłTa b
ÄłBib l
Äłnavig a
Äłreb o
Äłdial o
Äłpreserv e
Äłask s
ÄłS O
Äłdialo g
Äłindicate d
Äłrecogni t
Äłrecognit i
Äłamend m
Äłamendm e
Äłamendme n
Äłamendmen t
ÄłAlle n
Äłnec k
Äłrecogniti o
Äłdevo t
Äłrecognitio n
ÄłHo o
Äłtox i
Äłprev a
Äłrapid l
Äłrapidl y
Äłdeadl i
Äłdist u
ÄłCir c
Äłtho r
ÄłNev e
Äłfantas t
Äłreview s
Äłcorporation s
ÄłChristian s
Äłfantast i
Äłsuggesti n
P resident
Äłsuggestin g
Äł5 4
ÄłColumb i
ÄłFur t
Äłforc i
ÄłSqua r
Äłec h
Äłdistu r
Äłbegu n
Äłdistur b
ÄłEll i
ÄłH D
ÄłSta d
Äłbai l
Äłblock e
ÄłBeac h
Äłcab i
Äłfantasti c
ÄłSeas o
ÄłReco r
ÄłSeaso n
Äłcabi n
ÄłRecor d
ÄłIc e
ÄłSquar e
ÄłInform a
Äłelector a
Äłangl e
ÄłBridg e
ÄłCha p
Äłnormal l
Äłlandscap e
Äłcuri o
Äłnormall y
Äłpil l
ÄłEx t
Äłwides p
Äłperpe t
Äłwidesp r
Äłequall y
Äłwidespr e
Äłmigra n
Äłwidespre a
Äłwidesprea d
ÄłO K
Äłuni n
Äł201 9
Äłreduc i
Äłconspira c
Äłintroduc t
Äłlisten i
Äłlisteni n
ÄłMcCa i
ÄłTy p
ÄłIntell i
Äłover h
Äłlistenin g
Äłmigran t
Äłticket s
h ree
Äłbur d
ÄłVill a
Äłpass a
P le
ÄłAnth o
Äłreach i
Äłreachi n
Äłreachin g
Äłattach e
ÄłMcCai n
ÄłLin d
ÄłDes i
Äłroo f
Äłseiz e
ÄłÃ¢Ä ¤
Äłtrans c
ÄłÃ¢Ä¤ Â
ÄłCle a
Äłgras s
Äłdele t
ÄłSim p
Äłwebsite s
ÄłBa b
Äłburd e
Äłfriendl y
Äłtransgen d
Äłtransgend e
Äłtransgende r
ÄłAN D
ÄłLew i
Äłcharacteris t
Äłburde n
Äłpipe l
Äłje t
Äłcharacterist i
Äłcharacteristi c
Äłpipel i
Äłcount i
t ting
ÄłSi d
Äłpipeli n
Äłshi r
ÄłContinu e
ÄłH E
Äłsoi l
Äłfrequen c
Äłscre a
ÄłNex t
Äłscrea m
ÄłComm a
Äłfra g
ÄłPenn s
ÄłFurt h
Äłhardl y
Äłnaviga t
Äłpol y
Äłtable t
Äłpublishe r
ÄłTen n
Äłcampaign s
Äłel d
Äłsimula t
Äłpresc r
ÄłUF C
Äłcau t
Äłgar d
Äł(Ã¢Ä¢ Ä
ÄłLin k
Äłcareful l
Äłviewer s
Äłprec e
Äłterrorist s
Äłpipelin e
Äłwel f
Äłten t
Äłwelf a
Äłwelfa r
Äłsa u
Äłreplace m
Äłreplacem e
ÄłWalk e
Äłreplaceme n
Äłreplacemen t
Äłshou t
Äłunclea r
Äłcarefull y
Äłration a
Äłinc u
Äłinvolve m
Äłrationa l
Äłinvolvem e
Äłinvolveme n
Äłinvolvemen t
Äłvi n
Äłprescr i
ÄłPro v
Äłappoint e
Äłexce e
Äłreduci n
Äłreducin g
Äłexcee d
ÄłNA T
ÄłUn f
Äłchro n
Äłsensitiv e
ÄłOn t
ÄłKansa s
ÄłFurth e
ÄłGl e
Äłwelfar e
ÄłFurthe r
Äłoverwhelm i
Äłoverwhelmi n
ÄłPenns y
inal l
Äłoverwhelmin g
ÄłBro t
ÄłHea t
ÄłFree d
ÄłPo t
ÄłPennsy l
ÄłO N
Äłrespective l
Äłpercept i
ÄłElect r
Äłhoo k
Äłrespectivel y
ÄłComma n
inall y
Äłun h
ÄłPennsyl v
Äłscore s
ÄłPennsylv a
ÄłPennsylva n
Äłexe m
Äłdeva s
ÄłPennsylvan i
ÄłAB C
Äłexem p
ÄłPennsylvani a
ÄłComman d
Äłob e
Äłformat i
rea l
Äłcommande r
ÄłESP N
ÄłNS A
ÄłProfess o
ÄłProfesso r
Äłdeput y
Äłcaut i
Äłextrem i
o oking
Äłcauti o
ÄłKr i
ÄłCor e
Äłpack e
Äłbla n
Äłcrypt o
Äłthrow n
Äłgl u
Äłchick e
Äłunex p
Äłchicke n
ÄłHos p
Äłconvince d
Äłund o
Äłimplicat i
ÄłSch u
ÄłBa d
Äłhead i
Äłlist s
ÄłLitt l
Äłportra y
ÄłBea r
Äłfeatur i
Äłcalculat e
ÄłLittl e
Äłfeaturi n
Äłunder m
ÄłRe e
Äłgather e
Äłlen d
Äłdevas t
ÄłCle v
Äłfeaturin g
Äłheadi n
ÄłInforma t
ÄłInformat i
Äłmigra t
ÄłPri c
Äłconnection s
Äłtro p
Äłvar y
ÄłI v
Äłdevast a
Äłeli g
ÄłC H
ÄłEconomi c
Äłheadin g
Äłeld e
Äłcur v
Äłreflect i
Äłassum p
Äłgrav e
Äłdevasta t
Äłassump t
Äłassumpt i
Äłconcer t
Äłelig i
ÄłRos s
Äłmir r
ÄłHosp i
Äłassumpti o
Äłassumptio n
ÄłBre w
ÄłNa n
Äłunderg r
j ust
Äłeligi b
Äłmirr o
Äłann i
Äłmirro r
Äłconven i
Äłcarrie r
Äłdeepe r
Ã£Ä ¢Ä
Äłswe a
ÄłClev e
ÄłO w
Äłfantas y
ÄłCod e
Äłphysic i
ÄłS H
Äłstatistic s
ÄłEva n
ÄłUl t
Äłinvite d
Äł9 5
ÄłNeve r
ÄłOr d
Äłcen s
Äłtweet e
ÄłColumbi a
Äłfort u
Äłunemploy m
Äłunemploym e
Äłunemployme n
Äłunemploymen t
ÄłPa p
Äłimprovement s
ÄłBrot h
Äłany b
Äłindependen c
ÄłIll i
Äłjoin i
ÄłLeo n
Äłjoini n
Äłanyb o
Äłanybo d
Äłspirit u
Äłimplement e
Äłjoinin g
Äłunderm i
Äłundermi n
Äłanybod y
ÄłWalke r
ÄłGaz a
Äłdemonstrati o
Äłmake r
Äłdemonstratio n
Äłcomplaint s
Äłcloth e
Äłinva s
Äłbarri e
Äłwar s
Äłbarrie r
ÄłJon a
Äłgui t
Äłinvas i
Äłguit a
Äłindependenc e
Äłguita r
Äłbre e
Äłsub u
Äłeast e
ÄłMinistr y
Äłeaste r
Äłsubmit t
Äłfil i
Äłspiritu a
Äłspiritua l
Äłpopular i
Äłmete r
Äłsubject s
Äłscreen s
Äłbeac h
Äłscholar s
Äłrenew a
Äłoverc o
ÄłTow n
Äłowners h
Äłownersh i
Äłownershi p
Äłjur y
o gle
ÄłSam s
Äłoutli n
Äłstup i
ÄłF R
Äłingr e
ÄłFe s
ÄłChec k
Äłtouch d
Äłtouchd o
Äłtouchdo w
Äłtouchdow n
ÄłBroth e
ÄłDri v
ÄłZ u
Äłstupi d
U nder
Äłexc u
Äłtraine d
Äłinj e
Äłdepos i
Äłarm o
Äłeconomi s
Äłincor p
Äłsociali s
Äłincorp o
Äłincorpo r
Äłdiscover y
ÄłMoo n
ÄłHu r
Äłgathere d
Äłcontrovers y
Äłhypoth e
Äłfear s
ÄłInformati o
ÄłInformatio n
Äłimplemente d
ÄłIntelli g
Äłcomprehen s
Äłcomprehens i
Äłinje c
Äłwage s
Äłtre m
Äłinjec t
ÄłBrothe r
Äłcapt a
Äłtheat e
Äłdistinct i
Äłvers u
ÄłAr s
Äłtheate r
Äłro m
ÄłSho r
Äłspect a
ÄłMuse u
ÄłIntellig e
ÄłIntellige n
ÄłProte c
ÄłHospi t
Äłrh e
Äłleg s
ÄłHospit a
Äłsham e
Äłvoca l
ÄłX b
ÄłHospita l
Äłeconomis t
Äłrecommend e
Äłcapta i
Äłcaptai n
ÄłOpera t
Äłw w
ÄłMuseu m
ÄłÃĤ Ä
Äłserve s
ÄłProtec t
o ogle
Äłsilenc e
Äłhand f
ÄłMedica l
Äłsco p
Äłsop h
Äłgri d
Äłneighbo u
Äłneighbou r
Äłincorpor a
ÄłCommunit y
Äłimplicati o
Äłdeposi t
Äłcal m
Äłimplicatio n
Äłtom o
Äłabsen c
Äłabsenc e
Äłjudg m
Äłjudgm e
Äłjudgme n
Äłjudgmen t
Äłwas h
Äłtele p
ÄłII I
Äłru r
Äłreferr i
Äłreferri n
Äłhandf u
Äłhandfu l
Äłreferrin g
ÄłAcc e
Äłtemporar y
r der
Äłincorpora t
ÄłXb o
Äłversu s
ÄłDoc t
ÄłMatth e
Äł199 6
ÄłEnv i
ÄłOr a
Äłfat a
Å Ģ
Äłtrac e
ÄłCamero n
Äłshi n
Äławare n
ÄłCu l
Äławaren e
Äławarene s
Äławarenes s
Äłrur a
Äłrecommende d
Äłdu s
ÄłBar b
ÄłXbo x
Äłinfectio n
Äłrura l
ÄłGold e
Äłexecuti o
Äłexecutio n
Äłfund e
Äłsymptom s
Äłtask s
Äłplatform s
Äłhead q
Äłheadq u
Äłheadqu a
Äłtesti m
Äłrepro d
Äłreprod u
Äłexpand e
Äłaid e
Äł5 6
Äłheadqua r
Äłremark s
Äłcompo u
Äłcompou n
Äłtestim o
Äłcompoun d
Äłtestimo n
Äłmoderat e
Äłheadquar t
Äłheadquart e
Äłfire a
ÄłRevol u
Äłheadquarte r
Äłattempt i
ÄłPatric k
Äłattempti n
Äłattack i
Äłattemptin g
Äłso a
ÄłBud d
Äłreprodu c
m inu
Äłattacki n
Äłattackin g
ÄłAg r
¸ Â
ÄłVega s
Äłdiscussion s
ÄłDe e
Äłspa n
Äłcycl i
Äłvisitor s
Äłbur e
ÄłPen t
Äłfata l
Äłconveni e
Äłconvenie n
Äłdesign a
ÄłL I
Äłfirea r
Äłpresent a
Äłfirear m
Äłcommission e
Äłspace s
ÄłAntho n
Äłsample s
Äłbure a
¼ Ä
Äłpassa g
Äłww w
Äłinflat i
Äłra w
ÄłLis t
Äłdesigna t
Äłingre d
Äłingred i
Äłentertain m
Äłentertainm e
Äłcivilian s
Äłentertainme n
Äłentertainmen t
ÄłMatthe w
Äłburea u
Äłingredi e
Äłingredie n
Äłmi t
Äłefficien c
Äłingredien t
ÄłAtlant i
Äłexpande d
Äłprefer e
Äłshir t
Äłpassag e
ÄłDrag o
Äłspeculat i
Äłground s
c ut
Äłfortu n
ÄłMor r
Äłari s
Äłenc r
Äłcounter p
Äłk m
ÄłAuthor i
ÄłÃ¢Äª Ä
Äłdocumenta r
ÄłChai r
ÄłRevolu t
ÄłStad i
Äłmus e
ÄłG T
ÄłAnthon y
ÄłGolde n
e red
ÄłTe d
includ in
Äłprete n
includin g
Äłho c
Äłparame t
ÄłFl e
Äłattache d
Äłstee l
8 00
ÄłRevolut i
ÄłPhilip p
ÄłRevoluti o
Äłbri l
ÄłM M
ÄłHa t
Äłsetting s
Äłpen s
Äłchee r
ÄłRevolutio n
Äłeaster n
Äłcompos i
Äłdiss e
ÄłNor w
Äłprefere n
Äłsubu r
ÄłFes t
Äłrank e
Äłbril l
Äłsubur b
ÄłD I
Äłpurchase d
Äłdetain e
ÄłHam i
Äłslo t
Äł199 7
Äłbu c
Äłextremi s
Äłout f
ÄłÃ¢Ä¤Â ¬
ussi a
ÄłKenne d
Äłsorr y
ÄłAust i
Äłsup r
ÄłHistor y
ÄłEnvi r
Äłaffair s
ÄłAusti n
ÄłKenned y
ÄłNin t
Äłsuspect e
ÄłEnvir o
Äłsuspecte d
Äłmusic a
ÄłBalti m
Äłsuspend e
Äłtweete d
ÄłStar t
Äłfactor y
ÄłBaltim o
ÄłBaltimo r
ÄłBro a
ÄłBaltimor e
Äłranke d
Äłbrill i
Äłlitera t
Äł7 2
ÄłSuc h
Äłclos i
Äłbrilli a
Äłbrillia n
Äłclosi n
Äłclosin g
Äłfall e
A bout
Äłbrother s
Äłinc a
Äłcertifi c
Äłforgo t
Äłactor s
Äłnod e
Äłcertific a
ÄłB C
Äłviewe d
Äłpercepti o
Äłperceptio n
Äłradi a
Äłordina r
ÄłBroa d
Äłbur i
Äłmusica l
Äłcertifica t
Äłcomplet i
Äłag i
Äł ?
Äłhydr o
ÄłMassac h
Äłmandat e
Äłmas k
ÄłSa b
ÄłMassach u
Äłconvict i
Äłrace s
ÄłMassachu s
Äłoptimi s
ÄłIlli n
ins t
ÄłGree c
ÄłGreec e
Äłafford a
ÄłEng i
ÄłEnviro n
Äłdiversi t
ÄłCB S
¨ Â
Äłembar r
Äłembarr a
Äłseeming l
Äłdim e
Äłembarra s
Äłseemingl y
Whe r
ÄłSpea k
Äłinvolve s
6 00
ÄłMassachus e
Wher e
ÄłMassachuse t
Äłstrength e
Äłstrengthe n
Äłqualifi e
Äłtomo r
ÄłMassachuset t
Äłhumanit y
Äłfalle n
Äłinvestigati n
Äłden o
Äłinvestigatin g
Äłopinion s
Äłdistr a
Äłcoache s
Äłtomor r
ÄłTrad e
ÄłJen n
Äłroo k
Äłtomorr o
Äłembarras s
Äłtomorro w
ÄłLoc a
ÄłMoh a
Äłinvestigator s
Äłami d
ÄłG D
ÄłH A
Äłdisp e
ÄłUnf o
Äłtwi s
ÄłMassachusett s
Äłsalar y
Äłtwis t
Äłdiversit y
Äłbar s
contr o
Äłaccessi b
Äłi O
Äłconcentrati o
Äłconcentratio n
ÄłEven t
ÄłMars h
Äłscop e
Äłspokes p
ÄłStadi u
Äłpresenta t
Äłspokesp e
ÄłStadiu m
ÄłSwed e
Äłcover s
Äłseparat i
Äłtu b
Äłhype r
Äłsustain a
Äłpraye r
Äłsustaina b
Äłtransport a
ÄłBlo c
ÄłBer l
Äłstay e
ÄłEngi n
ÄłFis h
Äłreferen d
ÄłMa p
Äłbu m
ÄłI M
Äłhin t
Äłloan s
Äłexplosi o
Äłhand e
Äłexplosio n
Äłoffice s
Äłpresentat i
Äłimagin a
Äłful f
Äłgard e
ÄłStudi o
Äłpresentati o
Äłpresentatio n
Äłfulf i
Äłsuspende d
Äłea g
Äłfulfi l
Äładvocate s
ÄłCapit a
Äłshr i
Äłcontaine r
Äłabs t
ÄłBu n
Äłfos s
Äłstaye d
Äłafforda b
ÄłBan g
Äłimpressi o
Äłimpressio n
Äłali g
ÄłMit c
Äłconspirac y
ÄłMitc h
ÄłEngin e
ÄłBro n
ÄłDu b
Äłprovider s
ÄłLiber t
Äłcog n
Äłpa d
ÄłDev i
Äłbu f
Äłpaper s
Äłend u
ÄłDav e
ÄłMem o
ÄłSupp o
ÄłAr r
ÄłHu g
Äłshel t
Äł9 9
ÄłLewi s
Äłdum p
ÄłHow a
Äłech o
Äłshelt e
Äłconvicti o
Äłconvictio n
Äłshelte r
Äłsil v
ÄłW W
ÄłCon c
ÄłAnders o
Äłendu r
ÄłAnderso n
ÄłiO S
Äłdepressi o
Äłdepressio n
ÄłUnfo r
ÄłJa r
Äłauth e
Äłformati o
ÄłN P
Äłpor n
Äłformatio n
Äłtransporta t
ÄłOl i
Äłauthe n
Äłtransportat i
Äłlun c
Äłtransportati o
Äłtransportatio n
Äłlunc h
Äłinn e
Äłthrow i
Äłauthen t
Äłauthent i
ÄłPric e
Äłprece d
Äłthrowi n
Äłbes i
Äłconsistent l
Äłconsistentl y
Äłauthori z
ÄłRese r
Äłsilv e
ÄłLo g
a ving
e aking
c ing
ÄłBuil d
Äłthrowin g
Äłauthenti c
Äłdisab l
Äłdepend s
Äłbarre l
Äłmini n
ÄłHowa r
Äładdresse d
ÄłEp i
Äłposte r
Äłparamet e
ÄłSh u
Äłparamete r
Äłcolor s
ÄłEmp i
ÄłReser v
Äłpersonalit y
Äłminin g
Äłstrai n
Äłsilve r
ÄłE T
ÄłVanc o
Äłlega c
ÄłPit t
ÄłEmpi r
Äłcompos e
Äłhel i
ÄłSo r
Äłcover i
Äłinflati o
Äłinflatio n
ÄłEnviron m
Äłlea n
ÄłEnvironm e
Äłcoveri n
ÄłEnvironme n
ÄłDre a
ÄłFreed o
ÄłEnvironmen t
Äłclassifi e
Äłhande d
ÄłSte a
Äłreve l
Äłcoverin g
Äłunl o
Äł5 7
Äłcommunicat e
Äłnoti n
Äłinfa n
Äłread s
Äłref i
Äłreferend u
Äłreferendu m
ÄłVanco u
ÄłSur v
Äłnotin g
ÄłVancou v
ÄłVancouv e
ÄłVancouve r
Äłclothe s
Äłgarde n
Äłchee s
Äłsea l
Äłpou r
Ple a
Äłvirtual l
Äłvirtuall y
ÄłFreedo m
ÄłMagi c
ÄłWhi c
Äłmanu a
Äłmanua l
over n
Äłbox e
ÄłChang e
ÄłMount a
Äłwhere a
Äłconversation s
ÄłMounta i
ÄłWhic h
Äłgen o
ÄłMountai n
ÄłShe l
Äłg y
Äłinne r
ÄłC R
c king
Äłspeak s
Äłfoss i
Äłlowe s
Äłlobby i
Äłgen r
Äłgain s
Äłsent i
Äłprofit s
Äłparal l
Äłfossi l
Äłlowes t
Äłincentiv e
Äłdismiss e
Äłgenr e
ÄłIntelligen c
Äł8 5
ÄłAb d
ÄłBur e
Äłproto c
ÄłIntelligenc e
Plea s
ÄłFig h
ÄłDrago n
Äłrook i
Äłbuc k
Äłrooki e
ÄłFigh t
p eaking
Äłci n
Äłdro v
Äłhelp f
Äłdrov e
Äłhelpf u
Äłhelpfu l
Äłtrie s
ÄłCleve l
Äłteenage r
Äłastro n
ÄłFamil y
Äł9 1
Äłtril l
ÄłGovern o
ÄłPre v
ÄłUnfor t
Äł12 0
ÄłClevel a
ÄłClevela n
ÄłClevelan d
ÄłUnfort u
Äłsuper v
Äłfli p
Äłd w
Äłnotif i
Äłrub b
Äłwre s
ÄłAnn a
ÄłUnfortu n
ÄłHowar d
Äłwres t
ÄłUnfortun a
ÄłUnfortuna t
ÄłPas s
Äłstarte r
ÄłIllin o
Äłlife s
ÄłIllino i
ÄłIllinoi s
Äłhandl i
Äłhandli n
Äłcontribution s
ÄłMoto r
Äłincident s
ÄłUnfortunat e
ÄłEm i
Äłhandlin g
ÄłGoverno r
Äłaccom m
ÄłR O
Äłaccomm o
Äłaccommo d
Äłprotoc o
Äłaccommod a
Äłaccommoda t
Äłmark s
ÄłSk i
Äłprotoco l
Äłrumo r
Äłprincip a
Äłla k
ÄłTri b
Äłbac t
Äłdre w
ÄłPol a
ÄłCre d
Äłrhe t
Äładopt i
Äłcha o
Äłpe s
Äłspokespe r
Äłmap s
Äłclear e
Äłspokesper s
ÄłWo n
Äłspokespers o
Äłspokesperso n
Äłrhet o
Äład e
Äłprincipa l
Äłrheto r
ÄłBu f
Äłbact e
Äłconvention a
Äłbacte r
Äłconventiona l
Äłencourage d
Äłluck y
Äłrank s
Äłfi b
ÄłX i
Äłentr a
Äłrhetor i
Äłspoke n
Äłout d
Äłrhetori c
Äłto y
Äłintroduct i
Äłintroducti o
Äłyell o
Äłintroductio n
Äłpromise s
Äłyello w
Äłtrill i
Äłswi m
Äłoverco m
Äłmani f
Äłdonat e
Äłvaria t
ÄłLive r
Äłbacter i
Äłboo m
ÄłUnfortunate l
Äłpaint i
Äłpainti n
ÄłUnfortunatel y
Äłdivide d
Äłpaintin g
Äłnut r
ÄłW H
ÄłBre n
R ussia
Pleas e
ÄłEmpir e
Äłjudge s
orme r
Äłvariat i
Äłvariati o
Äłvariatio n
Äłtrilli o
Äłtrillio n
Äłpremi u
Äłmine r
Äłpremiu m
Äłtime l
Äłbrow n
Äłsuperv i
Äłcheck s
Äłsli c
Äłru i
Äłbuf f
Äłextra o
ÄłCrim e
ÄłBo e
Äłaccounta b
ÄłTa s
Äłnutr i
ÄłPlu s
Äłindu c
Äłdur a
ÄłVictor i
ÄłMarv e
ÄłGett y
Äłextrao r
Äłthre w
ÄłEa g
Äłextraor d
ÄłCapita l
Äłextraord i
Äłeas e
Äłhost e
Äł5 8
Äłextraordi n
Äłconsen s
Äłimprovi n
Äłimprovin g
Äłextraordin a
contro l
Äłrepea l
Äłrui n
Äłliterat u
Äłto k
Äłliteratu r
ÄłCos t
Äłminist r
Äłefficienc y
Äłinterview e
Äłdistribute d
Äłbrea c
Äłbreac h
Äłinter s
h out
Äłmer g
Äłtwent y
Äłmistake s
Äłliteratur e
Äłconsens u
ÄłInde e
ÄłLi o
ÄłIndee d
Äłlocke d
Äłcogn i
ÄłMich e
ÄłSon y
ÄłDesi g
Äłtemperature s
ÄłWith o
Äłly i
Äłlyi n
ÄłWitho u
Äłacknowledge d
ÄłSim o
ÄłWithou t
de a
ÄłDesig n
Äłanxi e
Äłanxie t
Äłinnocen t
Äłkey s
ÄłMarve l
Äłachieve m
ÄłRep r
Äłachievem e
Äłachieveme n
Äłachievemen t
ÄłPhoto s
Äłsme l
Äłlyin g
Äłpass w
Äłparall e
Äłresponse s
Äłcomed y
ÄłDriv e
ÄłAni m
Äł199 5
ÄłExe c
Äłpriorit i
Äłprotecti n
Äłdus t
Äłarriv a
Äłhosti l
Äłbrew e
Äłint a
Äłbreak s
Äłprotectin g
Äłkid n
ÄłChe l
ÄłSou r
Äłrepresentati o
Äłrepresentatio n
Äłhomel e
Äłhomele s
ÄłConne c
Äłhomeles s
ÄłBel g
ÄłConnec t
ÄłSams u
Äłexcu s
Äłvent u
Äłlegac y
ÄłSomet i
ÄłSometi m
ÄłSometim e
Äłva g
Äłventu r
Äłcurv e
Äłcompetit o
ÄłCart e
Äłha u
ÄłSamsu n
Äłlet s
ÄłNAT O
Äłmo c
Äłfo n
Äłabandon e
Äłabr o
Äłcompetito r
ÄłLib r
Äłver t
ÄłArch i
Äł6 2
Äłboth e
Äłcomposi t
Äłabandone d
Äłusa g
ÄłHin d
Äłbothe r
Äłusag e
p ut
Äłpassw o
Äłpasswo r
Äłjo y
Äłpasswor d
ÄłFoot b
ÄłSamsun g
ÄłGat e
Äłmembers h
Äłmembersh i
Äło s
Äłmembershi p
Äłisolat e
ÄłJes s
ÄłBi s
ÄłNO T
ÄłJan e
Äłmid f
Äłtrai t
Äłpassenger s
Äłarriva l
Äłconc r
Äłforec a
Äłforeca s
Äłforecas t
ÄłFootb a
Äłsurviv a
Äłordinar y
Äłlen s
Äłpropaga n
Äłalig n
Äłconfigur a
ÄłFootba l
Äłpropagan d
ÄłFootbal l
Äłcheap e
Äłstart u
Äłstartu p
Äłpo n
ÄłOperat i
Äłsta i
ÄłSou n
Äłgent l
Äłconcr e
Äłexh a
Äłcommon l
ÄłDea t
ÄłKon g
Äłcommonl y
ÄłJusti n
Äłdivers e
ÄłMO R
Äłel a
Äłintegrat i
Äłconcre t
Äłinterc e
Äłdemonstrate d
Äł !
Äłignore d
Äłcopie s
ÄłInd u
Äłshort e
o use
Äłprov o
Äłstole n
ÄłCard i
Äłqualif y
Äłsuperi o
Äłconfus e
Äłshak e
ÄłGala x
ÄłMcD o
ÄłFro n
Äłland i
Äłdi l
Äłnationali s
Äłemp i
Äłlandi n
Äłmidf i
ÄłCoo p
Äłexclu d
Äłsuperio r
ÄłSimo n
Äłmidfi e
Äłfunde d
Äłlandin g
Äłna i
Äłmidfie l
Äłmidfiel d
Äłfall s
Äłmagn e
ÄłBuf f
Äłutili z
ÄłDoe s
Äłfir i
ÄłSch e
ÄłAb u
ÄłW y
Äłnatural l
Äł(Ã¢Ä¢Ä ¾
Äłton i
ÄłSl o
Äłdisp o
Äłfiri n
Äłches t
Äłnaturall y
Äłstrik i
Äłstriki n
Äłacquire d
Äłfirin g
Äłempi r
Äłstrikin g
ÄłWol f
Äłextraordina r
Äłdisciplin e
Äłcredi b
Äł18 0
res t
Äłstudie d
de m
ÄłRec e
ÄłCu s
Äłclas h
Äłtouris t
Äładmi r
ÄłColl i
ÄłFe a
Äłmeasure d
Äłgather i
Äłgatheri n
Äłgatherin g
Äłbu b
ÄłTrea s
Äłmaintain e
ÄłS I
Äłdestin a
Äłtransaction s
Äłride r
Äłequali t
Äłsacrific e
Äłcompel l
Äłparalle l
ÄłBibl e
Äłcount s
ÄłSoun d
ÄłUt a
Äłce a
Äłanimat i
Äłelde r
ÄłOnt a
ÄłS U
Äłmonitor i
ÄłOri g
Äłinterfer e
Äłartif i
d ition
Äłartifi c
ÄłNe a
Äłclose s
Äłtip s
ÄłAtlanti c
Äłsupervi s
Äłinsiste d
Äłmonitori n
Äłmonitorin g
ÄłLio n
Äłstage s
Äłske p
Äłheadquarter s
Äłup l
Äłbomb i
Äłfat e
Äłdestina t
ÄłOnta r
ÄłCred i
Äłreplie d
ÄłExec u
ÄłOntar i
Äłvaccin e
Äłcapabilit i
Äłrepresent i
ÄłSi x
Äłcapabiliti e
s ting
Äłcapabilitie s
Äłbin d
Äłinterpret a
Äłtim i
ÄłAm b
Äłmath e
Äłar b
Äła x
ÄłEag l
Äłskep t
ÄłExecu t
Äłskept i
ÄłStee l
Äłarchitectur e
Äłbombi n
Äłdiscou r
Äłrepresenti n
Äłdestinat i
us in
Äłbombin g
Äłrepresentin g
Äłanalyz e
Äłskepti c
Äłdestinati o
Äłdestinatio n
Äłtok e
ÄłÃ¢Ä¢Â ¢
Äłmathe m
ÄłFron t
Äłgi g
Äłtrack i
ÄłEagl e
ÄłVictori a
ÄłP D
ÄłGir l
t hing
Äłmathem a
Äłdistra c
Äłrom a
Äłconcret e
Äłbi s
Äłpresiden c
s sion
Äłtracki n
Äłdistrac t
Äłmathema t
Äłra g
Äłtrackin g
Äłsupplie s
Äłoutf i
Äłmathemat i
ÄłLe f
ÄłDeat h
Äłperform i
ÄłMiche l
Äłant h
Äłsupr e
ÄłPo k
Äłperformi n
ÄłEma i
ÄłAu d
Äłperformin g
Äł6 1
ÄłEmai l
inc o
Äłmathemati c
Äłexcus e
Äłpu p
ÄłPhil l
ÄłRel a
ÄłL O
Äłunion s
ÄłCou l
Äłracis m
Äłmel t
re w
Äłconservative s
Äłuniversit i
Äłopp r
ÄłKil l
Äłuniversiti e
Äłuniversitie s
Äłflow e
Äłproposal s
Äł199 4
ÄłKni g
ÄłScien t
Äłdeliberat e
Äłbrea s
Äłven u
Äłbreas t
Äłequalit y
Äłfasci n
Äłwrest l
ÄłAuthori t
Äłcriticize d
Äłhope d
Äłwater s
Äłdispo s
Äłcea s
ÄłCor n
ÄłBur n
ÄłDen v
Äłconsen t
ÄłKnig h
Äłlett i
ÄłKnigh t
ÄłHa d
Äłlog o
Äłfascin a
Äłletti n
Äłmotivat i
Äłtravel l
ÄłBure a
ÄłBurea u
Äłsupre m
ÄłSometime s
Äłtravel e
Äłen l
ÄłSwi t
Äłfascina t
Äłlettin g
Äłhas h
Äłshopp i
ÄłBa i
Äłbeaut y
Äłshoppi n
ÄłOk l
Äłcusto d
Äłshoppin g
Äłmodifi e
ÄłDenv e
ÄłIns i
ÄłDenve r
Äłrequest e
Äłtoke n
Äłram p
Äłappointe d
ÄłCoop e
Äłinterpreta t
ÄłTo k
Äłpreferen c
ÄłIm m
Äłreliabl e
Äłinterpretat i
Äłterri f
ÄłAmo n
Äłhoc k
Äłvenu e
ÄłOkl a
Äłleve r
ÄłCoope r
Äł202 0
ÄłTreas u
ÄłTreasu r
ÄłE b
ÄłPal m
Äłine q
ÄłOffice r
Äłineq u
Äłroma n
ÄłMac h
ÄłGian t
Äłemphasi z
Äłthri l
ÄłKee p
Äłretire m
Äłretirem e
Äłretireme n
Äłthril l
ÄłGalax y
Äłretiremen t
Äłpreferenc e
ÄłCredi t
ÄłInd o
Äłrob b
ÄłJe t
Äłabso r
ÄłCor r
Äłdismisse d
Äłequa t
Äłabro a
Äłabroa d
ÄłStor e
Äłdisabl e
Äłbub b
ÄłCorp o
Äłcongress i
Äłphenomen o
ÄłKa l
Äłcongressi o
Äłcongressio n
Äłcongression a
Äłcongressiona l
ÄłRom e
ÄłPort l
Äłincom p
Äłbrea d
Äłvisit i
ÄłWri t
Äłoutlin e
ÄłBas i
Äłarrange m
ÄłVic e
Äłarrangem e
Äłarrangeme n
Äłarrangemen t
Äłvisiti n
Äłbel l
Äłappearance s
Äłprob e
Äłvisitin g
Äłregulat e
ÄłAssociate d
ÄłSilv e
ÄłCorpo r
Äłdelegat e
ÄłMa u
ÄłRa s
ÄłPortl a
Äłbubb l
Äłclassifie d
Äłvi b
minu t
ÄłMor g
ÄłPers o
ÄłUta h
ÄłO d
Äłridicul o
Äłsc u
ÄłStand a
Äłridiculo u
Äłridiculou s
Äłre h
ÄłMo l
Äłinterpretati o
Äłcomprehensi v
Äłcomprehensiv e
ÄłCo w
Äłveteran s
Äłweek l
Äłinterpretatio n
Äłpunish m
Äłpunishm e
Äłpunishme n
ÄłProduc t
Äłpunishmen t
Äłentitle d
ÄłDoct o
ÄłPortla n
Äłoppr e
Äłmagn i
Äłpresidenc y
ÄłDocto r
Äłprosecut i
Äłoppre s
ÄłPortlan d
minut e
ÄłCorpor a
Äłae r
Äłoppres s
Äłmuse u
Äłtrail e
Äłhero i
ÄłPerso n
Äłfollowe r
Äłcontrolle r
Äłmuseu m
ÄłÃ¢Ä¢Ä ¿
ÄłNon e
ÄłNint e
ÄłHan d
Äłda s
Äłhock e
ÄłTechnolog y
Äłcrea m
ÄłNinte n
ÄłTra v
ÄłNi k
ÄłNa r
ÄłTw e
Äłmanif e
Äłspokes w
Äłmanife s
Äłspokesw o
Äłspokeswo m
Äłmanifes t
Äłcenter s
Äłurge d
Äłhocke y
Äłroll e
Äłblocke d
Äłclinic a
ÄłOntari o
de o
Äłdu b
Äłclinica l
Äłventur e
Äłobligat i
ÄłNinten d
Äłreview e
Äłpopulation s
ÄłSaf e
Äłartific i
Äłshi e
Äłphotograph e
ÄłPag e
Äłba k
Äł6 6
Äłspokeswom a
Äłspokeswoma n
Äłproject i
ÄłRi s
ÄłSwede n
ÄłDrea m
Äłartifici a
Äłartificia l
ÄłFu t
ÄłRo t
Äłpredict e
Äłpredicte d
ÄłCli c
ÄłNintend o
ÄłE f
Äłwhen e
Äłwide r
Äłci g
Äłpolitical l
Äłpoliticall y
Äłwhene v
Äłquestion e
Äłwhenev e
Äłwheneve r
Äłobligati o
Äłobligatio n
Äłmoc k
ÄłTrans p
Äłtarget i
Äłcorre l
Äłtargeti n
Äłtargetin g
ÄłMo b
Äłsurviva l
ÄłSa d
ÄłMe g
Äłpeace f
Äłcorrel a
Äłdam n
Äłpeacef u
Äłpeacefu l
Äłprefer r
Äłcorrela t
Äł ~
Äłdee m
n ded
Äłrif l
Äłsmel l
Äłrequeste d
ÄłT R
Äłquanti t
ÄłThi r
Äłconfigura t
Äłtouch e
Äłdate s
con f
Äłinterce p
Äłintercep t
Äłchees e
Äłg h
Äłsco u
Äłori e
Äłtestimon y
Äłmonth l
ÄłT E
Äłinse c
Äłfree l
Äłorie n
ÄłStanda r
Äłorien t
Äłcogni t
Äłperson s
Äłguide l
Äłdocumentar y
Äłguidel i
Äłguideli n
ÄłPla t
Äłguidelin e
Äłpi g
Äłdeadli n
ÄłStandar d
ÄłLiver p
Äłdeadlin e
Äłapproache d
Äłinclu s
Äłdialog u
Äłtoxi c
Äłconfigurat i
Äłkille r
ÄłWar n
Äłmun i
ÄłMari o
ÄłBen g
ÄłKi t
Äłconfigurati o
Äłforci n
Äłconfiguratio n
Äłun m
Äłsoc c
Äłcognit i
Äłforcin g
rea k
Äłdialogu e
Äłburn i
Äłceas e
Äłpsychologi c
Äłsecond a
Äłmyster i
Äłrese m
ÄłRobert s
Äłtranslat i
Äłresem b
ÄłP E
Äłentre p
Äłresemb l
Äłun v
Äłcig a
Äłrepresentative s
Äłtactic s
Äłemploye d
Äłpsychologic a
Äłpsychologica l
Äłsocc e
Äłsocce r
ÄłKno w
Äłjump e
Äłsp y
Äłpopulari t
Äłbrillian t
c ount
ÄłLiverp o
ÄłLiverpo o
Äł25 0
Äłcontemp o
ÄłLiverpoo l
ÄłAlexand e
ÄłAlexande r
ÄłThe o
Äłcontempo r
Äłpopularit y
Äłciga r
Äłrece s
Äłre u
Äłanni v
ÄłBloc k
Äłstan c
Äłanniv e
Äłcontra d
Äłannive r
Äłja c
Äłseconda r
Äłanniver s
Äłannivers a
Äłreces s
i rect
Äłdisclos e
Äłorgani c
Äłanimati o
Äłanimatio n
Äłanniversa r
Äłcontrad i
© Ä
Äłcontempor a
Äłsilen t
Äłentrep r
ÄłOrig i
Äłinspir a
Äłsynt h
ÄłRub i
ÄłMary l
Äłinclus i
Äłnon p
Äłpri e
ÄłThin g
Äłmonthl y
Äłmeaning f
Äłmeaningf u
Äłmeaningfu l
ÄłOkla h
ÄłOklah o
Äłthor o
ÄłOklaho m
ÄłHami l
Äłbank i
Äłstepp e
ÄłOklahom a
ÄłIndu s
Äłbanki n
Äłrestaurant s
Äłbound a
Äłbankin g
Äłbounda r
Äłencr y
Äłthoro u
Äłthorou g
Äłencry p
Äłinspira t
Äłunexp e
Äłdesign s
Äłencryp t
Äłthoroug h
Äłrifl e
Äłmurder e
Äłenter p
ÄłFil m
Äłenterp r
ÄłGor d
Äłkit c
Äłmotivat e
Äłprisoner s
Äłkitc h
ÄłBri g
Äłvaria n
ÄłE q
Äłenterpr i
ÄłOrgani z
ÄłKr a
ÄłFa s
Äłcontradi c
ÄłSour c
Äłenterpri s
Äłinspirat i
ÄłExecut i
Äłentrepr e
ÄłDut c
ÄłDutc h
Äłinspirati o
Äłinspiratio n
inn in
Äłentrepre n
Äłassur e
Äłaccus a
ÄłAnton i
Äłkitch e
Äłremov a
Äłkitche n
Äłcontradic t
Äłunexpe c
Äłunexpec t
ÄłGle n
Äłfocus i
Äłfocusi n
Äłregistr a
Äłfocusin g
innin g
ÄłPent a
Äłentrepren e
Äłaccusa t
Äłentreprene u
Äłtesti f
Äł6 3
Äłentrepreneu r
Äłbacteri a
Äłunexpect e
Äłexperiment s
Äłunexpecte d
Äłwed d
ÄłClic k
ÄłTi g
ÄłIr o
o on
ÄłSub s
Äłanonym o
ÄłJer u
Äłanonymo u
Äłanonymou s
ÄłSuppo r
ÄłSuppor t
Äłneg l
ÄłMorr i
ÄłAff a
Äłbeat i
ÄłMemo r
ÄłC C
Äłaffiliat e
ÄłOli v
Äłok a
Äłgeneration s
Äłattacke r
Äłproducer s
Äłchannel s
ÄłSilve r
« Ä
ÄłJeru s
Äłsmok i
ÄłRed d
Äłchron i
Äłinfan t
Äłabilit i
Äłoverse a
Äłserver s
ÄłOc e
Äłabiliti e
Äłrotat i
Äłstabili t
Äłabilitie s
Äłprepar a
ÄłJerus a
Äłpost i
Äłphenomeno n
Äłdemand i
Äłdemandi n
ÄłMoha m
ÄłBei j
ÄłJerusa l
Äłdemandin g
Äłspeciali s
Äłkick e
Äłut t
ÄłJerusal e
ÄłJerusale m
Äłblan k
Äłentra n
Äłanxiet y
Äłair l
ÄłCr y
ÄłKurd i
Äłchroni c
Äłover r
Äłflag s
ÄłNor m
Äłoversea s
Äłsmoki n
ÄłG A
Äłbuy e
Äłsettle d
Äłsuc k
Äłinvestigation s
ÄłAffa i
Äłbuye r
ÄłAffai r
Äłchild h
Äłactive l
ÄłSi e
Äłchildh o
ÄłBeij i
Äłprepar i
Äłchildho o
Äłchildhoo d
Äłargue s
Äłemb e
Äłstun n
Äłprepari n
Äłactivel y
Äłpreparin g
ÄłMaryl a
Äłexplosi v
Äłgri p
ÄłMaryla n
ÄłMarylan d
ÄłPs y
ÄłYO U
Äłslow e
Äłstanc e
Äłnos e
ÄłOrigi n
ÄłSy d
Äłsu e
Äłsimpl i
ÄłHam p
Äłexplosiv e
Äłsubmitt e
ÄłProv i
Äłstabilit y
Äłpoe t
Äłweekl y
Äłmort a
ÄłSourc e
ÄłBeiji n
ÄłHarv a
ÄłBeijin g
Äłutt e
ÄłLan g
Äłutte r
Äłjac k
Äłbit t
ÄłJe a
Äłroom s
ÄłRat h
ÄłHarva r
ÄłHarvar d
Äłmaintaine d
Äłves s
ÄłObama c
Äłcav e
Äłoka y
Äłprepara t
Äłpha r
Äłvess e
Äłvesse l
Äłwealth y
ÄłWor d
ÄłGla s
Äłfoo l
ÄłObamac a
Äłup h
ÄłObamaca r
Äłsearch e
ÄłObamacar e
ÄłBec k
ÄłDig i
ÄłAmon g
ÄłAsse m
Äłargu i
Äłoccupa t
Äłaffordab l
Äłred i
Äłfulfil l
ÄłPa i
Äłdifferent l
Äłoverl o
Äłdifferentl y
ÄłScott i
Äłargui n
Äłrelease s
Äłoccupat i
ÄłWarr e
Äłarguin g
ÄłBerl i
Äłdelet e
Äłsure l
Äłsurel y
Äłoccupati o
Äłdru m
Äłoccupatio n
Äłround s
Äłexha u
Äłexhau s
l owing
Äłlegislati v
Äłexhaus t
ÄłAr k
ÄłMem b
Äłhealth c
Äłspot s
ÄłReserv e
Äłset u
Äłprie s
Äłaccusat i
Äłpens i
Äłanniversar y
ÄłAssem b
p age
ÄłVis i
Äłpois o
Äłpoiso n
Äłsecondar y
ÄłA y
ÄłWarre n
ÄłAssemb l
Äłhealthc a
Äłhealthca r
Äłhealthcar e
ÄłRe b
Äłsaving s
i ving
ÄłNig e
Äłpartic l
ÄłBudd h
Äłanticipat e
ÄłTra c
ÄłGra h
ÄłFest i
Äłparticl e
Äłlegislativ e
ÄłGo n
Äłtitle d
Äłposti n
Äłsymp a
Äłarb i
Äłradia t
Äłtransfer r
Äłpries t
Äłreveal s
Äłsmokin g
Äłtoni g
Äłrein f
Äłarbi t
Äłtonig h
Äłsympa t
ÄłPeter s
Äłridi n
Äłtonigh t
ÄłPla c
ÄłDr o
ÄłCa v
Äłsta m
Äłbroade r
Äłscra p
Äłrela x
ÄłLe b
Äłsubmitte d
Äłmobil i
Äłsetu p
Äłridin g
Äłoffend e
ÄłBru c
Äłcho r
Äłquestione d
Äłtu m
Äłwindow s
ÄłCorpora t
Äłsuspen s
Äłodd s
Äłinch e
Äłuncon s
ÄłVal e
Äłharass m
Äłharassm e
Äłharassme n
Äłharassmen t
Äłcross e
Äłco h
ÄłKurdi s
ÄłO x
Äłburni n
Äłdeadl y
Äłillustrat e
ÄłGrah a
Äłsort s
Äłaccusati o
Äławard e
Äłaccusatio n
Äłvi g
Äł5 9
Äłsympat h
Äłtown s
Äłquote d
Äłli p
ÄłGraha m
ÄłPatri o
Äłburnin g
i deo
Äłrating s
ÄłPatrio t
Äłexperiment a
ÄłBl i
ÄłDic k
Äłkey b
ÄłHar p
Äłreinf o
ÄłAla s
Äłline u
Äłreinfo r
Äłlineu p
Äłerror s
Äłreinfor c
ÄłBerli n
Äłhi k
Äłaffordabl e
Äłbesi d
res e
Äłbesid e
Äłmort g
Äłmortg a
Äłmortga g
Äłbel t
ÄłArm e
ÄłFesti v
Äłdeli c
Äłbird s
Äłcircula t
Äłbutt e
ÄłCont e
Äłregre t
ÄłGul f
Äłreform s
Äłalli a
Äłattracti v
ÄłExp l
Äłbeati n
a rke
Äłallia n
ÄłMemb e
Äłattractiv e
Äłflo u
ÄłStor y
Äłthreaten i
Äłthreateni n
ÄłMembe r
ÄłÃ¢ÄªÄ ´
« Â
Äłthreatenin g
Äłallian c
Äłallianc e
Äłseven t
ÄłHear t
Äłbitt e
Äłbeatin g
Äłpropagand a
Äłprosecutor s
Äłimportant l
Äłimportantl y
ÄłKi c
Äłmut a
ÄłHu s
Äłpostin g
Äłstore d
Äłpers u
Äłven d
ÄłAddi t
ÄłTenn e
Äłwrap p
ÄłEli z
ÄłOce a
mon g
Äłsp u
Äłinstruction s
ÄłA A
Äłdisg u
Äłwish e
Äłrepli c
Äłprecise l
Äłprecisel y
ÄłAddit i
Äłpollut i
Äłceremon y
Äłmortgag e
Äłpu z
ÄłOcea n
Äłreplic a
Äłstruggle d
Äłmos q
Äłpuz z
Äłpoint i
Äłpersu a
Äłmosq u
Äł199 2
Äłlabo u
Äłlabou r
Äłpuzz l
Äławarde d
Äłshie l
p ress
Äłshiel d
ÄłOrd e
ÄłBel o
ÄłEq u
Äłcontempora r
ÄłJona t
ÄłBar c
ÄłOak l
Äłdy i
Äłdyi n
Äłrecr e
Äłlegali z
Ĺ Ä
ÄłYe m
ÄłCarte r
Äłclu s
Äłrecre a
Äłwedd i
Äłweddi n
Äłpi s
Äłnew e
Äłweddin g
ÄłLef t
Äładver s
ÄłBloo m
Äłtrem e
Äłclus t
ÄłPer r
Äłvoice s
Äłkilo m
Äłrecrea t
Äłdyin g
Äłclust e
Äłcluste r
Äłren o
Äłpick s
Äłtreme n
Äłmagne t
ÄłLibr a
Äłcrus h
ÄłMorri s
Äłage s
ÄłCol e
Äłglo r
Äłkilom e
Äłborder s
Äłclari f
Äłkilome t
ÄłMur r
ÄłRev e
Äłpointi n
ÄłNet f
ÄłBat m
Äłwave s
ÄłJonat h
ÄłHer o
Äłpointin g
Äłstream i
Äłcooperati o
Äłcooperatio n
Äłassa s
Äłstreami n
Äłtremen d
Äłstreamin g
ÄłGi n
Äłpredicti o
ÄłIndus t
Äłpredictio n
Äłsimul t
ÄłCam b
ÄłVen e
ÄłKri s
ÄłIndust r
ÄłPalestinian s
ÄłBre x
ÄłPhilipp i
Äłshut t
Äłdifficult y
Äłobse s
Äłtremend o
Äłsimult a
Äłpensi o
ÄłStati o
ÄłStatio n
Äłundermin e
ÄłNetf l
Äłtremendo u
Äłsimulta n
Äłtremendou s
ÄłBelg i
Äłpensio n
ÄłBuc k
Äłfacilit a
Äłauto n
Äłderiv e
Äłobses s
ÄłGo t
Äłland e
Äłcham b
ÄłNetfl i
Äłgu t
Äłstay i
Äłstayi n
ÄłNetfli x
ÄłBrex i
Äłoccup i
ÄłBrexi t
ÄłChel s
ÄłRub y
Äłoccupi e
ÄłMOR E
ÄłLeg i
Äłkeyb o
Äłstayin g
ÄłF D
Äłresu m
ÄłEliz a
Äłassas s
ÄłLev e
ÄłThe a
Äłsimultan e
Äłassass i
Äłassassi n
Äłbiologi c
Äłfacilita t
ÄłCo v
Äłkeybo a
Äłkeyboa r
Äłkeyboar d
ÄłMon s
Äłdevot e
Äłairl i
ÄłJea n
Äłcollaborati o
Äłcollaboratio n
Äłauton o
Äłdistin g
Äłpromis i
Äłarchi v
Äłautono m
Äłdisting u
ÄłAdditi o
Äłtimi n
ÄłAdditio n
Äłenr o
Äłtimin g
Äłcategori e
l ut
Äłconsensu s
ÄłAnim a
Äłunfa i
us h
Äłfood s
Äłfeminis t
ÄłRi o
ÄłYem e
Äłassume d
Ã¯Â ¿
Äłsteppe d
de e
Äłcategorie s
Äłassign e
Äłpromisi n
Äłpromisin g
ÄłKic k
ÄłNe u
ÄłFi t
Äłaffect i
Äłpros t
Äłenterpris e
Äłdistingu i
Äłdrive s
**** ****
ÄłScotti s
ÄłFestiv a
ÄłMorg a
Äłsenti m
ÄłScottis h
Äłchamb e
Äłchambe r
Äłphysical l
Äłdistingui s
Äłsurr e
Äłstrategi e
Äłwant i
ÄłChels e
Äłphysicall y
ÄłYeme n
ÄłFestiva l
Äłplayoff s
Äłdistinguis h
Äłbutte r
ÄłMean w
Äłgreat l
Äłwanti n
ÄłB h
ÄłBry a
Äłgreatl y
Äłtrea s
ÄłMeanw h
Äłnurs e
ÄłMeanwh i
ÄłSher i
ÄłMeanwhi l
ÄłMeanwhil e
Äłstrategie s
Äłsentim e
Äłsentime n
Äłpleas u
Äłpleasu r
Äłbrewe r
Äłsentimen t
Äłwantin g
Äłrefi n
Äłimplication s
Äłwherea s
ÄłTenne s
Äłhighlight s
ÄłPro c
Äłinh a
ÄłBrya n
Äłsimultane o
Äłsimultaneo u
Äłsimultaneou s
Äłinvasi o
Äłinvasio n
Äłfab r
Äłinequ a
ÄłGran t
Äłinequa l
Äłfabr i
Äłallo c
Äłinche s
Ã¯Â¿ Â
ÄłSara h
ÄłPhilippi n
Äłinequal i
ÄłChelse a
Äłinequali t
ÄłPhilippin e
Äłcentur i
Äłsai l
ÄłL t
Äłblock c
ÄłSu l
ÄłSe s
Äłexecutive s
Äłassigne d
ÄłMorga n
Äłblockc h
ÄłE V
ÄłTennes s
Äłcontact e
Äłdown s
Äłque r
ÄłOrde r
Äłblockch a
Äłblockcha i
Äłblockchai n
ÄłHamil t
ÄłHamilt o
ÄłHamilto n
Äłdefeat e
ÄłTenness e
Äłfe t
Äłhum o
Äłult r
Äłfabri c
Äłu m
Äłgrav i
Äłaccessib l
ÄłKha n
Äłfrequenc y
Äłremarkabl e
Äłcontinu o
Äłdefeate d
Äłproto t
Äłenro l
ÄłPe l
i cle
Äłmat u
Äłpreparat i
Äłcoc k
Äłfla m
Äłimpr i
Äłlisten e
Äłevaluat e
Äłex o
Äłcloth i
ÄłWe n
Äłcircu i
ÄłPu n
Äłcircui t
Äłpreparati o
Äłpreparatio n
Äłopen s
Äłemerg i
Äłemergi n
Äłcontacte d
Äłmatu r
Äłemergin g
Äłultr a
Äłaccessibl e
Äłfree z
Äłgro s
Äłcoin c
Äłprotot y
Äłprototy p
Äłtun n
Äłwound e
ÄłDo g
ÄłMont r
ÄłHol d
Äłmotivati o
ÄłLu k
Äłmotivatio n
ÄłTow e
ÄłArs e
Äłmerg e
Äłbree d
Äłparticipati o
Äłrevel a
Äłwounde d
Äłparticipatio n
Äłhar s
Äłcontinuo u
ÄłBar n
Äłcoinc i
Äłcontinuou s
Äłcoinci d
Äłhars h
Äłdat i
A ut
ÄłSyd n
Äłdos e
Äłtunn e
ÄłTal i
Äłmanag i
Äłmanagi n
ÄłAdv e
Äłmanagin g
Äłeducat e
Äłhoste d
Äłpick i
Äłtunne l
ÄłRange r
ÄłFut u
r ange
Äłplea d
ÄłSydn e
ÄłProtect i
Äłrobb e
Ã¯Â¿Â ½
Äłinn i
ÄłMar x
Äłso v
Äłgen i
ÄłChild r
Äłappoint m
Äłappointm e
ÄłChildr e
Äłappointme n
Äłappointmen t
r rent
ÄłSydne y
Äłcompeti n
Äłcompetin g
ÄłAl o
ÄłKing s
Äłdonation s
ÄłMc K
Äłout b
ÄłMcDo n
ÄłHon g
Äłrevela t
Äłministr y
Äłpro x
Äłmemori e
ÄłBruc e
ÄłIro n
Äłcenturi e
Äłgros s
Äłdime n
ÄłArse n
Äłcenturie s
ÄłV A
Äłk o
Äłmemorie s
Äł199 3
ÄłAffair s
Äłclothi n
Äłclothin g
Äłsn i
Äłpicki n
ÄłUb e
ÄłMes s
Äłpromoti n
Äłwild l
Äłdress e
Äłpromotin g
ÄłSi t
ÄłLibra r
Äłindicate s
ÄłDa w
Äłswee p
Äłopen l
§ Â
ÄłJonath a
Äłtrial s
Äłdimen s
ÄłJonatha n
Äłbiologic a
ÄłConve n
Äłjur i
Äłbiologica l
ÄłFutu r
Äłathlete s
Äłdimens i
Äłinni n
Äłopenl y
Äłinnin g
ÄłSea n
ÄłBer k
Äłti s
Äłrebu i
Äłlimit a
Äłrebui l
Äłpreten d
Äłdimensi o
Äłdimensio n
Äłcounterp a
Äłpickin g
Äłdeser t
Äłdiv o
ÄłPho e
Äłcounterpa r
Äłcre e
Äłguideline s
Äłcart o
ÄłEdit i
Äłcounterpar t
ÄłCa u
ÄłMil i
Äłalloc a
ÄłInsta g
Äłgravi t
Äłinvestment s
ÄłBatm a
ÄłRi n
ÄłInstag r
Äłrealis t
Äłresiden c
ÄłUbe r
Äłtire d
Äłenthusias t
Äłeducation a
Äłeducationa l
Äłlegal l
ÄłInstagr a
Äłeligib l
Äłlegall y
Äłdati n
ÄłBatma n
Äłphar m
Äłdatin g
Äłsuspect s
ÄłInstagra m
Äłeligibl e
Äłunv e
Äł195 0
ÄłMr s
g ge
ÄłPar e
Äłcelebr i
Äłathlet i
Äłmole c
Äłunder t
ÄłManage m
Äłathleti c
ÄłManagem e
ÄłRela t
Äłpharm a
ÄłJer e
ÄłRepr e
ÄłManageme n
Äłalloca t
Äłmolec u
ÄłManagemen t
Äłcelebri t
Äłapologi z
Äłmolecu l
ÄłD V
Äłdamage d
ÄłRol l
Äłbra c
Äłcustod y
ÄłRepre s
ÄłAssembl y
Äłlimita t
Äłbattle s
ÄłEs p
ÄłCa i
ÄłPenta g
ÄłPic t
Äłtrib e
Äłmoo d
Äłdefend i
Äłtherap y
Äłlu x
G oogle
Äłdivo r
Äłlimitat i
Äłreso r
ÄłPsy c
ÄłV l
ÄłSn a
Äłlimitati o
Äłlimitatio n
Äłcelebrati o
Äłcelebratio n
Äłraci n
Äłsupp r
ÄłHaw k
Äłdivor c
Äłcompensat i
ÄłSur e
ÄłPlac e
Äłge s
ÄłUp d
Äłdefendi n
ÄłWal e
Äłdefendin g
Äłage d
Äł6 7
ÄłVi k
ÄłHi d
Äłdominan t
Äłstudy i
Äłri o
Äłstudyi n
Äłgradua l
Äłcharit y
Äł18 9
Äłtrib u
Äłstudyin g
Äłhil l
Ã¢Ä¢Ä ²
Äłsuppr e
Äłsuppre s
Äłgla d
ÄłEf f
Äłsuppres s
ÄłBi n
ÄłTowe r
Äłracin g
Äłperceive d
Äłcontract o
Äłflowe r
Äłcontracto r
ÄłThro u
Äłpe p
ÄłHaw a
Äłspectr u
Äłbubbl e
Äłspectru m
Äłback i
Äłsti n
Äładdresse s
ÄłThrou g
Äłlap t
Äłheli c
ÄłMode l
ÄłThroug h
Äłster e
Äłbacki n
Äłovercom e
Äłexpand i
ÄłComp l
ÄłExpe r
Äłstere o
Äłbackin g
Äłexpandi n
Äłexpandin g
ÄłPsyc h
ÄłNu m
Äłmanager s
Äłtransform a
ÄłHun g
Äłrio t
Äłlife t
Äłfili n
ÄłChan n
Äłtis s
Äłfilin g
Äłbur g
ÄłEm m
ÄłMon e
Äłtiss u
Äłlifet i
Äłnegotiat e
Äłlifeti m
Äłlifetim e
Äłevaluat i
Äłtra u
Äłresor t
Äłtable s
Äłdiscussi n
Äłcond o
Äłtissu e
Äłminim a
Äłdiscussin g
Äłdiscou n
Äłdiscoun t
ÄłThea t
Äłemphasi s
Äłdefend a
Äłle c
Äłrenewa b
Äłtheori e
Äłlin g
rev i
ÄłMov e
Äłdisco n
Äłtheorie s
ÄłPentag o
ÄłExecuti v
Äłrenewab l
ÄłPentago n
Äłtrau m
ÄłSeve r
Äładdict i
a ring
Äłhopeful l
ÄłHar t
s hing
Äłlapt o
Äłmission s
Äłlapto p
ÄłExecutiv e
ÄłChildre n
ÄłB M
Äłhopefull y
Äłtraum a
Äłsubt l
ÄłAddition a
ÄłAdditiona l
Äłunderl y
Äłindicati o
Äłrenewabl e
Äłindicatio n
Äłarbit r
Äłbirth d
Äłfollower s
Äłbirthd a
Äłspi l
Äłse d
Äłindustri e
Ã¢Ä¢Â¦ .
Äłsuit e
Äłcompar a
ÄłCas e
Äłdefenda n
Äłdefendan t
Äłprocess o
Äłton s
ÄłEgypt i
Äłcapitalis m
Äłunderly i
Äłunderlyi n
ÄłOakl a
ÄłGa b
Äłunderlyin g
Äłarbitr a
Äłtraile r
Äłfen c
ÄłRuss e
ÄłEgypti a
ÄłEgyptia n
ÄłRepres e
ÄłReprese n
ÄłMarsh a
ÄłThin k
Äłsumm i
Äłcos m
ÄłRepresen t
Äłhacke r
ÄłOakla n
ÄłOaklan d
Äłmusic i
ÄłMet a
Äłjud i
Äłincorporat e
Äłvo w
Äłhor i
Äłstop s
Äłdisease s
ÄłYea h
Äłtransforma t
Äłmusici a
Äłmusicia n
Äłindustrie s
ÄłComi c
Äładvis o
Äłinstall a
Äładviso r
Äłtransformat i
Äłshipp i
Äłshippi n
Äłhori z
ounde r
Äłshippin g
Äłcompa t
ÄłRel i
ÄłA e
Äłjudi c
Äłunfai r
Äłcoach i
Äłhoriz o
Äłhorizo n
Äłcoachi n
Äłrevolution a
Äłfund r
Äłfundr a
Äłcoachin g
Äłbeing s
Äłsuppl e
Äłrevolutiona r
Äłtee t
ÄłCharl i
Äłfundra i
Äłfundrai s
Äłrevelat i
ÄłS r
Äłrevelati o
Äłrevelatio n
Äłflee t
ÄłTha i
dition a
Äłremova l
Äłble n
Äłbi c
Äł6 8
Äłtrend s
ÄłCurr e
Äłgraphic s
Äłca c
Äłscru t
Äłtu t
Äłhel m
ditiona l
ÄłJac o
Äłess a
Äłscrut i
ÄłOperati o
ÄłOperatio n
ÄłMurr a
ÄłGar y
Äłscruti n
Äłblen d
Äłprocesso r
Äłjudic i
Äłobs c
ÄłMan u
Äłin b
Äłcreature s
ÄłML S
ÄłCus t
ÄłSec t
Äłfle d
ÄłCons u
Äłcalculat i
ÄłS D
Äłeag e
ÄłP T
ÄłNorm a
Äłbo i
Äłeage r
Äłexplain i
ÄłS M
Äłexplaini n
Äłexplainin g
Äłcoincid e
Äłro y
Äłprocedure s
ÄłEm e
ÄłTennesse e
Äłcrash e
ÄłNe l
ÄłAre a
Äłsing e
ÄłDom i
ÄłChrist o
ÄłHawa i
ÄłIn n
ÄłDu k
Äłlux u
Äłinstalla t
Äłhospital s
Äłshoe s
ÄłP L
Äłluxu r
Äłinstallat i
ÄłCurre n
Äłinstallati o
Äłinstallatio n
Äł( "
ÄłHop e
Äłjustif y
ÄłEliza b
ÄłElizab e
ÄłElizabe t
ÄłUpd a
Äłbirthda y
ÄłNam e
ÄłUpda t
Äłanswer e
Äłroy a
ÄłPri v
ÄłThom p
Äłsov e
ÄłElizabet h
m aking
Äłroya l
ÄłRedd i
ÄłAssa d
Äłretail e
Äłspil l
Äłsove r
Äłanswere d
Äłnerv o
ÄłGui d
ÄłT s
Äłregulator y
ÄłFer r
Äłbad l
ÄłBo x
Äłarr o
Äłpull i
Äłdivorc e
Äłgr u
Äłshoot e
Äłinteri o
Äłsover e
Äłegg s
Äłsovere i
Äłinsul t
Äłinterio r
Äłpulli n
Äłsoverei g
Äłsovereig n
Äłble s
Äłsac k
Äłshoote r
Äłpreferr e
Äłpullin g
ÄłBa g
Äłpreferre d
cke t
Äłhal t
ÄłMurra y
Äłideolog i
ÄłSha d
Äłbank r
Äłdie s
Äłhelic o
Äłengineer s
Äłrebel s
Äłregistra t
ÄłWale s
Äłcoa t
ÄłRa v
Äłrecogni s
Äłbles s
ÄłFrie n
Äłessa y
ÄłKent u
ÄłKentu c
ÄłKentuc k
ÄłCome y
ÄłFrien d
ÄłAna l
Äłpri d
Äłregistrat i
Äładvertise m
Äładvertisem e
Äładvertiseme n
Äładvertisemen t
ÄłTru s
Äłregistrati o
Äłregistratio n
Äłdesk t
Äłdeskt o
Äłdeskto p
Äłcontin e
t icle
Äłdiplomat i
Äłhelico p
Äłconstitut e
Äłairli n
Äłhelicop t
Äłairlin e
ÃĤÂ °
Äłhelicopt e
Äłhelicopte r
Äłcharacteri z
Äłcontine n
Äłsearch i
ÄłBak e
Äłsearchi n
ÄłOb s
Äłunlo c
Äłhomo s
Äłgene s
Äłsearchin g
Äłunn e
Äłretaile r
Äłtopic s
Äłbur s
Äłmerc h
Äłunloc k
ÄłThomp s
Äłprid e
Äłdiplomati c
Äłroll i
Äłexplo d
Äł7 7
Äłunderg o
ÄłNic o
ÄłThomps o
ÄłThompso n
Äłtweet s
Äłbadl y
Äłprosecuti o
Äłprosecutio n
Äłbenefi c
Äłpleasur e
ÄłRusse l
ÄłE C
o rder
ÄłWin t
ÄłConven t
Äłpreced e
Äłfold e
Äłevery d
Äłsixt h
Äłfavour i
Äłmeasure m
Äłeveryd a
Äłmeasurem e
Äłri t
Äłmeasureme n
Äłeveryda y
Äłmeasuremen t
Äłenrol l
Äłperiod s
ÄłPhoe n
Äłengage m
ÄłMod i
ÄłJere m
Äłgal a
Äłcle r
Äłengagem e
Äłengageme n
Äłengagemen t
ÄłDel h
r ticle
Äłcontinen t
ÄłGord o
ÄłDigi t
ÄłPict u
Äłver b
Äłload e
ÄłPhoen i
Äłnotabl e
Äł( )
ÄłPictu r
ÄłUkrain i
Äłsignal s
Äłcoll i
ÄłPea c
Äłfar e
ÄłRath e
Äłsentence d
Äłlove s
Äłexp i
Äłpsych i
ÄłUkraini a
Äłbillion s
ÄłUkrainia n
Äłcheck e
ÄłUs i
Äłoutlet s
Äłnervo u
Äłnervou s
ÄłUpdat e
Äłcho c
Äłhistori a
a ine
ÄłÃ ĺ
ÄłPictur e
ÄłCha l
ÄłPie r
Äłsupple m
Äłsupplem e
Äłsuppleme n
Äłsupplemen t
Äłesca l
Äłemphasiz e
overn m
overnm e
overnme n
Äłpolluti o
overnmen t
Äłpollutio n
ÄłWarr i
Äłas c
ÄłVl a
ÄłGil l
Äłsinge r
i tation
Äłlec t
Äłuncertain t
Äłpa u
Äłspecta c
Äłtelep h
ÄłPan t
Äłteleph o
Äłhomos e
ÄłCharli e
Äłsection s
ÄłRepresent a
ÄłHarp e
ÄłUsi n
ÄłJaco b
Äłoccur s
ÄłHam a
Äłcrit e
Äłcrite r
Äłcompensati o
Äłcompensatio n
Äłhomose x
ÄłMan i
Äłescal a
Äłminima l
Äłpharma c
Äłunpre c
renc e
Äłcriter i
Äłhomosex u
ÄłBrook l
ÄłRathe r
ÄłUsin g
ÄłRepresenta t
ÄłRepresentat i
Äłunprec e
Äłcourt e
Äłrequir i
Äłrequiri n
Äłrequirin g
ÄłFac t
Äłbum p
Äłhomosexu a
Äłhomosexua l
Äłtea s
ÄłBet t
Äłtreat i
Äłdia m
Äłspot t
Äłunprece d
Äłunpreced e
Äłdescen d
Äłunprecede n
Äłunpreceden t
Äłart s
ÄłStra t
Äłsummi t
Äłunprecedent e
Äłunprecedente d
ÄłSu d
Äłescala t
Äłpart l
ÄłDelh i
Äłsuspens i
Äłexemp t
ÄłConvent i
ÄłId e
7 00
F inally
ÄłGordo n
Äłpartl y
ÄłFinal l
ÄłConventi o
ÄłFinall y
ÄłConventio n
ÄłWhe t
Äłurge n
Äłeconomic s
ÄłAla n
Äł7 6
Äłsuspensi o
Äłsuspensio n
Äłina c
Äłtub e
ÄłKentuck y
Äłow e
Äłciti n
Äłcitin g
Äłbol d
Äłins a
Äłmigrant s
ÄłOr t
u rrent
ÄłPal a
Äłroot s
Äłmaint e
ÄłThere f
Äłexpi r
ÄłTheref o
ÄłTherefo r
Äłmainte n
Äłconcept s
Äłapproache s
Äłpain f
Äłpainf u
Äłcarrie s
Äłpainfu l
¹ Ä
Äłrolli n
Äłinse r
us i
Äłweak n
Äłtwi n
Äłweakn e
Äłweakne s
Äłweaknes s
Äłarmo r
Äłextraordinar y
Äłtranslati o
Äłtranslatio n
ÄłTho r
ÄłHarpe r
Äł199 1
Äłato m
ÄłChann e
ÄłBan d
ÄłT A
ÄłAb r
ÄłRegi o
Äłburs t
Äłmainten a
ÄłAa r
ÄłTherefor e
Äłasp i
ÄłPitt s
ÄłChanne l
Äłmaintena n
Äłges t
ÄłDomi n
Äłdepo r
us a
Äłinser t
ÄłTit a
ÄłRea g
Äłlay o
Äłdepor t
Äłcurio u
ÄłUnl i
Äłcuriou s
Äłvis a
Äłattend a
Äłcabin e
Äłhistoria n
Äłupl o
Äł) .
Äłrollin g
Äłattenda n
Äłgame p
Äłuplo a
ÄłAb e
Äłuploa d
Äłdisrupt i
ÄłAre n
Äłgrab b
ÄłBern a
Äłcabine t
ÄłSho u
Äłinstance s
ÄłFin d
Äłbenefic i
inco m
ÄłPro s
Äłdream s
Äłsit s
Äłaspi r
Äłmic e
ÄłWo u
Äłmaintenan c
Äłmaintenanc e
Äłrush e
ÄłRegio n
Äłabsor b
ÄłMari a
Äłspeciali z
Äłtalent e
ÄłGive n
ÄłKe i
Äłcomplex i
Äłtalente d
ÄłGD P
Äłshock e
ÄłWhet h
Äłdevastat i
ÄłGard e
Äłdru n
ÄłWheth e
ÄłWhethe r
Äłski p
Äłlifes t
ÄłN R
Äłpublish i
Äłpublishi n
Äłmuni c
Äłpublishin g
Äłdrun k
ÄłElect i
ÄłAh m
ÄłTita n
ÄłCharl o
Äłsubst i
ÄłCapt a
Äłme g
Äłdramatic a
Äłsubsti t
Äłdramatica l
Äłdramatical l
Äłhum i
Äłdramaticall y
ÄłMontr e
Äłsubstit u
Äłbenefici a
Äłvia b
Äłmunic i
ÄłIndependen t
Äłdisplay e
Äłmunici p
Äłrecon s
Äłca f
ÄłMiss o
Äłdisplaye d
Äłtelepho n
Äłburn e
Äłcomic s
Äłmedica t
ÄłColle c
Äłcontemporar y
Äłmyster y
Äłlia b
a cked
Äłaim s
Äłdemand e
Äłutilit y
Äłentran c
Äłcorrect l
Äłcamp s
Äłcorrectl y
ÄłRussel l
ÄłCollec t
ÄłSpe e
ÄłI a
Äł7 3
ÄłShor t
Äłconstitu e
Äłanalyst s
Äłunve i
Äłbath r
Äłunvei l
ÄłCapta i
Äłinquir y
Äłbathr o
ÄłWri g
ÄłCaptai n
Äłleak e
Äłunderw a
Äłbitte r
Äłstimul a
Äłdeploy e
Äłpoll i
Äłencourag i
Äłencouragi n
Äłencouragin g
ÄłReag a
ÄłFutur e
ÄłReaga n
Äłcontra r
ÄłMisso u
Äłwis e
ÄłTot a
Äłdeli g
Äłneighbor s
ÄłiP a
Äłup r
Äłconstitue n
ÄłCharlo t
Äłjudici a
ÄłDo d
ÄłDu c
Äłreinforc e
Äłtop p
Äłrecommendation s
º Ä
ÄłQui n
Äłdelig h
Äłcheape r
Äłsubstitu t
Äłdeligh t
Äłmunicip a
Äłassert i
Äłsurviv o
ÄłElecti o
n ation
Äłmunicipa l
ÄłElectio n
Äłsurvivo r
ÄłBelo w
Äłprompt e
ÄłSumm e
Äłdeploye d
Äłlifest y
Äłlifesty l
Äłconsulta n
Äłbul k
ÄłFar m
Äłreserve d
Äłtrag e
ÄłCharlot t
Äłmanufacturer s
Äłti d
Äłintegrati o
Äłintegratio n
ÄłVo t
omme n
Äłlifestyl e
s ke
Äłha z
ÄłKer r
Äłpolli n
ÄłTyp e
Äłjun i
O ut
ÄłAcce s
int o
Äłdisappoint e
Äłdisappointe d
Äłentranc e
Äłsustainab l
ÄłTa x
ÄłCharlott e
Äłhang i
ÄłPro b
ÄłTota l
ÄłFi v
Äłprompte d
Äłfit t
Äłp y
Äłtende n
ÄłCust o
Äłpuzzl e
Äłmerch a
Äłhangi n
ÄłArti c
Äłmercha n
Äłtrage d
Äłfavouri t
ÄłSo f
ÄłSumme r
Äłemployer s
ÄłSte w
Äłstatistic a
ÄłAlli a
Äłeco s
ÄłFiv e
ÄłPhoeni x
Äłrealist i
Äłcivili z
ÄłTransp o
Äłstatistica l
ÄłiPa d
ÄłSal e
Äłdeliver i
Äłinterviewe d
ÄłN D
Äłtheor e
ÄłCov e
l arge
Äłdemande d
ÄłChro m
ÄłAllia n
Äłrealisti c
Äłboa s
Äłlande d
ÄłDigit a
ÄłAcces s
Äłaccu m
Äłwall e
Äłhero e
ÄłBrookl y
Äłfight s
Äłpan t
Äłheroe s
ÄłBrookly n
Äłpan i
ÄłSpi r
Äłscra t
Äłscrat c
Äłscratc h
Äłcouple s
Äłend l
Äłviolation s
Äłhangin g
Äłcogniti v
Äłturn o
Äłseize d
Äłgri n
Äłsession s
ÄłAl m
Äłpred e
ÄłFan t
ÄłAntoni o
Äłamp l
ÄłChe n
ÄłMan h
Äłprospect s
ÄłJava S
ÄłDigita l
Äłas h
Äłinequalit y
Äłingredient s
Äłoccasional l
Äłoccasionall y
Äłplease d
Äłpod c
ÄłBen n
ÄłCli m
Äłcognitiv e
Äłafter w
ÄłPhill i
ÄłAud i
Äłaccompan i
Äłboas t
ÄłOc c
Äłpodc a
Äłvulnerab i
Äłvulnerabi l
Äłstati n
Äłpaint e
ÄłEP A
ÄłAss i
ÄłAuthorit y
Äłpersist e
Äłlak e
Äłmodifie d
Äłgra i
Äłvulnerabil i
ÄłTrus t
r ning
Äłpermit t
Äłstress e
ÄłJavaS c
Äłbathro o
ÄłMontre a
Äłvulnerabili t
Äłbathroo m
Äłspeculati o
Äłspeculatio n
ÄłJavaSc r
ÄłJavaScr i
ÄłJavaScri p
ÄłJavaScrip t
Äłguest s
Äłpodca s
Äł7 4
Äłlesson s
Äłpodcas t
ÄłPare n
Äłfavourit e
T ime
Äłconscious n
Äłouts t
ÄłMontrea l
Äłconsciousn e
Äłconsciousne s
Äłconsciousnes s
ÄłInsi d
Äłinfe r
Äłkni f
Äłecos y
ÄłO R
Äłback u
Äłbacku p
Äłown s
Äłecosy s
Äłdependen c
Äłdepart u
Äł7 8
Äłdepartu r
Äłdepartur e
Äłecosys t
Äłecosyst e
Äłecosyste m
Äłundergr o
ÄłParen t
ÄłO i
ÄłCapit o
u le
Äłresum e
ÄłNev a
Äłlect u
Äłaccepta b
Äłdeal e
l lowing
Äłexclud e
ÄłIn i
ÄłEme r
Äłade q
Äładeq u
Äłhigh w
ÄłSta f
Äłdeale r
Äładequ a
Äłjuri s
Äłperformance s
Äłhighw a
Äłabst r
Äłcata l
Äłtenden c
ÄłHawai i
ÄłMob i
ÄłLi e
Äłmeg a
Äłradiat i
Äłhighwa y
Äłrevi v
Äłpregnan t
Äłlectu r
ÄłPer f
Äłsk a
Äłoptimi z
Äłvolunteer s
l ink
ÄłRepresentati v
Äłje r
Äłlon e
ÄłRepresentativ e
Äłrealis e
Äłrec u
Äłknif e
ÄłC L
ÄłStaf f
ÄłÃĺ Â
Äłemotion s
ÄłVene z
ÄłPola n
Äłband s
Äłmou s
ÄłMala y
Äłmigrat i
ÄłDuk e
Äłhorri b
ÄłOrl e
Äłair s
Äłterritor i
ÄłCo c
Äłconse c
Äłextremis t
Äłmaintain i
Äłmaintaini n
Äłmaintainin g
Äłafterw a
ÄłLea r
ÄłTranspo r
Äłafterwa r
Äłafterwar d
Äłpani c
ÄłInsid e
Äłgener o
ini s
ÄłTranspor t
Äłimpose d
Äłal u
Äł> >
Äłoverse e
Äłboi l
Äłgri e
Äłcoordinat e
Äłstam p
Äłcorrespond e
Äłtur b
ÄłProtecti o
ÄłKr e
ÄłChristo p
ÄłProtectio n
Äłbar g
Äłapologiz e
Äłpatr i
Äłmedicat i
Äłhorrib l
ÄłWarri o
Äłfine s
ÄłAv a
ÄłAl p
ÄłWarrio r
ÄłArg e
Äłsin k
ÄłTab l
Äłgirl f
ÄłR P
Äłburi e
ÄłVi t
Äłprofessional s
Äłmilitant s
Äłgirlf r
Äł= =
Äłconfuse d
Äłtravel i
Äłtraveli n
Äłconstr a
Äłteet h
Äłgirlfr i
Äłgirlfri e
Äłgirlfrie n
Äłgirlfrien d
Äłmer i
Äł7 1
ÄłTali b
Äłjumpe d
Äłcancel l
Äłtravelin g
inc h
ÄłOrganiz a
Äłelectora l
ÄłOrle a
ÄłCoa l
ÄłOrlea n
Äłabstr a
ÄłColli n
Äłswor d
ÄłCre e
ÄłHit l
r ime
Äłsynth e
ÄłMissou r
ÄłS N
Äłshocke d
Äłsol o
Äłconstra i
Äłconstrai n
ÄłMissour i
ÄłTemp l
Äłrevis i
Äłswitch e
Äłundergro u
ÄłChristop h
Äłundergrou n
Äłphysici a
Äłabstra c
Äłundergroun d
Äłprototyp e
Äłabstrac t
Äłphysicia n
ÄłHitl e
Äłlibrar i
Äłboxe s
ÄłHitle r
ÄłBea t
h ange
ÄłStud e
Äłmedicati o
Äłmedicatio n
Äłrecall e
ÄłOrl a
Äłcross i
Äłrecalle d
Äłcrossi n
ÄłLin c
ÄłAp o
ÄłNeva d
Äłcrossin g
Äłji h
Äłflou r
ÄłArtic l
ÄłAlas k
ÄłOrganiza t
Äłpron o
ÄłArticl e
Äłisolate d
Äłdivi n
Äłsn e
ÄłOrganizat i
ÄłOrganizati o
Äłp m
ÄłOrganizatio n
ÄłAlask a
ÄłPitts b
ÄłVenez u
ÄłSheri f
Äłjuni o
ÄłLibrar y
Äłopposi n
Äłopposin g
Äłfu s
Äłhypothe s
Äłthir t
Äłexiste d
Äłconcern i
ÄłNevad a
Äłconcerni n
Äłpil e
ÄłT I
Äłconcernin g
z on
ÄłVenezu e
Äłaccum u
Äłport a
ÄłVenezue l
ÄłKa m
Äłaccumu l
Äłmass a
ÄłCommuni s
Äłinb o
ÄłPittsb u
ÄłActi v
ÄłVenezuel a
Äłgamep l
Äłgamepl a
Äłinher e
Äłvoi d
ÄłPittsbu r
Äłjih a
ÄłArge n
Äłaccumul a
ÄłPittsbur g
Äłanno y
Äłdescrib i
Äłaccumula t
Äłwe t
Äłintegr i
ÄłMarsha l
Äłcontribut o
Äłdu a
Äłsurround e
Äłsurrounde d
ÄłCusto m
Äłjiha d
Äł60 0
Äłmed a
Äłtelephon e
Äłdescribi n
Äłdescribin g
Äłau s
ÄłMai l
Äłcontributo r
Äłfa d
ÄłDi n
ÄłR S
Äłjunio r
ÄłCapito l
Äłhur r
ÄłEditi o
ÄłAd e
Äłprono u
Äłboun c
Äłchoc o
ÄłEditio n
ÄłOrlean s
Äłam m
ÄłCirc u
Äłpronou n
ÄłCra i
Äłalu m
ÄłOrla n
ÄłSy n
ÄłSes s
ÄłArsen a
Äłchoos i
Äłspecialis t
Äłcarto o
Äłcartoo n
Äłtext u
Some t
Äłmeda l
Äłinhere n
ÄłR s
Äłdeclar a
ÄłKi d
ÄłHav i
Äłdefe c
ÄłArgen t
Äłsoph i
ÄłFig u
ÄłHind u
Äłchoosi n
Äłinheren t
ÄłAdam s
Äłkicke d
Äłepi c
ÄłE R
ÄłEm b
Äłchoosin g
Äłmoment u
Äłendl e
Äł18 6
Äłendle s
Äłpregnan c
Äłrefer s
Äłdependen t
Äłendles s
ÄłCo h
Äłmodes t
ÄłSherif f
Äłmone t
ÄłOrlan d
ÄłReddi t
Äłreference s
Äłsophi s
Äłora n
Äłintegri t
ÄłRai l
Äłath e
ÄłPo n
Äłsto m
Äłarchiv e
Äłacceptab l
Äłhole s
Äłovers i
Äłox y
Äłintegrit y
ÄłJo b
ÄłIslami s
ÄłStew a
³ n
Äłlea p
Äłcompat i
ÄłJa k
ÄłEl s
ÄłStewa r
ÄłTi l
Äłideolog y
Äłcompati b
Äłsophis t
ÄłGarde n
Äłoran g
Äłacqui s
Äłstrange r
Äłmomentu m
Äłpen d
whe r
Äłbankr u
aut h
Äłclu e
ÄłEx a
Äłbankru p
Äłforg i
Äłburie d
Äłfascinat i
ÄłU I
Äłcomposit i
Äłmut u
Äłbankrup t
Äłanc e
ÄłAllian c
ÄłAllianc e
Äłgra c
Äłyea h
ÄłApp e
Äłstruggle s
ÄłStude n
Äłvaca t
Äłteammate s
Äłeviden t
Äłchoco l
Äłcin e
Äłindic t
ÄłCom b
Äłdua l
wher e
Äłchocol a
ÄłAv i
ÄłFollow i
Äłgeo g
ÄłLeb a
Äłcredit s
Äłchocola t
Äłance s
Äłances t
Äłprof o
Äłvend o
Äłmutu a
Äłwonder i
Äłwonderi n
ÄłArsena l
ÄłStuden t
Äłmutua l
Äładequa t
Äłrunn e
ÄłWarn e
ÄłFollowi n
Äłvendo r
ÄłFollowin g
Äłtrust e
Äłasy l
Äłsustainabl e
ÄłOnl i
ÄłFe e
ÄłMi g
Äładequat e
Äłwonderin g
Äłcap s
Äłdeco r
ÄłTes l
ÄłOnli n
ÄłOnlin e
Äłra b
Äłvan i
Äłcompr i
Äłbomb s
ÄłAnal y
ÄłChe r
Äłacceptabl e
Äłconfusi o
Äłnic k
Äł198 9
Äłconfusio n
Äłpatro l
Äłstati c
ÄłPi l
Äłconfe s
ÄłTig e
Äłacquis i
ÄłPittsburg h
ÄłPet r
Äłchas e
ÄłPort u
Äłlever a
Äłcompri s
ÄłLeba n
Äłacquisi t
Äłlevera g
Äłguard s
ÄłPi r
Äłdropp i
Äłdroppi n
Äłacquisit i
Äłconfes s
ÄłWint e
Äłinsa n
Äłrunne r
Äłpitche r
ÄłTige r
Äłgeog r
ÄłRobin s
ÄłTu n
Äłamb a
Äłmysteri o
ÄłSa y
Äłmysterio u
Äłmysteriou s
Äłpred a
Äłbureau c
Äłgeogr a
Äłbureauc r
Äłdroppin g
Äłbureaucr a
Äłfunctional i
Äłfie r
ÄłR T
Äłfrustrati o
Äłfrustratio n
ÄłMar g
Äłcloses t
Äłdeclara t
Äłremov i
ÄłMobi l
ÄłPop e
G ree
S peaking
Äłremovi n
ÄłOrland o
ÄłMe e
ÄłTabl e
Äłremovin g
Äłcomplexi t
Äłexplor a
Äłexpense s
Äłstead y
Äłprofo u
Äłprofou n
Äłprofoun d
Äłrecess i
Äłamba s
Äłgeogra p
Äłgeograp h
ÄłW E
m inat
Äłreas s
Äłina u
ÄłRes t
Äłdominate d
Äłconcentrat e
incom e
ÄłVla d
Äłstatin g
Äłuna n
u red
Äłdisclos u
Äłdisclosu r
Äłdisclosur e
Äłasyl u
Äłasylu m
ÄłN I
Äłdesignat e
Äłque e
Äłtempl a
Äłbrief l
Äłbriefl y
Äłhe e
ÄłTesl a
p ple
ÄłManh a
Äłspi t
Äłambas s
ind u
p ping
i ting
Äłambass a
Äłengag i
ÄłMag a
ÄłRes i
Äłambassa d
Äłmon k
Äłunit e
Äław f
Äłassembl y
Äł9 7
Äłext i
Äłcharacteristic s
Äławf u
Äłexclusive l
Äłexclusivel y
ÄłPortu g
ÄłCul t
Äłengagi n
Äławfu l
Äłambassad o
Äłengagin g
Äłambassado r
Äłcontinu a
Äłconsiderabl e
ÄłH O
ÄłMat h
Äłsurvive d
Äłacquisiti o
Äłacquisitio n
Äłchocolat e
t ring
Äłdonor s
Äłjournalis m
Äłequi t
Äłlogic a
ÄłCoul d
Äłexecute d
ÄłIndo n
ÄłAar o
ÄłC F
ÄłLate r
Äłine x
ÄłEvery o
ÄłEveryo n
ÄłEveryon e
ÄłWinte r
ÄłBrea k
i dent
Äłloade d
Äłlogica l
Äłtransc r
Äłgy m
Äłvert i
Äło a
Äłdete n
Äłsophist i
Äłlu r
ÄłAaro n
Äłdo t
ÄłMot h
Äłsqu e
Äłsophisti c
Äłanal o
ÄłPh y
ÄłIndon e
ÄłFore s
Äłanalo g
ÄłIndone s
ÄłIndones i
Äłsubsequent l
Äłsubsequentl y
Äłindi g
Äłexplora t
Äłfri g
Äłsyn c
Äłoutcome s
Äłrebo u
Äłcontrar y
ÄłIndonesi a
ÄłNe e
Äłsophistic a
ÄłCan n
ÄłCO N
Äłrebou n
Äłpi r
Äłreboun d
Äłchao s
Äłaccompani e
ÄłAnd y
ÄłManha t
Äłprinte d
Äł8 2
Äłrob u
Äłminister s
Äłengine s
Äłbra v
ÄłManhat t
ÄłFant a
ÄłTreasur y
Äłsophistica t
ÄłJer r
Äłrobu s
Äłrobus t
Äł6 9
Äłgamepla y
Äłsuper s
ÄłÃĤÂ ±
ÄłSess i
Äłmis l
Äłhir i
ÄłManhatt a
Äłsymbol i
ÄłH B
ÄłManhatta n
Äłobserve r
Äłhiri n
Äłidenti c
ÄłLo t
Äłhirin g
ÄłRa j
Äłspeaker s
Äłgra m
ÄłSessi o
ÄłSessio n
Äłdistrict s
Äłback w
Äłactivat e
ÄłConnect i
Äłdifferent i
Äłgrai n
i red
Äłidentic a
Äłsexual l
ÄłShi n
Äłpress e
Äłsexuall y
Äłpreda t
ÄłDa k
Äłconvert e
Äłnot o
Äłidentica l
Äłdifferenti a
ÄłCorporat i
Äłcompositi o
Äłroute s
Äłcompositio n
Äłfuck i
» Â
Äłattend i
Äłpau s
¡ Â
Äłattendi n
Äłattendin g
ÄłVin c
Äłproductiv e
Äłphysic s
Äłfucki n
Äłrecept i
Äłco e
ÄłLinc o
ÄłSto c
Äłbrand s
Äłfunctionali t
ÄłDo o
Äłreco u
ÄłMan d
Äłdeten t
ÄłQue s
ÄłPriv a
Äłlectur e
Äłfail s
Äłrevolutionar y
ÄłWrig h
Äłblog g
ÄłLoc k
ÄłWrigh t
Äłfact i
ÄłC T
F ree
ÄłLinco l
Äłcertificat e
Äłfenc e
ÄłLincol n
ÄłEnter t
ÄłRep l
Äłimagina t
Äłoutd o
ÄłHavi n
ÄłEntert a
ÄłSing a
ÄłEnterta i
Äłimaginat i
Äłstu m
Äłdeclarat i
ÄłEntertai n
ÄłChro n
Äłena c
Äłshri n
ÄłCapt i
ÄłPy t
ÄłCorporati o
ÄłCorporatio n
ÄłD R
ÄłWin n
Äłenac t
Äłslic e
ÄłHavin g
ÄłZ h
Äłnow h
ÄłB R
Äłexti n
Äłnowh e
Äłtempla t
ÄłTalib a
Äłnowhe r
Äłnowher e
Äłcriminal s
ÄłTaliba n
Äłsubtl e
Äłnoto r
Äłdeem e
Äłdeeme d
ÄłPlan n
Äłnotor i
Äłvegeta b
ÄłNet h
Äłvegetab l
Äłwitnesse s
ÄłP H
Äłvegetabl e
Äłpackage s
ÄłChristoph e
Äłdemo g
Äłchallenge d
Äłwi p
Äłsa k
ÄłArgent i
ÄłMul t
Äłtut o
ÄłG E
ÄłR B
ÄłAustr i
e lle
Äłdisr e
Äłtraffic k
Äłembe d
Äłdemog r
Äłcheck i
ÄłPyt h
Äłro d
ÄłSim i
Äłtuto r
Äłdemogr a
Äłwors h
a ction
ÄłCurren t
Äłworsh i
Äłchecki n
Äłsau c
Äłworshi p
Äłvarian t
Äłform i
ÄłFla s
Äłfacti o
ÄłHol y
Äłrecessi o
Äłrecessio n
Äława i
Äłcine m
Ã ¤Â
Äłcinem a
ÄłAustri a
Äławai t
ÄłArgenti n
ÄłTri p
ÄłMode r
Äłdemogra p
Äłdemograp h
Äłeditor i
ÄłGiant s
ÄłAm i
N on
Äłtransformati o
Äłtransformatio n
ÄłStr o
ÄłCor b
Äłuns e
Äłfer t
Äłpresent s
Äłeditori a
Äłcharg i
Äłchargi n
Äłeditoria l
ÄłOs c
ÄłCP U
Äłanalys e
Äłfactio n
ÄłCrai g
Äłchargin g
ÄłEngine e
ÄłWin g
ÄłStudi e
ÄłMad r
Äłhe m
ÄłEnginee r
ÄłAll a
Äłeva c
Äłfert i
ÄłSpe n
ÄłLeg e
Äłconvers i
Äłguarantee d
ÄłIni t
Äł80 0
Äłtranscr i
ÄłTrai n
Äłdis i
ÄłNatur a
ÄłNeth e
ÄłStoc k
Äłwork f
ÄłRu l
ÄłNethe r
Äłfigure d
ÄłOp t
ÄłR I
ÄłRobins o
ÄłRobinso n
Äłferti l
ÄłSinga p
Äłpacke d
Äłbit s
Äłleake d
ÄłSte i
Äłz i
Äłtransmi t
Äłconc u
Äłhost s
Äłintelligen t
ÄłGri f
ÄłRea c
Äłnonp r
A le
Äłback l
ÄłJuli a
Äłhunt i
Äłblock i
Äłdefende d
Ħ Â
Äłswea t
Äłattract e
Äłhunti n
Äłattracte d
ÄłI b
ÄłChair m
ÄłPerr y
Äłevac u
Äłproduce s
Äłbus t
ÄłFores t
Äłbackw a
ÄłHan n
Äłhuntin g
Äłcheckin g
ÄłJerem y
ÄłRes p
ÄłSingap o
Äł18 8
Äłdevelopment s
Äłcourte s
ÄłSingapo r
ÄłSingapor e
ÄłUS B
c ome
Äłna s
ÄłExp r
Äłsimultaneous l
ÄłCardi n
Äłsimultaneousl y
ÄłNew t
Äłblocki n
Äłmisc o
Äłwalle t
Äłau c
ÄłTi n
Äłradiati o
Äłmargin a
Äłradiatio n
ÄłGu e
Äłdiagnos e
Äłcorresponde n
Äłblockin g
Äłrecognis e
Äłgla n
ÄłInvest i
Äłdetent i
ÄłExc e
Äłon s
Äłdisab i
Äłdetenti o
Äłdetentio n
Äłdisabi l
Äłintegrate d
Äłathe i
Äłfinger s
ÄłWou l
Äłdisabil i
Äłrel o
Äłathei s
Äłdisabili t
Äłrecover e
Äłrecovere d
Äłimpli e
Äłwire l
ÄłChairm a
ÄłLeg a
Äłu g
Äłmargina l
ÄłWoul d
ÄłChairma n
ÄłWarne r
Äłdra i
Äłmari n
o llowing
Äładministrat o
Äłmetr i
Äłdism a
Äładministrato r
Äłaris e
Äłdrai n
Äłtrap p
ÄłMov i
ÄłStudie s
ÄłJim m
a ying
ÄłBei n
Äłpir a
Äłvariable s
Äłpremi s
ÄłFanta s
Äłna n
ÄłIs a
Äłwrapp e
ÄłUn t
ÄłRem e
ÄłNatura l
ÄłExpl o
ÄłLoca l
ÄłGi b
Äłmeri t
Äłtreas u
Äłtaxpayer s
Äłtreasu r
Äłagreement s
Äłly r
Äłhold e
ÄłCar s
ÄłFinanc i
m illion
Äłconsec u
Äłflight s
Äłhe n
Äłhousehold s
ÄłCommuni c
Äłaren a
Äłin m
Äłsurprising l
Äłsurprisingl y
Äłca k
Äł< /
ÄłHamp s
Äładmi s
Äłaccura c
ÄłAir p
Äłraise s
ÄłRussian s
Äłmetri c
h ink
l ation
Äłexperimenta l
Äłall y
ÄłCommunic a
ÄłAtt a
Äłnonpr o
ÄłFat h
ÄłRam s
ÄłMatt e
Äłpremis e
Äłtransmi s
Äłimpact s
Äładmis s
ÄłEntertain m
Äłthe f
Äłimpress e
ÄłEntertainm e
Äłcapitalis t
ÄłEntertainme n
ever a
ÄłEntertainmen t
Äłana r
Äłstatu e
Äładmiss i
Äłblame d
ÄłOtt a
ÄłDam a
Äłholde r
ÄłAlo n
Äłgol f
ÄłInit i
Äłforgot t
Äłunne c
ÄłOp p
Äłcak e
Äłforgott e
Äłforgotte n
Äłstimula t
Äłscare d
Äłconsecu t
ÄłAst r
Äłconsecut i
ÄłPart i
ÄłLi l
Äłexpect s
Äłverti c
Äłcigar e
Äłfire s
ÄłCommunica t
ÄłRe y
usl y
Äłor c
Äłcigare t
Äłsauc e
Äłconsecuti v
ÄłGuid e
ÄłHunt e
ÄłMP s
Äłmotivate d
? Ã¢Ä¢Ä»
Äładapt a
Äłcigaret t
Äłcigarett e
Äłtemplat e
ÄłBake r
ÄłZe r
ÄłIniti a
Äłcour a
Äłbet a
Äłconsecutiv e
o usly
ÄłGrif f
ÄłMissi s
Äłintim i
Äłaccurac y
Äłunnec e
Äłunnece s
Äłenable d
Äłprobab i
Äłprobabi l
Äłmorta l
Äłunneces s
Äłintimi d
Äłunnecess a
Äłunnecessa r
Äłburne d
Äłintimid a
Äłproceed i
Äłproceedi n
Äłproceedin g
Äłju i
ÄłStewar t
ÄłMissis s
Äłinher i
ÄłThing s
Äłbi z
ÄłSun n
Äłintimida t
l ding
Äłtechnologi c
Äłanar c
Äłinheri t
ÄłRon a
Äłdut i
Äłanarc h
ÄłPolan d
Äłcur s
Äłtol l
Äłcommuni s
Äłinfluence d
Äłtank s
Äłorganis e
Äłsak e
Äłtechnologic a
Äłtechnologica l
Äłignor a
ÄłHI V
Äłto i
Äłtax i
ÄłRed s
Äłexpect i
ÄłFal c
Äłretr o
Äłcoura g
ÄłCapti o
Äłtransmis s
Äłpep p
Äłcourag e
Äłinter m
ÄłCaptio n
Äłgame r
Äłexpecti n
Äłundert a
ÄłOlympic s
ÄłI g
Äłretr i
Äłexpectin g
ÄłShou l
Äłtransmiss i
Äłmisl e
Äłorang e
Äłoccupie d
Äłprobabil i
Äłthri v
Äłphotographe r
ÄłQueen s
o file
Äłlyr i
Äłki s
Äłimpri s
ÄłExpr e
ÄłOi l
Äłrotati o
Äłrotatio n
Äłcriteri a
Äłimpris o
Äłimpriso n
ÄłRock e
ÄłShoul d
Äłball s
Äłhu b
Äłauthoriz e
ÄłExpre s
ÄłChrom e
Äłdistincti o
Äłwirel e
Äłlyri c
Äłwirele s
Äłdistinctio n
Äłwireles s
Äłcourtes y
ÄłSca l
Äłbase s
Äłunre s
Äłslip p
ÄłFO R
ÄłRa l
Äłunw i
Äłexplicit l
Äłinevitabl e
Äłexplicitl y
Äłstea m
ÄłExpres s
ÄłIslamis t
Äłunderta k
Äłqualifie d
Äłdefec t
ÄłQues t
Äłtrip l
r ofile
ÄłLu n
Äłintention a
Äłconversi o
Äłintentiona l
Äłconversio n
Äłassassin a
Äłvisit s
Äłcost u
ÄłStea m
Äłunb e
Äłassassina t
Äłbru s
Äłgam b
ÄłNati v
Äłtransparen c
Äłshop s
Äłtransferr e
Äłstar r
Äłpublic i
Äłcens o
Äłevolve d
Äłpropos i
Äłline a
Äłtransferre d
Äłbab i
Äłsenator s
Äłcenso r
Äłou g
ÄłRu t
Äłwha l
ÄłClo u
Äłreleas i
Äłconflict s
Äłreleasi n
Äłrefin e
ÄłOtta w
ÄłOttaw a
Äłretr e
Äłreleasin g
Äłfunctionalit y
Äłchecke d
Äłnation w
Äłnationw i
Äłnationwi d
Äłnationwid e
ÄłFigu r
Äłuncertaint y
Äłscou t
Äłpol a
Äłcostu m
Äłska t
Äłinm a
ÄłClim a
G ame
ÄłCanadian s
Äłbabi e
Äłhorri f
ÄłAbr a
Äłchea t
Äłoug h
Äłcautio n
Äłflu i
ÄłNel s
Äłpromote d
Äłshe d
ÄłLo a
Äłough t
ÄłChristophe r
Äłer u
ÄłMoth e
Äłdy s
Äłflui d
Äłinau g
ÄłI B
Äłinma t
ÄłHan s
Äłinmat e
Äłsla m
Äłmeter s
ÄłGh o
ÄłSect i
Äłinaug u
F ormer
Äłbabie s
Äłimp u
Äłinaugu r
ÄłNige r
Äłdim i
ÄłSecti o
ÄłKa i
Äłjui c
ÄłPol l
ÄłSectio n
Äłstatu t
ÄłMothe r
Äłinaugur a
Äłmous e
ÄłE y
g ine
Äłcommenta r
ÄłSnow d
Äłscre w
Äłcon j
Äłpepp e
Äłearth q
Äłearthq u
Äłearthqu a
Äłstat s
Äłearthqua k
Äłearthquak e
ÄłGa s
Äłtransparenc y
Äłrel u
Äłinvestigate d
ÄłDru g
ÄłGra y
Äłpeppe r
ÄłCons i
Äłrebuil d
Äłapplie s
ÄłKat h
ÄłHunte r
Äłwhis t
ÄłEd g
ÄłEvery t
ÄłBe h
Äłverif y
Äłpola r
ÄłCol d
ÄłSca r
Äłsole l
Äłsolel y
Äłinvest e
Äłkee n
Äłdimi n
Äłuncom f
Äłorient a
T hree
Äłaccident a
ÄłTa t
Äłkis s
Äłtextu r
Äłrelu c
Äłaccidenta l
Äłuncomf o
Äłuncomfo r
Äłvib r
ÄłCommunicat i
ÄłP I
Äłuncomfor t
Äłreluc t
ÄłAd o
Äłsoci o
Äłreluct a
Äłrelucta n
ÄłMore o
ÄłPea r
Äłuncomfort a
Äłuncomforta b
Äłignora n
ÄłJerr y
ÄłNether l
Äłuncomfortab l
ÄłMoreo v
ÄłMoreov e
ÄłMoreove r
ÄłPhoto g
ÄłKy l
Äłtransmissi o
Äłtransmissio n
Äłbar b
Äłinfluen t
ÄłNetherl a
ÄłNetherla n
ÄłNetherlan d
Äłwhist l
o lle
ÄłBein g
Ń Ä
Äłsuspicio n
Äłregard e
Äłcompli a
Äłfam e
Äłhik e
Äłsubmi s
Äłcomment e
Äłheadline s
Äłvolunt a
Äłcomplain e
ÄłAssi s
Äłsubmis s
Äłcomplia n
ÄłMedica i
Äłthef t
ÄłMedicai d
ÄłEs s
Äłsubmiss i
Äłbackwa r
ÄłProf i
Äłbackwar d
Äłvalid a
ÄłStei n
Äłmon a
Äłinveste d
Äłtermina l
Äłdi o
ÄłMann i
Äłimpresse d
ÄłLege n
ÄłBl e
Äłbeat e
Äłmar t
ÄłPu e
Äłinfluent i
Äłinfluenti a
Äłnonpro f
Äłinfluentia l
ÄłPhotog r
ÄłLouis i
Äłhandle d
Äłobst a
ÄłPhotogr a
Äłdeclarati o
Äłdeclaratio n
Äłvalida t
Äłcommissione r
Äłhumo r
Äłdisable d
ÄłSa s
Äłemp o
L on
Äłeliminat i
c hing
Äłregarde d
Äł100 0
ÄłLouisi a
Äłmigrati o
Äłmigratio n
Äłvolunta r
ÄłLegen d
ÄłLouisia n
Äłanc h
ÄłHamps h
ÄłHampsh i
ÄłHampshi r
t hout
a nded
Äłlong t
ÄłComp u
i thout
ÄłPu l
ÄłSimi l
Äłguid a
ÄłHampshir e
Äłchip s
ÄłPhotogra p
Äłspeed s
ÄłPhotograp h
Äłnonprof i
Äłsimilar l
Äłspra y
Äłobsta c
Äłinbo x
Äłnonprofi t
Äłsimilarl y
Äłorganize r
Äłcu b
ÄłNot h
Äłrad a
Äłvibr a
Äłprovision s
Äłobstac l
Äłobstacl e
Äłcostum e
Äłtoi l
Äłconsultan t
Äłmis u
ÄłH P
ÄłStan f
Äłabs u
ÄłZi m
Äł8 8
ÄłDea n
Äłevacu a
Äłspott e
Äłabsu r
a nder
Äłaccept i
ÄłSever a
ÄłSe x
Äłabsur d
Äłevacua t
Äłoutfi t
ÄłFlas h
ÄłNic h
Äłinvent o
ÄłG R
ÄłLouisian a
ÄłBloo d
ÄłCreat i
ÄłClo s
Äłaccepti n
Äłacceptin g
ÄłB O
ÄłSimil a
Äłguida n
Äłinvento r
Äłke r
Äłbomb e
Äłguidan c
Äłguidanc e
ÄłSpir i
Äłanti b
Äłzo o
e rence
ÄłCri s
Äłuna c
ÄłUnli k
Äłimmun e
ÄłUnlik e
ÄłU P
Äłmagic a
ÄłMult i
ÄłCommunicati o
Äłce i
ÄłMach i
ÄłCommunicatio n
Äłsatisf y
Äłrada r
ÄłWar d
Äłcommu t
Äłdemograph i
ÄłPat t
Äłrei g
ÄłFath e
Äłm m
Äłtear s
Äłdemographi c
ÄłLar r
ÄłNetherland s
ÄłRanger s
ÄłSimila r
Äłlaunch i
Äłreig n
Äłlaunchi n
Äłmagica l
Äłoperate d
Äłlaunchin g
ÄłTre k
Äłassembl e
Äłrolle d
Äłmemor a
ÄłStan l
evera l
Äług l
Äłgrat e
Äłcal e
ÄłFinanci a
Äł8 1
Äłgentl e
Äłconta m
Äłrec k
c ree
Äłthu m
Äładmissi o
Äładmissio n
ÄłFinancia l
Äłpal e
Äłsm u
Äłglob e
ÄłPlan e
Äładjust m
Äłmale s
Äładjustm e
Äładjustme n
Äładjustmen t
Äłcomplaine d
ÄłObs e
Äłcontam i
Äłtraged y
Äłcontami n
ÄłInvesti g
inn e
Äłinters e
Äłspar e
Äłmisco n
Äł-- -
Äłshock i
Äłcontamin a
Äłshocki n
Äłshockin g
ÄłSch w
ÄłNels o
ÄłInvestig a
ÄłNelso n
Äłpremier e
ÄłCommission e
¡ n
Äłfac u
Äłboard s
ÄłStanl e
ÄłBor d
Äłlegislat u
Äłlegislatu r
ÄłClima t
ÄłFathe r
ÄłStanle y
Äłbed r
ÄłMedica r
Äłgh o
ÄłMedicar e
ÄłSpiri t
ÄłNoth i
ret t
Äłlog g
ÄłEdit o
Äłpollin g
Äłlegislatur e
ÄłSer g
ÄłTok y
ÄłNothi n
ÄłEdito r
Äłluxur y
Äłcustom i
Äłsustain e
Äłcale n
ÄłRul e
Äłexception a
Äłwind s
ÄłSnowd e
Äłsyn d
ÄłSnowde n
Äłexceptiona l
Äłcompell i
Äłcompelli n
Äłless e
Äłcompellin g
Äłempo w
ÄłTrib u
Äłcalen d
Äłempow e
Äłbene a
ÄłLeve l
Äłbenea t
Äłempowe r
Äłbeneat h
ÄłToky o
a rent
ÄłSevera l
ÄłHarv e
ÄłMarc o
Äłcontend e
Äłela b
ÄłJenn i
Äławard s
Äłtempl e
ÄłPlay S
Äłfacu l
ÄłSpa r
Äłpaus e
ome n
Äłelab o
Äłfit s
Äłoutst a
Äłelabo r
Äłacr e
ÄłRou n
ÄłInvestiga t
Äłfacul t
ÄłRai d
Äłfuckin g
ÄłO P
Äłinitiat e
Äłimper i
ÄłPyth o
Äłelabor a
ÄłFigur e
ÄłSel e
Äłinterr u
ÄłU R
Äłmissile s
Äłexamine d
Äłkidn a
Äłkidna p
f erence
ÄłAssis t
Äłphotograph s
Äłretre a
Äłnight s
ÄłJimm y
Äłparticipati n
Äłideologi c
Äłparticipatin g
ÄłMcCa r
ÄłOra n
Äłinterru p
Äłsustaine d
ÄłPlayS t
Äłdeploy m
Äłdeploym e
Äłmanipulat i
ÄłStanf o
ÄłPytho n
Äłdeployme n
ÄłStanfo r
Äłdeploymen t
Äłfract i
Äłinterrup t
Äłsocialis t
Äładopti o
Äładoptio n
Äłtermina t
cke r
Äłneighborhood s
ÄłLev i
Äłconsist s
ÄłNothin g
Äłbrus h
ÄłVer i
ÄłStanfor d
ÄłPlaySt a
Äłcac h
Äłcru e
ÄłSl i
ÄłGu y
Äłideologic a
ÄłPlaySta t
Äłfracti o
ÄłE D
Äłideologica l
ÄłPlayStat i
i cation
ÄłPlayStati o
ÄłPlayStatio n
ÄłManage r
ÄłSid e
ÄłNativ e
Äłambitio n
ÄłAdv a
ÄłMaga z
Äłfos t
Äłproject e
Äłnon s
Äłcrue l
Äłoccasion s
Äłtrain s
Äłelabora t
Äłpre l
ÄłY i
ÄłPhilippine s
Äłprojecte d
ÄłMin d
Äłmass e
Äłbag s
ÄłMagaz i
Äłinnovati v
Ã¢Ä¢Â¦ Ã
Äłequip p
ÄłMagazi n
ÄłWay n
Äłcorrect i
Äłreflect s
ÄłMor m
Äłchil l
ÄłLear n
ÄłAirp o
ÄłNas h
Äłinnovativ e
ÄłCommissione r
Äłmother s
Äłcei l
ÄłThir d
Äłma m
ÄłSE C
Äłentit y
ÄłVo i
Äłnai l
Äłresident i
Äłaffect s
Äłaccusation s
A mong
ÄłRoun d
Äłsupposed l
Äłjuris d
Äłsupposedl y
Äłjurisd i
Äłresidenti a
Äłresidentia l
Äłjurisdi c
Äłaccompanie d
ÄłCat a
Äłpossibilit i
Äłto s
Äłflam e
Äłoutsta n
Äłunco v
Äłoutstan d
Äłstopp i
Äłuncov e
ÄłEveryt h
ÄłFi x
Äłpossibiliti e
Äłpossibilitie s
ÄłCardin a
Äłoutstand i
Äłoutstandi n
Äłoutstandin g
Äłhe s
ÄłEveryth i
Äłuncove r
ÄłCardina l
ÄłEverythi n
Äłbi p
Äłstoppi n
Äłshor e
Äłfel o
ÄłEverythin g
ÄłBar t
Äłjurisdic t
Äłjurisdict i
Äłjurisdicti o
Äłjurisdictio n
ÄłWayn e
ÄłWa i
Äłdictat o
Äłcooki n
Äłdictato r
Äłthre s
ÄłAirpo r
ÄłAirpor t
Äłgree t
Äłstoppin g
Äłthres h
Äłcop s
J on
Äłsignifican c
ÄłOsc a
Äłfelo n
Äłsignificanc e
ÄłHa p
Äłsleep i
ÄłKick s
ÄłSof t
Äłcalculati o
Äłcalculatio n
ÄłMagazin e
ÄłSpeak e
Äłspi k
Äłasc e
ÄłNatur e
Äłseek s
Äłtextur e
Äłdocument e
ÄłRo w
Äłbrav e
Äłten u
ÄłMorm o
ÄłMalay s
auth o
ÄłOsca r
Äłdens i
Äłgest u
Äłoutdo o
Äłoutdoo r
ÄłMormo n
ÄłVlad i
Äłceil i
Äłbiz a
Äłgestu r
Ã¢Ä¢Â ³
Äłintim a
Äłdresse d
Äłcookin g
Äłpreventi n
Äłpreventin g
o ing
Äłbiza r
Äłresidenc e
Ã¢Ä¢Â¦Ã ¢Ä
Äłenl i
Äłinha b
ÄłVer m
Äłconstruct e
Äłmal i
ÄłPic k
Äł0 1
ÄłUlt i
Äłceili n
Äłbizar r
Äłceilin g
Äłinhab i
Äłanimat e
F ollowing
Äłre o
ÄłMcDon a
Äłintri g
Äłpot a
Äłdocumente d
Äłinhabi t
ÄłSte r
Äłsecu l
Äłconstructe d
Äłsecul a
Äłsecula r
Äłfacilitat e
Äłintrig u
Äłexplod e
Äłlayer s
Äłtrac t
Äłrh y
ÄłOther s
Äłdocumenta t
Äłassist s
Äłcalend a
Äł36 0
Äłcalenda r
Äłorienta t
ÄłClass i
Äłicon i
ÄłCu t
Äłwis d
Äłstaff e
Äłdocumentat i
Äłwisd o
ÄłNi e
Äłwisdo m
Äłdocumentati o
Äłdocumentatio n
Äłlongt i
ÄłYe l
Äłlongti m
Äłlongtim e
Äłexplorat i
Äłmix t
ÄłAdva n
Äłtheore t
Äł `
Äłtheoret i
Äłno o
Äłgo r
Äłfrustrat e
Äłutiliz e
ÄłBe y
Äłterr a
Äłbrain s
Äłolde s
Äłoldes t
ÄłManni n
ÄłHama s
Äłiconi c
Äłsleepi n
Äłpla g
Äłbeate n
Äłtheoreti c
ÄłMal i
ÄłEv i
Äłbit e
Äłforgi v
Äłhabit a
Äłite r
Äłswa p
Äłeru p
Äłprobabili t
Äłfinish i
Äłerup t
Äłfinishi n
Äłplu m
Äłrecreat i
Äłfinishin g
ÄłCommunis t
ÄłD S
Äłcard i
ÄłSeve n
ÄłSpeake r
Äłciviliz a
Äłretrea t
Äłtrade d
Äłweake n
Äłmon u
Äłnecess i
Äłexplorati o
Äłexploratio n
ÄłMannin g
Äłlas e
Äłcult i
ÄłC M
Äłtor n
Äłmonu m
ÄłFedera t
Äłmonum e
Äłwait e
Äłmonume n
Äłmonumen t
Äłpi o
Äłhom i
Äład h
Äłpraise d
ÄłHot e
ÄłOliv e
Äłpanel s
Äłlase r
Äłreviewe d
ÄłRubi o
Äłview i
Äłinteraction s
Äłinva d
Äłpersua d
Äłelectric a
Äłviewi n
Äłviewin g
ÄłAbd u
Äłlibert y
Äłscan n
Äłelectrica l
Äłnecessi t
Äłconfi n
Äłcleare d
Äłfinal i
Äłciviliza t
Äłdrop s
Äłbor e
ÄłCommon s
ÄłBru s
ÄłKurdis h
Äłfish i
Äłtrip s
Äłrip p
Äłcivilizat i
ÄłVinc e
Äłcivilizati o
Äłspotte d
Äłcivilizatio n
Äłvertic a
Äłvertica l
Äłsca t
Äłtripl e
Äłinfi n
Äłshow c
Äłminim i
ÄłTru e
ÄłFil e
Äłsponsor s
ÄłFalc o
Äłshowc a
ÄłMadr i
ÄłHam m
Äłbic y
ÄłMin e
ÄłSing h
ÄłVe t
Äłconduct i
Äłdensi t
ÄłUlti m
Äłpa v
Äłproductiv i
Äłwhistl e
p rofile
Äłbicy c
ÄłPart n
ÄłReme m
Äłwalk s
Äłbicyc l
Äłfishi n
Äłmetr o
ÄłRemem b
Äłrac k
ÄłBerk e
ÄłBla k
ÄłUse r
ÄłClou d
ÄłNa p
ÄłM D
Äłdirt y
Äłshowca s
Äłcrosse d
Äłrevenue s
Äłinfin i
Äłpric i
ÄłWe r
Äłhosti n
Äłoffen c
Äłcru i
Äłhostin g
Äł8 4
ÄłFer g
ÄłComme r
Äłoffenc e
ÄłPatriot s
Äłanch o
Äłbizarr e
Äłfishin g
Äłdecor a
Äłcrui s
ÄłB P
ÄłPartn e
ÄłPartne r
Äłproductivi t
ÄłCollin s
Äłover n
Äłthresh o
Äłthresho l
Äłthreshol d
ÄłChan c
Äłtheat r
Äłpen i
ÄłCiti z
Äłinfini t
ÄłMalays i
Äłenvironment s
ÄłMedic i
Äłdiss o
ÄłCompu t
ÄłMalaysi a
Äłscreen i
Äłlist i
Äłdecora t
ÄłClimat e
ÄłCitiz e
ÄłCitize n
Äłambitio u
Äłrang i
Äłambitiou s
Äłbla d
ÄłAren a
Äłbarg a
Äłproductivit y
Äłpo k
Äłreject i
Äłbarga i
Äłbargai n
ÄłWi r
Äłscreeni n
ÄłMo m
ÄłL L
Äłscreenin g
Äłdraft e
Äłovern i
ÄłM U
Äłbedr o
Äłlad y
Äłdeal t
ÄłAF P
Äłrangi n
Äłoverni g
Äłovernig h
Äłovernigh t
ÄłHote l
E le
Äłdisplay s
Äłearning s
ÄłRa b
Äładministrati v
Äłrangin g
ÄłLow e
Äłoperator s
Äłrit u
Äłdu n
ÄłB I
ÄłT S
Äłrider s
ÄłCompl e
Äłtos s
Äłprospe r
Äłverif i
ÄłChanc e
ÄłBa h
Äłprede c
Äłconvenien t
Äładdicti o
Äładdictio n
Äładh e
ÄłBea u
ÄłOran g
Äłrobot s
ÄłCorp s
ÄłBlak e
ÄłSp u
ÄłPa d
Äłconverte d
Äłsuit a
Äłunre l
r ting
ÄłEff e
Äłgala x
Äłrobbe r
ÄłMur p
Äłsuita b
Äłcry s
Äłunfortunate l
Äładministrativ e
ÄłPeac e
ÄłMc M
ÄłMurp h
Äłunfortunatel y
pon s
Äłwan d
ÄłLarr y
Äłshort a
Äłpredec e
c itation
Äłunac c
ÄłLuc k
ÄłObse r
ÄłDV D
Äłshorta g
Äłritu a
Äłshortag e
Äłcrys t
Äłritua l
Äłlibrari e
ÃĥÂ ©
ÄłChron i
Äłconce i
ÄłMu c
Äłlibrarie s
ÄłObser v
Äłconce a
Äłdevastati n
Äłconcea l
Äłdevastatin g
Äłcryst a
i za
Äłaccomplish e
Äłcrysta l
Don a
ÄłMon i
Äłdas h
Äłcalculate d
ÄłDee p
ÄłFrank l
ÄłUltim a
Äłhid i
ÄłTo l
Äłhidi n
iver s
Äłdoct r
Äłm p
Äłdoctr i
Äłmurdere d
Äłdoctri n
ÄłSma r
ÄłDisc o
Äłsafe l
Äłhidin g
Äładdress i
Äłorientat i
Äładdressi n
ÄłKicks t
Äładdressin g
ÄłHu l
ÄłTal k
Äł198 8
Äłprojecti o
ÄłMississ i
Äłprojectio n
Äłreflect e
ÄłKickst a
Äłattorney s
ÄłPo o
Äłseque l
ÄłNC A
Äłhy b
Äłdispla c
Äłstereo t
ÄłMississi p
Äłreflecte d
Äłleverag e
Äłpredece s
Äłorientati o
Äłorientatio n
Äłreminde r
ÄłFederat i
ÄłOx f
Äłpredeces s
Äłpredecess o
Äłpredecesso r
ÄłStor m
Äłer o
Äłappear i
ÄłMississip p
Äłreward s
Äłrestrict e
ÄłI V
ÄłMississipp i
Äłhyb r
Äłrestricte d
Äłhybr i
Äłincor r
ÄłGriff i
ÄłProc e
Äłoverl a
Äłunc h
Äłavailab i
Äłther m
Äłfro z
Äłavailabi l
Äłappeari n
ÄłKicksta r
Äłsleepin g
Äłappearin g
Äłreplica t
Äłconfirm a
Äł18 7
Äłresponde n
ÄłKickstar t
Äłclass r
ÄłMeg a
ÄłChroni c
Äłclassr o
Äłsafel y
ommen t
Äłavailabil i
Äłcree p
Äłfroz e
Äłclassro o
Äłhybri d
Äłavailabili t
Äłcorner s
Äłorigina t
Äłclassroo m
Äł9 2
Äłnewsletter s
Äłresponden t
Äłlibera t
Äładapt e
ÄłScient i
ÄłCommer c
Äłwor e
ÄłFederati o
ÄłFederatio n
ÄłSha k
Äłuncomfortabl e
Äłlisti n
ÄłMcDona l
ÄłChristian i
ÄłMcDonal d
ÄłRona l
Äłcommo d
Äła k
Äłson s
Äłlistin g
Äłhypothes i
Äłhes i
Äłclos u
Äłclosu r
Äłclosur e
Äłdetermin a
Äłcoordinat o
Äłcoordinato r
Äłsophisticat e
Äłparliament a
Äłparliamenta r
m uni
Äłtra s
Äłamong s
ÄłYa h
Äłscrutin y
Äłcompetitor s
ÄłPark e
Äłcoin s
Äłtheoretic a
Äłtheoretica l
Äłru g
Äłarrest s
Äłne s
Äłamongs t
Äłast o
Äłhorribl e
Äłcompa s
Äłlu m
ÄłMadri d
ÄłPo d
Äłstereot y
Äłstereoty p
Äłavailabilit y
Äłsubmissi o
Äłsubmissio n
Äłhesi t
Äłlun g
ÄłRonal d
ÄłMili t
Äłhesit a
ÄłSea r
Äłact e
Äłexcess i
Äłlimitation s
Äłiter a
ÄłBord e
Äłseed s
Äłexcessi v
ÄłTai w
Äłrelie v
Äłdelay e
Äłdepartment s
Äłnewspaper s
Äłcompas s
Äłfractio n
Äłexcessiv e
Äłvilla i
ÄłHT M
Äłvillai n
ÄłLuk e
Äłrival s
Äłcomplexit y
Äłduti e
Äłdutie s
Äłmeet s
ÄłNich o
ÄłNico l
ÄłBerke l
ÄłMurph y
ÄłM T
Äłrecip i
Äłvag u
Äłdelaye d
Äłrecipi e
Äłpi z
Äłexplor i
ÄłDat e
Äłexplori n
Äłwinner s
ÄłHur r
Äłexplorin g
Äłconfirma t
Äłbuild s
ÄłTaiw a
Äłsub c
Äłan e
ÄłTaiwa n
Äłrecipie n
Äłpregnanc y
Äłcollecti n
ÄłRai n
Äłrecipien t
Äłsophisticate d
Äłtough e
ÄłJeff e
Äłcollectin g
ÄłNicho l
ÄłFurther m
ÄłFurtherm o
ÄłFurthermo r
ÄłFurthermor e
ÄłHea v
ÄłOrang e
Äłstee r
Äłcon q
ÄłG S
Äłviab l
Äłconq u
i ously
Äłstro k
ÄłMcCo n
ÄłHTM L
ÄłSmar t
ÄłBerkel e
ÄłAbb o
ÄłJeffe r
ÄłBerkele y
Äłnationalis t
Äłpersiste n
Äłempir e
Äłbee f
Äł8 3
ÄłTo y
ÄłWei s
Äłhighlight e
w inning
ÄłDen n
Äłcelebrate d
Ã¢Ä ¤
Äłalt o
ÄłSol a
Äłpassion a
Äłcho p
Äłpiz z
ÄłKickstart e
Äłabu n
Äłoverlo o
Äłviabl e
Äłoverloo k
Äłacte d
Äłemb o
Äłchu n
Äłabun d
Äłtheme s
Äłpassiona t
a shing
Äłoffse a
Äłpassionat e
Äłpre a
Äłgamb l
Äłoffsea s
Äłoffseas o
Äłoffseaso n
Äłseparate d
Äłdeserve s
Äłconfin e
Äłrelative s
Äłabund a
ÄłBan n
ÄłCham b
ÄłLaw r
Äłsuggestion s
Äłabunda n
Äłancho r
Äłdelegate s
Äłtranscri p
Äłparameter s
ÄłQue b
ÄłHung a
Äłtranscrip t
Äłfor b
Äłina d
Äłto b
ÄłPhy s
ÄłHar b
Äłoffende r
ÄłExt r
Äłcourse s
Äłant e
ÄłRu d
Äłepi d
Äłlight i
Äłworld s
Äłchemical s
ÄłOpt i
ÄłCount r
Äłprohibit i
Äłlighti n
Äłsubscri p
Äłmechanic a
Äłmechanism s
Äłoxy g
Äłsubscrip t
Äłlightin g
Äłmechanica l
Äłproc l
Äł198 4
ÄłHug h
Äłgall e
Äłoxyg e
ÄłReso u
Äłoxyge n
Äłargu a
Äłdetaine d
Äłmean w
Äłargua b
Äłmeanw h
ÄłReb e
S out
Äłarguab l
Äłmeanwh i
Äłmeanwhi l
Äłmeanwhil e
Äłbillion a
ÄłBuild i
ÄłHu f
Äłsti r
Äłcommod i
ÄłEagle s
ÄłSwed i
Äłquiet l
Äłwhal e
Äłquietl y
Äłpol e
Äłpsychi a
ÄłQueb e
Äł9 8
ÄłBuildi n
Äłpsychia t
Äłnotori o
Äłbilliona i
Äłbillionai r
ÄłBuildin g
Äłpsychiat r
Äłnotorio u
Äłnotoriou s
Äłbillionair e
Äłpend i
Äłobsc u
rea m
Äłbase m
Äłobscu r
ÄłHunga r
Äłce m
ÄłQuebe c
ÄłResou r
ÄłSwedi s
ÄłEffe c
ÄłSwedis h
Äłfirearm s
Äłinterse c
ÄłEffec t
ÄłNum b
ÄłKickstarte r
ÄłBri s
ÄłRelat i
Äłfortun e
Äłhunt e
ÄłLu t
Äłintersec t
Äłrich e
Äłprevent e
Äłcommand s
Äłmicro b
Äłover d
ÄłResour c
ÄłFi f
Äłbe r
Äłded u
ÄłCri t
ÄłSta l
Äłpendi n
ÄłResourc e
Äłpendin g
Äłconfirmat i
Äłequipp e
Äłequippe d
Äłbuff e
Äłconfirmati o
Äłconfirmatio n
ÄłD w
Äłequat i
ÄłM C
Äłbug s
Äłchun k
Äłincon s
Äłgradual l
Con n
Äłcem e
Äłgraduall y
ÄłZa c
ÄłDak o
ÄłST A
Äłfost e
into n
ÄłMedici n
Äłfoste r
Äłoptimis t
Äłremember e
Äłside l
ÄłProgr e
Äłpronoun c
ÄłAbbo t
Äłdebate s
Äłstrea k
Äłensur i
Äłensuri n
ÄłProgre s
Äłensurin g
Äłdura t
Äłpursui t
ÄłMoham m
Äłquestion i
ÄłMel b
ÄłServ e
Äłremembere d
ÄłSimp l
Äłneuro n
e nding
Äłnotabl y
Äłrestr a
Äłcata s
Äłplay b
Äłwitnesse d
Äłfolde r
Äłcatas t
ÄłSha w
Äłal p
Äłvagu e
Äłrepo s
Äłquestioni n
Äłhar v
Äłquestionin g
ÄłSal a
Äłdeliveri n
ÄłPant h
ÄłFerg u
Äłdeliverin g
Äłtend s
Äłcatast r
Äłrestra i
Äłmarr y
ÄłFergu s
Äłrestrai n
Äłspecializ e
Äłcatastr o
Äłcount l
Äłcountl e
Äłcountle s
Äłcountles s
ÄłAtta c
ÄłCult u
ÄłDako t
Äłgold e
ÄłDakot a
Äłcommentar y
Äłitera t
Äłdurat i
Äłheav e
Äłja m
Äłcatastro p
Äłdurati o
Äłharv e
Äłcatastrop h
Äłduratio n
Äłgolde n
ÄłMitch e
Äłgrant s
Äłtemp t
Äław k
ÄłCultu r
ÄłStra n
Äłauc t
Äłprici n
Con c
ÄłLion s
Äładapta t
Äłobe s
Äłmeta p
Äłpricin g
ÄłBer g
Äłcompl y
Äładaptat i
ÄłRei d
Äłsla t
Äłharve s
Äłharves t
Äłact r
Äłplac i
Äł198 6
Äłexhibit i
Äłprescri p
Äłshad e
ÄłFly n
def e
e tting
cree n
Äłviolate d
Äładaptati o
Äładaptatio n
ÄłR C
Äłprescrip t
ÄłArt s
ÄłMor n
Äłswim m
t able
f ounder
ÄłProgres s
Äłactr e
Äłactre s
Äłactres s
Äłgestur e
The i
Äłpartial l
Äłhappi n
Äłaffi r
Äł18 5
ÄłMitche l
Äłac u
Äłaffir m
ÄłNet a
Äłbond s
Äłnotifi c
Äłher i
Äłpartiall y
Äłprescript i
ÄłCoal i
Äłnotific a
Äłhappin e
Äłhappine s
ÄłAth e
ÄłGi t
Äłhappines s
Äłsubscript i
ÄłVladi m
Äłauct i
Äłaucti o
Äłauctio n
ÄłLad y
Äłsummar y
Äłannual l
Äłannuall y
Äł16 0
Äłintensi t
Äłtil l
ÄłLa c
u ction
Äłcharacteriz e
Äłoutb r
ÄłHuf f
Äłsubscripti o
Äłreplac i
Äłsubscriptio n
Äłreplaci n
Äłheart s
ÄłPhilli p
Äłreplacin g
Äłgho s
Äłdeni a
Äłwip e
Äłoutbr e
Äłnotifica t
Äłinca r
Äłreh a
Äłincorr e
Äłnotificat i
Äłsize s
ÄłChristiani t
Äłghos t
Äłnotificati o
Äłnotificatio n
Äłincorre c
Äłincorrec t
ÄłF E
ÄłVladim i
ÄłJa i
ÄłVladimi r
ÄłFalco n
ÄłHu b
Advertisement s
Äł7 9
Äłhighlighte d
Äłunder c
Äłinterpret e
Äłcle v
Äłom i
Äłcatch e
Äłdisappear e
ÄłChristianit y
Äłfill i
ÄłBrand o
Äłtolera n
Äłdisappeare d
ÄłSurv e
ÄłCoali t
Äłtutor i
Äłpoor l
Äłwarr i
Äłstyle s
Äłpoorl y
ÄłPanth e
Äłali k
ÄłHa g
Äłsatisf i
ÄłCoalit i
ÄłT P
Äłdrink s
Äłheri t
ÄłCoaliti o
Äłalik e
ÄłCoalitio n
Äłveg a
Äłclev e
Äłpermitt e
Äłreal m
Äłfur n
Äłherit a
arke t
ÄłCoa c
ÄłQua l
Äłprevente d
i ble
Äłconqu e
Äłnes t
Äłdesignate d
m muni
Äłmilit i
Äłmal l
ÄłWei n
Äłmiliti a
Äłprevi e
ÄłCoac h
Äłpress i
Äłprevie w
Äłtob a
Äłconce d
Äłseri a
ÄłB J
Äłdedu c
ÄłVik i
ÄłBuddh i
C le
Äłoutbre a
Äłpermitte d
Äłsne a
Äłcitizens h
Äłtoba c
Äłcitizensh i
ÄłBen j
Äłcitizenshi p
ÄłMarshal l
Äłimaginati o
Äłoutbrea k
Äłculti v
Äłimaginatio n
Äłplane s
ÄłMit t
Äł8 6
Äłrecepti o
Äłpers e
Äłreceptio n
Äłethic a
Äłprotection s
Äłsnea k
Äłhonest l
Äłethica l
Äłhonestl y
ÄłLuc a
Äłtobac c
ÄłNumb e
Äłp p
ÄłHis p
Äłtobacc o
ÄłAlbert a
Äłcur e
Äłdimin i
Äłtras h
ÄłBuddhi s
Äłdimini s
Äłdiminis h
Äłindicat o
ÄłSma l
Äłdia b
ÄłRegi s
Äłwork p
Äłgenero u
Äłgenerou s
Äłab d
ÄłHisp a
Äłcompleti o
Äłcompletio n
Äłexpir e
Thei r
Äłtrag i
rea s
Äłcultiv a
Äłske t
Ã¢Ä¤ Â
ÄłYan g
Äłlo r
Äłric e
ume n
Äłindicato r
ÄłOcc u
Äłobservation s
ÄłWat s
ÄłL S
Äłfascinati n
Äłfascinatin g
ÄłIa n
Äłalto g
ÄłG I
Äłsatisfi e
ÄłNumbe r
ÄłEd m
Äłtrack e
Äłaltog e
ÄłIn g
Äłrecreati o
Äłrecreatio n
Äłaltoge t
Äłaltoget h
Äłfrag m
Äłun o
Äłaltogeth e
Äłaltogethe r
Äłpark s
Äłid i
Äłfragm e
Äłfragme n
Äłfragmen t
Äłvega n
Äłmill e
Äłpressi n
Äłcontent s
ÄłHispa n
Äłtie r
Äłnutri t
ÄłM V
Äłexpen d
Äłpressin g
Äłsmu g
ÄłMcCar t
Äłsket c
Äłsketc h
Äłstretch e
ÄłHe b
Äłinstant l
Äłinstantl y
Äłnutrit i
Äłlibert a
ÄłUS D
ÄłEnvironment a
ÄłEnvironmenta l
ÄłChar g
Äłfacult y
Äłmid s
ÄłCop y
ÄłMelb o
ÄłViki n
ÄłVikin g
Ã¢Ä¤Â ¬
Äłcou s
Äłepid e
Äłtragi c
ÄłMelbo u
ÄłMelbou r
Äłstructur a
ÄłMelbour n
ÄłNCA A
ÄłSwi s
ÄłAs k
Äłagricultur e
Äłhelm e
Äłstunn i
ÄłCollect i
Äłstunni n
Äłstunnin g
Äłcomed i
ÄłGe a
ÄłMor a
S econd
Äłty r
Äłpower e
Äłunre a
ÄłMelbourn e
Äłdu c
Äłcrow n
Äłpowere d
Äłidi o
Äłdirector s
Äłinvent i
ÄłCongress i
Äłsil l
ÄłCent u
Äłstructura l
Äłreaction s
Äłsidel i
Äłinject i
ÄłCongressi o
Äłdrone s
ÄłCarl o
Äłseria l
ÄłMedicin e
ÄłCongressio n
ÄłCongression a
ÄłCongressiona l
ÄłMuc h
Äłstrok e
Äłlayo u
Äłoppress i
ÄłCentu r
Äłlayou t
ÄłConc e
i des
ÄłForce s
Äłcapabilit y
Äłfle w
ÄłMitchel l
Äłworkp l
Äłfilli n
Äłworkpl a
ÄłCamp a
Äłfillin g
Äłmaker s
Äłnominat e
ÄłAdditional l
Äłsideli n
ÄłAdditionall y
ÄłPin t
Äłnutriti o
Äłfriends h
Äłworkpla c
Äłworkplac e
Äłfriendsh i
Äłfriendshi p
Äłhono u
Äłmarin e
Äłhonou r
Äłstom a
Äłaccomplishe d
ÄłFlyn n
Äłsp h
Äłfilm m
Äłstresse d
Äłresembl e
Äłham m
Äłgro c
ÄłModer n
Äłgreen h
Äłfilmm a
ÄłLawr e
ÄłE M
Äłfilmma k
ÄłHurr i
Äłgroc e
ÄłVer s
Äłgroce r
Äłelaborat e
Äłgreenh o
Äłspik e
Äłbak e
Äłethic s
Äłcleve r
ÄłHap p
Äłnight m
Äłtruck s
Äłnightm a
ÄłTribu n
Äłcast i
Äłsing i
Äłnightma r
l inton
Äłdrafte d
ÄłLawre n
Äłsingi n
Äłrepl y
Äł9 6
Äłhostil e
ÄłWats o
Äłsuitab l
ÄłWatso n
Äł70 0
Äłembed d
Äłreflecti o
Äłreflectio n
ÄłBru n
ÄłSmal l
Äłarguabl y
ÄłMemor i
ÄłUltima t
Äłbuyer s
Äładvise d
Äłcircle s
Äłsma s
.Ã¢Ä¢Ä» Ã
S un
Äłsmas h
Äłmetap h
ÄłClea r
ÄłSafe t
Äłtransparen t
ÄłTempl e
Äłtight e
Äłcru d
Äłdevote d
ÄłHispan i
.Ã¢Ä¢Ä»Ã ¢Ä
Äłsingin g
a mple
ÄłBarc e
ÄłGall e
o lut
Äłav i
Äłmountain s
Äłclean e
ÄłMad i
Äłta t
Äłliberta r
Äłlift e
Äłderive d
ÄłHo c
Äłna k
Äłlibertar i
Äłrab b
Äłtoil e
Äłgreenho u
Äłgreenhou s
Äłgreenhous e
ÄłNeta n
Äładvoca c
Äłsevent h
Äłchemi s
e ference
Äłpronounc e
Äławk w
Äławkw a
Äłmonet a
ÄłTam p
Äławkwa r
Äławkwar d
Äłcal i
Äłlibertari a
ÄłRh o
Äłjustifi e
Äłprop h
R eference
Äłmosqu e
Äłline b
e ction
Äłlibertaria n
t age
Äładvocac y
Äłboundar i
Äłprint i
Äłboundari e
ÄłIndian s
ÄłBarce l
ÄłAbdu l
Äłcat s
Äłboundarie s
Äłprinti n
Äłvacat i
Äł10 1
ÄłTr y
Äłprintin g
S everal
ÄłExper i
ÄłSession s
Äłmoneta r
ÄłMat e
ÄłLawren c
.Ã¢Ä¢Ä»Ã¢Ä ¢Ä
Äłpi x
ÄłLawrenc e
ÄłParke r
Äłreveal i
Äłreveali n
Äłgrac e
Äłcous i
Äłtravele d
Äłrevealin g
Äłcousi n
ÄłSal t
ÄłNetan y
Äłfib e
Äłfibe r
Äłdistan t
ÄłEvan s
Äłcompani o
Äłcompanio n
ÄłChal l
Äłmechanic s
ÄłSo o
nation a
Äłdist o
ÄłNetany a
Äłchemis t
Äłtan g
nationa l
ÄłCamp b
ÄłSafet y
Äłfreez e
Äłten a
Äłtwe a
ÄłCampb e
ÄłCampbe l
Äłaudience s
Äłrepr i
Äłlineb a
Äłhistorical l
Äł) ;
Äłhistoricall y
Äłlineba c
Äłlinebac k
Äłped e
Äłlight e
Äłtwea k
Äłspecifi e
Äłol i
Äłisolat i
Äłshowe r
Äłmandat o
Äłoperation a
Äłoperationa l
ÄłRememb e
ÄłRemembe r
Äłdisplac e
ÄłBarb a
Äłentit i
ÄłPro m
o ge
ÄłM B
Äłdisto r
ÄłMar a
ÄłBarcel o
ÄłHid e
Äłreact o
Äłstal l
ÄłBasi c
Äłplaci n
ÄłCampbel l
ÄłRose n
Äłtransform e
Äłplacin g
Äłsti f
Äłapply i
Äłmidfield e
Äłmidfielde r
Äłapplyi n
ÄłD h
Äłapplyin g
ÄłConsi d
ÄłJi n
Äłamb u
Äłoversi g
Äłentiti e
ÄłInv a
Äłentitie s
Äłdis k
Äłdistor t
Äłlabor a
ÄłEn c
Äłexpert i
Äłfun e
Äłine f
ÄłSe m
Äłbun d
Äłoversig h
Äłoversigh t
ÄłUltimat e
Äłsidelin e
ÄłFergus o
Äłmandato r
ÄłFerguso n
Äłreacto r
Äłshift e
Äłprocl a
G iven
Äłexperti s
ÄłMun i
Äłexpertis e
Äłsystem a
Äłbri c
Äłinef f
Äłquant u
Äłpizz a
Äłhack i
Äłquantu m
Äłso d
ÄłB L
ÄłBarcelo n
Äłfocuse s
de v
Äłattracti o
Äłattractio n
Äłunnecessar y
Äłfune r
Äłpainte d
Äłsystema t
Äłcommodi t
ÄłSen s
Äłexperienc i
Äłsystemat i
Äłvictor i
Äłstoma c
ÄłBlo g
ÄłTod d
ÄłNetanya h
l der
Äłconclusion s
Äłstomac h
Äłfran k
ÄłBo m
ÄłGui l
Äłprescripti o
Äłprescriptio n
Äłslave r
ÄłNetanyah u
Äłear s
Äłcustomi z
Äłpenalt i
Äłoverh e
Äłpow d
ÄłOxf o
Äłfrustrate d
Äłpowd e
ÄłOxfo r
Äłspu r
Äłpowde r
ÄłOxfor d
Äłpenalti e
Äłpenaltie s
Äłlabora t
Äłevaluati o
Äłevaluatio n
ÄłPost s
Äłoffse t
ÄłSam u
ÄłChamb e
Äłdisturb i
Äłillegal l
ÄłRav e
ÄłBut t
Äłillegall y
Äłhacki n
Äłlaborat o
Äłsurre n
Äłstronge s
Äłstronges t
ÄłBarcelon a
Äłsurren d
Äłoverhe a
Äłdisturbi n
Äłmandator y
Äłdisturbin g
Äłsurrend e
ÄłChambe r
ÄłCer t
Äłrock s
Äłcrop s
ÄłBu y
Äłsurrende r
Äłlaborato r
ÄłDan n
Äłver d
ÄłArk a
ÄłCamb r
o mmuni
Äłstrike r
umen t
Äłspo i
Äłreliev e
Äłspoi l
Äłdenia l
Äłrespond i
Äłunderstand s
Äłhackin g
Äłlineback e
ÄłAr n
Äłchart e
Äłlinebacke r
Äłlonge s
Äłlonges t
Äłarch a
t re
Äłaccepta n
ÄłMag n
Äłdoc k
Äłexperienci n
Äłexperiencin g
Äłreproduc t
Äłintensit y
Äłbehav e
Äłenjoy i
Äłreproduct i
Äłenjoyi n
Äłnan o
ÄłConsid e
ÄłPhys i
ÄłConside r
Äłacceptan c
Äłacceptanc e
Äłenjoyin g
Äłgalle r
Äł197 9
ÄłMont a
Äłfuner a
rem e
Äłsimulat i
Äłbusiness m
Äłconcei v
Äłrespondi n
Äłrespondin g
Äłaccelerat e
Äłconve y
ÄłAng l
Äł9 3
Äłbear s
ÄłAgain s
Äłrefr e
Äłoperate s
Äłresu r
Äłblogg e
ÄłAgains t
Äłmanipulat e
Äłpes t
Äłmam m
Äłthum b
Äłmil d
Äłsafe r
ÄłAstr o
Äłcomput i
Äłvacati o
Äłvacatio n
Äłvers a
Äłflexib l
ÄłThu n
Äłappl e
Äłimm o
ÄłMer k
Äłmixt u
Äłcomputi n
ÄłDep u
ÄłPe p
Äłcomputin g
Äłmixtu r
ÄłFC C
Äłmixtur e
ÄłFriend s
Äłbric k
Äłparticle s
ÄłCon d
ÄłD J
Äłwar d
ÄłDel a
Äłcontamina t
Äłdisi n
ÄłArc t
Äłcontributi n
Äłcontributin g
ÄłEy e
Äłcounti e
ÄłRi f
Äłcountie s
ÄłHi r
ÄłDra f
Äłreceive s
Äłcrud e
ÄłHen d
Äłattendan c
ÄłBenj a
Äłattendanc e
ÄłPakistan i
ÄłÃ ¯
Äłcooki e
Äłdensit y
Äłgain i
ÄłEth i
ÄłDraf t
Äłdetecti v
ÄłEth e
Äłdetectiv e
Äłpin k
ÄłRichard s
Äłcompris e
Äłpede s
ÄłLegi s
Äł8 7
ÄłHispani c
Äłtreasur e
Äłfaste s
ÄłMc L
Äłfastes t
Äłgaini n
Äłgrate f
Äłgratef u
Äłgratefu l
Äłgainin g
ÄłCoh e
ÄłRaid e
Äłchar m
Äłup w
Äłpedes t
Ã£Ä £
Äłpio n
Äłsubstitut e
ÄłDepu t
ÄłBon d
Äłbund l
Äłconservati o
Äłconservatio n
ÄłNiger i
Äłimperi a
Äłsuper h
Äłimperia l
Äłaut i
Äłpar o
ÄłChe s
Äł198 7
Äłelevat e
ÄłBarn e
ÄłHy d
Äłtimel i
ÄłBenja m
ÄłChronic l
Äłhumanit a
Äłequati o
Äłequatio n
ÄłSon g
Äłrespect e
Äłfea s
ÄłCas s
ÄłChall e
ÄłWalt e
Äłthrill e
Äłscenario s
ÄłSwis s
Äłbounc e
Äłroman t
Äłkidnap p
Äłromant i
ÄłSus a
Äłdrag g
Äłhumanita r
ÄłV u
ÄłRegis t
Äłtro l
Äłmedi t
r king
ÄłWalte r
ÄłChalle n
ÄłLegis l
ÄłLegisl a
Äłauti s
ÄłBo d
Äłcompose d
Che c
ÄłChronicl e
ÄłOrigin a
ÄłYan k
Äłdoctrin e
ÄłLegisla t
Äłhumanitar i
Äłleas e
Äłrefre s
Äłdirection s
Äłchan t
Äłhumanitari a
Äłoffs h
Äłinsan e
Äłoffsh o
ÄłCambr i
Äłinvesti n
Äłnerv e
Äłinvestin g
Äłper v
Äłhumanitaria n
Äłdig n
Äłromanti c
Äłpar s
ÄłBenjam i
Äłrefres h
ÄłMilit a
ÄłAssist a
Äłrubb e
ÄłHon d
ÄłAssista n
Äłout e
Äłwo l
Äłepide m
Äłplug i
Äłvic i
Äłplugi n
Äłinsur e
Äłepidem i
ÄłBenjami n
ÄłBloom b
ÄłHurri c
ÄłHurric a
ÄłChallen g
ÄłHor n
Äługl y
ÄłImp e
ÄłBen e
ÄłHurrica n
Äłinitiative s
ÄłBloomb e
Äłheave n
ÄłBloombe r
Äłexchange s
Äłtrol l
ÄłRod r
ÄłSom a
ÄłBloomber g
Äłina p
Äłscar y
Äłdesire d
ÄłFam e
Äłfan c
Äłcontroll i
ÄłHurrican e
ÄłKi e
Äłrag e
whe n
Äłinspect i
Äłrespecte d
ÄłKyl e
Äłpion e
Äłbalance d
Äłsuspicio u
Äłsuspiciou s
Äłmedit a
Äłslo g
ÄłCircu i
Äłdign i
a nding
ÄłCircui t
Äłcontrolli n
Äłsentence s
Äłrese t
Äłcontrollin g
Äłpione e
Äłpionee r
Äłjudicia l
Äłmir a
Äłtimeli n
Äłtimelin e
Äłmedita t
Äłsens a
ÄłPanthe r
Äłhi e
Äłsuprem a
Äłunfo l
ÄłSwit z
Äłcultiva t
ÄłNigeri a
a bout
ÄłMain e
Äłcondemn e
Äłsystemati c
Äłbreak f
ÄłBla i
ÄłCo i
Äłmonetar y
Äłpersuad e
Äłmap p
Äłmuta t
ÄłNee d
Äłpredat o
Äłslat e
Äłpredato r
Äłcondemne d
ÄłMachi n
Äłbreakf a
ÄłSwitz e
ÄłPerson a
ÄłSwitze r
e vel
Äłtoile t
Äłwing s
Äłsuprema c
Äłbreakfa s
Äłrevis e
Äłfavor a
ÄłClassi c
Äłbreakfas t
Äłshorte r
Äłtouche d
ÄłRin g
Äłfavora b
h ome
Äłpeer s
Äłchurch e
Äłagricultur a
rec o
inf o
ÄłMu h
ÄłMcCon n
Äłinap p
Äłcrowd s
ÄłRecord s
ÄłKir k
Äłcla u
Äłparti s
Äłcool e
ÄłEb o
ÄłDis p
Äłtrapp e
Äłchurche s
ÄłCorr e
Äłvir a
Äłsensa t
Äłmotiv e
ÄłResp o
Äłalternat e
Äłagricultura l
Äłastron o
Äłpop p
ÄłSac r
Äłastrono m
inde d
Äłmisle a
ÄłRespo n
Äłmagnet i
Äłmislea d
Äłtutori a
Äłtutoria l
res p
Äłbas s
ÄłWiki p
ÄłArct i
Äłherita g
Äłheritag e
o rge
Äłreserve s
Äłlegend a
de t
Äłbone s
ÄłVot e
Äłslaver y
Äłculture s
Äłfunera l
Äłpartis a
Äłpartisa n
Äłgras p
ÄłRic e
Äłcri c
ÄłAnn e
ÄłBey o
ÄłMas o
Äłlegenda r
ÄłBrando n
ÄłJet s
ÄłBuff a
ÄłIs s
ÄłLaur e
Chec k
Äłfrig h
ÄłHol o
Äłfrigh t
ÄłArcti c
ÄłAp a
Äłillustrat i
ÄłSusa n
Äłtreati n
Äłphilosoph i
¬ Â
Äłtreatin g
Äłpay s
Äłorc h
Äłcach e
Äłfertil i
ÄłDy n
Äłpresse d
Äłflexibl e
Äłles b
control l
ÄłSto p
ÄłPri z
V ideo
Äłsecure d
Äłclau s
Äłspace c
Äłbanne r
Äłjihad i
Äłtenu r
ÄłKar l
Äłfier c
Äłsubsidi e
Äłanimate d
ÄłWikip e
ÄłMcConn e
Äłinfr i
ÄłProfi l
Äłisland s
Äłsubsidie s
ÄłTamp a
Äłfierc e
Äłtenur e
Äłmac r
Äłinfri n
ÄłCow b
Äłinfrin g
ÄłMcConne l
ÄłWikipe d
ÄłPir a
ÄłT D
Äłanticipate d
ÄłGa i
Äł198 5
Äłbatter i
ÄłAb s
Äłden t
ÄłLam b
ÄłTru d
Äłnak e
ÄłBeyo n
ÄłBuffa l
Äłspacec r
Äłsensat i
Äłformal l
ÄłWikiped i
Äłmu d
Äłformall y
Äłvira l
Äłliab i
Äłspacecr a
ÄłAr o
Äłliabi l
Äłspacecra f
Äłspacecraf t
Äłcric k
Äłsensati o
ÄłBuffal o
b ecause
Äłsensatio n
Äłsoc k
Äłflexib i
Äłliabil i
Äłflexibi l
Äłliabili t
Äłoptimist i
Äłnake d
ÄłMcConnel l
Äłtele c
Äłresign e
Äłcrypto c
Äłfreel y
Äłstaffe r
Äłresigne d
Äłlesb i
Äłmis e
ÄłLan c
Äłsph e
Äłflexibil i
ÄłOrigina l
Äłoptimisti c
ÄłWikipedi a
Äłjoke s
ÄłCharg e
ÄłMobil e
Äłhie r
ÄłAbbot t
o ving
Äłscr o
Äłbu z
ÄłClos e
Äłcrick e
Äłlane s
Äłrespondent s
Äłshe r
Äłattribute d
b eing
Äłlesbi a
Äłlesbia n
Äłcricke t
Äłinva l
[...]
