{"<|endoftext|>": 0, "!": 1, "\"": 2, "#": 3, "$": 4, "%": 5, "&": 6, "'": 7, "(": 8, ")": 9, "*": 10, "+": 11, ",": 12, "-": 13, ".": 14, "/": 15, "0": 16, "1": 17, "2": 18, "3": 19, "4": 20, "5": 21, "6": 22, "7": 23, "8": 24, "9": 25, ":": 26, ";": 27, "<": 28, "=": 29, ">": 30, "?": 31, "@": 32, "A": 33, "B": 34, "C": 35, "D": 36, "E": 37, "F": 38, "G": 39, "H": 40, "I": 41, "J": 42, "K": 43, "L": 44, "M": 45, "N": 46, "O": 47, "P": 48, "Q": 49, "R": 50, "S": 51, "T": 52, "U": 53, "V": 54, "W": 55, "X": 56, "Y": 57, "Z": 58, "[": 59, "\\": 60, "]": 61, "^": 62, "_": 63, "`": 64, "a": 65, "b": 66, "c": 67, "d": 68, "e": 69, "f": 70, "g": 71, "h": 72, "i": 73, "j": 74, "k": 75, "l": 76, "m": 77, "n": 78, "o": 79, "p": 80, "q": 81, "r": 82, "s": 83, "t": 84, "u": 85, "v": 86, "w": 87, "x": 88, "y": 89, "z": 90, "{": 91, "|": 92, "}": 93, "~": 94, "¡": 95, "¢": 96, "£": 97, "¤": 98, "¥": 99, "¦": 100, "§": 101, "¨": 102, "©": 103, "ª": 104, "«": 105, "¬": 106, "®": 107, "¯": 108, "°": 109, "±": 110, "²": 111, "³": 112, "´": 113, "µ": 114, "¶": 115, "·": 116, "¸": 117, "¹": 118, "º": 119, "»": 120, "¼": 121, "½": 122, "¾": 123, "¿": 124, "À": 125, "Á": 126, "Â": 127, "Ã": 128, "Ä": 129, "Å": 130, "Æ": 131, "Ç": 132, "È": 133, "É": 134, "Ê": 135, "Ë": 136, "Ì": 137, "Í": 138, "Î": 139, "Ï": 140, "Ð": 141, "Ñ": 142, "Ò": 143, "Ó": 144, "Ô": 145, "Õ": 146, "Ö": 147, "×": 148, "Ø": 149, "Ù": 150, "Ú": 151, "Û": 152, "Ü": 153, "Ý": 154, "Þ": 155, "ß": 156, "à": 157, "á": 158, "â": 159, "ã": 160, "ä": 161, "å": 162, "æ": 163, "ç": 164, "è": 165, "é": 166, "ê": 167, "ë": 168, "ì": 169, "í": 170, "î": 171, "ï": 172, "ð": 173, "ñ": 174, "ò": 175, "ó": 176, "ô": 177, "õ": 178, "ö": 179, "÷": 180, "ø": 181, "ù": 182, "ú": 183, "û": 184, "ü": 185, "ý": 186, "þ": 187, "ÿ": 188, "Ā": 189, "ā": 190, "Ă": 191, "ă": 192, "Ą": 193, "ą": 194, "Ć": 195, "ć": 196, "Ĉ": 197, "ĉ": 198, "Ċ": 199, "ċ": 200, "Č": 201, "č": 202, "Ď": 203, "ď": 204, "Đ": 205, "đ": 206, "Ē": 207, "ē": 208, "Ĕ": 209, "ĕ": 210, "Ė": 211, "ė": 212, "Ę": 213, "ę": 214, "Ě": 215, "ě": 216, "Ĝ": 217, "ĝ": 218, "Ğ": 219, "ğ": 220, "Ġ": 221, "ġ": 222, "Ģ": 223, "ģ": 224, "Ĥ": 225, "ĥ": 226, "Ħ": 227, "ħ": 228, "Ĩ": 229, "ĩ": 230, "Ī": 231, "ī": 232, "Ĭ": 233, "ĭ": 234, "Į": 235, "į": 236, "İ": 237, "ı": 238, "Ĳ": 239, "ĳ": 240, "Ĵ": 241, "ĵ": 242, "Ķ": 243, "ķ": 244, "ĸ": 245, "Ĺ": 246, "ĺ": 247, "Ļ": 248, "ļ": 249, "Ľ": 250, "ľ": 251, "Ŀ": 252, "ŀ": 253, "Ł": 254, "ł": 255, "Ń": 256, "Äł": 257, "Äłt": 258, "Äła": 259, "he": 260, "in": 261, "Äłth": 262, "re": 263, "Äłthe": 264, "on": 265, "Äło": 266, "Äłs": 267, "Äłi": 268, "Äłw": 269, "ÄĬ": 270, "¢Ä": 271, "Äłc": 272, "Äłb": 273, "Äłf": 274, "Äłp": 275, "Äłh": 276, "ve": 277, "Äłan": 278, "le": 279, "Äłto": 280, "me": 281, "Äłm": 282, "Äłin": 283, "Äłof": 284, "de": 285, "Äłd": 286, "Äłand": 287, "Äłr": 288, "Äłe": 289, "Äłl": 290, "Äłco": 291, "Ã¢Ä": 292, "Ã¢Ä¢Ä": 293, "ut": 294, "us": 295, "Äłn": 296, "Äłre": 297, "Äłbe": 298, "un": 299, "ge": 300, "Äłg": 301, "Äłtha": 302, "Äłfo": 303, "Äłha": 304, "ÄłT": 305, "ÄłI": 306, "Äłwi": 307, "Äłthat": 308, "Äłon": 309, "ke": 310, "ÄłS": 311, "Äłis": 312, "Äłwh": 313, "Äłfor": 314, "Äłwa": 315, "Ã¢Ä¢Ä»": 316, "Äłpr": 317, "ÄłA": 318, "Äłu": 319, "ÄłC": 320, "Äłst": 321, "Äły": 322, "Äłit": 323, "Äłca": 324, "Äłhe": 325, "Äłma": 326, "Äłse": 327, "Äłde": 328, "Äłwe": 329, "ÄłM": 330, "Äłno": 331, "Äłar": 332, "Äłwit": 333, "Äłmo": 334, "Äłwith": 335, "Äłas": 336, "ÄłB": 337, "ÄłÃ": 338, "ÄłTh": 339, "Äłal": 340, "Äłso": 341, "Äłsa": 342, "Äłwo": 343, "Äłhi": 344, "ÄłP": 345, "Äłyo": 346, "Äłwas": 347, "ÄłÃ¢": 348, "ÄłÃ¢Ä": 349, "Äłyou": 350, "ÄłÃ¢Ä¢": 351, "ÄłÃ¢Ä¢Ä": 352, "Äłcon": 353, "Äłv": 354, "Äłthi": 355, "Äłli": 356, "Äłfr": 357, "Äłpro": 358, "Äłdi": 359, "Äłdo": 360, "Äłat": 361, "ÄłW": 362, "Äłpo": 363, "ÄłH": 364, "Äłfi": 365, "Äłsu": 366, "Äłare": 367, "Äłsh": 368, "ÄłD": 369, "Äłpa": 370, "Äł1": 371, "Äłcom": 372, "Äłne": 373, "ÄłR": 374, "Äłme": 375, "ÄłThe": 376, "Äł2": 377, "Äłbu": 378, "Äł(": 379, "Äłhav": 380, "ÄłF": 381, "Äłpe": 382, "Äłex": 383, "Äłlo": 384, "Äłnot": 385, "Äłhave": 386, "Äłle": 387, "ÄłN": 388, "Ã¢Ä¢Ä¿": 389, "Äłfro": 390, "Äłor": 391, "Äłtr": 392, "Äłby": 393, "Äłla": 394, "ÄłG": 395, "Äłfrom": 396, "Äłfa": 397, "Äłch": 398, "Äłho": 399, "'s": 400, "Äłgo": 401, "Äłou": 402, "ÄłL": 403, "Äłthis": 404, "Äłsi": 405, "Äłba": 406, "Äłte": 407, "Äłsta": 408, "ÄłE": 409, "Äłint": 410, "Äłhis": 411, "Äłmi": 412, "Äłab": 413, "Äłk": 414, "The": 415, "Äłpl": 416, "Äłun": 417, "Äłen": 418, "00": 419, "Äłac": 420, "ÄłÃ¢Ä¢Ä¾": 421, "Äłhas": 422, "ÄłJ": 423, "ÄłO": 424, "Äłj": 425, "Äłev": 426, "Äłta": 427, "Äłwor": 428, "Äłcan": 429, "Äłwhi": 430, "Äłpla": 431, "Äłcou": 432, "Äłsp": 433, "Äłus": 434, "Äłthey": 435, "Äłall": 436, "Äłwil": 437, "Äłbut": 438, "Äł20": 439, "Äłsai": 440, "Äłwill": 441, "Äłsaid": 442, "Äłwhe": 443, "ÄłU": 444, "ÄłCo": 445, "Äłwho": 446, "Äłbo": 447, "Äłgr": 448, "Äł\"": 449, "Äłmor": 450, "Äłsho": 451, "Äłeve": 452, "Äłpre": 453, "Äłcl": 454, "ÄłMa": 455, "Äłout": 456, "Äłthei": 457, "Äłtheir": 458, "Äłti": 459, "Äłres": 460, "Äłabo": 461, "Äłfe": 462, "Äłrea": 463, "Äłper": 464, "Äłcr": 465, "Äłup": 466, "Äłge": 467, "Äłmore": 468, "Äłsom": 469, "Äłye": 470, "Äłsome": 471, "Äłra": 472, "Äłone": 473, "Äład": 474, "Äłcha": 475, "Äłabou": 476, "Äłabout": 477, "Äłda": 478, "ÄłIn": 479, "Äłcomp": 480, "Äłpu": 481, "Äłag": 482, "Äłwer": 483, "Äłwere": 484, "Äłpar": 485, "ÄłK": 486, "Äłwou": 487, "Äłher": 488, "Äłhad": 489, "Äłvi": 490, "Äłwoul": 491, "Äłwould": 492, "Äłbee": 493, "Äłdis": 494, "Äłim": 495, "Äłwhic": 496, "Äłwhich": 497, "Äłcont": 498, "Äłexp": 499, "Äłoff": 500, "Äłsc": 501, "ÄłSt": 502, "Äłbeen": 503, "ing": 504, "Äłlik": 505, "Äłbr": 506, "Äłlike": 507, "Äłga": 508, "Äłju": 509, "Äłyea": 510, "Äłthr": 511, "Äłtra": 512, "Äłmu": 513, "Äłman": 514, "Äłyear": 515, "Äłrec": 516, "Äłinc": 517, "Äłtim": 518, "Äłinte": 519, "Äłtime": 520, "Äłbi": 521, "Äłlea": 522, "Äłap": 523, "Äłri": 524, "Äłfu": 525, "ze": 526, "Äłsee": 527, "Äłot": 528, "Äłoth": 529, "Äłothe": 530, "Äłother": 531, "Äłop": 532, "Äłthin": 533, "Äłther": 534, "Äłuse": 535, "ÄłCh": 536, "ÄłRe": 537, "Äłea": 538, "Äłstr": 539, "Äł201": 540, "Äłits": 541, "Äłov": 542, "Äłwha": 543, "Äłove": 544, "Äłover": 545, "Äłve": 546, "Äłthere": 547, "Äłwhat": 548, "ÄłCa": 549, "Äłfir": 550, "ÄłHe": 551, "Äłnew": 552, "Äłrep": 553, "Äłals": 554, "Äłthan": 555, "Äłalso": 556, "Äłbec": 557, "Äłdr": 558, "Äłthem": 559, "Äłaf": 560, "Äłro": 561, "Äłtho": 562, "Äłapp": 563, "Äłyour": 564, "Äłwork": 565, "Äłpart": 566, "Äłwhen": 567, "Äłpeo": 568, "Äłpeop": 569, "Äłpeopl": 570, "Äłpeople": 571, "Äłq": 572, "Äłqu": 573, "ÄłAn": 574, "ÄłDe": 575, "Äłhea": 576, "Äłmak": 577, "Äłjus": 578, "Äłany": 579, "Äłjust": 580, "ÄłY": 581, "Äłna": 582, "ÄłIt": 583, "Äłkn": 584, "Äłcomm": 585, "Äłsay": 586, "Äłspe": 587, "Äł3": 588, "Äłmy": 589, "Äłget": 590, "Äłif": 591, "ÄłV": 592, "Äłpol": 593, "ÄłWe": 594, "Äłinto": 595, "Äłcons": 596, ".Ã¢Ä¢Ä¿": 597, "Äłtw": 598, "Äłstat": 599, "ÄłPa": 600, "Äłacc": 601, "Äłfin": 602, "ÄłSe": 603, "Äłcu": 604, "Äłeven": 605, "Äłplay": 606, "Äłimp": 607, "ÄłBu": 608, "Äłrel": 609, "Äłinter": 610, "Äłour": 611, "Äłonl": 612, "Äł-": 613, "Äłcar": 614, "Äłact": 615, "ÄłPr": 616, "Äłpos": 617, "Äłkno": 618, "ÄłHo": 619, "Äłins": 620, "Äłshe": 621, "ÄłMo": 622, "ÄłNo": 623, "ÄłSo": 624, "Äłpri": 625, "Äłce": 626, "Äłsto": 627, "Äłaft": 628, "Äłafte": 629, "Äłafter": 630, "Äłever": 631, ",Ã¢Ä¢Ä¿": 632, "Äłcoul": 633, "Äłcould": 634, "Äłfirs": 635, "Äłfirst": 636, "Äłknow": 637, "Äłhow": 638, "Äłpoli": 639, "Äłtak": 640, "Äł19": 641, "Äłver": 642, "Äłhim": 643, "Äłmake": 644, "'t": 645, "ÄłMi": 646, "Äłdes": 647, "Äłgro": 648, "Äłonly": 649, "Äłbeca": 650, "Äłatt": 651, "Äłru": 652, "ÄłNe": 653, "Äłreal": 654, "Äłtwo": 655, "Äłbl": 656, "Äłsup": 657, "ÄłTr": 658, "Äłdon": 659, "ÄłSa": 660, "Äłbac": 661, "Äłdec": 662, "Äłund": 663, "Äłser": 664, "ÄłWh": 665, "Äłsec": 666, "Äłpres": 667, "Äłel": 668, "Äłbet": 669, "Äłmos": 670, "ÄłBr": 671, "Äłmon": 672, ".\"": 673, "Ã¢Ä¢Ä¾": 674, "Äłback": 675, "Äłgi": 676, "Äłki": 677, "Äłpi": 678, "ÄłBa": 679, "Äłmost": 680, "Äłunde": 681, "Äłsuc": 682, "Äłem": 683, "Äłstate": 684, "Äłgam": 685, "Äłfou": 686, "Äłfac": 687, "ÄłBe": 688, "Äłam": 689, "ÄłÃ¢Ä¢Äµ": 690, "Äłwan": 691, "Äłdid": 692, "Äłdu": 693, "Äłunder": 694, "Äłaga": 695, "Äłexpe": 696, "Äłagai": 697, "Äłagain": 698, "Äł4": 699, "ÄłAm": 700, "Äłci": 701, "ÄłWa": 702, "Äłway": 703, "Äłfl": 704, "Äłwant": 705, "Äłtake": 706, "ÄłAl": 707, "ÄłFo": 708, "Äłva": 709, "Äłgame": 710, "Äłhu": 711, "Äłbecau": 712, "Äłbecaus": 713, "Äłbecause": 714, "ÄłÃ¢Ä¢Ä¶": 715, "ÄłHa": 716, "Äłnow": 717, "ÄłUn": 718, "Äłcal": 719, "ÄłYo": 720, "ÄłRo": 721, "Äłyears": 722, "Äłinv": 723, "Äłnee": 724, "Äłneed": 725, "Äłcoun": 726, "Äłthro": 727, "Äł$": 728, "Äłtea": 729, "Äłind": 730, "Äłstar": 731, "Äłsur": 732, "Äłwr": 733, "Äłmil": 734, "Äłloo": 735, "Äłchan": 736, "ÄłSta": 737, "Äładd": 738, ",\"": 739, "Äłtoo": 740, "Äłstu": 741, "Äłcre": 742, "Äłmea": 743, "ÄłSh": 744, "Äłevery": 745, "Äłhel": 746, "Äłmin": 747, "Äł5": 748, "Äłsupp": 749, "Äłthes": 750, "ÄłDa": 751, "Äłgu": 752, "Äłcam": 753, "Äłthese": 754, "ÄłJa": 755, "Äłinf": 756, "Äłwher": 757, "Äłwhere": 758, "ÄłFr": 759, "Äłshow": 760, "Äłrig": 761, "ÄłWi": 762, "Äłthre": 763, "ÄłThi": 764, "Äłcount": 765, "Äłbei": 766, "Äłwel": 767, "Äłthink": 768, "Äłbein": 769, "Äłbeing": 770, "Äłvo": 771, "Äłmar": 772, "ÄłLa": 773, "Äłlook": 774, "ÄłAnd": 775, "Äłincl": 776, "Äłsin": 777, "Äłday": 778, "Äłnu": 779, "Äłcontr": 780, "Äłhig": 781, "Äłhigh": 782, "Äłsti": 783, "Äłrigh": 784, "Äłinclu": 785, "Äłright": 786, "Äłrem": 787, "Äłmay": 788, "Äłdef": 789, "Äłthen": 790, "ÄłJo": 791, "ÄłTo": 792, "Äłmany": 793, "ÄłMe": 794, "Äłdif": 795, "Äłshou": 796, "Äłdiff": 797, "Äłcol": 798, "Äłlas": 799, "Äłrepo": 800, "ÄłBut": 801, "Äłcall": 802, "ÄłMar": 803, "Äł[": 804, "Äłinclud": 805, "Äłsen": 806, "Äłjo": 807, "Äłcompa": 808, "Äłreg": 809, "ÄłLi": 810, "Äłthrou": 811, "Äłthroug": 812, "Äłph": 813, "Äłthrough": 814, "Äłrece": 815, "Äłrepor": 816, "Äłreport": 817, "ÄłGo": 818, "Äłsea": 819, "Äłshoul": 820, "Äłshould": 821, "ÄłPo": 822, "Äłsy": 823, "Äłdow": 824, "Äłcla": 825, "Äłpas": 826, "Äłthing": 827, "Äłdev": 828, "Äłope": 829, "Äłoffi": 830, "ÄłSu": 831, "Äłdown": 832, "Äłoffic": 833, "Äłass": 834, "ÄłLe": 835, "Äłlast": 836, "Äłvery": 837, "Äłthos": 838, "Äłthose": 839, "Äłmuc": 840, "ÄłAme": 841, "Äłmuch": 842, "Äłow": 843, "Äłmov": 844, "Äłbel": 845, "ÄłThis": 846, "Äłpub": 847, "Äłgen": 848, "Äł10": 849, "Äłcas": 850, "Äłlon": 851, "Äłwell": 852, "Äłpubl": 853, "Äłpubli": 854, "Äłdoe": 855, "Äłdoes": 856, "ÄłUni": 857, "za": 858, "Äłdea": 859, "Äłown": 860, "Äłend": 861, "Äł200": 862, "Äłform": 863, "Äłke": 864, "Äłthou": 865, "Äłstart": 866, "Äłau": 867, "Äłgov": 868, "ÄłAmer": 869, "Äłlong": 870, "Äłgove": 871, "Äłgover": 872, "ÄłAmeri": 873, "Äłgovern": 874, "Äłbef": 875, "ÄłAmeric": 876, "ÄłAmerica": 877, "Äłgrou": 878, "Äłsuppo": 879, "Äłes": 880, "Äłgiv": 881, "Äłprov": 882, "ÄłBo": 883, "Äłbefo": 884, "Äłbefor": 885, "Äłbefore": 886, "Äłgre": 887, "Äłreco": 888, "Äłmad": 889, "ÄłAs": 890, "ÄłAr": 891, "Äłplan": 892, "Äłcome": 893, "Äłbas": 894, "ÄłNew": 895, "ÄłGr": 896, "Äłpoi": 897, "Äłteam": 898, "ÄłGe": 899, "Äłnat": 900, "Äłmade": 901, "ÄłPe": 902, "Äłlat": 903, "Äłid": 904, "Äłstor": 905, "Äłsam": 906, "ÄłJu": 907, "Äłgoo": 908, "Äłsuch": 909, "ÄłLo": 910, "Äłfil": 911, "Äłgoi": 912, "Äłgoin": 913, "Äłgoing": 914, "Äłsm": 915, "Äłchang": 916, "Äłbot": 917, "Äłworl": 918, "Äłworld": 919, "Äłwee": 920, "ÄłCon": 921, "Äłchi": 922, "Äłstud": 923, "Äłgood": 924, "ÄłDo": 925, "Äłpolic": 926, "Äłmat": 927, "ÄłTe": 928, "ÄłNa": 929, "Äłref": 930, "Äłprob": 931, "Äłfee": 932, "Äłpoin": 933, "Äłpoint": 934, "Äłef": 935, "Äłsub": 936, "Äłfun": 937, "Äłsha": 938, "Äłeff": 939, "Äłagains": 940, "Äłagainst": 941, "Äłweek": 942, "Äłsl": 943, "Äłset": 944, "Äłacti": 945, "Äł6": 946, "Äłchar": 947, "Äłcri": 948, "Äłcrea": 949, "Äłear": 950, "Äłent": 951, "Äłtu": 952, "ion": 953, "Äłwhil": 954, "Äłserv": 955, "Äłhelp": 956, "Äłplaye": 957, "Äłsig": 958, "Äłstil": 959, "Äłpers": 960, "Äłstill": 961, "Äłide": 962, "Äłgovernm": 963, "Äłgovernme": 964, "Äłgovernmen": 965, "Äłgovernment": 966, "Äłacco": 967, "Äłlate": 968, "Äłele": 969, "Äłwhile": 970, "Äłwin": 971, "Äłmean": 972, "ÄłYou": 973, "Äłlead": 974, "Äłsuppor": 975, "Äłsupport": 976, "Äłprod": 977, "Äłob": 978, "Äłconc": 979, "Äłdiffe": 980, "Äłdiffer": 981, "Äłsays": 982, "Äłcreat": 983, "ÄłHi": 984, "Äłprodu": 985, "Äłconf": 986, "Äłproduc": 987, "Äłfre": 988, "Äłgive": 989, "Äłchange": 990, "Äłinst": 991, "ÄłRa": 992, "Äłrev": 993, "Äłdisc": 994, "Äłsou": 995, "Äłsim": 996, "ÄłDi": 997, "Äłresp": 998, "Äłgra": 999, "ÄłFi": 1000, "Äłlin": 1001, "Äłcompl": 1002, "ÄłCl": 1003, "Äłsame": 1004, "ĥÂ": 1005, "Äłrat": 1006, "Äłdiffere": 1007, "ÄłFor": 1008, "Äłthoug": 1009, "Äłthough": 1010, "ÄłTru": 1011, "Äłbetw": 1012, "Äłbetwe": 1013, "Äłbetwee": 1014, "Äłbetween": 1015, "Äłspec": 1016, "Äłdifferen": 1017, "Äław": 1018, "Äłmus": 1019, "Äłcit": 1020, "Äłlaw": 1021, "Äłhan": 1022, "Ã¢Ä¢Ä¶": 1023, "ÄłSc": 1024, "Äłclo": 1025, "Äłtri": 1026, "Äłed": 1027, "Äłav": 1028, "Äłnum": 1029, "Äłfol": 1030, "Äłsign": 1031, "Äłhar": 1032, "Äłhom": 1033, "ÄłFa": 1034, "Äłaro": 1035, "Äłtran": 1036, "Äłret": 1037, "Äłter": 1038, "Äłsomet": 1039, "Äłext": 1040, "Äłrun": 1041, "Äłcountr": 1042, "Äłtrans": 1043, "ÄłGa": 1044, "Äłprovi": 1045, "Äłarou": 1046, "Äłfoun": 1047, "Äłplac": 1048, "Äłhere": 1049, "ĲÂ": 1050, "Äłliv": 1051, "Äłthree": 1052, "Äłfound": 1053, "Äłaroun": 1054, "Äłaround": 1055, "Äłdat": 1056, "Äł.": 1057, "Äłmem": 1058, "Äłbro": 1059, "Äłuni": 1060, "Äłmed": 1061, "ÄłStat": 1062, "Äłcor": 1063, "Äłsys": 1064, "ÄłCom": 1065, "Äłused": 1066, "Äłlif": 1067, "Äłwar": 1068, "Äłsyst": 1069, "Äłsyste": 1070, "Äłsystem": 1071, "Äłreall": 1072, "Äłhou": 1073, "ÄłOn": 1074, "Äłsch": 1075, "Äłreally": 1076, "ÄłSi": 1077, "Äłgene": 1078, "Äłplace": 1079, "Äłexa": 1080, "Äłmod": 1081, "Äłgroup": 1082, "Äłcour": 1083, "Äłexc": 1084, "Äł7": 1085, "ÄłIs": 1086, "Äłboth": 1087, "Äłcur": 1088, "Äłtol": 1089, "Äłcompan": 1090, "Äłni": 1091, "ÄłSp": 1092, "Äłhand": 1093, "Äłmen": 1094, "Äłfam": 1095, "Äłpublic": 1096, "ver": 1097, "Äłspo": 1098, "Äłgrea": 1099, "ÄłTha": 1100, "Äłsit": 1101, "Äłdur": 1102, "Äł0": 1103, "Äłmis": 1104, "Äłnumb": 1105, "Äłgreat": 1106, "Äłhome": 1107, "Äłmedi": 1108, "Äłnumbe": 1109, "Äłnumber": 1110, "Äłpow": 1111, "Äłhap": 1112, "Äłcap": 1113, "ÄłTrum": 1114, "Äłloc": 1115, "Äładv": 1116, "Äłwat": 1117, "Äłcen": 1118, "Äłbui": 1119, "Äłbuil": 1120, "Äłsol": 1121, "Äłcase": 1122, "Äłtal": 1123, "Äłhapp": 1124, "Äłimpo": 1125, "Äłdir": 1126, "Äłwom": 1127, "Äłfact": 1128, "Äłlit": 1129, "ÄłTrump": 1130, "Äłperso": 1131, "Äłexper": 1132, "Äłperson": 1133, "ÄłThey": 1134, "Äłdep": 1135, "Äłparti": 1136, "Äłfina": 1137, "Äłque": 1138, "Äłfind": 1139, "Äława": 1140, "Äłread": 1141, "Äłinve": 1142, "ÄłChi": 1143, "Äłprop": 1144, "Äłpowe": 1145, "Äłmove": 1146, "Äłpower": 1147, "Äłdet": 1148, "Äłano": 1149, "Äłai": 1150, "ÄłState": 1151, "Äłduri": 1152, "Äłmill": 1153, "Äłdurin": 1154, "Äłduring": 1155, "ÄłRu": 1156, "Äłlife": 1157, "Äłaut": 1158, "Äłprot": 1159, "ÄłPre": 1160, "Äłmont": 1161, "Äłfoll": 1162, "Äłbig": 1163, "ÄłWo": 1164, "Äłfig": 1165, "Äłdeve": 1166, "Äłmonth": 1167, "Äłdevel": 1168, "Äłdevelo": 1169, "Äłdevelop": 1170, "Äłmig": 1171, "Äłcoll": 1172, "Äłfollo": 1173, "Äłfollow": 1174, "Äłdeci": 1175, "Äłcent": 1176, "Äł8": 1177, "Äłsinc": 1178, "Äłsince": 1179, "Äłiss": 1180, "Äłtold": 1181, "Äłissu": 1182, "Äłtru": 1183, "ÄłAmerican": 1184, "Äłpolit": 1185, "Äłprog": 1186, "Äłspeci": 1187, "Äłoffe": 1188, "Äłdire": 1189, "ÄłRi": 1190, "ÄłAu": 1191, "Äłlar": 1192, "Äłperc": 1193, "Äłfew": 1194, "Äłbri": 1195, "Äłblo": 1196, "Äłcle": 1197, "Äłtur": 1198, "Äłmilli": 1199, "Äłleg": 1200, "Äłissue": 1201, "Äłprogr": 1202, "Äłincr": 1203, "ÄłJe": 1204, "Äłpoliti": 1205, "Äłlarg": 1206, "Äłincre": 1207, "Äłlarge": 1208, "Äłdirec": 1209, "Äłdirect": 1210, "Äłpolitic": 1211, "Äłart": 1212, "Äłperce": 1213, "Äłconti": 1214, "Äłage": 1215, "Äłwri": 1216, "Äłexpl": 1217, "Äłfar": 1218, "Äłqui": 1219, "ÄłPar": 1220, "Äłcontin": 1221, "Äłbeli": 1222, "Äłrela": 1223, "Äłsel": 1224, "Äłdri": 1225, "ÄłVi": 1226, "Äłnam": 1227, "Äłbelie": 1228, "Äłlot": 1229, "Äłmillio": 1230, "Äłmillion": 1231, "Äłplayer": 1232, "Äłboo": 1233, "Äłgener": 1234, "Äłproc": 1235, "Äłopp": 1236, "Äł9": 1237, "Äłask": 1238, "Äłreq": 1239, "Äłsma": 1240, "Äłrequ": 1241, "Äłcommu": 1242, "ÄłBi": 1243, "Äłname": 1244, "Äłelec": 1245, "Äłche": 1246, "Äłelect": 1247, "ÄłTa": 1248, "Äłappe": 1249, "Äłput": 1250, "Äłprovid": 1251, "Äłsoc": 1252, "ÄłIf": 1253, "Äłwrit": 1254, "Äłanot": 1255, "Äłanoth": 1256, "Äłanothe": 1257, "Äłanother": 1258, "Äłbes": 1259, "Äłsev": 1260, "Äłseve": 1261, "Äłsometh": 1262, "Äłsomethi": 1263, "Äłsomethin": 1264, "Äłsomething": 1265, "Äłchil": 1266, "Äłnati": 1267, "ÄłCha": 1268, "Äłste": 1269, "Äłban": 1270, "Äłbeg": 1271, "Äłrele": 1272, "Äłdifferent": 1273, "Äłfami": 1274, "Äłmark": 1275, "Äłallo": 1276, "Äłopen": 1277, "Äłconce": 1278, "Äłinves": 1279, "ÄłEn": 1280, "Äłinvest": 1281, "Äłtel": 1282, "Äłfamil": 1283, "Äłconsi": 1284, "Äłrespo": 1285, "Äłrespon": 1286, "Äłhear": 1287, "Äłbus": 1288, "Äłlos": 1289, "Äłec": 1290, "Äł'": 1291, "Äłpass": 1292, "Äłcommun": 1293, "Äłtre": 1294, "ÄłMu": 1295, "Äłhead": 1296, "Äłwea": 1297, "Äłresu": 1298, "Äłpat": 1299, "Äłcontinu": 1300, "Äłthings": 1301, "ÄłFe": 1302, "Äłatte": 1303, "Äłposs": 1304, "Äłfai": 1305, "Äłappr": 1306, "Äłoppo": 1307, "Äłmet": 1308, "Äłclea": 1309, "Äłvot": 1310, "Äłappea": 1311, "ÄłCr": 1312, "Äłdefe": 1313, "Äłcamp": 1314, "Äłlan": 1315, "Äłseas": 1316, "Äłproce": 1317, "ÄłPro": 1318, "Äłrelat": 1319, "Äłloca": 1320, "Äłcommuni": 1321, "Äłmigh": 1322, "Äłmight": 1323, "Äłfea": 1324, "Äłgenera": 1325, "Äłeac": 1326, "Äłeach": 1327, "Äłnev": 1328, "Äłneve": 1329, "Äłnever": 1330, "Äłdem": 1331, "Äłchild": 1332, "Äłamo": 1333, "Äłnex": 1334, "Äłtry": 1335, "Äłnext": 1336, "Äłearl": 1337, "Äłseaso": 1338, "Äłseason": 1339, "Äłques": 1340, "Äłseco": 1341, "Äłsecon": 1342, "Äłsecond": 1343, "Äłprote": 1344, "Äłgot": 1345, "Äłturn": 1346, "Äłquest": 1347, "Äłmode": 1348, "Äłatta": 1349, "Äłfoo": 1350, "Äłbeco": 1351, "Äłfree": 1352, "Äłbecom": 1353, "ÄłÃ¢Ä¢Äº": 1354, "ÄłCou": 1355, "Äłindi": 1356, "Äłbest": 1357, "ÄłRep": 1358, "Äłinfo": 1359, "Äłallow": 1360, "Äłacce": 1361, "Äłsoci": 1362, "Äłstre": 1363, "ÄłThat": 1364, "Äłcare": 1365, "Äłclos": 1366, "Äłlet": 1367, "Äłlive": 1368, "Äłseem": 1369, "ÄłUS": 1370, "Äłfeel": 1371, "Äłattac": 1372, "Äłpost": 1373, "Äłpercen": 1374, "Äłpercent": 1375, "Äłtop": 1376, "Äłbre": 1377, "Äłstan": 1378, "Äłexperi": 1379, "Äłline": 1380, "Äłrese": 1381, "Äłdist": 1382, "Äłgl": 1383, "Äłcame": 1384, "ÄłAf": 1385, "Äłmai": 1386, "Äłbase": 1387, "Äłnatio": 1388, "Äłnation": 1389, "ÄłBl": 1390, "Äłquesti": 1391, "Äłles": 1392, "Äłquestio": 1393, "Äłquestion": 1394, "Äłcontro": 1395, "Äłperf": 1396, "Äłdata": 1397, "Äłord": 1398, "Äłoffice": 1399, "Äłresul": 1400, "Äłresult": 1401, "Äłcli": 1402, "Äłcurr": 1403, "Äłhard": 1404, "Äłeas": 1405, "Äłimpor": 1406, "Äłimport": 1407, "ÄłTi": 1408, "Äłbeliev": 1409, "Äłcomple": 1410, "Äłhum": 1411, "Äłincrea": 1412, "Äłincreas": 1413, "Äłdesi": 1414, "Äłwitho": 1415, "Äłwithou": 1416, "Äłwithout": 1417, "Äłwon": 1418, "Äłconv": 1419, "Äłinfor": 1420, "Äłinform": 1421, "Äłincludi": 1422, "Äłincludin": 1423, "Äłincluding": 1424, "Äłprovide": 1425, "Äłmemb": 1426, "Äłevent": 1427, "Äłdra": 1428, "Äłcau": 1429, "Äłseri": 1430, "Äłprobl": 1431, "Äłproble": 1432, "Äłproblem": 1433, "Äłhappe": 1434, "Äłhappen": 1435, "Äłbuild": 1436, "Äłbett": 1437, "Äłful": 1438, "Äłeco": 1439, "Äłpho": 1440, "Äłcountry": 1441, "Äłrema": 1442, "Äłmembe": 1443, "Äłmember": 1444, "Äłvote": 1445, "Äłran": 1446, "Äłcurre": 1447, "Äłcurren": 1448, "Äłinclude": 1449, "Äłrelea": 1450, "Äłlitt": 1451, "Äłstand": 1452, "Äłbeh": 1453, "Äłreleas": 1454, "Äłqua": 1455, "Äłscho": 1456, "ÄłKe": 1457, "Äłfour": 1458, "Äłlev": 1459, "Äłkee": 1460, "Äłbette": 1461, "Äłbetter": 1462, "Äłbil": 1463, "ÄłTher": 1464, "Äłbelieve": 1465, "Äłservi": 1466, "Äłpop": 1467, "Äłpartic": 1468, "Äłforc": 1469, "Äłrecen": 1470, "Äłrecent": 1471, "Äłcalle": 1472, "Äłcho": 1473, "Äłintere": 1474, "Äłinteres": 1475, "ÄłKi": 1476, "Äłinterest": 1477, "Äłless": 1478, "Äłtalk": 1479, "Äłlittl": 1480, "Äłlittle": 1481, "But": 1482, "Äłdel": 1483, "Äłappro": 1484, "Äłclose": 1485, "Äłann": 1486, "Äłexam": 1487, "Äłleve": 1488, "Äłcalled": 1489, "Äłprev": 1490, "Äłnea": 1491, "Äłpic": 1492, "Äłlis": 1493, "ÄłShe": 1494, "ÄłThere": 1495, "Äłvis": 1496, "ÄłKa": 1497, "Äłlist": 1498, "Äłpossi": 1499, "Äłpossib": 1500, "Äłtec": 1501, "Äłbill": 1502, "Äłpay": 1503, "Äłemp": 1504, "Äłtech": 1505, "ÄłPres": 1506, "Äłattack": 1507, "ÄłInd": 1508, "Äłproduct": 1509, "Äłrelease": 1510, "Äłrest": 1511, "Äłlef": 1512, "Äłleft": 1513, "ÄłAc": 1514, "Äłmarke": 1515, "ÄłAp": 1516, "Äłarr": 1517, "Äłred": 1518, "Äłkeep": 1519, "ÄłZ": 1520, "Äłpresi": 1521, "Äłpresid": 1522, "Äłdidn": 1523, "Äłactu": 1524, "Äłactua": 1525, "Äłfull": 1526, "Äłtes": 1527, "Äłpolice": 1528, "Äłpreside": 1529, "Äłtest": 1530, "Äłoffici": 1531, "Äłactual": 1532, "Äłcreate": 1533, "Äłofficia": 1534, "Äłnear": 1535, "Äłmain": 1536, "Äłorde": 1537, "Äłbla": 1538, "Äłalo": 1539, "Äłcontinue": 1540, "Äłeffe": 1541, "Ã¢Ä¢": 1542, "Äłsw": 1543, "ÄłTu": 1544, "Äłofficial": 1545, "Äłeffec": 1546, "Äłeffect": 1547, "Äłpresiden": 1548, "£Ä": 1549, "ÄłAt": 1550, "Äłhol": 1551, "ÄłCar": 1552, "Äłprogra": 1553, "Äłprogram": 1554, "Äłusi": 1555, "ÄłWhi": 1556, "Äłusin": 1557, "Äłusing": 1558, "ÄłUnit": 1559, "Äłtow": 1560, "Äłstra": 1561, "Äłedi": 1562, "Äłval": 1563, "Äłorder": 1564, "Äłpur": 1565, "ÄłMan": 1566, "Äłspa": 1567, "ÄłEa": 1568, "__": 1569, "Ã¢Ä¢Â": 1570, "Äłbecome": 1571, "Äłforce": 1572, "Äłappear": 1573, "Äłalon": 1574, "Äłsk": 1575, "Äłkin": 1576, "Äłimporta": 1577, "Äłecon": 1578, "Äłreas": 1579, "Äłidea": 1580, "Äłecono": 1581, "Äłeconom": 1582, "Äłimportan": 1583, "Äłcolle": 1584, "Äłnews": 1585, "Äłshar": 1586, "Äłfri": 1587, "Äłlevel": 1588, "Äłclas": 1589, "ÄłCi": 1590, "ÄłCan": 1591, "Äłedit": 1592, "Äłcomme": 1593, "Äłcond": 1594, "Äłlow": 1595, "ÄłNat": 1596, "Äłtou": 1597, "Äłmone": 1598, "Äłgrow": 1599, "Äłsmal": 1600, "Äłsmall": 1601, "ÄłPl": 1602, "ÄłIr": 1603, "Äłschoo": 1604, "Äłheal": 1605, "Äłschool": 1606, "Äłscr": 1607, "Äłprese": 1608, "Äłwro": 1609, "Äłcer": 1610, "Äłkil": 1611, "Äłpai": 1612, "Äłinforma": 1613, "Äłservic": 1614, "'re": 1615, "Äłproces": 1616, "Äłconte": 1617, "Äłarea": 1618, "Äłprocess": 1619, "Äłwome": 1620, "Äłwomen": 1621, "Äłservice": 1622, "Äłtrad": 1623, "Äłorg": 1624, "Äłdefen": 1625, "Äłsimp": 1626, "ÄłChr": 1627, "Äłsimpl": 1628, "tion": 1629, "Äłarti": 1630, "Äłbea": 1631, "Äłactiv": 1632, "Äłhist": 1633, "Äłalr": 1634, "Äłcurrent": 1635, "Äłsid": 1636, "Äłprom": 1637, "Äłimm": 1638, "Äłbrea": 1639, "ÄłCe": 1640, "Äłposi": 1641, "Äłhuma": 1642, "Äłty": 1643, "Äłhuman": 1644, "Äłhisto": 1645, "Äłrecei": 1646, "Äłcompany": 1647, "Äłcontrol": 1648, "Äłpresident": 1649, "Äłorga": 1650, "Äłclear": 1651, "Äłvar": 1652, "ÄłBri": 1653, "Äł--": 1654, "Äłreaso": 1655, "ÄłInt": 1656, "Äłreason": 1657, "Äłunt": 1658, "Äłside": 1659, "Äłhistor": 1660, "ÄłUnite": 1661, "Äłalre": 1662, "ÄłMon": 1663, "Äłalrea": 1664, "Äłalread": 1665, "Äłalready": 1666, "Äłeno": 1667, "Äłcos": 1668, "Äłris": 1669, "Äłshi": 1670, "Äłol": 1671, "ÄłOb": 1672, "Äłimpr": 1673, "ÄłUnited": 1674, "Äłorgan": 1675, "Äłbusi": 1676, "ÄłNor": 1677, "Äł=": 1678, "Äłwhy": 1679, "Äładdi": 1680, "Äłrelati": 1681, "ÄłPh": 1682, "Äłposit": 1683, "Äłmaj": 1684, "Äłrecor": 1685, "Äłrecord": 1686, "Äłreceiv": 1687, "Äłalw": 1688, "Äłalwa": 1689, "Äłalway": 1690, "Äłalways": 1691, "Äłmoney": 1692, "ÄłCol": 1693, "Äłexpec": 1694, "Äłinformat": 1695, "Äłinformati": 1696, "Äłexpect": 1697, "Äłleas": 1698, "Äłconsid": 1699, "Äłconside": 1700, "Äłconsider": 1701, "Äłlater": 1702, "ÄłHow": 1703, "Äłregi": 1704, "Äłbusin": 1705, "Äłtechn": 1706, "Äłoffer": 1707, "Äłbusine": 1708, "Äłbusines": 1709, "Äłbusiness": 1710, "Äłdeal": 1711, "Äłbook": 1712, "ÄłQ": 1713, "Äł12": 1714, "Äłmajo": 1715, "Äłmajor": 1716, "Äłpositi": 1717, "Äłproj": 1718, "Äłproje": 1719, "Äłclass": 1720, "Äłbra": 1721, "ÄłOr": 1722, "Äłprojec": 1723, "Äłproject": 1724, "Äłmarket": 1725, "Äłreac": 1726, "Äłclai": 1727, "Äłinformatio": 1728, "Äłinformation": 1729, "Äłjob": 1730, "Äłrequi": 1731, "Äłclaim": 1732, "Äłei": 1733, "Äłexperie": 1734, "Äłabl": 1735, "Äłexperien": 1736, "Äłexperienc": 1737, "Äłprof": 1738, "Äłsever": 1739, "Äłdesig": 1740, "Äłdesign": 1741, "Äłable": 1742, "Äłrequir": 1743, "ÄłRus": 1744, "Äłpopu": 1745, "Äłnon": 1746, "Äłstory": 1747, "Äłrai": 1748, "Äłforme": 1749, "Äłdriv": 1750, "Äłhealt": 1751, "Äłhealth": 1752, "ÄłWhe": 1753, "Äłpast": 1754, "Äłpopul": 1755, "Äłpra": 1756, "Äłlov": 1757, "ÄłAd": 1758, "Äładm": 1759, "Äłreporte": 1760, "Äławay": 1761, "Äłpolitica": 1762, "Äłoper": 1763, "Äłpolitical": 1764, "Äłopera": 1765, "ÄłComm": 1766, "Äłcity": 1767, "Äłmust": 1768, "Äłauth": 1769, "Äładmi": 1770, "Äłorgani": 1771, "Äłtrai": 1772, "Äłtyp": 1773, "Äł18": 1774, "ÄłDr": 1775, "Äłimportant": 1776, "ÄłSan": 1777, "Äłmana": 1778, "ÄłHu": 1779, "Äłdoesn": 1780, "Äłkill": 1781, "Äłold": 1782, "Äłest": 1783, "Äłhop": 1784, "Äłcommunit": 1785, "Äłleast": 1786, "Äłmas": 1787, "ÄłInte": 1788, "ÄłHou": 1789, "Äłappl": 1790, "Äłair": 1791, "Äłretu": 1792, "Äłrespons": 1793, "Äłretur": 1794, "Äłreturn": 1795, "Äłexperience": 1796, "ÄłEv": 1797, "Äłoc": 1798, "Äłfrie": 1799, "ÄłEu": 1800, "Äłfigh": 1801, "Äłfight": 1802, "Äłcost": 1803, "Äłtell": 1804, "Äłima": 1805, "Äłoperat": 1806, "Äłbit": 1807, "Äłremai": 1808, "Äłremain": 1809, "Äłdays": 1810, "Äłvie": 1811, "Äłpopula": 1812, "Äłunders": 1813, "Äłfinal": 1814, "Äłnor": 1815, "Äłrou": 1816, "Äłcampa": 1817, "Äłsucc": 1818, "Äłcampai": 1819, "Äłcampaig": 1820, "Äłcampaign": 1821, "Äłlove": 1822, "Äłenou": 1823, "Äłspen": 1824, "Äłconst": 1825, "Äłenoug": 1826, "Äłenough": 1827, "Äłaff": 1828, "Äłsecu": 1829, "Äłworke": 1830, "Äłpossibl": 1831, "Äłextr": 1832, "Äłmanag": 1833, "ÄłNi": 1834, "Äłmaki": 1835, "Äłmot": 1836, "Äłmakin": 1837, "Äłreve": 1838, "Äłrol": 1839, "Äłmaking": 1840, "Äłimag": 1841, "Äłkind": 1842, "Äłview": 1843, "Äłrequire": 1844, "ÄłGre": 1845, "Äłconta": 1846, "ÄłJoh": 1847, "Äłexamp": 1848, "Äłexampl": 1849, "Äłexample": 1850, "ÄłDu": 1851, "Äłfamily": 1852, "Äłfrien": 1853, "Äłfriend": 1854, "Äłfan": 1855, "Äłten": 1856, "Äłface": 1857, "Äłtax": 1858, "Äłaccor": 1859, "Äłaccord": 1860, "Äłleade": 1861, "Äłleader": 1862, "Äłdoc": 1863, "Äłrul": 1864, "ÄłRuss": 1865, "Äł15": 1866, "Äłcert": 1867, "Äłant": 1868, "Äłroo": 1869, "Äłunti": 1870, "ÄłChri": 1871, "ÄłChris": 1872, "Äłsucce": 1873, "Äłvid": 1874, "Äłworki": 1875, "Äłworkin": 1876, "Äłresea": 1877, "Äłworking": 1878, "Äłresear": 1879, "Äłresearc": 1880, "Äłresearch": 1881, "Äłuntil": 1882, "ÄłWor": 1883, "Äłhal": 1884, "Äłvide": 1885, "Äłvideo": 1886, "Äłcoa": 1887, "ÄłRepu": 1888, "ĤÂ": 1889, "Äłpresen": 1890, "ÄłRepub": 1891, "ÄłSou": 1892, "Äłvisi": 1893, "Äłthought": 1894, "ÄłRepubl": 1895, "Äłvari": 1896, "ÄłRepubli": 1897, "Äłunderst": 1898, "Äłdeb": 1899, "Äłcomplet": 1900, "Äłtook": 1901, "Äłshor": 1902, "ÄłRepublic": 1903, "Äłconfi": 1904, "Äłrac": 1905, "ÄłJohn": 1906, "Äłcaus": 1907, "Äłmiss": 1908, "Äłmedia": 1909, "Äłautho": 1910, "Äłauthor": 1911, "Äłagr": 1912, "Äłreceive": 1913, "Äłincrease": 1914, "Äłfore": 1915, "ÄłEur": 1916, "Äłoft": 1917, "Äłintern": 1918, "Äłsecur": 1919, "Äłhous": 1920, "ÄłHous": 1921, "Äłfeat": 1922, "ÄłKo": 1923, "Äłactuall": 1924, "Äłactually": 1925, "Äłvalu": 1926, "Äłcommi": 1927, "ÄłFl": 1928, "Äłfund": 1929, "Äłofte": 1930, "Äłoften": 1931, "Äłcov": 1932, "Äłwal": 1933, "Äłwate": 1934, "Äłwater": 1935, "Äłterm": 1936, "ÄłPi": 1937, "Äłexe": 1938, "Äłmanage": 1939, "ÄłEuro": 1940, "Äłcove": 1941, "Äłformer": 1942, "ÄłAll": 1943, "Äłaccordi": 1944, "Äłmee": 1945, "Äłflo": 1946, "Äłagen": 1947, "ÄłGu": 1948, "Äłaccordin": 1949, "Äłcro": 1950, "Äłaccording": 1951, "ÄłCu": 1952, "Äłterr": 1953, "ÄłEl": 1954, "Äłreli": 1955, "Äł30": 1956, "Äłmeet": 1957, "Äłgames": 1958, "Äłperfo": 1959, "Äłperfor": 1960, "Äłstri": 1961, "Äłtimes": 1962, "Äłsens": 1963, "Äłstru": 1964, "Äłstude": 1965, "Äłstuden": 1966, "Äłstudent": 1967, "Äłdoi": 1968, "Äłperform": 1969, "Äł11": 1970, "Äłword": 1971, "ÄłNati": 1972, "Äłfra": 1973, "ÄłVa": 1974, "Äłtod": 1975, "Äłfal": 1976, "ÄłChin": 1977, "Äłsocia": 1978, "Äłbat": 1979, "ÄłDem": 1980, "ÄłCli": 1981, "Äłrepr": 1982, "Äłsocial": 1983, "Äłfilm": 1984, "Äłresi": 1985, "Äłinvo": 1986, "ÄłOba": 1987, "Äłben": 1988, "Äłfla": 1989, "Äłenti": 1990, "Äłsug": 1991, "Äłopt": 1992, "ÄłMc": 1993, "Äłsing": 1994, "ÄłObam": 1995, "Äłnig": 1996, "ÄłObama": 1997, "Äłlikel": 1998, "ÄłSy": 1999, "Ther": 2000, "Äłcover": 2001, "ÄłSte": 2002, "Äłshort": 2003, "Äłchara": 2004, "Äłsci": 2005, "There": 2006, "Äłcra": 2007, "Äłcharac": 2008, "Äłcharact": 2009, "Äłcharacte": 2010, "Äłcharacter": 2011, "ÄłFra": 2012, "Äłdoin": 2013, "Äłnigh": 2014, "Äłdoing": 2015, "ÄłMay": 2016, "ÄłTw": 2017, "ÄłRussi": 2018, "Äłlocal": 2019, "ÄłRussia": 2020, "Äłbar": 2021, "Äł199": 2022, "Äłnight": 2023, "Äłacr": 2024, "Äłconve": 2025, "Äł,": 2026, "ÄłPresi": 2027, "ÄłPresid": 2028, "Äłlear": 2029, "Äłlearn": 2030, "Äłbal": 2031, "Äłcompe": 2032, "Äłplayers": 2033, "ÄłStr": 2034, "Äłsca": 2035, "Äłtoda": 2036, "ÄłWar": 2037, "ÄłPreside": 2038, "ÄłPresiden": 2039, "Äłcours": 2040, "Äłtoday": 2041, "Äłfeatu": 2042, "Äłfeatur": 2043, "Äłcourse": 2044, "Äłhavi": 2045, "Äłhavin": 2046, "Äłpot": 2047, "Äłhaving": 2048, "ÄłYor": 2049, "Äłseen": 2050, "Äłearly": 2051, "Äłstro": 2052, "Äłhos": 2053, "ÄłMin": 2054, "ile": 2055, "Ã¢Ä¢Â¦": 2056, "Äłfut": 2057, "Äłvic": 2058, "Äłori": 2059, "Äłexi": 2060, "Äłmini": 2061, "Äłfel": 2062, "Äłsevera": 2063, "//": 2064, "Äłstop": 2065, "Äłwhet": 2066, "ÄłPresident": 2067, "ÄłYork": 2068, "Äłchildr": 2069, "Äłchildre": 2070, "Äłchildren": 2071, "Äłwheth": 2072, "Äłalt": 2073, "Äłwhethe": 2074, "Äłwhether": 2075, "ÄłUniv": 2076, "Äłwen": 2077, "Äłcrit": 2078, "Äłvers": 2079, "ÄłWil": 2080, "Äłcomplete": 2081, "Äłseveral": 2082, "Äłinvesti": 2083, "Äłactio": 2084, "Äłaction": 2085, "Äłmili": 2086, "Äłfiv": 2087, "Äłfive": 2088, "Äłsure": 2089, "Äłpress": 2090, "Äłwent": 2091, "Äłdefi": 2092, "Äłdecis": 2093, "ÄłUnive": 2094, "ÄłUniver": 2095, "Äłdecisi": 2096, "ÄłUnivers": 2097, "ÄłEurop": 2098, "Äłeq": 2099, "ÄłMic": 2100, "Äłyoun": 2101, "Äłyoung": 2102, "Äłmilit": 2103, "Äłsubs": 2104, "Äłcommen": 2105, "Äłleav": 2106, "Äłdesc": 2107, "Äłequ": 2108, "Äłlikely": 2109, "Äłfutu": 2110, "Äłfutur": 2111, "ÄłNatio": 2112, "ÄłNation": 2113, "Äłocc": 2114, "Äłeng": 2115, "Äłmembers": 2116, "Äłscie": 2117, "Äłcerta": 2118, "Äłscien": 2119, "Äłanno": 2120, "Äłcertai": 2121, "Äłcertain": 2122, "Äłene": 2123, "Äłindu": 2124, "Äłdone": 2125, "ÄłHar": 2126, "Äłcontra": 2127, "Äłarg": 2128, "Äłava": 2129, "ÄłSen": 2130, "Äłinvol": 2131, "Äłsucces": 2132, "ÄłStates": 2133, "Äłdrive": 2134, "Äłsuccess": 2135, "ÄłMr": 2136, "Äłreali": 2137, "Äłfuture": 2138, "Äłalong": 2139, "ÄłEurope": 2140, "ÄłBro": 2141, "Äłundersta": 2142, "Äłagre": 2143, "Äłhour": 2144, "Äłinsi": 2145, "Äłtrea": 2146, "Äłagree": 2147, "Äłonc": 2148, "Äłdemo": 2149, "Äłshare": 2150, "Äłmonths": 2151, "Äłhope": 2152, "Äłinvolv": 2153, "ÄłRepublica": 2154, "ÄłRepublican": 2155, "Äłlig": 2156, "Äłdiv": 2157, "Äłple": 2158, "Äłsex": 2159, "Äłstarte": 2160, "Äłfire": 2161, "Äłcourt": 2162, "Äłlau": 2163, "Äłwithi": 2164, "Äłwithin": 2165, "Äłdecisio": 2166, "Äłdecision": 2167, "Äłargu": 2168, "Äłdisp": 2169, "Äłland": 2170, "Äłdro": 2171, "Äłgeneral": 2172, "Äłonce": 2173, "Äłhit": 2174, "Äłamon": 2175, "Äłamong": 2176, "Äłbod": 2177, "ÄłIndi": 2178, "Äłcat": 2179, "Äłacro": 2180, "Äłregu": 2181, "Äłinvestig": 2182, "Äłinvestiga": 2183, "Äłsus": 2184, "Äłdete": 2185, "Äłpossible": 2186, "Äłunderstan": 2187, "Äłunderstand": 2188, "Äłinvestigat": 2189, "ÄłDemo": 2190, "Äłconcer": 2191, "Äłregul": 2192, "Äłregula": 2193, "ÄłVe": 2194, "Äł]": 2195, "Äłvalue": 2196, "Äłmeans": 2197, "ÄłWhen": 2198, "Äłcharg": 2199, "Äłligh": 2200, "Äłlight": 2201, "Äłvio": 2202, "Äłviol": 2203, "Äłgoa": 2204, "Äłsal": 2205, "Äłcomment": 2206, "Äłopti": 2207, "Äłcomi": 2208, "Äłbrin": 2209, "Äł/": 2210, "Äłavai": 2211, "Äłmilita": 2212, "ÄłInter": 2213, "Äłpriv": 2214, "ÄłWes": 2215, "Äłuser": 2216, "ÄłEve": 2217, "Äłavail": 2218, "Äłnote": 2219, "Äłknown": 2220, "Äłrate": 2221, "Äłana": 2222, "Äłdisa": 2223, "ÄłMor": 2224, "ÄłWha": 2225, "Äłyet": 2226, "Äłacros": 2227, "ÄłNort": 2228, "Äłhold": 2229, "Äłacross": 2230, "Äłprotec": 2231, "Äłcoo": 2232, "Äłprotect": 2233, "ÄłPu": 2234, "Äłcut": 2235, "Äłcommunity": 2236, "ĳÄ": 2237, "Äłfail": 2238, "Äłrule": 2239, "Äłstron": 2240, "Äłcel": 2241, "Äłexpla": 2242, "ÄłFre": 2243, "Äłcause": 2244, "Äłson": 2245, "Äłstrong": 2246, "Äłsugg": 2247, "Äłsugge": 2248, "Äłsugges": 2249, "Äłsuggest": 2250, "Äłavaila": 2251, "Äłconse": 2252, "Äłavailab": 2253, "Äłfas": 2254, "Äłmid": 2255, "Äłanti": 2256, "Äłpric": 2257, "Äłmovi": 2258, "Äłmakes": 2259, "Äłorig": 2260, "Äłcriti": 2261, "ÄłPri": 2262, "Äł&": 2263, "Äłevi": 2264, "Äłorigi": 2265, "Äłorigin": 2266, "Äłfeature": 2267, "Whe": 2268, "Äłaske": 2269, "Äł2016": 2270, "Äłasked": 2271, "res": 2272, "Äłbring": 2273, "ÄłNorth": 2274, "Äłgiven": 2275, "Äłatten": 2276, "ÄłCoun": 2277, "ÄłHouse": 2278, "Äłet": 2279, "Äłreported": 2280, "ÄłHer": 2281, "Äłgoal": 2282, "Äłouts": 2283, "Äłthrea": 2284, "Äłnationa": 2285, "Äłnational": 2286, "ÄłFran": 2287, "Äłothers": 2288, "Äłserve": 2289, "Äłgett": 2290, "Äłarm": 2291, "ÄłCal": 2292, "ÄłCen": 2293, "Äłsco": 2294, "Äłsigni": 2295, "ÄłWhat": 2296, "Äłgetti": 2297, "ÄłGi": 2298, "Äłlim": 2299, "Äłgettin": 2300, "ÄłUniversi": 2301, "Äłgetting": 2302, "ÄłWest": 2303, "ÄłPol": 2304, "Äłweb": 2305, "ÄłEx": 2306, "Äłinsta": 2307, "Äłcrim": 2308, "ÄłUniversit": 2309, "ÄłDemoc": 2310, "Äłexte": 2311, "ÄłDemocr": 2312, "Äłannou": 2313, "Äłannoun": 2314, "Äłannounc": 2315, "ÄłDemocra": 2316, "ÄłYe": 2317, "Äłmatt": 2318, "Äłiden": 2319, "Äłident": 2320, "Äłidenti": 2321, "Äłbor": 2322, "ÄłSch": 2323, "Äłreso": 2324, "Äłsent": 2325, "Äłinterv": 2326, "ÄłChrist": 2327, "ÄłPla": 2328, "Äłnet": 2329, "ÄłIns": 2330, "ÄłUniversity": 2331, "Äłsour": 2332, "Äłwrite": 2333, "Äłago": 2334, "Äłdescr": 2335, "Äłdescri": 2336, "Äłtog": 2337, "Äłtrain": 2338, "Äłparticu": 2339, "Äłrepre": 2340, "Äłparticul": 2341, "Äłparticula": 2342, "Äłcorr": 2343, "Äłpositio": 2344, "Äłposition": 2345, "Ã¢Ä¢Äµ": 2346, "Äłmatte": 2347, "Äłwatc": 2348, "Äłwatch": 2349, "ÄłBar": 2350, "ine": 2351, "Äłcharge": 2352, "Äłfur": 2353, "Äłalm": 2354, "'ve": 2355, "ÄłOf": 2356, "Äłspac": 2357, "Äłparticular": 2358, "Äłpresent": 2359, "Äłdie": 2360, "Äłrepres": 2361, "Äłdeta": 2362, "Äłbelo": 2363, "Äłsaf": 2364, "Äłcritic": 2365, "ÄłX": 2366, "Äłorganiz": 2367, "Äłil": 2368, "Äłfat": 2369, "Äłeconomi": 2370, "Äłmatter": 2371, "ÄłSha": 2372, "Äłstarted": 2373, "Äłhouse": 2374, "ome": 2375, "ÄłCit": 2376, "Äłproba": 2377, "Äł2015": 2378, "Äłavailabl": 2379, "Äłavailable": 2380, "Äłsafe": 2381, "Äłdeat": 2382, "Äłdeath": 2383, "Äłbegi": 2384, "Äłbegin": 2385, "Äłindus": 2386, "Äłindust": 2387, "Äłindustr": 2388, "Äłalmo": 2389, "Äłhighe": 2390, "ÄłTim": 2391, "Äłaccou": 2392, "Äłbased": 2393, "ÄłDemocrat": 2394, "Äłaccoun": 2395, "Äłaccount": 2396, "Äłempl": 2397, "Äłfollowi": 2398, "Äłfollowin": 2399, "Äłfollowing": 2400, "Äłcul": 2401, "Äłhistory": 2402, "ÄłCent": 2403, "Äłmom": 2404, "Äłemplo": 2405, "Äłemploy": 2406, "Äłtreat": 2407, "Äłparty": 2408, "Äłspace": 2409, "Äłnatu": 2410, "Äłstudy": 2411, "Äłnatur": 2412, "Äłspee": 2413, "Äłprice": 2414, "Äłexce": 2415, "Äłsite": 2416, "Äłsourc": 2417, "Äłcommit": 2418, "ÄłIndia": 2419, "Äłanyt": 2420, "Äłsecuri": 2421, "ÄłSout": 2422, "Äłtryi": 2423, "Äłcomes": 2424, "Äłtryin": 2425, "Äłski": 2426, "Äłtrying": 2427, "ÄłSec": 2428, "rea": 2429, "Äł#": 2430, "Äłexis": 2431, "ÄłSouth": 2432, "Äłexist": 2433, "Äłserie": 2434, "Äłalmos": 2435, "Äłalmost": 2436, "Äłseries": 2437, "ÄłTra": 2438, "Äłtoge": 2439, "Äłtoget": 2440, "Äłtogeth": 2441, "Äłtogethe": 2442, "Äłtogether": 2443, "Äłconcern": 2444, "Äładdit": 2445, "Äładditi": 2446, "Äłsource": 2447, "Äłstatem": 2448, "Äłstateme": 2449, "Äłglo": 2450, "Äłstatemen": 2451, "Äłstatement": 2452, "ÄłIra": 2453, "Äłannounce": 2454, "Äłfoc": 2455, "Äłdetai": 2456, "ÄłCana": 2457, "Äłment": 2458, "Äłacces": 2459, "Äłimpro": 2460, "Äłkey": 2461, "Äłactivi": 2462, "con": 2463, "Äłaccess": 2464, "ÄłWas": 2465, "Äłdeli": 2466, "Äłhalf": 2467, "Äłcarr": 2468, "Äłsix": 2469, "Äłisn": 2470, "ÄłOne": 2471, "Äłrefe": 2472, "Äłill": 2473, "Äłrefer": 2474, "Äłinde": 2475, "Äłprobab": 2476, "Äłprope": 2477, "Äładde": 2478, "Äładditio": 2479, "Äładdition": 2480, "Äł16": 2481, "Äłdecid": 2482, "Äłprac": 2483, "ÄłEd": 2484, "Äłstep": 2485, "Äłer": 2486, "Äłpersona": 2487, "Äłpract": 2488, "Äłpracti": 2489, "Äłbreak": 2490, "Äłreprese": 2491, "Äładded": 2492, "Äłrepresen": 2493, "Äłrepresent": 2494, "Äłtype": 2495, "Äłprevi": 2496, "Äłinvolve": 2497, "Äłinten": 2498, "Äłfile": 2499, "Äłpote": 2500, "Äłpoten": 2501, "Äłspi": 2502, "Äł50": 2503, "Äłsingl": 2504, "Äłdru": 2505, "Äłelecti": 2506, "Äłfocu": 2507, "Äłfocus": 2508, "Äłciti": 2509, "Äłmes": 2510, "Äłsingle": 2511, "Äłenc": 2512, "Äłreach": 2513, "Äłmilitar": 2514, "Äł2014": 2515, "Äłlooki": 2516, "Äłlookin": 2517, "age": 2518, "Äłpotent": 2519, "Äłsecurit": 2520, "Äłlooking": 2521, "ÄłOc": 2522, "Äłtar": 2523, "Ã£Ä": 2524, "Äłanyth": 2525, "Äłanythi": 2526, "Äłanythin": 2527, "Äłanything": 2528, "Äłproduce": 2529, "Äłlega": 2530, "ÄłGer": 2531, "Äłanal": 2532, "Äłappli": 2533, "Äłmul": 2534, "Äłsurv": 2535, "Äłfav": 2536, "Äłindiv": 2537, "Äłindivi": 2538, "ÄłSun": 2539, "Äłpriva": 2540, "ÄłDon": 2541, "Äłpropo": 2542, "Äłindivid": 2543, "Äłindividu": 2544, "Äłsayi": 2545, "Äłsayin": 2546, "Äłindividua": 2547, "Äłbuildi": 2548, "Äłbuildin": 2549, "Äłbuilding": 2550, "Äłconsu": 2551, "Äłsaying": 2552, "Äłelectio": 2553, "Äłelection": 2554, "Äłindividual": 2555, "Äłdistr": 2556, "Äłbasi": 2557, "Äłcus": 2558, "Äłpor": 2559, "Äłoperati": 2560, "Äłfavo": 2561, "Äłdefin": 2562, "Äłversi": 2563, "Äłfed": 2564, "Äłversio": 2565, "ÄłClin": 2566, "Äłversion": 2567, "Äłlimi": 2568, "Äłbene": 2569, "Äłpersonal": 2570, "Äłlimit": 2571, "Äłwid": 2572, "Äłbad": 2573, "Äłeffo": 2574, "Äłeffor": 2575, "Äłeffort": 2576, "Äłrole": 2577, "ÄłCanad": 2578, "Äłvict": 2579, "Äł13": 2580, "Äłinterna": 2581, "Äłrevi": 2582, "ÄłQu": 2583, "Äłthir": 2584, "ÄłMus": 2585, "Äłtaken": 2586, "Äłsimi": 2587, "ÄłWit": 2588, "Äłsimil": 2589, "Äłspea": 2590, "Äłminu": 2591, "Äłrepl": 2592, "ÄłJan": 2593, "Äłentir": 2594, "ÄłEng": 2595, "Äłentire": 2596, "Äłcompet": 2597, "Äłphot": 2598, "Äłphoto": 2599, "Äłsimila": 2600, "Äłsimilar": 2601, "Äłbehi": 2602, "Äłbehin": 2603, "Äłbehind": 2604, "Äłpick": 2605, "'m": 2606, "Äłbur": 2607, "Äłjoi": 2608, "Äłorigina": 2609, "Äłguy": 2610, "Äł14": 2611, "Äłz": 2612, "Äłimprov": 2613, "Äłtrac": 2614, "Äłjoin": 2615, "Äł)": 2616, "Äłdisco": 2617, "Äłpotenti": 2618, "Äłdiscu": 2619, "Äłmodel": 2620, "Äłmult": 2621, "ÄłHis": 2622, "Äłtot": 2623, "Äłpotentia": 2624, "Äłfie": 2625, "Äłmilitary": 2626, "Äłsecurity": 2627, "ÄłMarc": 2628, "Äłproper": 2629, "Äłspecia": 2630, "ÄłLea": 2631, "Äłpotential": 2632, "Äłdiscus": 2633, "Äłmulti": 2634, "Äłpractic": 2635, "Äłrelatio": 2636, "Äłrelation": 2637, "Äłspecial": 2638, "Äłbatt": 2639, "Äłdiscuss": 2640, "Äłfinan": 2641, "ÄłDav": 2642, "Äłfinanc": 2643, "Äłcust": 2644, "Äłdee": 2645, "Äłrath": 2646, "Äłrathe": 2647, "Äł|": 2648, "Äłrather": 2649, "Äłinco": 2650, "Äłtechno": 2651, "Äłdecide": 2652, "ÄłDep": 2653, "Äłquic": 2654, "Äłthreat": 2655, "Äłcusto": 2656, "Äłquick": 2657, "ÄłBrit": 2658, "Äłoppos": 2659, "ÄłGoo": 2660, "Äłmind": 2661, "Äłnoti": 2662, "Äłartic": 2663, "Äłpret": 2664, "ÄłÃĤ": 2665, "ÄłWal": 2666, "Äłspecif": 2667, "Äłprevio": 2668, "Äłpreviou": 2669, "Äłprevious": 2670, "Äłpublis": 2671, "Äłpublish": 2672, "Äłfall": 2673, "Äłwante": 2674, "Äłwanted": 2675, "Äłmess": 2676, "Äłaccu": 2677, "Äłprobabl": 2678, "Äłofficer": 2679, "Äłwhol": 2680, "Äłpolicy": 2681, "Äłexplai": 2682, "Äłexplain": 2683, "Äłsomeo": 2684, "Äłsomeon": 2685, "Äłsomeone": 2686, "Äłcompar": 2687, "Äłprim": 2688, "Äłtota": 2689, "ÄłCor": 2690, "Äłtotal": 2691, "ÄłBra": 2692, "Äłsum": 2693, "Äłimage": 2694, "Äłfood": 2695, "Äłremo": 2696, "When": 2697, "ÄłAb": 2698, "Äłspok": 2699, "Äłblac": 2700, "Äłblack": 2701, "Äłspoke": 2702, "ÄłClint": 2703, "Äłcult": 2704, "ÄłTho": 2705, "Äłtechnol": 2706, "Äłminut": 2707, "Äłtechnolo": 2708, "Äłtechnolog": 2709, "ÄłIsl": 2710, "Äłconn": 2711, "Äłspeak": 2712, "Äłredu": 2713, "Äłfoot": 2714, "Äłcomb": 2715, "Äł17": 2716, "Äłente": 2717, "Äłminute": 2718, "Äłboa": 2719, "Äłasse": 2720, "Äłattem": 2721, "Äłattemp": 2722, "Äłattempt": 2723, "Äłcompani": 2724, "Äłenter": 2725, "ÄłAss": 2726, "Äłtaki": 2727, "Äłtakin": 2728, "Äłenv": 2729, "Äłmissi": 2730, "Äłtaking": 2731, "ÄłGra": 2732, "Äłtro": 2733, "ÄłAus": 2734, "Äłstati": 2735, "Äłmome": 2736, "Äłmomen": 2737, "Äłmoment": 2738, "Äłmusi": 2739, "Äłexplo": 2740, "Äłfunc": 2741, "ÄłClinto": 2742, "ÄłClinton": 2743, "ÄłSer": 2744, "ÄłNationa": 2745, "ÄłNational": 2746, "Äłlu": 2747, "Äł25": 2748, "ÄłFri": 2749, "Äłclu": 2750, "Äłsignif": 2751, "der": 2752, "ÄłPer": 2753, "**": 2754, "Äłinj": 2755, "Äłexten": 2756, "Äłbloc": 2757, "Äłdevelopm": 2758, "Äłdevelopme": 2759, "Äłdevelopmen": 2760, "Äłdevelopment": 2761, "Äłels": 2762, "Äłmusic": 2763, "ime": 2764, "Äłfron": 2765, "Äłbody": 2766, "Äłtowa": 2767, "Äłdecl": 2768, "Äłden": 2769, "Äłtowar": 2770, "Äłtoward": 2771, "Äłhun": 2772, "Äłelse": 2773, "Äłevid": 2774, "Äłnoth": 2775, "Äłevide": 2776, "Äłeviden": 2777, "Äłfront": 2778, "Äłnothi": 2779, "Äłnothin": 2780, "ÄłIm": 2781, "Äłdevi": 2782, "Äłcann": 2783, "Äłprobably": 2784, "Äłcolo": 2785, "Äłnothing": 2786, "ÄłIsr": 2787, "ÄłWorl": 2788, "ÄłSom": 2789, "Äłwhole": 2790, "://": 2791, "ÄłIsra": 2792, "Äłpac": 2793, "Äłinfl": 2794, "Äłsignifi": 2795, "ÄłFu": 2796, "ÄłIsrae": 2797, "Äłconne": 2798, "ÄłIsrael": 2799, "ÄłBla": 2800, "ÄłWorld": 2801, "Äłcomin": 2802, "ÄłSup": 2803, "Äłfunct": 2804, "Äłcoming": 2805, "Äłvisit": 2806, "Äłconnec": 2807, "Äłconnect": 2808, "Äłspr": 2809, "Äłalle": 2810, "Äłchal": 2811, "ÄłIsla": 2812, "ÄłRes": 2813, "Äłanaly": 2814, "Äładva": 2815, "Äłrais": 2816, "Äłmass": 2817, "Äłimpl": 2818, "Äładvan": 2819, "Äłreduc": 2820, "Äłcollec": 2821, "Äłcollect": 2822, "Äłfuncti": 2823, "Äłobs": 2824, "Äłfunctio": 2825, "Äłfunction": 2826, "ÄłCity": 2827, "Äłpoints": 2828, "Äłarticl": 2829, "Äłhowe": 2830, "Äłarticle": 2831, "Äłhowev": 2832, "Äłhoweve": 2833, "Äłhowever": 2834, "Äłdescrib": 2835, "Äłfede": 2836, "Äłrunn": 2837, "Äłfeder": 2838, "Äłfedera": 2839, "Äłdetail": 2840, "Äł100": 2841, "Äłoriginal": 2842, "Äłintr": 2843, "Äłbenef": 2844, "Äł:": 2845, "Äłdue": 2846, "Äłconten": 2847, "Äłeit": 2848, "Äłeith": 2849, "Äłeithe": 2850, "Äłeither": 2851, "Äłsupe": 2852, "Äłsli": 2853, "ÄłTwi": 2854, "Äłsignific": 2855, "Äłsuper": 2856, "Äłsignifica": 2857, "Äłoutsi": 2858, "Äłunc": 2859, "Äłbank": 2860, "Äłspecifi": 2861, "Äłsignifican": 2862, "Äłquit": 2863, "Äłcommo": 2864, "Äłfurt": 2865, "oun": 2866, "ÄłAust": 2867, "Äłabs": 2868, "Äłsce": 2869, "ÄłNot": 2870, "Äłdou": 2871, "Äłdam": 2872, "Äłbenefi": 2873, "ÄłJul": 2874, "Äłtarg": 2875, "Äłfurth": 2876, "Äłgui": 2877, "Äłfurthe": 2878, "Äłtarge": 2879, "Äłtarget": 2880, "Äłlegal": 2881, "Äłrisk": 2882, "Äłlib": 2883, "Äłoutsid": 2884, "Äłoutside": 2885, "Äłprin": 2886, "Äłrights": 2887, "Äłeconomic": 2888, "ÄłWash": 2889, "red": 2890, "Äłcod": 2891, "Äłfurther": 2892, "Äłoccu": 2893, "Äłblock": 2894, "ÄłJun": 2895, "ÄłHowe": 2896, "Äłbilli": 2897, "Äłperi": 2898, "Äłchall": 2899, "ÄłWith": 2900, "Äłwrot": 2901, "Äłwrote": 2902, "Äłlaun": 2903, "Äł2013": 2904, "Äłchalle": 2905, "Äłchallen": 2906, "ÄłDis": 2907, "Äłfederal": 2908, "Äłchalleng": 2909, "Äłwhit": 2910, "Äłshot": 2911, "Äłthird": 2912, "Äłslo": 2913, "Äłsav": 2914, "Äłfiel": 2915, "Äłfield": 2916, "Äłissues": 2917, "Äłave": 2918, "Äłrelations": 2919, "ÄłFac": 2920, "Äłrefu": 2921, "Äłwhite": 2922, "Äłwide": 2923, "Äłleave": 2924, "Äłseems": 2925, "Äłscen": 2926, "Äłeveryt": 2927, "ÄłWhit": 2928, "Äłtem": 2929, "Äłmeas": 2930, "Äłcreati": 2931, "Äłeveryth": 2932, "Äłeverythi": 2933, "Äłeverythin": 2934, "Äłeverything": 2935, "Äłunl": 2936, "Äładmin": 2937, "Äłcand": 2938, "ÄłGerm": 2939, "Äłey": 2940, "Äłcompanie": 2941, "Äłcompanies": 2942, "Äłexec": 2943, "Äłfigu": 2944, "Äłscre": 2945, "Äłfigur": 2946, "ÄłWashi": 2947, "Äłroom": 2948, "ÄłWashin": 2949, "ÄłWashing": 2950, "Äłeye": 2951, "ÄłHea": 2952, "ÄłDec": 2953, "int": 2954, "Äłgenerat": 2955, "ÄłGerma": 2956, "ÄłWashingt": 2957, "ÄłWashingto": 2958, "ÄłWashington": 2959, "Äłbillio": 2960, "Äłbillion": 2961, "Äłlab": 2962, "Äł2012": 2963, "Äłtemp": 2964, "Äłchec": 2965, "Äłcheck": 2966, "Äłpros": 2967, "ÄłWin": 2968, "Äłren": 2969, "Äłleaders": 2970, "Äłsoun": 2971, "Äłsound": 2972, "Äłself": 2973, "Äłstates": 2974, "ÄłHowev": 2975, "ÄłHoweve": 2976, "ÄłHowever": 2977, "ÄłGerman": 2978, "ÄłThu": 2979, "Äłnec": 2980, "Äłcop": 2981, "Äłpag": 2982, "Äłspend": 2983, "Äłcustom": 2984, "ÄłLu": 2985, "Äłcoup": 2986, "Äłbega": 2987, "Äłesp": 2988, "out": 2989, "Äłofficials": 2990, "Äłreleased": 2991, "Äłbegan": 2992, "Äłsusp": 2993, "Äłini": 2994, "Äłstudents": 2995, "ÄłApp": 2996, "Äłmeasu": 2997, "Äłmeasur": 2998, "Äłenvi": 2999, "ÄłInst": 3000, "ÄłNov": 3001, "Äłbuy": 3002, "Äłener": 3003, "Äłsett": 3004, "Äłdocu": 3005, "Äłqual": 3006, "ÄłEm": 3007, "Äłenerg": 3008, "Äłlonge": 3009, "Äłwai": 3010, "Äłema": 3011, "Äł2017": 3012, "Äłdocum": 3013, "Äłdocume": 3014, "Äłdocumen": 3015, "Äłdocument": 3016, "Äłexecu": 3017, "Äłhims": 3018, "Äłexecut": 3019, "Äłsor": 3020, "Äłhimse": 3021, "Äłhimsel": 3022, "Äłhimself": 3023, "ding": 3024, "Äłani": 3025, "Äłinit": 3026, "ÄłPart": 3027, "Äładmini": 3028, "Äładminis": 3029, "Äładminist": 3030, "Äłabov": 3031, "Äłabove": 3032, "Äłitse": 3033, "Äłitsel": 3034, "Äłitself": 3035, "Äłamou": 3036, "ree": 3037, "Äłcard": 3038, "Äłamoun": 3039, "Äłamount": 3040, "Äłgun": 3041, "Äłthems": 3042, "Äłthemse": 3043, "Äłthemsel": 3044, "Äłsense": 3045, "Äłhours": 3046, "Äłthemselv": 3047, "Äłthemselve": 3048, "Äłthemselves": 3049, "Äłevidenc": 3050, "Äłquali": 3051, "Äłevidence": 3052, "Äłowne": 3053, "Äłdoub": 3054, "Äładdr": 3055, "Äłtrue": 3056, "Äłanim": 3057, "Äłdefens": 3058, "Äłbecam": 3059, "Äłbecame": 3060, "Äłpropos": 3061, "Äłregio": 3062, "Äłregion": 3063, "ÄłIntern": 3064, "Äłneg": 3065, "Äładdre": 3066, "Äładdres": 3067, "Äładdress": 3068, "Äłoptio": 3069, "Äłoption": 3070, "Äłspecific": 3071, "Äłpage": 3072, "Äłcountri": 3073, "Äłcountrie": 3074, "Äłcountries": 3075, "ÄłMich": 3076, "Äłimprove": 3077, "Äłpasse": 3078, "ÄłAg": 3079, "ÄłSome": 3080, "Äłwasn": 3081, "Äłlaunc": 3082, "Äł198": 3083, "Äłlaunch": 3084, "Äłsimply": 3085, "Äłmedic": 3086, "Äłcode": 3087, "ÄłJus": 3088, "Äłiniti": 3089, "Äłintervi": 3090, "Äłintervie": 3091, "Äłinitia": 3092, "Äłinterview": 3093, "Äłesta": 3094, "Äłsitu": 3095, "ÄłDavi": 3096, "ation": 3097, "'l": 3098, "'ll": 3099, "Äłsignificant": 3100, "Äłpen": 3101, "Äłaver": 3102, "Äłphon": 3103, "Äłdom": 3104, "Äłgroun": 3105, "Äłground": 3106, "ÄłGen": 3107, "Äłdiffi": 3108, "Äłdescribe": 3109, "Äłdevelope": 3110, "Äłauthori": 3111, "Äłdrug": 3112, "Äłsitua": 3113, "Äłcommon": 3114, "Äłsumm": 3115, "Äłdiffic": 3116, "ÄłEngl": 3117, "Äłdan": 3118, "Äłrunni": 3119, "Äłrunnin": 3120, "Äłrunning": 3121, "ÄłChina": 3122, "Äłimpa": 3123, "ÄłJust": 3124, "Äłball": 3125, "ÄłSea": 3126, "Äłsituat": 3127, "Äłmatc": 3128, "Äłmatch": 3129, "Äłfigure": 3130, "Äłdifficu": 3131, "Äłdifficul": 3132, "Äłdifficult": 3133, "Äłsn": 3134, "Äłprofe": 3135, "Äłrad": 3136, "Äłprofes": 3137, "Äłtrade": 3138, "Äłlegi": 3139, "ame": 3140, "Äłprofess": 3141, "Äłneeds": 3142, "ÄłTime": 3143, "ÄłGree": 3144, "Äłans": 3145, "Äłeveryo": 3146, "Äłeveryon": 3147, "Äłeveryone": 3148, "Äłemai": 3149, "Äłemail": 3150, "Äłapproa": 3151, "Äłapproac": 3152, "Äłapproach": 3153, "Äłgroups": 3154, "ÄłSep": 3155, "Äłcultu": 3156, "Äłcultur": 3157, "Äłscor": 3158, "Äłnetw": 3159, "Äłnetwo": 3160, "Äłnetwor": 3161, "Äłnetwork": 3162, "Äłemploye": 3163, "Äłinvestigati": 3164, "Äłshows": 3165, "Äłwalk": 3166, "Äłwoma": 3167, "Äłwoman": 3168, "Äłeasi": 3169, "ÄłRob": 3170, "Äłphy": 3171, "Äłbenefit": 3172, "Äłdest": 3173, "Äłansw": 3174, "Äłanswe": 3175, "Äłanswer": 3176, "Äłneede": 3177, "Äłchanc": 3178, "Äłneeded": 3179, "Äłtradi": 3180, "ÄłPoli": 3181, "Äłprett": 3182, "Äłchance": 3183, "Äłinju": 3184, "Äłforw": 3185, "Äłforwa": 3186, "Äłforwar": 3187, "Äłforward": 3188, "Äłbelow": 3189, "Äłpie": 3190, "Äłcondi": 3191, "ÄłÃĤÂ": 3192, "ÄłMed": 3193, "Äłphone": 3194, "Äłsaw": 3195, "Äłsurp": 3196, "Äłassi": 3197, "Äłalleg": 3198, "Äłdeca": 3199, "Äłdeep": 3200, "Äłmag": 3201, "Äłpretty": 3202, "Äłfavor": 3203, "Äłcondit": 3204, "Äłconditi": 3205, "Äłconditio": 3206, "Äłcondition": 3207, "Äłshoo": 3208, "Äłpus": 3209, "Äłprivat": 3210, "Äł40": 3211, "Äłdistri": 3212, "Äłmeasure": 3213, "Äłcandi": 3214, "ÄłRea": 3215, "Äłquite": 3216, "Äłplayed": 3217, "Äłworker": 3218, "Äłdevic": 3219, "Äłdevice": 3220, "ÄłWhite": 3221, "Äłsituati": 3222, "ÄłCons": 3223, "Äłsituatio": 3224, "Äłsituation": 3225, "Äłabi": 3226, "ÄłRic": 3227, "ÄłAct": 3228, "Äłindustry": 3229, "Äłcapt": 3230, "Äłkid": 3231, "ÄłSto": 3232, "Äłpublishe": 3233, "Äłplayi": 3234, "Äłlocat": 3235, "Äłplayin": 3236, "Äłfast": 3237, "Äłenergy": 3238, "Äłstay": 3239, "Äłplaying": 3240, "Äłcandid": 3241, "ÄłTwit": 3242, "Äłglob": 3243, "Äłsect": 3244, "Äłnei": 3245, "Äłdirecto": 3246, "ÄłFranc": 3247, "Äłdirector": 3248, "Äłphys": 3249, "Äłpain": 3250, "Äłimme": 3251, "Äłphysi": 3252, "Äłbeha": 3253, "ÄłAft": 3254, "Äłmeeti": 3255, "Äłmeetin": 3256, "Äłmeeting": 3257, "Äłbigg": 3258, "Äłsoo": 3259, "Äłavera": 3260, "Äłenvir": 3261, "Äłfriends": 3262, "Äłaverag": 3263, "Äładministr": 3264, "Äłenviro": 3265, "Äładministra": 3266, "Äłdre": 3267, "Äłespe": 3268, "Äłcontai": 3269, "Äłcontain": 3270, "Äłenviron": 3271, "Äładministrat": 3272, "Äłresponse": 3273, "inc": 3274, "Äłbigge": 3275, "ÄłAfte": 3276, "Äłpush": 3277, "ÄłAfter": 3278, "Äłobj": 3279, "Äłpoo": 3280, "Äłinste": 3281, "Äłespec": 3282, "Äłinstea": 3283, "Äłinstead": 3284, "ÄłFir": 3285, "Äłespeci": 3286, "Äłgran": 3287, "Äłlost": 3288, "Äłespecia": 3289, "Äłespecial": 3290, "Äłpromi": 3291, "Äłenvironm": 3292, "Äłenvironme": 3293, "Äłenvironmen": 3294, "Äłenvironment": 3295, "Äłmessa": 3296, "Äłmessag": 3297, "ÄłNews": 3298, "Äłproducti": 3299, "Äłespeciall": 3300, "Äłespecially": 3301, "Äłcontent": 3302, "ĥÄ": 3303, "ina": 3304, "Äłearli": 3305, "Äłearlie": 3306, "Äłhost": 3307, "Äłrace": 3308, "Äłcandida": 3309, "Äławar": 3310, "Äłobje": 3311, "Äłwors": 3312, "king": 3313, "Äłfinanci": 3314, "Äłcompu": 3315, "Äłrecentl": 3316, "Äłrecently": 3317, "Äłauto": 3318, "Äłobjec": 3319, "Äłobject": 3320, "ÄłAustr": 3321, "Äłtrack": 3322, "Äłconver": 3323, "Äłcontrac": 3324, "Äłkille": 3325, "Äłdesp": 3326, "Äłdrop": 3327, "Äłsuf": 3328, "ÄłWill": 3329, "Äłweeks": 3330, "Äłoppor": 3331, "ÄłTwitt": 3332, "Äłopport": 3333, "Äłopportu": 3334, "Äłopportun": 3335, "Äłcorre": 3336, "Äłdeter": 3337, "Äłjud": 3338, "ÄłTwitte": 3339, "ÄłTwitter": 3340, "Äłsuff": 3341, "Äłperio": 3342, "Äłanima": 3343, "Äłchanges": 3344, "ÄłOct": 3345, "Äłport": 3346, "Äłkne": 3347, "Äłperiod": 3348, "Äłopportuni": 3349, "Äłextra": 3350, "Äłmate": 3351, "Äłcoupl": 3352, "Äłroa": 3353, "Äłviole": 3354, "Äłlonger": 3355, "Äłpara": 3356, "Äłep": 3357, "Äłcompeti": 3358, "Äłlowe": 3359, "Äłstanda": 3360, "Äłchallenge": 3361, "ÄłKin": 3362, "Äłabil": 3363, "ÄłSco": 3364, "Äłabili": 3365, "Äłabilit": 3366, "ÄłSyr": 3367, "Äłaccep": 3368, "Äłcir": 3369, "Äłaccept": 3370, "Äłenco": 3371, "ÄłMat": 3372, "Äłclim": 3373, "Äłlink": 3374, "Äłraise": 3375, "ÄłDepa": 3376, "Äłstruc": 3377, "Äłsoon": 3378, "Äłviolen": 3379, "Äłshoot": 3380, "ven": 3381, "ÄłDepar": 3382, "ÄłMil": 3383, "ÄłChe": 3384, "ÄłDepart": 3385, "Äłcirc": 3386, "Äłhor": 3387, "ÄłLon": 3388, "Äłprivate": 3389, "ÄłCong": 3390, "Äłjou": 3391, "ust": 3392, "lle": 3393, "ÄłBan": 3394, "ÄłSena": 3395, "Äłtit": 3396, "ÄłMy": 3397, "Äłworks": 3398, "Äłpractice": 3399, "Äłpare": 3400, "Äłserio": 3401, "Äłcouple": 3402, "Äłseriou": 3403, "Äłserious": 3404, "Äłwait": 3405, "ÄłDepartm": 3406, "ÄłDepartme": 3407, "ÄłDepartmen": 3408, "ÄłDepartment": 3409, "Äłwron": 3410, "ÄłMarch": 3411, "Äłwrong": 3412, "Äłfaci": 3413, "Äł24": 3414, "Äłgir": 3415, "Äłoffen": 3416, "Äłconsum": 3417, "Äł21": 3418, "ÄłSept": 3419, "Äłaverage": 3420, "Äłrelig": 3421, "ÄłSw": 3422, "Äłremov": 3423, "Äłreligi": 3424, "Äłjour": 3425, "Äłreligio": 3426, "Äłrid": 3427, "Äłinsid": 3428, "Äł{": 3429, "Äłopportunit": 3430, "Äłedu": 3431, "Äłhigher": 3432, "ÄłFace": 3433, "Äłbou": 3434, "ÄłHil": 3435, "Äłelectr": 3436, "Äłorganiza": 3437, "Äłstore": 3438, "ÄłThes": 3439, "ÄłSenat": 3440, "Äłtrav": 3441, "Äłtab": 3442, "Äłjourn": 3443, "Äłeduc": 3444, "Äłcred": 3445, "Äłparen": 3446, "Äłeduca": 3447, "Äłrega": 3448, "Äłheld": 3449, "Äłorganizat": 3450, "Äłplea": 3451, "Äłparent": 3452, "Äłeducat": 3453, "Äłphysic": 3454, "Äłwebs": 3455, "Äłorganizati": 3456, "Äłorganizatio": 3457, "Äłorganization": 3458, "Äłstandar": 3459, "Äłstandard": 3460, "ÄłGeo": 3461, "Äłonli": 3462, "Äłonlin": 3463, "Äłonline": 3464, "Äłlett": 3465, "ÄłBer": 3466, "ÄłEas": 3467, "Äłled": 3468, "Äłmessage": 3469, "Äłdema": 3470, "Äłcandidat": 3471, "Äłwords": 3472, "Äłtrave": 3473, "Äłcomput": 3474, "Äłpred": 3475, "Äłcanno": 3476, "ÄłThese": 3477, "Äłdecad": 3478, "Äłinjur": 3479, "Äłinside": 3480, "Äłcandidate": 3481, "Äłradi": 3482, "Äłresid": 3483, "____": 3484, "Äłresults": 3485, "Äłmal": 3486, "Äł+": 3487, "Äłgirl": 3488, "Äłdecade": 3489, "ÄłSyri": 3490, "hile": 3491, "Äłciv": 3492, "Äłrevie": 3493, "Äłstudi": 3494, "Äłpopulat": 3495, "Äłreview": 3496, "ÄłHol": 3497, "Äłsold": 3498, "ting": 3499, "Äłlaws": 3500, "Äłcontract": 3501, "Äłcivi": 3502, "Äłwind": 3503, "They": 3504, "Äłwebsi": 3505, "Äłwebsit": 3506, "Äłwebsite": 3507, "Äłindic": 3508, "ÄłLin": 3509, "ÄłAug": 3510, "Äłexpr": 3511, "Äłaud": 3512, "Äłapplic": 3513, "Äłapplica": 3514, "Äłservices": 3515, "Äłplat": 3516, "Äłminutes": 3517, "Äłpopular": 3518, "Äłanyo": 3519, "ÄłSm": 3520, "Äłanyon": 3521, "ÄłSpa": 3522, "Äłanyone": 3523, "ÄłSyria": 3524, "ÄłJune": 3525, "Äłswi": 3526, "Äłagenc": 3527, "Äłepi": 3528, "ÄłSin": 3529, "Äłmovem": 3530, "Äłmoveme": 3531, "Äłmovemen": 3532, "Äłmovement": 3533, "Äłexac": 3534, "Äłdeman": 3535, "Äłmeth": 3536, "Äłdemand": 3537, "Äłanalys": 3538, "Äłemb": 3539, "ÄłCommi": 3540, "Äłcentr": 3541, "Äłmovie": 3542, "Äłprotes": 3543, "Äłprotest": 3544, "Äłsuspe": 3545, "ÄłFin": 3546, "Äłnece": 3547, "Äłneces": 3548, "Äłexpre": 3549, "Äłexpres": 3550, "Äłdama": 3551, "Äłupd": 3552, "Äłvol": 3553, "Äłexpress": 3554, "Äłmou": 3555, "Äłdamag": 3556, "ÄłCongr": 3557, "Äłhy": 3558, "Äłupda": 3559, "Äłupdat": 3560, "Äłearlier": 3561, "Äłdead": 3562, "Äłnecess": 3563, "Äłcontri": 3564, "Äłvia": 3565, "Äłrespe": 3566, "Äłstag": 3567, "Äłteac": 3568, "Äłinternat": 3569, "Äłinternati": 3570, "Äłinternatio": 3571, "Äłinternation": 3572, "Äłrespec": 3573, "Äłja": 3574, "Äłunit": 3575, "Äłinternationa": 3576, "Äłwei": 3577, "Äłinternational": 3578, "ÄłBen": 3579, "Äłpiec": 3580, "Äł2011": 3581, "Äłperforma": 3582, "Äłpea": 3583, "Äłrespect": 3584, "ÄłCount": 3585, "Äłteach": 3586, "ÄłPal": 3587, "Äłtechnology": 3588, "Äłaudi": 3589, "Äłperforman": 3590, "ÄłMedi": 3591, "Äłpiece": 3592, "ÄłApr": 3593, "Äłcapi": 3594, "Äłexpecte": 3595, "Äłexpected": 3596, "ike": 3597, "Äłcreated": 3598, "Äłgloba": 3599, "Äłglobal": 3600, "Äłlac": 3601, "Äłsurpr": 3602, "Äłidentif": 3603, "Äłlang": 3604, "Äłproblems": 3605, "Äłsurpri": 3606, "Äłmemo": 3607, "Äłperformanc": 3608, "Äłperformance": 3609, "Äłsurpris": 3610, "Äłfamili": 3611, "Äłrang": 3612, "ÄłBre": 3613, "Äłtravel": 3614, "Äłreceived": 3615, "Äłoperatio": 3616, "Äłoperation": 3617, "Äłhighl": 3618, "Äłtrie": 3619, "Äłmer": 3620, "ÄłCongre": 3621, "ÄłJuly": 3622, "Äładministrati": 3623, "Äłcapit": 3624, "Äłscient": 3625, "Äłtas": 3626, "Äłways": 3627, "Äłscienti": 3628, "Äłrevea": 3629, "Äłreveal": 3630, "Äłcoac": 3631, "Äłeasy": 3632, "Äłcoach": 3633, "Äłsui": 3634, "Äłpul": 3635, "Äłsecr": 3636, "Äłcontrib": 3637, "Äłsecre": 3638, "Äłsell": 3639, "Äłquestions": 3640, "Äłcannot": 3641, "Äłtour": 3642, "ÄłMos": 3643, "Äł<": 3644, "Äłfinancia": 3645, "Äłannounced": 3646, "Äłresponsi": 3647, "Äłcontribu": 3648, "Äłfinancial": 3649, "Äłlangu": 3650, "Äłpack": 3651, "Äłcommitt": 3652, "ÄłCongres": 3653, "Äłcontribut": 3654, "ÄłGod": 3655, "ÄłMond": 3656, "Äłtitl": 3657, "Äłrepe": 3658, "ÄłCongress": 3659, "Äłimpac": 3660, "Äłimpact": 3661, "Äłcompo": 3662, "ÄłEast": 3663, "Äłengi": 3664, "Äłdia": 3665, "Äłengin": 3666, "Äłuna": 3667, "Äłsiz": 3668, "Äłengine": 3669, "Äłtitle": 3670, "Äłpap": 3671, "Äłmys": 3672, "Äłdraw": 3673, "ÄłFaceb": 3674, "ÄłSat": 3675, "Äłsimple": 3676, "ÄłFacebo": 3677, "Äłexpo": 3678, "Äłsche": 3679, "ÄłFaceboo": 3680, "ÄłFacebook": 3681, "Äłstrat": 3682, "ÄłFrid": 3683, "Äłpan": 3684, "Äłinvolved": 3685, "Äłsupporte": 3686, "ÄłStar": 3687, "Äłcivil": 3688, "Äłuniv": 3689, "ÄłMini": 3690, "Äłpoll": 3691, "Äłsof": 3692, "Äłactivit": 3693, "Äłcapa": 3694, "Äłreside": 3695, "Con": 3696, "Äłunive": 3697, "Äłuniver": 3698, "Äłmater": 3699, "Äłunivers": 3700, "ÄłHill": 3701, "Äłauthorit": 3702, "Äłur": 3703, "ÄłFrida": 3704, "Äłpopulati": 3705, "Äłperm": 3706, "ever": 3707, "Äłexpa": 3708, "ÄłFriday": 3709, "Äłprep": 3710, "Äłpopulatio": 3711, "Äłpopulation": 3712, "Äłterro": 3713, "Äłcapita": 3714, "Äłexact": 3715, "Äłmarr": 3716, "Äłterror": 3717, "ÄłAustra": 3718, "Äłcru": 3719, "Äłnearl": 3720, "Äłfacto": 3721, "Äłnearly": 3722, "ÄłAustral": 3723, "Äłlangua": 3724, "Äłlanguag": 3725, "Äłupdate": 3726, "Äłlanguage": 3727, "Äłhon": 3728, "Äłdeliv": 3729, "Äłcaree": 3730, "Äłdelive": 3731, "Äłdeliver": 3732, "ÄłSho": 3733, "Äłinn": 3734, "Äłmoder": 3735, "Äłboar": 3736, "Äłrelationsh": 3737, "Äłrelationshi": 3738, "Äłrelationship": 3739, "Äłstaf": 3740, "Äłstaff": 3741, "Äłexecuti": 3742, "ÄłGoog": 3743, "Äłregar": 3744, "ÄłGoogl": 3745, "Äłregard": 3746, "Äłextre": 3747, "Äłextrem": 3748, "Äłcareer": 3749, "ÄłAustrali": 3750, "Äł197": 3751, "Äłasso": 3752, "ÄłStre": 3753, "Äłcases": 3754, "ÄłOp": 3755, "ÄłCour": 3756, "ÄłTue": 3757, "ÄłAustralia": 3758, "ÄłMonda": 3759, "ÄłGoogle": 3760, "Äłboard": 3761, "Äłsoft": 3762, "Äłsear": 3763, "ÄłTur": 3764, "Äłhug": 3765, "ÄłPat": 3766, "Äłdifferenc": 3767, "ÄłOl": 3768, "Äłdifference": 3769, "Äłarre": 3770, "Äłusu": 3771, "Äłsq": 3772, "ÄłMonday": 3773, "ÄłRed": 3774, "Äłexpan": 3775, "Äłbroa": 3776, "Äłfans": 3777, "ÄłApri": 3778, "Äłlivi": 3779, "Äłsubj": 3780, "Äłcredi": 3781, "Äłintel": 3782, "Äłwort": 3783, "Äłlives": 3784, "Äłinsu": 3785, "Äłheart": 3786, "ÄłApril": 3787, "ren": 3788, "ÄłCali": 3789, "Äłscree": 3790, "Äłdig": 3791, "Äłfini": 3792, "Äłarres": 3793, "Äłarrest": 3794, "ÄłCla": 3795, "Äłcy": 3796, "Äłrepla": 3797, "ÄłChar": 3798, "ÄłGl": 3799, "Äłlivin": 3800, "ÄłTues": 3801, "Äłowner": 3802, "Äłliving": 3803, "Äłoi": 3804, "Äłbroad": 3805, "ÄłTuesd": 3806, "ÄłTuesda": 3807, "ÄłTuesday": 3808, "Äłsize": 3809, "Äłreports": 3810, "Äłworth": 3811, "Äłsecret": 3812, "Äłintro": 3813, "Äłrap": 3814, "Äłkilled": 3815, "Äłsearc": 3816, "Äłsearch": 3817, "Äłjudg": 3818, "use": 3819, "Äłassu": 3820, "Äłcompetit": 3821, "Äłencou": 3822, "ÄłDan": 3823, "Äłtele": 3824, "Äłusers": 3825, "Äłworked": 3826, "Äłmac": 3827, "Äłimmed": 3828, "Äłimmedi": 3829, "Äłstrate": 3830, "Äłimmedia": 3831, "Äłtwe": 3832, "Äłstrateg": 3833, "Äł2010": 3834, "Äłpape": 3835, "Äłsubje": 3836, "Äłoil": 3837, "Äłresponsib": 3838, "ÄłWhil": 3839, "Äłsubjec": 3840, "Äłsubject": 3841, "Äłestab": 3842, "Äłpaper": 3843, "Äłintell": 3844, "Äłrespond": 3845, "ÄłAndr": 3846, "Äłclub": 3847, "ÄłAmericans": 3848, "Äłcell": 3849, "Äłestabl": 3850, "Äłreque": 3851, "Äłchai": 3852, "Äłestabli": 3853, "Äłestablis": 3854, "ÄłPos": 3855, "Äłimmediat": 3856, "Äłtakes": 3857, "Äłestablish": 3858, "Äłreques": 3859, "Äłrequest": 3860, "Äłmoth": 3861, "Äłusua": 3862, "ÄłJap": 3863, "Äłscreen": 3864, "Äłimmediate": 3865, "Äłability": 3866, "Äłobse": 3867, "Äłusual": 3868, "Äłmedica": 3869, "ring": 3870, "Äłassoc": 3871, "Äłweap": 3872, "Äłweapo": 3873, "Äłweapon": 3874, "Äłsele": 3875, "Äłvoi": 3876, "ÄłKor": 3877, "Äłassoci": 3878, "ÄłJapa": 3879, "Äłassocia": 3880, "Äłterms": 3881, "ÄłRussian": 3882, "ÄłJapan": 3883, "Äłassociat": 3884, "Äłtradit": 3885, "Äłworkers": 3886, "Äłtraditi": 3887, "Äłtraditio": 3888, "ÄłJam": 3889, "Äłtradition": 3890, "Äłtheo": 3891, "Äłcapital": 3892, "Äłtransf": 3893, "Äłdamage": 3894, "Äłheav": 3895, "Äłinvestigatio": 3896, "Äłinvestigation": 3897, "Äłroad": 3898, "Äłpublished": 3899, "Äłbehav": 3900, "Äł22": 3901, "ÄłSpe": 3902, "Äłreme": 3903, "Äłfactor": 3904, "ÄłSund": 3905, "Äłselec": 3906, "Äłselect": 3907, "ÄłWhile": 3908, "ÄłChristi": 3909, "Äłlack": 3910, "Äłgav": 3911, "Äłsend": 3912, "Äłloa": 3913, "ÄłOu": 3914, "Äłdeterm": 3915, "Äłdetermi": 3916, "Äłdetermin": 3917, "Äłgave": 3918, "Äłdefini": 3919, "Äłsqu": 3920, "ÄłWed": 3921, "Äłcommitte": 3922, "Äłdecided": 3923, "Äłsort": 3924, "Äłlog": 3925, "Äłresiden": 3926, "Äłliste": 3927, "Äłpati": 3928, "Äłlower": 3929, "ÄłAi": 3930, "Äłsla": 3931, "Äłmothe": 3932, "Äłmother": 3933, "ÄłEuropea": 3934, "Äłeme": 3935, "ÄłEuropean": 3936, "Äłsale": 3937, "Äłmateri": 3938, "Äłscore": 3939, "Äłbasic": 3940, "ÄłAfr": 3941, "Äłchoi": 3942, "Äłemer": 3943, "Äłgoe": 3944, "Äłinflu": 3945, "Äłmateria": 3946, "Äłfear": 3947, "Äłfinis": 3948, "Äłfinish": 3949, "Äłsat": 3950, "Äłhappene": 3951, "Äłmaterial": 3952, "Äłhappened": 3953, "Äłpartn": 3954, "Äłpartne": 3955, "Äłpartner": 3956, "ÄłNow": 3957, "Äłscene": 3958, "Äłopposi": 3959, "ÄłCalif": 3960, "Äłregulat": 3961, "ÄłBy": 3962, "ÄłBel": 3963, "Äłdefend": 3964, "Äłvir": 3965, "Äł@": 3966, "Äłnecessa": 3967, "Äłnecessar": 3968, "¤Â": 3969, "Äłforei": 3970, "Äłforeig": 3971, "Äłforeign": 3972, "Äłfem": 3973, "Äłseven": 3974, "Äłprima": 3975, "ÄłNove": 3976, "Äłgoes": 3977, "ÄłLib": 3978, "Äłcente": 3979, "ÄłJanu": 3980, "Äłcurrentl": 3981, "Äłcurrently": 3982, "Äłtabl": 3983, "Äłconstr": 3984, "ÄłOff": 3985, "Äłwhos": 3986, "Äłconfir": 3987, "Äłconfirm": 3988, "ÄłGam": 3989, "Äłbran": 3990, "ÄłGeor": 3991, "Äłwhose": 3992, "Äłincom": 3993, "ÄłThur": 3994, "Äłaffe": 3995, "ÄłPen": 3996, "ÄłGeorg": 3997, "ÄłCam": 3998, "Äłdoo": 3999, "Äłgreate": 4000, "Äłpatie": 4001, "Äłpatien": 4002, "Äłindica": 4003, "Äłpartici": 4004, "Äłplans": 4005, "Äłparticip": 4006, "Äłaffec": 4007, "Äłaffect": 4008, "Äłmetho": 4009, "ind": 4010, "Äłarri": 4011, "Äłdeba": 4012, "Äłplu": 4013, "Äłcrime": 4014, "ÄłJanua": 4015, "ÄłJanuar": 4016, "Äłmethod": 4017, "Äłequa": 4018, "Äłsuppl": 4019, "Äładministratio": 4020, "Äładministration": 4021, "Äłarriv": 4022, "Äłpropert": 4023, "Äłindicat": 4024, "ÄłJanuary": 4025, "Äłemerg": 4026, "Äłparticipa": 4027, "Äłchoic": 4028, "Äłchoice": 4029, "Äłpict": 4030, "Äłturne": 4031, "ÄłFeb": 4032, "Äłrecog": 4033, "ÄłAfri": 4034, "Äłdiscov": 4035, "Äłdiscove": 4036, "Äłdiscover": 4037, "Äłreplac": 4038, "Äłteams": 4039, "Äłrecogn": 4040, "Äłrecogni": 4041, "Äłequi": 4042, "Äłpreve": 4043, "Äłquar": 4044, "ÄłPau": 4045, "Äłturned": 4046, "Äłcenter": 4047, "Äłnatura": 4048, "ÄłSepte": 4049, "Äłdivi": 4050, "Äłpreven": 4051, "ÄłSeptem": 4052, "Äłprevent": 4053, "Äłnatural": 4054, "ÄłSeptemb": 4055, "Äładve": 4056, "ÄłSeptembe": 4057, "Äłevents": 4058, "ÄłSeptember": 4059, "ÄłCourt": 4060, "ÄłKing": 4061, "Äłmenti": 4062, "Äłtex": 4063, "Äłmentio": 4064, "Äłmention": 4065, "Äłship": 4066, "Äłslow": 4067, "Äłbattl": 4068, "Äłintrod": 4069, "Äłprepa": 4070, "Äłintrodu": 4071, "Äłpictu": 4072, "Äłpictur": 4073, "Äłintroduc": 4074, "Äłareas": 4075, "Äłnorm": 4076, "Äłcompute": 4077, "Äłsexu": 4078, "Äłdesigne": 4079, "Äłtext": 4080, "Äłsexua": 4081, "Äłsexual": 4082, "Äłproductio": 4083, "Äłproduction": 4084, "Äłht": 4085, "Äłeli": 4086, "ÄłSunda": 4087, "Äłapplicat": 4088, "ÄłIslam": 4089, "Äłhuge": 4090, "Äłgon": 4091, "Äłpicture": 4092, "Äłapplicati": 4093, "ÄłPho": 4094, "Äłgua": 4095, "Äłapplicatio": 4096, "Äłapplication": 4097, "Äłmultip": 4098, "ÄłPhi": 4099, "ÄłTV": 4100, "Äłlette": 4101, "Äłfli": 4102, "Äłletter": 4103, "Äłtool": 4104, "ÄłAng": 4105, "Äłnic": 4106, "ÄłThurs": 4107, "Äłens": 4108, "Äłfelt": 4109, "Äłfath": 4110, "Äłdate": 4111, "Äłreduce": 4112, "ÄłNovem": 4113, "ÄłNovemb": 4114, "ÄłNovembe": 4115, "ÄłNovember": 4116, "ÄłAfric": 4117, "ÄłWedn": 4118, "ÄłDavid": 4119, "ÄłWedne": 4120, "ÄłWednes": 4121, "Äłtable": 4122, "ÄłWednesd": 4123, "ÄłWednesda": 4124, "ÄłWednesday": 4125, "ÄłAfrica": 4126, "ÄłRom": 4127, "ÄłComp": 4128, "Äłquickl": 4129, "Äłhands": 4130, "Äłprepar": 4131, "Äłgai": 4132, "Äłattr": 4133, "Äłquickly": 4134, "Äłsep": 4135, "Äłeducati": 4136, "ÄłEven": 4137, "Äłcombi": 4138, "Äłrange": 4139, "Äłcombin": 4140, "Äłroun": 4141, "Äłround": 4142, "ÄłMinis": 4143, "Äłsocie": 4144, "ÄłJac": 4145, "ble": 4146, "ÄłGene": 4147, "Äłpull": 4148, "ÄłThursd": 4149, "ÄłThursda": 4150, "ÄłThursday": 4151, "Äłseek": 4152, "ÄłPaul": 4153, "Äłsociet": 4154, "Äłeffecti": 4155, "Äłvicti": 4156, "Äłvictim": 4157, "Äłhot": 4158, "Äłguar": 4159, "ÄłJon": 4160, "Äłinflue": 4161, "Äłinfluen": 4162, "Äłnumbers": 4163, "Äłplane": 4164, "Äłconfe": 4165, "ÄłMinist": 4166, "Äłprofi": 4167, "Äłmultipl": 4168, "Äłeffectiv": 4169, "Äłplant": 4170, "Äłeffective": 4171, "Äłfathe": 4172, "Äłpromo": 4173, "Äłfather": 4174, "Äłhtt": 4175, "Äłhttp": 4176, "Äłbuilt": 4177, "ÄłBea": 4178, "ÄłAcc": 4179, "Äłstage": 4180, "Äłloss": 4181, "Äłstree": 4182, "Äłgain": 4183, "Äłstreet": 4184, "Äłdestr": 4185, "ÄłSunday": 4186, "Äłhat": 4187, "Äłenj": 4188, "ÄłOcto": 4189, "Äłenjo": 4190, "Äłfle": 4191, "Äładvi": 4192, "Äłprec": 4193, "Äłvoter": 4194, "Äłthous": 4195, "Äłthousa": 4196, "Äłthousan": 4197, "Äłthousand": 4198, "Äłinci": 4199, "ÄłScot": 4200, "Äłdebat": 4201, "Äłeconomy": 4202, "Äłstrik": 4203, "Äłheard": 4204, "Äłboy": 4205, "ple": 4206, "ÄłTex": 4207, "ÄłEar": 4208, "Äłplann": 4209, "Äłenjoy": 4210, "Äłoccur": 4211, "Äł..": 4212, "Äłprove": 4213, "ÄłYa": 4214, "Äłallowe": 4215, "Äłallowed": 4216, "Äłtechni": 4217, "ÄłMas": 4218, "ÄłAugu": 4219, "Äłali": 4220, "Äłspent": 4221, "ÄłOctob": 4222, "ÄłCap": 4223, "ÄłOctobe": 4224, "ÄłOctober": 4225, "Äłmemor": 4226, "Äłprimar": 4227, "ÄłAugus": 4228, "Äłalte": 4229, "ÄłAugust": 4230, "Äłdar": 4231, "Äłeducatio": 4232, "Äłeducation": 4233, "Äłlen": 4234, "Äłpromis": 4235, "Äłincluded": 4236, "Äłminis": 4237, "Äł23": 4238, "Äłwants": 4239, "Äłalter": 4240, "Äłmarri": 4241, "Äłattent": 4242, "Äłdefinit": 4243, "Äłmorn": 4244, "Äłremem": 4245, "Äłattenti": 4246, "Äłcustome": 4247, "Äłlegis": 4248, "Äłcustomer": 4249, "Äłrememb": 4250, "ÄłPark": 4251, "Äłlegisl": 4252, "Äłlegisla": 4253, "ÄłPhil": 4254, "Äłtown": 4255, "Äłmorni": 4256, "Äłmornin": 4257, "Äłknew": 4258, "Äłneig": 4259, "Äłlegislat": 4260, "Äłmorning": 4261, "Äłneigh": 4262, "ÄłÃ¢Ä¢Â": 4263, "Äłdol": 4264, "Äłneighb": 4265, "Äłneighbo": 4266, "Äłic": 4267, "ÄłCalifo": 4268, "ÄłBriti": 4269, "ÄłCalifor": 4270, "Äłsave": 4271, "ÄłCaliforn": 4272, "ÄłCaliforni": 4273, "ÄłBritis": 4274, "ÄłBritish": 4275, "ÄłCalifornia": 4276, "Äłsepa": 4277, "Äłsepar": 4278, "Äłsepara": 4279, "Äłperfe": 4280, "ÄłPet": 4281, "Äłveh": 4282, "ÄłCanada": 4283, "Äłarc": 4284, "Äłgets": 4285, "Äłaren": 4286, "Äłspot": 4287, "Äłperfec": 4288, "Äłperfect": 4289, "Äłquart": 4290, "Äłeig": 4291, "ÄłBus": 4292, "Äłseparat": 4293, "ÄłCont": 4294, "Äłpleas": 4295, "ÄłCente": 4296, "Äłpromot": 4297, "Äłfair": 4298, "Äłpurp": 4299, "Äłsan": 4300, "Äłremembe": 4301, "Äłremember": 4302, "Äłdemon": 4303, "Äłrepea": 4304, "?Ã¢Ä¢Ä¿": 4305, "Äłtried": 4306, "ÄłFro": 4307, "Äłgas": 4308, "ÄłMac": 4309, "Äłbir": 4310, "ÄłDece": 4311, "Äłmaint": 4312, "Äłcomputer": 4313, "Äłavo": 4314, "Äłattentio": 4315, "Äłattention": 4316, "Äłdispl": 4317, "Äłvario": 4318, "Äłinstan": 4319, "ÄłStree": 4320, "Äłpatient": 4321, "Äłstruct": 4322, "Äłbattle": 4323, "Äłvariou": 4324, "Äłvarious": 4325, "Äłbehavi": 4326, "ÄłBil": 4327, "Äłcollecti": 4328, "Äłeigh": 4329, "Äłeight": 4330, "Äłforces": 4331, "Äłwis": 4332, "ÄłKen": 4333, "ÄłKore": 4334, "Äłaccus": 4335, "Äłpun": 4336, "Äłbrou": 4337, "Äłcompare": 4338, "Äłreadi": 4339, "Äłminist": 4340, "Äłtheor": 4341, "Äł}": 4342, "Äłpris": 4343, "Äłbroug": 4344, "ÄłStreet": 4345, "Äłbrough": 4346, "Äłwinn": 4347, "Äłbrought": 4348, "Äłlooks": 4349, "ÄłCenter": 4350, "Äłrati": 4351, "Äłlibe": 4352, "Äłfirm": 4353, "Äłfit": 4354, "Äłfell": 4355, "ÄłVo": 4356, "Äłbud": 4357, "Äłstatu": 4358, "ÄłKorea": 4359, "ÄłFlo": 4360, "ÄłKu": 4361, "ÄłUK": 4362, "Äłgrowt": 4363, "Äłgrowth": 4364, "Äłquarte": 4365, "Äłtrainin": 4366, "Äłtraining": 4367, "Äłimmi": 4368, "'d": 4369, "Äłdebate": 4370, "Äłshowe": 4371, "Äłqualit": 4372, "Äłvehi": 4373, "Äłvehic": 4374, "Äłreb": 4375, "Äłcounte": 4376, "Äłassis": 4377, "Äłcondu": 4378, "Äłassist": 4379, "Äłcolor": 4380, "Äłprogre": 4381, "Äł...": 4382, "Äłprogres": 4383, "200": 4384, "Äłsuffe": 4385, "Äłsuffer": 4386, "Äłdang": 4387, "Äłdispla": 4388, "Äłprogress": 4389, "ÄłEr": 4390, "Äłbehavio": 4391, "Äłach": 4392, "Äłang": 4393, "Äłterri": 4394, "Äłconvi": 4395, "Äłforma": 4396, "Äłcontac": 4397, "Äłcontact": 4398, "ÄłDecem": 4399, "Äłmanu": 4400, "ÄłBlac": 4401, "ÄłDecemb": 4402, "ÄłDecembe": 4403, "ÄłDecember": 4404, "Äłbon": 4405, "Äłgri": 4406, "ÄłGar": 4407, "Äłesti": 4408, "Äłdepe": 4409, "Äłess": 4410, "ÄłBlack": 4411, "ÄłIS": 4412, "Äłvehicl": 4413, "Äłvehicle": 4414, "ÄłPolic": 4415, "ÄłArm": 4416, "Äłquarter": 4417, "Äł*": 4418, "Äłjusti": 4419, "Äłdefense": 4420, "Äłestim": 4421, "Äłsong": 4422, "Äłestima": 4423, "Äłdepen": 4424, "ÄłPost": 4425, "Äłdepend": 4426, "Äłestimat": 4427, "Äłtwi": 4428, "While": 4429, "Äłcitiz": 4430, "Äłcitize": 4431, "Äłcitizen": 4432, "Äłculture": 4433, "Äłspor": 4434, "Äłmedical": 4435, "Äłavoi": 4436, "Äłrules": 4437, "Äłliber": 4438, "Äłabu": 4439, "Äłanimal": 4440, "Äłregular": 4441, "Äłgrad": 4442, "Äłavoid": 4443, "Äłfloo": 4444, "Äł196": 4445, "Äłtalki": 4446, "Äłclima": 4447, "Äłtouc": 4448, "Äłthrow": 4449, "Äłlates": 4450, "Äłlatest": 4451, "Äłite": 4452, "ÄłSatu": 4453, "Äłton": 4454, "Äłtouch": 4455, "Äłconduc": 4456, "Äłtalkin": 4457, "Äłcredit": 4458, "ÄłTor": 4459, "Äłstructu": 4460, "Äłstructur": 4461, "Äłupo": 4462, "ÄłSatur": 4463, "Äłsometi": 4464, "Äłstrug": 4465, "ÄłAv": 4466, "Äłstrugg": 4467, "Äłremove": 4468, "Äłsometim": 4469, "Äłstruggl": 4470, "Äłsometime": 4471, "ÄłHal": 4472, "Äłupon": 4473, "Äłvoic": 4474, "Äłconsis": 4475, "Äłdoor": 4476, "Äłconsist": 4477, "Äłuns": 4478, "ÄłDes": 4479, "Äłsym": 4480, "Äłtalking": 4481, "Äłindep": 4482, "Äłreplace": 4483, "Äłindepe": 4484, "Äłindepen": 4485, "Äłindepend": 4486, "Äł60": 4487, "Äłsuccessf": 4488, "Äłsuccessfu": 4489, "Äłsuccessful": 4490, "Äłdespi": 4491, "Äłspeed": 4492, "ÄłLan": 4493, "Äłchu": 4494, "ÄłGov": 4495, "Äłindepende": 4496, "Äłindependen": 4497, "Äłmach": 4498, "ÄłGro": 4499, "Äłwond": 4500, "ÄłMark": 4501, "Äłachi": 4502, "ÄłSenate": 4503, "Äłfeatures": 4504, "Äłtransp": 4505, "Äłobser": 4506, "Äłobserv": 4507, "ÄłFou": 4508, "Äłpoor": 4509, "Äłrelativ": 4510, "Äłdange": 4511, "Äłopposit": 4512, "Äłdepa": 4513, "Äłdanger": 4514, "ÄłJew": 4515, "Äłdepar": 4516, "Äłps": 4517, "Äłdepart": 4518, "Äłjourna": 4519, "Äłearn": 4520, "Äłjournal": 4521, "Äłcorp": 4522, "ÄłBur": 4523, "ÄłTimes": 4524, "Äłextreme": 4525, "Äłcompetiti": 4526, "Äłpriso": 4527, "Äłconsidere": 4528, "Äłprison": 4529, "Äłentr": 4530, "Äłnotic": 4531, "Äłconsidered": 4532, "Äłattend": 4533, "Äłtesti": 4534, "Äłconser": 4535, "Äłwonde": 4536, "Äłwonder": 4537, "Äłconserv": 4538, "Äłinsp": 4539, "Äłscienc": 4540, "Äłstori": 4541, "Äłscience": 4542, "ÄłParty": 4543, "Äłresident": 4544, "Äłconduct": 4545, "Äłlevels": 4546, "Äłargue": 4547, "Äłwarn": 4548, "Äłconsume": 4549, "Äłvoice": 4550, "ÄłCounty": 4551, "Äłachie": 4552, "Äłachiev": 4553, "Äłensu": 4554, "ÄłDona": 4555, "Äłincid": 4556, "Äłincide": 4557, "Äłinciden": 4558, "Äłemployee": 4559, "Äłpressu": 4560, "Äłpressur": 4561, "ÄłColl": 4562, "ÄłAnt": 4563, "She": 4564, "Äłweig": 4565, "Äłcros": 4566, "Äłweigh": 4567, "Äłfis": 4568, "Äłcircu": 4569, "Äłcentu": 4570, "Äłprio": 4571, "Äłcentur": 4572, "Äłcross": 4573, "Äłdoll": 4574, "mon": 4575, "Äłir": 4576, "Äłbrai": 4577, "time": 4578, "Äł2008": 4579, "Äłinsti": 4580, "Äłopi": 4581, "Äłpurpo": 4582, "Äłprior": 4583, "Äłgue": 4584, "Äłfollowe": 4585, "Äłbox": 4586, "ÄłIran": 4587, "Äłconstru": 4588, "Äłclimat": 4589, "ÄłWat": 4590, "Äłnort": 4591, "Äłjobs": 4592, "Äłrout": 4593, "Äłstrai": 4594, "ÄłAle": 4595, "Äłmajori": 4596, "Äłnorth": 4597, "ÄłChristia": 4598, "Äłbrok": 4599, "Äłsport": 4600, "Äłbroke": 4601, "Äłresou": 4602, "ÄłChristian": 4603, "Äłsystems": 4604, "ÄłIma": 4605, "ÄłAppl": 4606, "Äłnorma": 4607, "Äłparents": 4608, "Äłskil": 4609, "ÄłIndian": 4610, "Äłsumme": 4611, "ÄłGame": 4612, "Äłspokes": 4613, "Äłmajorit": 4614, "Äłwritt": 4615, "Äłmachi": 4616, "Äłwritte": 4617, "Äłwritten": 4618, "ÄłSam": 4619, "Äłsil": 4620, "Äłhistori": 4621, "Äłoffens": 4622, "Äłinitial": 4623, "Äłrefere": 4624, "Äłincreasi": 4625, "Äłincreasin": 4626, "Äłincreasing": 4627, "ÄłMari": 4628, "ÄłSoc": 4629, "ÄłMusl": 4630, "ÄłCat": 4631, "Äłestimate": 4632, "Äłrelative": 4633, "Äłskill": 4634, "ÄłMusli": 4635, "ÄłNet": 4636, "Äłwall": 4637, "ÄłMuslim": 4638, "ÄłBill": 4639, "Äłreact": 4640, "Äłmachin": 4641, "Äłsty": 4642, "Äłexecutiv": 4643, "Äłblu": 4644, "Äłpit": 4645, "Äłexecutive": 4646, "Äłtac": 4647, "Äłphysica": 4648, "Äłphysical": 4649, "Äłlay": 4650, "Äłfix": 4651, "Äłgla": 4652, "Äłconcl": 4653, "Äłwriti": 4654, "Äłwritin": 4655, "Äłwriting": 4656, "Äłterrori": 4657, "Äłraci": 4658, "Äłbloo": 4659, "Äłimmig": 4660, "Äłimmigr": 4661, "Äłimmigra": 4662, "Äłcompletel": 4663, "Äłcompletely": 4664, "Äłcomma": 4665, "Äłnotice": 4666, "Äłspeec": 4667, "Äłspeech": 4668, "Äłconserva": 4669, "Äłcham": 4670, "Äłconclu": 4671, "Äłemerge": 4672, "Äłbrain": 4673, "dver": 4674, "Äłul": 4675, "Äłobv": 4676, "Äłconservat": 4677, "Äładvanc": 4678, "Äłviolenc": 4679, "ÄłCre": 4680, "Äłnormal": 4681, "Äłmidd": 4682, "Äłband": 4683, "ÄłTexa": 4684, "Äłviolence": 4685, "Äłmoti": 4686, "Äłbott": 4687, "Äłclimate": 4688, "Äłbul": 4689, "Äłcolla": 4690, "Äłpressure": 4691, "ÄłOt": 4692, "Äłfine": 4693, "Äłconstruc": 4694, "Äłsurve": 4695, "Äłgree": 4696, "Äł2009": 4697, "Äłconstruct": 4698, "Äłobvi": 4699, "Äłresour": 4700, "Äłdespit": 4701, "Äłdespite": 4702, "Äłresourc": 4703, "ÄłIraq": 4704, "Äłreadin": 4705, "ÄłSaturd": 4706, "dvert": 4707, "ÄłSaturda": 4708, "ÄłSaturday": 4709, "ÄłOffi": 4710, "ÄłLond": 4711, "Äłinteresti": 4712, "Äłinterestin": 4713, "Äłinteresting": 4714, "Äłresource": 4715, "Äłmap": 4716, "Äłopportunity": 4717, "Äłunf": 4718, "dverti": 4719, "dvertis": 4720, "Äłconservati": 4721, "ÄłServ": 4722, "Äłclaims": 4723, "ÄłOffic": 4724, "ÄłHam": 4725, "Äłobvio": 4726, "Äłobviou": 4727, "ÄłLondo": 4728, "Äłobvious": 4729, "Äłparticularl": 4730, "Äłparticularly": 4731, "ÄłLondon": 4732, "Äłroc": 4733, "Äłcomman": 4734, "Äłcommand": 4735, "Äłcolleg": 4736, "Äłdriver": 4737, "Äłinstal": 4738, "ÄłSand": 4739, "Äłsociety": 4740, "Äłstorie": 4741, "Äłrock": 4742, "Äłpark": 4743, "Äłstyl": 4744, "Äłmajority": 4745, "Äłdemons": 4746, "ÄłJer": 4747, "Äłattacks": 4748, "Äłmachine": 4749, "Äłfindi": 4750, "Äłfindin": 4751, "Äłfinding": 4752, "Äłexactl": 4753, "Äłexactly": 4754, "Äłprotecti": 4755, "Äłswe": 4756, "ÄłDonal": 4757, "Äłcrow": 4758, "Äłcarry": 4759, "Äłcarri": 4760, "Äłpath": 4761, "Äłbigges": 4762, "Äłbiggest": 4763, "ÄłEver": 4764, "Äłincident": 4765, "ÄłDonald": 4766, "Äłconvers": 4767, "Äłsummer": 4768, "Äłequal": 4769, "ÄłWel": 4770, "Äłterroris": 4771, "Äłtend": 4772, "Äłimpos": 4773, "Äłrequired": 4774, "ÄłMore": 4775, "Äłstatio": 4776, "Äłstation": 4777, "Äłrealit": 4778, "Äłbeat": 4779, "Äłsolu": 4780, "Äłmur": 4781, "Äł26": 4782, "Äłhund": 4783, "Äłdiscussi": 4784, "Äłmiddl": 4785, "Äłmodern": 4786, "Äłhundr": 4787, "Äłpaid": 4788, "Äłhundre": 4789, "Äłhundred": 4790, "Äłexcep": 4791, "Äłinfluenc": 4792, "Äłexcept": 4793, "Äłinstall": 4794, "Äłofficers": 4795, "Äłconnecti": 4796, "ÄłStu": 4797, "Äłhandl": 4798, "Äłdetermine": 4799, "Äłlooke": 4800, "Äłlocati": 4801, "Äłlooked": 4802, "Advertis": 4803, "Äłcertainl": 4804, "Äłcertainly": 4805, "Äłjudge": 4806, "ÄłImag": 4807, "Äłfill": 4808, "Äłgues": 4809, "ÄłGreen": 4810, "Äłtria": 4811, "Äł27": 4812, "ÄłMcC": 4813, "Äłsurvi": 4814, "Äłexci": 4815, "Äłmiddle": 4816, "Äłsurviv": 4817, "ÄłAir": 4818, "Äłstories": 4819, "Äłstudie": 4820, "Äł28": 4821, "Äłvolu": 4822, "Äłstuf": 4823, "Äłtie": 4824, "Äłstuff": 4825, "Äłult": 4826, "Äłcompla": 4827, "Äłfinall": 4828, "Äłfinally": 4829, "Äłsometimes": 4830, "Äłcommunic": 4831, "Äłcommunica": 4832, "Äłsolut": 4833, "Äłcounter": 4834, "Äłproducts": 4835, "Äłthank": 4836, "ÄłJi": 4837, "ÄłScho": 4838, "Äłsoluti": 4839, "Äłsolutio": 4840, "Äłsolution": 4841, "ÄłWilli": 4842, "Äłexpen": 4843, "Äłallege": 4844, "Äłprofessi": 4845, "Äłabso": 4846, "Äłleadi": 4847, "Äłleadin": 4848, "Äłfeeli": 4849, "Äłleading": 4850, "Äłcommunicat": 4851, "Äłfeelin": 4852, "Äłimple": 4853, "Äłassum": 4854, "Äłforg": 4855, "Äłmix": 4856, "Äłimplem": 4857, "Äłelem": 4858, "Äłimpleme": 4859, "Äłcanc": 4860, "Äłimplemen": 4861, "Äłones": 4862, "Äłfeeling": 4863, "Äłimplement": 4864, "Äłdescribed": 4865, "Äłreading": 4866, "Äłsqua": 4867, "Äłapprov": 4868, "Äłcance": 4869, "ÄłFebr": 4870, "Äłdeg": 4871, "Äłcollege": 4872, "Äłmeta": 4873, "Äłdetails": 4874, "Äłconfer": 4875, "Äłsmo": 4876, "ÄłFebru": 4877, "Äłchanged": 4878, "ÄłFebrua": 4879, "Äłprofessio": 4880, "Äłprofession": 4881, "ÄłFebruar": 4882, "Äłeleme": 4883, "Äłmanager": 4884, "Äłelemen": 4885, "Äłelement": 4886, "ÄłFebruary": 4887, "Äłexpert": 4888, "Äłblood": 4889, "Äłleag": 4890, "Äłquality": 4891, "Äłleagu": 4892, "Äłleague": 4893, "Äłcrimi": 4894, "Äłcrimin": 4895, "Äłstarti": 4896, "Äłstartin": 4897, "Äłstarting": 4898, "Äłshowed": 4899, "Äłdolla": 4900, "Äłdollar": 4901, "Äłsout": 4902, "Äłlocatio": 4903, "Äłlocation": 4904, "Äłgivi": 4905, "Äłgivin": 4906, "Äłassa": 4907, "Äłgiving": 4908, "Äłsouth": 4909, "Äłmultiple": 4910, "Äłprovided": 4911, "Äłnamed": 4912, "ÄłVal": 4913, "Äłchie": 4914, "Äłbudg": 4915, "Äłenga": 4916, "Äłpredi": 4917, "Äłensur": 4918, "ÄłLab": 4919, "Äłremains": 4920, "Äłengag": 4921, "Äłcosts": 4922, "ÄłMicha": 4923, "Äłcele": 4924, "ÄłTH": 4925, "Äłchief": 4926, "Äłeat": 4927, "Äłbudge": 4928, "Äłintelli": 4929, "Äłintellig": 4930, "Äłpref": 4931, "Äłrelate": 4932, "Äłwear": 4933, "Äłappa": 4934, "Äłcrimina": 4935, "Äłcriminal": 4936, "Äłimagi": 4937, "Äłinfluence": 4938, "ÄłPor": 4939, "Äłexcit": 4940, "Äłimagin": 4941, "ÄłÃĲ": 4942, "İÂ": 4943, "Äłyours": 4944, "Äłmic": 4945, "Äłmob": 4946, "Äłrise": 4947, "Äłsigna": 4948, "Äłgrowi": 4949, "Äłgrowin": 4950, "Äłdisplay": 4951, "ÄłTre": 4952, "Äłgrowing": 4953, "ÄłBal": 4954, "Äłcarrie": 4955, "Äłthinki": 4956, "Äłthinkin": 4957, "ÄłLeag": 4958, "Äłparts": 4959, "ÄłLeagu": 4960, "ÄłLeague": 4961, "Äłcontinued": 4962, "Äłworr": 4963, "Äłdemonst": 4964, "Äłune": 4965, "Äłdemonstr": 4966, "Äłthinking": 4967, "Äłintellige": 4968, "Äłintelligen": 4969, "Äłdemonstra": 4970, "ÄłJame": 4971, "Äłready": 4972, "ÄłMal": 4973, "Äłrefus": 4974, "Äłcomments": 4975, "Äłcris": 4976, "Äłgat": 4977, "Some": 4978, "Äłcomplai": 4979, "Äłcomplain": 4980, "Äłresearche": 4981, "Äłpurpos": 4982, "Äłmainta": 4983, "ÄłBec": 4984, "Äłmaintai": 4985, "Äłmaintain": 4986, "Äłargum": 4987, "Äłargume": 4988, "Äłargumen": 4989, "Äłargument": 4990, "Äłsle": 4991, "Advertise": 4992, "Äłpurpose": 4993, "Äłbudget": 4994, "Äłposte": 4995, "Äłrob": 4996, "Äłwouldn": 4997, "Äłstrike": 4998, "ÄłDay": 4999, "Äłchoo": 5000, "Äłbeginn": 5001, "ÄłRepublicans": 5002, "ÄłDemocrati": 5003, "Äłpil": 5004, "Äłpurc": 5005, "Äłpurch": 5006, "Äłpurcha": 5007, "Äłarch": 5008, "Äłpurchas": 5009, "Äładvance": 5010, "Äłchoos": 5011, "ÄłDemocratic": 5012, "Äłreta": 5013, "Advertisem": 5014, "Advertiseme": 5015, "Advertisemen": 5016, "Advertisement": 5017, "Äłah": 5018, "Äłhosp": 5019, "Äłdied": 5020, "Äłincreased": 5021, "Äłado": 5022, "Äłhospi": 5023, "Äłreferen": 5024, "ÄłMichae": 5025, "Äłrecom": 5026, "ÄłMichael": 5027, "Äłvoters": 5028, "Äłtreatm": 5029, "Äłtreatme": 5030, "Äłtreatmen": 5031, "Äłachieve": 5032, "Äłtreatment": 5033, "Äłepis": 5034, "Äłrank": 5035, "Äłje": 5036, "Äłrealiz": 5037, "ÄłGener": 5038, "Äłnuc": 5039, "Äłefforts": 5040, "Äłcamer": 5041, "Äłaccom": 5042, "Äłcamera": 5043, "Äłpredic": 5044, "Äłdemonstrat": 5045, "Äłnucl": 5046, "ÄłMis": 5047, "Äłclean": 5048, "Äłplatf": 5049, "Äłpromise": 5050, "Äłplatfo": 5051, "Äłplatfor": 5052, "Äłcalls": 5053, "Äłplatform": 5054, "Äłstructure": 5055, "Äłbio": 5056, "Äłnucle": 5057, "ÄłJames": 5058, "Äłperh": 5059, "Äłperha": 5060, "Äłperhap": 5061, "Äłperhaps": 5062, "Äłalone": 5063, "Äłdecli": 5064, "Äłdeclin": 5065, "Äłitem": 5066, "Äłgenerati": 5067, "Äłguys": 5068, "Äłhospit": 5069, "Äłhospita": 5070, "ÄłVer": 5071, "Äłprinc": 5072, "Äłconfere": 5073, "ÄłCas": 5074, "Äłthu": 5075, "Äłsurprise": 5076, "Äłsubst": 5077, "Äłtowards": 5078, "Äłalth": 5079, "Äłconferen": 5080, "Äłine": 5081, "Äłcritici": 5082, "Äładditiona": 5083, "Äładditional": 5084, "Äłaltho": 5085, "Äłconferenc": 5086, "Äłalthou": 5087, "Äłalthoug": 5088, "Äłalthough": 5089, "Äłusuall": 5090, "Äłusually": 5091, "Äłpassi": 5092, "Äłabus": 5093, "Äłfootb": 5094, "Äłguid": 5095, "Äłbey": 5096, "Äłeffects": 5097, "Äłreality": 5098, "Äłeventu": 5099, "Äłceleb": 5100, "Äłeventua": 5101, "Äłdirectl": 5102, "Äłdirectly": 5103, "Äłconference": 5104, "ÄłNA": 5105, "Äłbeyo": 5106, "ÄłAra": 5107, "Äłbeyon": 5108, "Äłwif": 5109, "Äłbeyond": 5110, "ÄłFirs": 5111, "Äłkids": 5112, "Äłeventual": 5113, "ÄłFirst": 5114, "ÄłGenera": 5115, "Äłfootba": 5116, "Äłfootbal": 5117, "Äłfootball": 5118, "Äłhospital": 5119, "ÄłCro": 5120, "ÄłChine": 5121, "ÄłZe": 5122, "ÄłRos": 5123, "Äłcouldn": 5124, "Äłcast": 5125, "ÄłBas": 5126, "ÄłChines": 5127, "Äł(@": 5128, "ÄłChinese": 5129, "Äłfarm": 5130, "Äłbord": 5131, "Äłzo": 5132, "ÄłMiniste": 5133, "ÄłMinister": 5134, "Äłrestr": 5135, "Äłdoct": 5136, "Äłdog": 5137, "Äłborde": 5138, "Äłdegr": 5139, "ÄłArt": 5140, "ÄłTexas": 5141, "Äłopin": 5142, "Äłborder": 5143, "ÃĤÂ": 5144, "Äłthrougho": 5145, "Äłthroughou": 5146, "Äłincludes": 5147, "Äłthroughout": 5148, "Äłcelebr": 5149, "Äłmile": 5150, "Äłsafet": 5151, "Äłcomplex": 5152, "Äłhelpe": 5153, "Äłmeani": 5154, "Äłimmediatel": 5155, "Äłimmediately": 5156, "Äłmeanin": 5157, "Äłmeaning": 5158, "Äłbom": 5159, "Äłnar": 5160, "Äłrecomm": 5161, "Äłcompr": 5162, "Äłrefl": 5163, "ÄłJusti": 5164, "Äłbomb": 5165, "Äłconcep": 5166, "Äłconcept": 5167, "ÄłHig": 5168, "Äłrepeat": 5169, "Äłven": 5170, "ÄłGol": 5171, "Äłwife": 5172, "Äłepiso": 5173, "Äłepisod": 5174, "Äłrecomme": 5175, "Äłrecommen": 5176, "Äłincome": 5177, "Äłfacil": 5178, "Äłcorpo": 5179, "Äłdise": 5180, "ÄłFed": 5181, "Äłdirecti": 5182, "Äłcorpor": 5183, "Äłrecommend": 5184, "Äłresearcher": 5185, "Äłcorrec": 5186, "Äłesse": 5187, "Äłassociate": 5188, "Äłbooks": 5189, "ÄłJack": 5190, "Äłcorrect": 5191, "Äłgone": 5192, "ÄłMart": 5193, "Äłneighbor": 5194, "ÄłTri": 5195, "Äłcopy": 5196, "Äłpsy": 5197, "Äłinstr": 5198, "ÄłÃ¢Ä¢Â¦": 5199, "Äłahe": 5200, "ÄłUp": 5201, "Äłsafety": 5202, "Äłrefle": 5203, "Äłinstru": 5204, "ÄłII": 5205, "Äłdesigned": 5206, "Äłsoftw": 5207, "ÄłJos": 5208, "Äłcorpora": 5209, "Äłgol": 5210, "Äłfacili": 5211, "Äłende": 5212, "Äłfacilit": 5213, "Äłagency": 5214, "Äłreache": 5215, "Äłsoftwa": 5216, "Äłsoftwar": 5217, "Äłsoftware": 5218, "Äłclassi": 5219, "Äłdive": 5220, "Äłpositiv": 5221, "Äłopini": 5222, "Äłahea": 5223, "Äłahead": 5224, "Äłsurr": 5225, "Äłessen": 5226, "Äłbeginni": 5227, "Äłbeginnin": 5228, "Äłbeginning": 5229, "Äłseparate": 5230, "Äłpsyc": 5231, "Äłtrip": 5232, "ÄłSal": 5233, "ÄłPlay": 5234, "Äłpsych": 5235, "Äłappar": 5236, "ÄłRev": 5237, "Äłopinio": 5238, "Äłopinion": 5239, "Äłministe": 5240, "Äłminister": 5241, "Äłhur": 5242, "Äłepisode": 5243, "Äłmurd": 5244, "Äłmurde": 5245, "Äłmurder": 5246, "Äłblog": 5247, "Äłthousands": 5248, "ÄłChu": 5249, "ÄłSk": 5250, "Äłdy": 5251, "Äłartis": 5252, "Äłtale": 5253, "ÄłRec": 5254, "ÄłApple": 5255, "?\"": 5256, "Äłdecla": 5257, "Äłstyle": 5258, "Äłut": 5259, "ÄłAnge": 5260, "Äłmoved": 5261, "Äłcorporat": 5262, "ÄłHan": 5263, "ÄłRich": 5264, "Äłig": 5265, "Äłmari": 5266, "ÄłAsso": 5267, "Äłpassed": 5268, "ÄłOffice": 5269, "Äłneu": 5270, "Äłappears": 5271, "Äłmissio": 5272, "Äłmission": 5273, "Äłconfid": 5274, "Äłexpos": 5275, "Äłlose": 5276, "Äłdoubl": 5277, "ÄłWillia": 5278, "Äłdistrib": 5279, "Äłdistribu": 5280, "Äłproperty": 5281, "Äłpredict": 5282, "ÄłAssoc": 5283, "Äłsmar": 5284, "Äłinsur": 5285, "Äłnom": 5286, "Äłdistribut": 5287, "Äłagreem": 5288, "Äłagreeme": 5289, "Äłagreemen": 5290, "Äłagreement": 5291, "Äłhelped": 5292, "Äłseni": 5293, "Äłpositive": 5294, "ÄłSim": 5295, "Äłdisap": 5296, "Äłshu": 5297, "Äłfavori": 5298, "ÄłWilliam": 5299, "Äłdisapp": 5300, "ÄłAssoci": 5301, "Äłsmart": 5302, "ÄłAssocia": 5303, "rding": 5304, "Äłdark": 5305, "Äłarrive": 5306, "ÄłAssociat": 5307, "Äłsuppos": 5308, "ÄłThen": 5309, "ÄłSupe": 5310, "Äłnature": 5311, "ÄłDea": 5312, "Äł>": 5313, "Äłsenio": 5314, "Äłsenior": 5315, "Äłena": 5316, "Äłalleged": 5317, "ÄłSuper": 5318, "Äłroll": 5319, "Äłsuit": 5320, "Äłconditions": 5321, "Äłstea": 5322, "Äłshooti": 5323, "ÄłImage": 5324, "Äłshootin": 5325, "Äłsuspec": 5326, "Äłsuspect": 5327, "ÄłRan": 5328, "Äłshooting": 5329, "Äłmovin": 5330, "ÄłKr": 5331, "Äłmoving": 5332, "Äłreasons": 5333, "Äłscal": 5334, "ÄłTea": 5335, "Äłign": 5336, "ÄłInterna": 5337, "Äłtrial": 5338, "ÄłDemocrats": 5339, "ÄłDel": 5340, "Äłsettl": 5341, "ÄłDar": 5342, "Äłenf": 5343, "Äłconven": 5344, "Äłmyse": 5345, "Äłmysel": 5346, "Äłprefe": 5347, "Äłhappy": 5348, "Äłmyself": 5349, "Äłmayb": 5350, "Äłmaybe": 5351, "Äłpowerf": 5352, "Äłpowerfu": 5353, "Äłpowerful": 5354, "ÄłShi": 5355, "Äłnuclea": 5356, "Äłya": 5357, "Äłcool": 5358, "rel": 5359, "Äłsuppose": 5360, "Äłrei": 5361, "Äłovera": 5362, "Äłfaile": 5363, "Äłfailed": 5364, "Äłsecti": 5365, "Äłsectio": 5366, "Äłsection": 5367, "Äłencour": 5368, "ÄłAngel": 5369, "ÄłFren": 5370, "Äłfema": 5371, "Äłencoura": 5372, "Äłencourag": 5373, "Äłfemal": 5374, "ÄłMatt": 5375, "Äłfemale": 5376, "Äłcharacters": 5377, "Äłartist": 5378, "Äłlisten": 5379, "Äłconfide": 5380, "ÄłRobe": 5381, "Äłnuclear": 5382, "Äładver": 5383, "Äłx": 5384, "Äłalb": 5385, "Äłinvestm": 5386, "Äłinvestme": 5387, "Äłinvestmen": 5388, "Äłdeclar": 5389, "Äłinvestment": 5390, "ĻÄ": 5391, "Äłlabo": 5392, "Äłreflec": 5393, "Äłaim": 5394, "Äłreflect": 5395, "Äłreligiou": 5396, "Äłreligious": 5397, "Äłeva": 5398, "Äłtraditiona": 5399, "Äłtraditional": 5400, "ded": 5401, "Äłesc": 5402, "Äłcompared": 5403, "ÄłEngli": 5404, "Äłprofessiona": 5405, "Äłprofessional": 5406, "ÄłEnglis": 5407, "Äłyourse": 5408, "Äłanalysi": 5409, "Äłyoursel": 5410, "ÄłEnglish": 5411, "Äłunco": 5412, "ÄłExp": 5413, "Äłenfo": 5414, "Äłsched": 5415, "Äłlegislati": 5416, "ÄłFree": 5417, "ound": 5418, "ÄłSl": 5419, "Äłfavorit": 5420, "Äłeyes": 5421, "Äłcentury": 5422, "Äłenfor": 5423, "Äłenforc": 5424, "Äłregis": 5425, "Äłschedu": 5426, "Äłschedul": 5427, "ÄłPhot": 5428, "Äłregist": 5429, "Äłlite": 5430, "Äłnice": 5431, "Äłfram": 5432, "ÄłFlor": 5433, "Äłseat": 5434, "Äłshown": 5435, "ÄłPhoto": 5436, "Äłinstit": 5437, "Äłinstitu": 5438, "Äłlimite": 5439, "ÄłHere": 5440, "Äłlarges": 5441, "ÄłFrenc": 5442, "ÄłFrench": 5443, "Äłapa": 5444, "Äłtrus": 5445, "Äłyes": 5446, "ÄłServi": 5447, "ÄłEs": 5448, "ÄłRober": 5449, "ÄłAcco": 5450, "Äładmit": 5451, "Äłerr": 5452, "ÄłUs": 5453, "ÄłAlt": 5454, "Äłinstitut": 5455, "Äłstren": 5456, "Äłtask": 5457, "vel": 5458, "ÄłSmi": 5459, "Äłconfiden": 5460, "ÄłBlo": 5461, "Äłlimited": 5462, "Äłlic": 5463, "ÄłBat": 5464, "Äłagent": 5465, "Äłfavorite": 5466, "Äłnecessary": 5467, "Äłbrand": 5468, "Äłprefer": 5469, "Äłscientis": 5470, "Äłmino": 5471, "ÄłSoci": 5472, "Äłcitizens": 5473, "Äłpermi": 5474, "Äłforced": 5475, "Äłflow": 5476, "Äłconfl": 5477, "Äłtrust": 5478, "Äłscientist": 5479, "Äłexpens": 5480, "Äłsurf": 5481, "Äłactive": 5482, "ÄłGeorge": 5483, "Äłliter": 5484, "Äłminor": 5485, "Äłlargest": 5486, "Äłriv": 5487, "ÄłGO": 5488, "Äłanalysis": 5489, "Äłspendi": 5490, "Äłspendin": 5491, "Äłspending": 5492, "ÄłRobert": 5493, "ÄłChan": 5494, "Äłintroduce": 5495, "den": 5496, "Äłvaria": 5497, "Äłpresidenti": 5498, "Äłtypi": 5499, "Äłnin": 5500, "Äłpresidentia": 5501, "Äłpresidential": 5502, "Äłshop": 5503, "ÄłHigh": 5504, "ÄłMet": 5505, "Äł29": 5506, "ÄłAla": 5507, "Äłconservativ": 5508, "Äłconservative": 5509, "Äłmobi": 5510, "Äławare": 5511, "Äłtee": 5512, "ÄłSpo": 5513, "Äłschools": 5514, "ÄłRese": 5515, "Äłmeant": 5516, "Äłpurchase": 5517, "Äłmobil": 5518, "Äłimpre": 5519, "Äłpeac": 5520, "Äłeventuall": 5521, "Äłeventually": 5522, "Äłstrea": 5523, "ording": 5524, "Äłresol": 5525, "Äłasp": 5526, "ins": 5527, "cording": 5528, "Äł80": 5529, "ÄłTom": 5530, "Äłfollowed": 5531, "Äłille": 5532, "Äłstreng": 5533, "Äłfamilie": 5534, "Äłcentra": 5535, "Äłbrot": 5536, "Äłdraf": 5537, "Äłfamilies": 5538, "Äłilleg": 5539, "Äłdraft": 5540, "Äłcrowd": 5541, "Äłtor": 5542, "Äłcentral": 5543, "Äłstrengt": 5544, "Äłconsti": 5545, "Äłstrength": 5546, "Äłsyn": 5547, "Äłbroth": 5548, "Äłcorn": 5549, "Äłbehavior": 5550, "Äłprint": 5551, "ÄłColo": 5552, "Äłlie": 5553, "ÄłGove": 5554, "Äłdecline": 5555, "ÄłWind": 5556, "Äłindependent": 5557, "Äłric": 5558, "Äłdrin": 5559, "Äłeasil": 5560, "Äłfort": 5561, "ÄłServic": 5562, "Äłsigne": 5563, "Äłeasily": 5564, "Äłdrink": 5565, "Äłama": 5566, "ÄłQue": 5567, "Äłensure": 5568, "Äłautom": 5569, "ÄłGal": 5570, "Äłnomi": 5571, "Äłallows": 5572, "ÄłSci": 5573, "ccording": 5574, "ÄłBrow": 5575, "Äłexpand": 5576, "Äłnomin": 5577, "Äłfru": 5578, "ÄłService": 5579, "Äłexcl": 5580, "Äłgives": 5581, "Äłyourself": 5582, "Äłdigi": 5583, "Äłfeed": 5584, "Äłuniq": 5585, "ÄłÃĲÂ": 5586, "Äłdeveloper": 5587, "Äłactions": 5588, "ÄłCanadi": 5589, "Äłuniqu": 5590, "ÄłOpe": 5591, "Äłunique": 5592, "Äłconstit": 5593, "Äłconstitu": 5594, "Äłconsumer": 5595, "Äłelectri": 5596, "Äłdigit": 5597, "ÄłCharl": 5598, "Äłprinci": 5599, "Äłprincip": 5600, "Äłoveral": 5601, "Äłappare": 5602, "Äłoverall": 5603, "Äłpolici": 5604, "ÄłMex": 5605, "Äłsoli": 5606, "Äłsettle": 5607, "Äłshif": 5608, "Äłshift": 5609, "Äłgeneratio": 5610, "Äłgeneration": 5611, "ÄłAsi": 5612, "Äłconversa": 5613, "ÄłMexi": 5614, "Äłbutt": 5615, "Äłstruggle": 5616, "ÄłChic": 5617, "Äłdouble": 5618, "Äłappeare": 5619, "Äłlitera": 5620, "Äłspre": 5621, "ÄłMexic": 5622, "Äłideas": 5623, "Äłappeared": 5624, "Äłframe": 5625, "Äłemo": 5626, "Äłapar": 5627, "ÄłGover": 5628, "Äłpolitics": 5629, "Äłmale": 5630, "Äłsigned": 5631, "Äłquo": 5632, "ÄłIslami": 5633, "Äłimpres": 5634, "Äłconversat": 5635, "Äłrefo": 5636, "Äłconversati": 5637, "Äłconversatio": 5638, "Äłconversation": 5639, "ÄłMid": 5640, "ÄłGovern": 5641, "Äłdegre": 5642, "Äłweapons": 5643, "Äłidentifi": 5644, "Äłchamp": 5645, "Äłchur": 5646, "Äłfreq": 5647, "ÄłGeneral": 5648, "Äłdegree": 5649, "Äłdecades": 5650, "Äłabuse": 5651, "Äłinstanc": 5652, "Äłinteg": 5653, "Äłfrequ": 5654, "Äłuses": 5655, "Äłfreque": 5656, "Äłfrequen": 5657, "Äłschedule": 5658, "Äłapart": 5659, "Äłdiscussio": 5660, "Äłdiscussion": 5661, "Äłinstance": 5662, "Äłinno": 5663, "Äłimpress": 5664, "Äłmist": 5665, "ÄłInternat": 5666, "ÄłInternati": 5667, "ÄłInternatio": 5668, "ÄłInternation": 5669, "Äłexperim": 5670, "Äłexperime": 5671, "ÄłInternationa": 5672, "Äłexperimen": 5673, "Äłexperiment": 5674, "ÄłInternational": 5675, "Äłdestro": 5676, "ÄłLas": 5677, "Äłrealize": 5678, "Äłdestroy": 5679, "Äłbrothe": 5680, "Äłdisea": 5681, "Äłdiseas": 5682, "Äłdisease": 5683, "Äłtrou": 5684, "ÄłPete": 5685, "Äłpeace": 5686, "Äłfreed": 5687, "Äłbeau": 5688, "Äłenforce": 5689, "Äłamb": 5690, "Äłtrut": 5691, "ÄłSmit": 5692, "Äłcrisi": 5693, "Äłtruth": 5694, "Äłrar": 5695, "Äłcrisis": 5696, "Äłwriter": 5697, "ÄłUnio": 5698, "ÄłUnion": 5699, "Äłjournali": 5700, "ÄłPort": 5701, "According": 5702, "Äłrevo": 5703, "Äłaltern": 5704, "Äłbenefits": 5705, "Äłviola": 5706, "ÄłSchoo": 5707, "Äłdeveloped": 5708, "Äłconfli": 5709, "Äłalterna": 5710, "Äłalternat": 5711, "Äłengage": 5712, "Äłconflic": 5713, "Äłsetti": 5714, "Äłpropose": 5715, "Äłconflict": 5716, "ÄłStan": 5717, "Äłnarr": 5718, "Äłnoted": 5719, "Äłsettin": 5720, "Äłsetting": 5721, "Äłevo": 5722, "ÄłÃĤÂ£": 5723, "Äłrelated": 5724, "Äłhistoric": 5725, "Äłjournalis": 5726, "Äłsales": 5727, "Äłillega": 5728, "Äłgoals": 5729, "Äłillegal": 5730, "mage": 5731, "Äłminim": 5732, "Äłbeaut": 5733, "Äłindividuals": 5734, "Äłconsiste": 5735, "Äłcontinues": 5736, "Äłviolat": 5737, "Äłrefor": 5738, "ÄłSchool": 5739, "ÄłArab": 5740, "Äłconnectio": 5741, "Äłconnection": 5742, "Äłigno": 5743, "ÄłEU": 5744, "ÄłPolice": 5745, "ÄłEart": 5746, "ÄłEarth": 5747, "Äłintelligenc": 5748, "Äłrates": 5749, "Äłintelligence": 5750, "Äłcustomers": 5751, "ÄłRig": 5752, "Äłprojects": 5753, "Äłstraig": 5754, "Äłstraigh": 5755, "Äłelectric": 5756, "Äłstraight": 5757, "ÄłDev": 5758, "Äłreform": 5759, "Äłapparen": 5760, "Äłdrea": 5761, "ÄłSmith": 5762, "Äłapparent": 5763, "Äłexplor": 5764, "ÄłNic": 5765, "ÄłCounc": 5766, "Äłprem": 5767, "ÄłCounci": 5768, "ÄłCentr": 5769, "ÄłCouncil": 5770, "Äłgar": 5771, "Äłlice": 5772, "Äłparticipat": 5773, "Äł31": 5774, "Äłcapab": 5775, "Äłpreviousl": 5776, "Äłoutl": 5777, "Äłpreviously": 5778, "Äłfully": 5779, "Äłlines": 5780, "Äłextend": 5781, "ÄłGermany": 5782, "Äłina": 5783, "Äłignor": 5784, "ÄłMag": 5785, "Äłvet": 5786, "Äładu": 5787, "Äładvant": 5788, "Äładvanta": 5789, "Äładvantag": 5790, "Äłbrother": 5791, "Äłlarger": 5792, "Äładvantage": 5793, "Äłretai": 5794, "Äłspir": 5795, "Äłweeke": 5796, "Äłweeken": 5797, "Äłweekend": 5798, "Äłplease": 5799, "Äłclearl": 5800, "Äłhighly": 5801, "Äłvicto": 5802, "Äłclearly": 5803, "Äładul": 5804, "Äłvictor": 5805, "ÄłMad": 5806, "ÄłThom": 5807, "Äłjum": 5808, "ÄłPac": 5809, "Äłtransi": 5810, "Äłlicen": 5811, "Äłseeme": 5812, "ÄłCanadia": 5813, "ÄłCanadian": 5814, "Äłseemed": 5815, "ÄłThr": 5816, "ÄłStev": 5817, "Äłunli": 5818, "Äłknowl": 5819, "Äłhyp": 5820, "Äłknowle": 5821, "Äłwish": 5822, "Äłknowled": 5823, "Äłprepare": 5824, "Äłknowledg": 5825, "Äłprimary": 5826, "Äłdai": 5827, "Äłgreen": 5828, "Äłtraf": 5829, "Äłwarm": 5830, "ÄłLat": 5831, "ÄłOv": 5832, "Äłdepartm": 5833, "Äłdepartme": 5834, "Äłdepartmen": 5835, "Äłdepartment": 5836, "Äłulti": 5837, "ÄłTurk": 5838, "ÄłMod": 5839, "like": 5840, "Äłknowledge": 5841, "Äłattra": 5842, "Äłexclu": 5843, "Äłsprea": 5844, "Äłspread": 5845, "Äłdau": 5846, "Äłrecogniz": 5847, "Äłtraff": 5848, "Äłultim": 5849, "Äłtraffi": 5850, "Äłtraffic": 5851, "Äładult": 5852, "Äłcritica": 5853, "Äłattrac": 5854, "Äłattract": 5855, "Äłdocto": 5856, "Äłdoctor": 5857, "Äłcritical": 5858, "Äłresources": 5859, "Äłprograms": 5860, "Äłchoose": 5861, "Äłdoubt": 5862, "ÄłReg": 5863, "Äłreached": 5864, "Äłgreater": 5865, "Äłultima": 5866, "Äłkep": 5867, "Äłultimat": 5868, "Äłexch": 5869, "Äłweight": 5870, "Äłchair": 5871, "Äłemot": 5872, "Äłaccuse": 5873, "Äłprogramm": 5874, "Äłkept": 5875, "Äłessent": 5876, "Äłessenti": 5877, "Äłessentia": 5878, "Äłessential": 5879, "Äłhid": 5880, "ÄłAre": 5881, "Äłaudie": 5882, "Äłaudien": 5883, "Äłaudienc": 5884, "Äłrare": 5885, "Äłaudience": 5886, "ÄłInterne": 5887, "ÄłDef": 5888, "Äłstab": 5889, "Äłslee": 5890, "Äłtan": 5891, "Äłexcha": 5892, "Äłexchan": 5893, "ÄłJohns": 5894, "Äłexchang": 5895, "ÄłInternet": 5896, "Äłfeet": 5897, "Äłannu": 5898, "ÄłMik": 5899, "Äłstudies": 5900, "Äłplaces": 5901, "Äłteache": 5902, "Äłabsol": 5903, "ÄłLos": 5904, "Äłeth": 5905, "Äłmanuf": 5906, "Äłtypic": 5907, "Äłmanufa": 5908, "Äłtypica": 5909, "Äłmanufac": 5910, "Äłtypical": 5911, "Äłmanufact": 5912, "Äłemoti": 5913, "ÄłBrown": 5914, "Äłbala": 5915, "Äłmanufactu": 5916, "ÄłColle": 5917, "Äłmanufactur": 5918, "Äłmec": 5919, "Äłinspi": 5920, "Äłinspir": 5921, "Äłhandle": 5922, "Äłagg": 5923, "Äłcalli": 5924, "Äłstatus": 5925, "Äłprose": 5926, "Äłknows": 5927, "Äłhai": 5928, "ÄłNu": 5929, "ÄłMer": 5930, "Äłchurc": 5931, "Äłchurch": 5932, "Äłweak": 5933, "Äłjump": 5934, "Äłfighti": 5935, "Äłfightin": 5936, "Äłmassi": 5937, "Äłsources": 5938, "ÄłLou": 5939, "Äłfighting": 5940, "Äłbalan": 5941, "ÄłSteve": 5942, "ÄłWell": 5943, "Äłbalanc": 5944, "Äładvis": 5945, "Äłlaunche": 5946, "ÄłEle": 5947, "Äłdebt": 5948, "ÄłBlu": 5949, "Äłactivity": 5950, "ÄłScie": 5951, "ÄłScien": 5952, "Äłowners": 5953, "ÄłBoo": 5954, "Äłaggr": 5955, "ÄłAma": 5956, "Äłultimate": 5957, "Äłcab": 5958, "Äłkic": 5959, "Äłoptions": 5960, "Äłkick": 5961, "ÄłLet": 5962, "ÄłFlori": 5963, "Äłsupporter": 5964, "Äłovers": 5965, "Äłcompli": 5966, "Äłcaused": 5967, "Äłmech": 5968, "ÄłAge": 5969, "Äłmassiv": 5970, "Äłmassive": 5971, "Äłclaime": 5972, "Äłvarie": 5973, "Äłclaimed": 5974, "Äłpou": 5975, "Äłended": 5976, "Äłabsolu": 5977, "Äłcitie": 5978, "ÄłNF": 5979, "Äłcities": 5980, "Äłcallin": 5981, "Äłtwee": 5982, "Äłabsolut": 5983, "Äłcalling": 5984, "Äłemotio": 5985, "Äłemotion": 5986, "ÄłCham": 5987, "ÄłGold": 5988, "Äłstopp": 5989, "Äł2007": 5990, "ÄłVan": 5991, "Äł70": 5992, "Äłenem": 5993, "ÄłScott": 5994, "Äłolde": 5995, "ÄłLiv": 5996, "ÄłPale": 5997, "Äłintegr": 5998, "ÄłSecu": 5999, "Äłdirectio": 6000, "Äłdirection": 6001, "Äłsente": 6002, "ÄłFrom": 6003, "Äłappeal": 6004, "ÄłLabo": 6005, "Äłsurfa": 6006, "Äłsenten": 6007, "Äłpitc": 6008, "Äłsurfac": 6009, "Äłpitch": 6010, "Äłcyc": 6011, "ÄłFrance": 6012, "Äłsun": 6013, "Äłfue": 6014, "Äłmoun": 6015, "ÄłEvery": 6016, "ÄłGua": 6017, "Äłwilli": 6018, "Äłsentenc": 6019, "Äłcycl": 6020, "Äłmiles": 6021, "Äłhaven": 6022, "Äłworse": 6023, "ÄłSur": 6024, "Äłhappens": 6025, "ÄłEngla": 6026, "ÄłHeal": 6027, "ÄłEnglan": 6028, "Äłshut": 6029, "Äłaid": 6030, "ÄłEngland": 6031, "ÄłFina": 6032, "Äłresearchers": 6033, "Äłexchange": 6034, "Äłbirt": 6035, "100": 6036, "Äłbirth": 6037, "Äłshap": 6038, "Äłdisti": 6039, "ÄłInsti": 6040, "Äłwillin": 6041, "Äłprices": 6042, "Äłwilling": 6043, "ÄłDen": 6044, "Äłcaptu": 6045, "Äłcaptur": 6046, "Äłchampi": 6047, "Äłnames": 6048, "Äłtelev": 6049, "Äłintent": 6050, "ÄłAsia": 6051, "Äłstoc": 6052, "Äłbull": 6053, "Äłsubm": 6054, "Äłvirt": 6055, "Äłchampio": 6056, "ÄłKn": 6057, "Äłchampion": 6058, "Äłemployees": 6059, "Äłcreatin": 6060, "ÄłCE": 6061, "Äłinstituti": 6062, "Äładdin": 6063, "Äł35": 6064, "ÄłCri": 6065, "Äładding": 6066, "Äłanyw": 6067, "Äłvirtu": 6068, "Äłabsolute": 6069, "ÄłTran": 6070, "Äłslig": 6071, "Äłsligh": 6072, "Äłsupposed": 6073, "Äłmarria": 6074, "Äłmarriag": 6075, "Äłmarriage": 6076, "Äłcommunicati": 6077, "Äłslight": 6078, "Äłgrand": 6079, "Äłbarr": 6080, "ÄłVir": 6081, "Äłpolicie": 6082, "Äłtelevi": 6083, "ÄłNB": 6084, "Äłpolicies": 6085, "Äłinvi": 6086, "Äłsurface": 6087, "Äłalbu": 6088, "Äłreporter": 6089, "Äłdiver": 6090, "Äłtelevis": 6091, "Äłraised": 6092, "Äłrej": 6093, "Äłalbum": 6094, "Äłunp": 6095, "ÄłFlorid": 6096, "Äłerro": 6097, "Äłwindo": 6098, "Äłrecov": 6099, "Äłrecove": 6100, "Äłwindow": 6101, "Äłrecover": 6102, "Äłstock": 6103, "ÄłDir": 6104, "Äłcharges": 6105, "Äłconcerns": 6106, "Äłtweet": 6107, "ÄłAccor": 6108, "ÄłInc": 6109, "ÄłBay": 6110, "Äłvil": 6111, "ÄłCle": 6112, "Äłlearne": 6113, "Äłfly": 6114, "Äłacq": 6115, "Äłacqu": 6116, "Äłopene": 6117, "Äłcreating": 6118, "ÄłAccord": 6119, "Äłfundi": 6120, "Äłinstitutio": 6121, "Äłdemoc": 6122, "Äłinstitution": 6123, "ÄłInstit": 6124, "ÄłInstitu": 6125, "Äłpatients": 6126, "Äłannua": 6127, "łÂ": 6128, "Äłfundin": 6129, "Äłfunding": 6130, "Äłannual": 6131, "ÄłDra": 6132, "Äłmecha": 6133, "Äłboun": 6134, "ÄłSecur": 6135, "ÄłInstitut": 6136, "Äłdemocr": 6137, "Äłfuel": 6138, "Äłdomi": 6139, "Äłauthoriti": 6140, "Äłder": 6141, "Äłtree": 6142, "Äłauthoritie": 6143, "Äłauthorities": 6144, "Äłmenta": 6145, "Äłdemocra": 6146, "Äłunio": 6147, "Äłunion": 6148, "Äłfreedo": 6149, "Äłfreedom": 6150, "Äłseei": 6151, "Äłseein": 6152, "ÄłRoc": 6153, ".Ã¢Ä¢Ä»": 6154, "Äłmental": 6155, "Äłcommer": 6156, "Äłgrant": 6157, "ÄłRigh": 6158, "Äłseeing": 6159, "Äłnega": 6160, "Äłpacka": 6161, "Äłrevol": 6162, "Äłdeni": 6163, "ÄłPeo": 6164, "ÄłRight": 6165, "Äłcommerc": 6166, "Äłpackag": 6167, "Äłnegat": 6168, "Äłguide": 6169, "Äłindicate": 6170, "ÄłAP": 6171, "ÄłWall": 6172, "Äłrefuse": 6173, "ÄłCO": 6174, "Äłactivis": 6175, "Äłleavi": 6176, "Äłleavin": 6177, "Äłcry": 6178, "Äłwag": 6179, "Äłleaving": 6180, "ÄłMarti": 6181, "ling": 6182, "Äłmechan": 6183, "Äłdomin": 6184, "cke": 6185, "ÄłSecr": 6186, "Äłheari": 6187, "Äłhearin": 6188, "Äłeasie": 6189, "Äłhearing": 6190, "ÄłSecre": 6191, "ÄłMedic": 6192, "Äłdaug": 6193, "Äłcelebra": 6194, "Äłdaugh": 6195, "Äłtempe": 6196, "Äłmicr": 6197, "Äłdaught": 6198, "ÄłVic": 6199, "ÄłFlorida": 6200, "Äłmechani": 6201, "Äłdaughte": 6202, "Äłdaughter": 6203, "Äłmicro": 6204, "Äłtroub": 6205, "Äłconsisten": 6206, "Äłnine": 6207, "Äłgold": 6208, "¯Â": 6209, "ÄłLaw": 6210, "Äłtroubl": 6211, "Äł90": 6212, "Äłserver": 6213, "Äłevol": 6214, "ÄłBit": 6215, "Äłtransit": 6216, "Äłcelebrat": 6217, "ĺÂ": 6218, "Äłoppon": 6219, "Äłpatt": 6220, "Äłoppone": 6221, "Äłopponen": 6222, "Äłcatc": 6223, "Äłopponent": 6224, "Äłarra": 6225, "ÄłSn": 6226, "Äłoffere": 6227, "Äłenginee": 6228, "Äłengineer": 6229, "ÄłSecret": 6230, "Äłoffered": 6231, "ÄłPeop": 6232, "ÄłPeopl": 6233, "ÄłMost": 6234, "ÄłPeople": 6235, "¥Ä": 6236, "£Â": 6237, "ÄłHilla": 6238, "Äłautoma": 6239, "Äłdefine": 6240, "ÄłÃĥ": 6241, "Äłgrap": 6242, "Äłthreate": 6243, "ÄłCommit": 6244, "Äłthreaten": 6245, "Äłreti": 6246, "Äłlock": 6247, "ÄłHillar": 6248, "Äłlibera": 6249, "Äłcatch": 6250, "Äłvac": 6251, "ÄłGran": 6252, "ÄłHillary": 6253, "Äłprosec": 6254, "Äłreveale": 6255, "Äłsubsta": 6256, "Äłharm": 6257, "Äłrevealed": 6258, "Äłposted": 6259, "Äłprosecu": 6260, "Äłprosecut": 6261, "Äładop": 6262, "Äłtemper": 6263, "Äłinh": 6264, "Äładopt": 6265, "Äłesca": 6266, "Äłanc": 6267, "Äłvalues": 6268, "ÄłBos": 6269, "ÄłRy": 6270, "ÄłTer": 6271, "Äłwhom": 6272, "Äłuniversi": 6273, "Äłblue": 6274, "ÄłChica": 6275, "ÄłStor": 6276, "ÄłAccordi": 6277, "Äłmostl": 6278, "Äłuniversit": 6279, "Äłmostly": 6280, "Äłpartie": 6281, "Äłheat": 6282, "ÄłAccordin": 6283, "Äłintera": 6284, "Äłinfr": 6285, "ÄłAccording": 6286, "Äłdigita": 6287, "ÄłPeter": 6288, "Äłbrie": 6289, "Äłdigital": 6290, "Äłetc": 6291, "Äłopeni": 6292, "Äłcommittee": 6293, "Äłopenin": 6294, "Äłopening": 6295, "Äłble": 6296, "ÄłAlex": 6297, "Äłwav": 6298, "Äładj": 6299, "Äłbrief": 6300, "Äłclie": 6301, "Äłclien": 6302, "Äłbelieved": 6303, "Äłclient": 6304, "ÄłTrans": 6305, "Äłsubstan": 6306, "Äłaccomp": 6307, "Äłstrategy": 6308, "Äłtic": 6309, "Äłrecords": 6310, "Äłlearned": 6311, "Äłshel": 6312, "ÄłIsraeli": 6313, "ÄłMont": 6314, "Äłwhate": 6315, "Äłwhatev": 6316, "Äłfloor": 6317, "Äłtransfe": 6318, "Äłscale": 6319, "Äłarreste": 6320, "Äłwhateve": 6321, "Äłwhatever": 6322, "ÄłCommitt": 6323, "Äłlawy": 6324, "Äłchea": 6325, "Äłlawye": 6326, "Äłlawyer": 6327, "Äłreferenc": 6328, "ÄłChicag": 6329, "ÄłChicago": 6330, "ÄłCommitte": 6331, "Äłinterac": 6332, "Äłcars": 6333, "500": 6334, "Äłinteract": 6335, "Äłmine": 6336, "Äłshowi": 6337, "ÄłBank": 6338, "ÄłVie": 6339, "Äłshowin": 6340, "Äłguard": 6341, "ÄłMiss": 6342, "Äłedito": 6343, "Äłmount": 6344, "Äłdista": 6345, "Äłeditor": 6346, "Äłshowing": 6347, "ÄłMill": 6348, "Äłintend": 6349, "ÄłOve": 6350, "ÄłIta": 6351, "Äłresta": 6352, "Äłsurro": 6353, "ĦÄ": 6354, "Äłtransfer": 6355, "ÄłSecuri": 6356, "Äłrepresenta": 6357, "Äłparties": 6358, "ÄłBush": 6359, "Äłwild": 6360, "Äłsomew": 6361, "Äłarrested": 6362, "Äłdram": 6363, "Äłdese": 6364, "ÄłGet": 6365, "ÄłCommittee": 6366, "Äłdevices": 6367, "Äłnegati": 6368, "Äłnego": 6369, "Äłpet": 6370, "Äłcate": 6371, "Äłbalance": 6372, "Äłremi": 6373, "Äłquot": 6374, "Äłtoug": 6375, "Äłtough": 6376, "Äłride": 6377, "Äłsomewh": 6378, "Äłassau": 6379, "Äłassaul": 6380, "Äłassault": 6381, "Äłpatte": 6382, "Äłbrow": 6383, "Äłdesir": 6384, "Äłtick": 6385, "Äłerror": 6386, "ÄłOh": 6387, "ÄłSecurit": 6388, "Äłrepresentat": 6389, "ÄłWeste": 6390, "Äłrepresentati": 6391, "wever": 6392, "owever": 6393, "Äłpha": 6394, "Äłreven": 6395, "ÄłDur": 6396, "Äłaski": 6397, "Äłaskin": 6398, "Äłresponsibl": 6399, "Äłasking": 6400, "Äłnegot": 6401, "ÄłCoo": 6402, "ÄłWester": 6403, "Äłnegoti": 6404, "Äłsna": 6405, "Äłfocuse": 6406, "Äłnegotia": 6407, "Äłstran": 6408, "Äłdrama": 6409, "rec": 6410, "Äłurg": 6411, "ÄłMoo": 6412, "ÄłStud": 6413, "Äłoppositi": 6414, "Äłstream": 6415, "Äłoppositio": 6416, "Äłopposition": 6417, "Äłprovides": 6418, "ÄłYea": 6419, "ÄłHarr": 6420, "Äłproduced": 6421, "Äłconfirme": 6422, "Äłdropp": 6423, "ÄłThan": 6424, "Äłproposa": 6425, "Äłhate": 6426, "Äłont": 6427, "Äłproposal": 6428, "Äłconfirmed": 6429, "ÄłAnn": 6430, "Äłoperations": 6431, "Äłimages": 6432, "Äłconstructi": 6433, "ÄłPress": 6434, "Äłgradu": 6435, "¥Â": 6436, "Äłcontroll": 6437, "ÄłFranci": 6438, "Äłnegotiat": 6439, "Äłpatter": 6440, "ÄłAut": 6441, "Äłgradua": 6442, "Äłsamp": 6443, "Äłprofit": 6444, "ÄłCommis": 6445, "Äłdomina": 6446, "Äłdream": 6447, "Äłresidents": 6448, "Äłsampl": 6449, "Äłruns": 6450, "Äłrecr": 6451, "Äłbab": 6452, "ÄłCommiss": 6453, "ÄłShar": 6454, "ÄłHealt": 6455, "Äłdistric": 6456, "Äłdistrict": 6457, "ÄłHealth": 6458, "Äłburn": 6459, "ÄłItal": 6460, "Äłpattern": 6461, "Äłconsta": 6462, "Äłencourage": 6463, "However": 6464, "Äłextens": 6465, "Äłpreci": 6466, "ÄłiP": 6467, "Äłenab": 6468, "Äłsoldi": 6469, "Äłenabl": 6470, "Äłshape": 6471, "Äłsmalle": 6472, "Äłlicens": 6473, "Äł195": 6474, "Äławard": 6475, "Äłsoldie": 6476, "Äłsoldier": 6477, "Äłnegativ": 6478, "ÄłMicr": 6479, "ÄłPan": 6480, "Äłcore": 6481, "wing": 6482, "Äłpremi": 6483, "Äłprotectio": 6484, "Äłprotection": 6485, "Äłextensi": 6486, "Äłhero": 6487, "ÄłPub": 6488, "Äł32": 6489, "ÄłMicro": 6490, "inte": 6491, "ÄłCommissi": 6492, "ÄłCommissio": 6493, "ÄłCommission": 6494, "Äłteacher": 6495, "Äłtelevisi": 6496, "Äłborn": 6497, "ÄłJustic": 6498, "ÄłFrancis": 6499, "Äłonto": 6500, "Äłpair": 6501, "Äłcoal": 6502, "ÄłWhy": 6503, "Äłdistin": 6504, "Äłcompetitio": 6505, "Äłcompetition": 6506, "ÄłFoun": 6507, "Äłtelevisio": 6508, "Äłtelevision": 6509, "Äłath": 6510, "Äłtap": 6511, "Äłspiri": 6512, "Äłcorne": 6513, "Äładvo": 6514, "Äłspirit": 6515, "ÄłJustice": 6516, "Äłdiscr": 6517, "ÄłOth": 6518, "Äładvoc": 6519, "Äładvoca": 6520, "Äł194": 6521, "Äłnov": 6522, "Äłflu": 6523, "Äłdollars": 6524, "Äłcivili": 6525, "Äłvill": 6526, "Äłappeara": 6527, "Äłappearan": 6528, "Äłappearanc": 6529, "Äłappearance": 6530, "ÄłOver": 6531, "ÄłPales": 6532, "Äłinfe": 6533, "ÄłPalest": 6534, "ÄłCup": 6535, "ving": 6536, "Äłintereste": 6537, "Äłmista": 6538, "Äłinterested": 6539, "ÄłPalesti": 6540, "Äłlearni": 6541, "Äłlearnin": 6542, "ÄłPalestin": 6543, "Äłlearning": 6544, "Äłcapture": 6545, "Äłmistak": 6546, "Äłexer": 6547, "Äłdail": 6548, "ini": 6549, "ÄłHom": 6550, "Äłsentence": 6551, "Äłpaint": 6552, "Äłtalen": 6553, "Äłrew": 6554, "ÄłOthe": 6555, "Äłtalent": 6556, "ÄłBeca": 6557, "Äłhighes": 6558, "Äłhighest": 6559, "alle": 6560, "Äłcommunicatio": 6561, "Äłcommunication": 6562, "Äłtren": 6563, "ÄłSon": 6564, "Äłresponsible": 6565, "Äłeffi": 6566, "Äłbear": 6567, "Äłacqui": 6568, "Äłunr": 6569, "Äłradio": 6570, "ÄłHen": 6571, "Äłyar": 6572, "ÄłCoa": 6573, "Äłdistan": 6574, "Äłoffers": 6575, "Äłfish": 6576, "ÄłWindo": 6577, "Äłrestri": 6578, "reat": 6579, "Äłdefinite": 6580, "Äłgenerate": 6581, "Äłformat": 6582, "Äłvilla": 6583, "Äłrestric": 6584, "ÄłWindow": 6585, "Äłagreed": 6586, "ÄłOther": 6587, "ÄłEc": 6588, "Äłrestrict": 6589, "Äłmemory": 6590, "ÄłFede": 6591, "Äłoppose": 6592, "Äłautomat": 6593, "ÄłOur": 6594, "Äłdaily": 6595, "Äłexplaine": 6596, "Äłreference": 6597, "ÄłLibe": 6598, "Äłroute": 6599, "ÄłHel": 6600, "ÄłEdi": 6601, "Äłalternati": 6602, "ÄłInf": 6603, "Äłocca": 6604, "Äłhone": 6605, "Äłrecognize": 6606, "ÄłWestern": 6607, "Äłoccas": 6608, "Äłmistake": 6609, "Äłcorner": 6610, "Äłsurg": 6611, "Äł;": 6612, "Äłtypes": 6613, "ÄłCaro": 6614, "Äłterrorist": 6615, "Äłflig": 6616, "Äłfligh": 6617, "Äłflight": 6618, "Äłgath": 6619, "Äłregulati": 6620, "ÄłArc": 6621, "Äłprosp": 6622, "Äłprospe": 6623, "Äłgathe": 6624, "Äłgather": 6625, "Äłobserve": 6626, "Äłchem": 6627, "Äłfounde": 6628, "Äłoccasi": 6629, "Äłoccasio": 6630, "Äłoccasion": 6631, "Äłsurvey": 6632, "ÄłFeder": 6633, "ÄłLiber": 6634, "ÄłBecau": 6635, "ÄłBecaus": 6636, "ÄłBecause": 6637, "Äłconstan": 6638, "Äłscar": 6639, "Äłtheory": 6640, "Äłbasis": 6641, "Äłmillions": 6642, "Äłhir": 6643, "Äłmora": 6644, "Äłheavy": 6645, "Äłice": 6646, "Äłgenerall": 6647, "Äłexplained": 6648, "Äłgenerally": 6649, "Äłoccurr": 6650, "Äłunderstandi": 6651, "Äłunderstandin": 6652, "Äłunderstanding": 6653, "Äłreca": 6654, "Äłobt": 6655, "Thes": 6656, "Äłaggre": 6657, "hing": 6658, "Äłproposed": 6659, "Äłpossibi": 6660, "Äłconstant": 6661, "ÄłSande": 6662, "Äłpossibil": 6663, "Äłequip": 6664, "Äłeffic": 6665, "ÄłAtt": 6666, "Äłpurs": 6667, "ÄłFound": 6668, "These": 6669, "Äłlabor": 6670, "Äłdetec": 6671, "Äłdefea": 6672, "Äłdetect": 6673, "ÄłMike": 6674, "Äłpossibili": 6675, "Äłreacti": 6676, "Äłdefeat": 6677, "Äłcommerci": 6678, "Äłdeser": 6679, "Äłcommercia": 6680, "Äłcommercial": 6681, "Äłnegative": 6682, "Äłspri": 6683, "Äłpossibilit": 6684, "ÄłAdd": 6685, "Äłpin": 6686, "Äłplanet": 6687, "Äłtempera": 6688, "ÄłSpi": 6689, "ÄłInstitute": 6690, "ÄłFar": 6691, "ÄłGrea": 6692, "Äłsleep": 6693, "ÄłWeb": 6694, "ÄłMartin": 6695, "ÄłGrou": 6696, "Äłreje": 6697, "Äłfailu": 6698, "Äłfailur": 6699, "Äłfailure": 6700, "Äłchos": 6701, "Äładvert": 6702, "Äłstic": 6703, "Äłrejec": 6704, "Äłreject": 6705, "ÄłJohnso": 6706, "ÄłJohnson": 6707, "ÄłNFL": 6708, "Äłchose": 6709, "Äłwave": 6710, "Äłidentifie": 6711, "Äłstick": 6712, "ÄłFB": 6713, "Äłrich": 6714, "Äłbecomes": 6715, "Äłretir": 6716, "Äłpartners": 6717, "Äłspl": 6718, "ÄłBru": 6719, "ÄłMai": 6720, "Äłgay": 6721, "Äłassociated": 6722, "ÄłTy": 6723, "ÄłPatr": 6724, "ÄłHum": 6725, "Äłload": 6726, "Äłera": 6727, "Äłhundreds": 6728, "Äłfals": 6729, "ÄłHun": 6730, "Äłhus": 6731, "Äłopened": 6732, "Äłresis": 6733, "ÄłDire": 6734, "ÄłSol": 6735, "Äłresist": 6736, "Äłsurrou": 6737, "Äłsurroun": 6738, "Äłsurround": 6739, "Äłdangero": 6740, "Äłdangerou": 6741, "Äłdangerous": 6742, "Äłcomf": 6743, "Äłidentit": 6744, "Äłcombine": 6745, "Äłvs": 6746, "ÄłSander": 6747, "ÃĥÄ": 12029, "over": 6749, "ÄłSecurity": 6750, "Äłfres": 6751, "ÄłHall": 6752, "ÄłAndre": 6753, "Äłobta": 6754, "Äłobtai": 6755, "Äłobtain": 6756, "Äłmanagem": 6757, "Äłmanageme": 6758, "Äłmanagemen": 6759, "Äłmanagement": 6760, "ÄłBig": 6761, "Äłreturne": 6762, "Äłkilli": 6763, "Äłactivist": 6764, "Äłpolitici": 6765, "Äłremar": 6766, "Äłkillin": 6767, "Äłphotog": 6768, "Äłsolid": 6769, "Äłwinni": 6770, "Äłwinnin": 6771, "Äłwinning": 6772, "Äłmoni": 6773, "Äłkilling": 6774, "Äłapply": 6775, "Äłtranspo": 6776, "Äłpackage": 6777, "Äłcontrov": 6778, "Äłcontrove": 6779, "Äłcontrover": 6780, "Äłassista": 6781, "Äłassistan": 6782, "Äłeasier": 6783, "Äłunlik": 6784, "Äłlegislatio": 6785, "Äłlegislation": 6786, "Äłros": 6787, "Äłspecie": 6788, "Äłcontrovers": 6789, "Äłhorr": 6790, "ÄłZa": 6791, "ÄłCommu": 6792, "Äłcong": 6793, "Äłclic": 6794, "Äłputt": 6795, "Äłreferr": 6796, "Äłbecomi": 6797, "Äłbecomin": 6798, "ÄłCarol": 6799, "Äłbecoming": 6800, "Äłreade": 6801, "Äłthus": 6802, "Äłaccused": 6803, "Äłbeer": 6804, "ÄłWindows": 6805, "ÄłSinc": 6806, "Äłreader": 6807, "Äłamaz": 6808, "Äłunlike": 6809, "Äłphotogr": 6810, "Äłphotogra": 6811, "Äłspecies": 6812, "ÄłUk": 6813, "Äłalternativ": 6814, "Äłfinishe": 6815, "Äłwage": 6816, "Äłjustic": 6817, "Äłinterne": 6818, "Äłalternative": 6819, "ÄłGreat": 6820, "ÄłSanders": 6821, "Äłphotograp": 6822, "ÄłMany": 6823, "Äłphotograph": 6824, "Äłjustice": 6825, "________": 6826, "Äłcomfo": 6827, "Äłcomfor": 6828, "Äłcomfort": 6829, "Äłfresh": 6830, "!!": 6831, "Äłyard": 6832, "ÄłDirec": 6833, "Äłconstitut": 6834, "Äłweal": 6835, "ÄłLik": 6836, "Äłwealt": 6837, "Äłwealth": 6838, "lon": 6839, "Äłserved": 6840, "ÄłJes": 6841, "Äłwes": 6842, "ÄłPlan": 6843, "Äłbelief": 6844, "des": 6845, "ÄłCommun": 6846, "Äłshared": 6847, "ÄłKar": 6848, "Äłelectro": 6849, "Äłfait": 6850, "Äłwest": 6851, "Äłscan": 6852, "Äłextremel": 6853, "Äłextremely": 6854, "Äłatto": 6855, "Äłbotto": 6856, "Äłscientists": 6857, "Äłdocuments": 6858, "Äłbottom": 6859, "Äłattor": 6860, "Äłattorn": 6861, "Äłbed": 6862, "Äłattorne": 6863, "Äłattorney": 6864, "Äłtrouble": 6865, "Äłast": 6866, "ÄłWr": 6867, "ÄłJoe": 6868, "ÄłIslamic": 6869, "Äłincred": 6870, "Äłvictims": 6871, "Äł2006": 6872, "Äłremark": 6873, "Äłhono": 6874, "ÄłChur": 6875, "Äłreturned": 6876, "Äłmarij": 6877, "Äłarchi": 6878, "Äłmariju": 6879, "Äłflag": 6880, "Äłmarijua": 6881, "Äłmarijuan": 6882, "Äłmarijuana": 6883, "ÄłFla": 6884, "ÄłKh": 6885, "Äłjournalist": 6886, "Äłfaste": 6887, "Äłmobile": 6888, "Äłcash": 6889, "Äłpaym": 6890, "Äłreser": 6891, "ÄłYour": 6892, "Äłexisti": 6893, "Äłreserv": 6894, "Äłprovin": 6895, "ÄłDist": 6896, "ÄłTec": 6897, "Äłexistin": 6898, "Äłexisting": 6899, "Äłcommuniti": 6900, "Äłcommunitie": 6901, "Äłcommunities": 6902, "Äłholdi": 6903, "Äłholdin": 6904, "Äłpayme": 6905, "Äłpaymen": 6906, "Äłpayment": 6907, "Äłmast": 6908, "Äłnove": 6909, "Äłvictory": 6910, "Äłholding": 6911, "Äłleadersh": 6912, "Äłleadershi": 6913, "Äłleadership": 6914, "ÄłAve": 6915, "Äłwatchi": 6916, "Äłtranspor": 6917, "Äłwatchin": 6918, "Äłtransport": 6919, "Äłcovera": 6920, "ÄłDirect": 6921, "Äłwatching": 6922, "ÄłPrim": 6923, "Äłinternet": 6924, "Äłputti": 6925, "Äłfaith": 6926, "Äłshoc": 6927, "Äłputtin": 6928, "Äłswit": 6929, "Äładverti": 6930, "ÄłCommuni": 6931, "Ame": 6932, "Äłputting": 6933, "Äłshock": 6934, "Äłsignal": 6935, "Äłnotes": 6936, "Äłimagine": 6937, "Äłswitc": 6938, "Äłswitch": 6939, "Äłhair": 6940, "ÄłKan": 6941, "Äłnone": 6942, "Äłcontribute": 6943, "Äłcoverag": 6944, "Äłcoverage": 6945, "Äładvertis": 6946, "rge": 6947, "ÄłChurc": 6948, "ÄłChurch": 6949, "ÄłAfrican": 6950, "Äłnovel": 6951, "ÄłPow": 6952, "Äłexiste": 6953, "Äłdism": 6954, "Äłswa": 6955, "ÄłFoo": 6956, "Äłpane": 6957, "ÄłFedera": 6958, "Äłzon": 6959, "ÄłLike": 6960, "ÄłRiv": 6961, "Äłbackg": 6962, "Äłsac": 6963, "ÄłBrita": 6964, "Äłrelie": 6965, "Äłdefinitel": 6966, "but": 6967, "Äłdefinitely": 6968, "Äłpromote": 6969, "ÄłLeg": 6970, "Äłcollectio": 6971, "Äłcollection": 6972, "ÄłPM": 6973, "Äłposse": 6974, "ÄłAM": 6975, "Image": 6976, "Äłconsistent": 6977, "Äłtemperat": 6978, "Äłviews": 6979, "Äłmoral": 6980, "ÄłSau": 6981, "Äłbackgr": 6982, "Äłbun": 6983, "Äłbackgro": 6984, "Äłbackgrou": 6985, "Äłbackgroun": 6986, "Äłbackground": 6987, "Äłdrugs": 6988, "Äłalli": 6989, "ÄłThank": 6990, "Äłresponde": 6991, "ÄłTHE": 6992, "Äłsprin": 6993, "Äłimpe": 6994, "Äłpsycho": 6995, "Äłsample": 6996, "Äłregulatio": 6997, "Äłregulation": 6998, "Äłhac": 6999, "ÄłCra": 7000, "Äłlaunched": 7001, "ÄłFox": 7002, "ÄłPubl": 7003, "ÄłRock": 7004, "Äłsupporters": 7005, "Äłissued": 7006, "Äłincredi": 7007, "ÄłPubli": 7008, "Äłincredib": 7009, "Äłrepeate": 7010, "Äłtrend": 7011, "Åģ": 7012, "Äłincredibl": 7013, "Ã¢Ä¢Â¢": 7014, "Äłses": 7015, "Äłdesire": 7016, "Äłplays": 7017, "ÄłEg": 7018, "ÄłTal": 7019, "Äłinterf": 7020, "Äłfran": 7021, "Äłmax": 7022, "Äłposses": 7023, "Äłdome": 7024, "ÄłForc": 7025, "Äłsuggeste": 7026, "Äłsmok": 7027, "Äł36": 7028, "Äłstres": 7029, "Äłfalse": 7030, "Äłsuggested": 7031, "ÄłAtl": 7032, "Äłstress": 7033, "Äłod": 7034, "Äłsites": 7035, "able": 7036, "Äłdin": 7037, "ÄłLive": 7038, "Äłexh": 7039, "Äłcards": 7040, "Äłphi": 7041, "Äłdece": 7042, "ÄłJud": 7043, "Äłpoliticia": 7044, "ÄłMot": 7045, "Äłups": 7046, "Äłpolitician": 7047, "Äłscri": 7048, "Äłrus": 7049, "Äłchemi": 7050, "Äłcancer": 7051, "Äłitems": 7052, "Äłremin": 7053, "Äłrepeated": 7054, "Äłtechnic": 7055, "Äłsecure": 7056, "ÄłTech": 7057, "Äłpossess": 7058, "Äłstated": 7059, "ÄłBot": 7060, "Äłtelli": 7061, "ÄłRE": 7062, "Äłtellin": 7063, "ÄłLoui": 7064, "Äłtelling": 7065, "Äłworst": 7066, "ÄłSince": 7067, "Äłclosed": 7068, "Äłintens": 7069, "Äłpursu": 7070, "Äłtemperatu": 7071, "Äłtemperatur": 7072, "Äłcharged": 7073, "ÄłFBI": 7074, "Äłtemperature": 7075, "Äłaspe": 7076, "ÄłDal": 7077, "Äłdiscovere": 7078, "Äłblam": 7079, "ÄłAfg": 7080, "Äłsmaller": 7081, "Äłaffo": 7082, "Äłmonit": 7083, "Äłexpressi": 7084, "ÄłRicha": 7085, "Äłaffor": 7086, "ÄłAfgh": 7087, "Äłrestau": 7088, "Äłded": 7089, "Äłrestaur": 7090, "Äłtools": 7091, "ÄłBritai": 7092, "ÄłBritain": 7093, "ink": 7094, "ÄłAfgha": 7095, "Äłrestaura": 7096, "ÄłAfghan": 7097, "Äłmonito": 7098, "Äłorganis": 7099, "Äłmonitor": 7100, "ÄłUN": 7101, "Äłretire": 7102, "Äłafford": 7103, "Äłunle": 7104, "Äłassume": 7105, "Äłdrivi": 7106, "ÄłSil": 7107, "Äłdrivin": 7108, "ÄłRichar": 7109, "ÄłForce": 7110, "Äłdriving": 7111, "Äłbatte": 7112, "ÄłDefe": 7113, "Äłcras": 7114, "Äłeffici": 7115, "Äłtig": 7116, "ÄłRichard": 7117, "Äłefficie": 7118, "Äłefficien": 7119, "Äłfourt": 7120, "ÄłCru": 7121, "Äłentirel": 7122, "Äłentirely": 7123, "ÄłPle": 7124, "ÄłBac": 7125, "Äłdiscovered": 7126, "Äłhack": 7127, "Äłapo": 7128, "Äłexcite": 7129, "Äłmani": 7130, "Äłexami": 7131, "Äłteen": 7132, "Äłexamin": 7133, "Äłpanel": 7134, "Äłprofesso": 7135, "Äłprofessor": 7136, "ÄłMou": 7137, "Äłimpressi": 7138, "Amer": 7139, "Äłrevenu": 7140, "Äłbru": 7141, "ÄłInde": 7142, "Äłrevenue": 7143, "Äłresponsibi": 7144, "Äłresponsibil": 7145, "Äłconcerne": 7146, "Äłinitiat": 7147, "Äłexerc": 7148, "Äłresponsibili": 7149, "Äłresponsibilit": 7150, "Äłconcerned": 7151, "ÄłJone": 7152, "Äłsupported": 7153, "Äłanimals": 7154, "Äłaspec": 7155, "Äłexerci": 7156, "Äłaspect": 7157, "Ameri": 7158, "ÄłJones": 7159, "ÄłOs": 7160, "Äłestablishe": 7161, "Äłexercis": 7162, "ÄłRead": 7163, "Äłstrang": 7164, "Äłbin": 7165, "Äłleng": 7166, "Äłcoi": 7167, "Äłolder": 7168, "ÄłUkr": 7169, "ÄłHoll": 7170, "Äłconstructio": 7171, "Äłconstruction": 7172, "Äłdepl": 7173, "ÄłMur": 7174, "Äłplanne": 7175, "ince": 7176, "Äłcateg": 7177, "aking": 7178, "Äłcatego": 7179, "Äłcategor": 7180, "nge": 7181, "Americ": 7182, "Äłrestauran": 7183, "Äłrestaurant": 7184, "ÄłAri": 7185, "Äłcandidates": 7186, "America": 7187, "Äł45": 7188, "ÄłPowe": 7189, "Äłhurt": 7190, "Äłlengt": 7191, "Äłlength": 7192, "Äłrequires": 7193, "Äłreligion": 7194, "ÄłUkra": 7195, "Äłdeclare": 7196, "Äłroug": 7197, "Äłgraph": 7198, "Äłdona": 7199, "ÄłFrank": 7200, "Äłcontex": 7201, "Äłbusinesse": 7202, "Äłcontext": 7203, "Äłbusinesses": 7204, "ÄłHon": 7205, "ÄłTod": 7206, "Äłactiviti": 7207, "ÄłDet": 7208, "Äłactivitie": 7209, "Äłactivities": 7210, "Äłtestin": 7211, "Äłcaug": 7212, "Äłcaugh": 7213, "Äłsess": 7214, "Äłcaught": 7215, "Äłlargel": 7216, "Äłtesting": 7217, "Äłlargely": 7218, "ÄłUkrai": 7219, "ÄłUkrain": 7220, "Äłconseq": 7221, "Äłconsequ": 7222, "Äłallowi": 7223, "Äłallowin": 7224, "Äłcrash": 7225, "Äłinsura": 7226, "Äłsecto": 7227, "Äłluc": 7228, "Äłallowing": 7229, "ÄłIslan": 7230, "Äłdonat": 7231, "Äłsector": 7232, "Äłrough": 7233, "Äłclick": 7234, "Äłconseque": 7235, "Äłconsequen": 7236, "ÄłIsland": 7237, "Äłinsuran": 7238, "Äłinsuranc": 7239, "Äłinsurance": 7240, "Äłvariet": 7241, "Äłinvit": 7242, "Äłsessi": 7243, "Äłticke": 7244, "Äłdoz": 7245, "Äłsubmi": 7246, "ÄłAssociati": 7247, "ÄłLouis": 7248, "ÄłPC": 7249, "Äłdele": 7250, "Äłsessio": 7251, "Äłsession": 7252, "Äłaccur": 7253, "ÄłAssociatio": 7254, "ÄłAssociation": 7255, "Äłgend": 7256, "Äłprincipl": 7257, "Äłprinciple": 7258, "Äłstrategi": 7259, "Äłregiste": 7260, "Äłoperate": 7261, "Äłregister": 7262, "Äłada": 7263, "Äłhighli": 7264, "ÄłPrin": 7265, "Äłphil": 7266, "Äłhighlig": 7267, "Äłtrul": 7268, "Äłhighligh": 7269, "Äłhighlight": 7270, "ÄłChamp": 7271, "Äłbelieves": 7272, "ÄłCur": 7273, "Äłlogi": 7274, "Äłtruly": 7275, "Äłdoze": 7276, "Äłrefug": 7277, "Äłseq": 7278, "Äłenable": 7279, "Äłaccura": 7280, "Äłfamo": 7281, "Äłcommis": 7282, "Äłdecisions": 7283, "ÄłBlue": 7284, "Äłcompon": 7285, "ÄłFal": 7286, "Äłpresenc": 7287, "Äłcompone": 7288, "Äłfamou": 7289, "Äłfamous": 7290, "Äłcomponen": 7291, "Äłrefuge": 7292, "Äłcomponent": 7293, "Äłvirtua": 7294, "Äłhomes": 7295, "Äłvirtual": 7296, "Äłeast": 7297, "Äłpresence": 7298, "ÄłTeam": 7299, "ÄłTel": 7300, "ÄłConf": 7301, "ÄłAda": 7302, "Äłguess": 7303, "Äłspokesm": 7304, "ÄłJewi": 7305, "Äłregim": 7306, "Äłwitn": 7307, "ÄłResea": 7308, "ÄłPak": 7309, "Äłwitne": 7310, "Äłwitnes": 7311, "Äłwitness": 7312, "Äłgende": 7313, "Äłgender": 7314, "ÄłResear": 7315, "Äłtun": 7316, "ÄłResearc": 7317, "ÄłJewis": 7318, "ÄłResearch": 7319, "Äłregime": 7320, "inal": 7321, "Äłhusb": 7322, "ize": 7323, "Äłhusba": 7324, "Äłhusban": 7325, "Äłhusband": 7326, "ÄłJewish": 7327, "Even": 7328, "Äłdozen": 7329, "Äłemi": 7330, "Äłinva": 7331, "Äłbeauti": 7332, "Äłorganize": 7333, "Äłapprove": 7334, "Äłillu": 7335, "Äłsurge": 7336, "Äłcommiss": 7337, "ÄłCath": 7338, "ÄłInv": 7339, "Äłcriticis": 7340, "Äłdivers": 7341, "Äłunre": 7342, "Äłplanni": 7343, "Äłplannin": 7344, "ÄłGlo": 7345, "Äłplanning": 7346, "Äłsupply": 7347, "Äłentit": 7348, "ÄłVirg": 7349, "ÄłJim": 7350, "Äłasses": 7351, "ÄłAndro": 7352, "ÄłRai": 7353, "Äłspecifica": 7354, "Äłlabe": 7355, "ÄłCI": 7356, "Äłbatter": 7357, "Äłmotiv": 7358, "Äłlabel": 7359, "Äłjoine": 7360, "Äłplaced": 7361, "Äłtells": 7362, "Äłsud": 7363, "ÄłGOP": 7364, "ÄłStep": 7365, "Äłintegra": 7366, "Äłmentione": 7367, "Äłsequ": 7368, "Äłmentioned": 7369, "Äłwaiti": 7370, "Äłwaitin": 7371, "Äłspokesma": 7372, "Äłspokesman": 7373, "Äłwaiting": 7374, "ÄłAngele": 7375, "Äłwast": 7376, "Äłstoppe": 7377, "Äłviewe": 7378, "Äłjoined": 7379, "ÄłLor": 7380, "ÄłEri": 7381, "Äłchee": 7382, "Äłinternal": 7383, "Äłidentify": 7384, "Äłurge": 7385, "cont": 7386, "ÄłMen": 7387, "ÄłMicros": 7388, "Äłhasn": 7389, "Äłirr": 7390, "ÄłAtla": 7391, "ÄłCB": 7392, "Äłdomes": 7393, "Äłinsis": 7394, "Äłdepr": 7395, "Äłinsist": 7396, "Äłreactio": 7397, "Äłreaction": 7398, "ÄłNig": 7399, "Äłoffensi": 7400, "ÄłFol": 7401, "ÄłAli": 7402, "Äłindustri": 7403, "Äłedg": 7404, "Äłrapi": 7405, "Äłoffensiv": 7406, "Äłmissin": 7407, "Äłoffensive": 7408, "Äłmissing": 7409, "Äłbeautif": 7410, "ÄłVirgi": 7411, "ÄłTen": 7412, "Äłretr": 7413, "Äłsem": 7414, "Äłcommissi": 7415, "Äłcommissio": 7416, "Äłcommission": 7417, "Äłdecr": 7418, "Äłzone": 7419, "Äłusef": 7420, "Äłusefu": 7421, "Äłuseful": 7422, "Äłbanks": 7423, "ÄłSupr": 7424, "Äłinjury": 7425, "Äłtaxe": 7426, "ÄłAngeles": 7427, "Äłenforcem": 7428, "Äłenforceme": 7429, "Äłenforcemen": 7430, "Äłenforcement": 7431, "ÄłLak": 7432, "ction": 7433, "ÄłStra": 7434, "Äłinterests": 7435, "ÄłDefen": 7436, "ÄłMP": 7437, "Äłintroduced": 7438, "Äłprovidi": 7439, "Äłprovidin": 7440, "Äłproviding": 7441, "Äłlibr": 7442, "Äłsports": 7443, "Äłliberal": 7444, "ÄłYes": 7445, "Äłoccup": 7446, "Äłestablished": 7447, "Äłcells": 7448, "Äłswee": 7449, "Äłrepu": 7450, "ÄłInste": 7451, "Äłnewsp": 7452, "Äłcontributi": 7453, "Äłconvent": 7454, "ÄłSyrian": 7455, "ÄłJef": 7456, "Äłremoved": 7457, "Äłcarb": 7458, "Äłstandi": 7459, "Äłseque": 7460, "Äłdownl": 7461, "Äłsuggesti": 7462, "Äłstandin": 7463, "Äłwelc": 7464, "ÄłRive": 7465, "ÄłInstea": 7466, "ÄłInstead": 7467, "Äłconvin": 7468, "Äłstanding": 7469, "ÄłMedica": 7470, "Äłdomest": 7471, "Äłdomesti": 7472, "Äłchann": 7473, "ÄłHome": 7474, "Äłchanne": 7475, "Äłchannel": 7476, "Äłbeautifu": 7477, "Äłbeautiful": 7478, "Äłstopped": 7479, "Äłfant": 7480, "ÄłCA": 7481, "Äłconvinc": 7482, "Äłdomestic": 7483, "Äłroot": 7484, "Äłtroo": 7485, "Äłotherw": 7486, "Äłamazi": 7487, "Äłamazin": 7488, "ÄłFore": 7489, "Äłamazing": 7490, "Äłassess": 7491, "Äłfanta": 7492, "Äłbli": 7493, "Äłtroop": 7494, "ÄłIl": 7495, "Äłwelco": 7496, "Äłwelcom": 7497, "Äłmaste": 7498, "ÄłCompa": 7499, "Äłnewspa": 7500, "ÄłFer": 7501, "Äłfantas": 7502, "Äłnewspap": 7503, "Äłnewspape": 7504, "Äłnewspaper": 7505, "Äłhousi": 7506, "Äłsubsc": 7507, "Äłhousin": 7508, "Äłhousing": 7509, "ÄłTes": 7510, "Äłtens": 7511, "ÄłSupre": 7512, "ÄłJeff": 7513, "Äłbik": 7514, "ÄłRel": 7515, "Äłdownlo": 7516, "ÄłSuprem": 7517, "Äłdownloa": 7518, "Äłdownload": 7519, "Äłcalc": 7520, "Äłsupporti": 7521, "Äłfourth": 7522, "ÄłPalestini": 7523, "ÄłCEO": 7524, "ÄłFil": 7525, "Äłcook": 7526, "ÄłPalestinia": 7527, "ÄłPalestinian": 7528, "Äłticket": 7529, "Äłphotos": 7530, "ÄłBB": 7531, "Äłtransl": 7532, "Äłmodels": 7533, "Äłeart": 7534, "Äł2005": 7535, "Äłimpli": 7536, "Äłtrail": 7537, "Äł2018": 7538, "Äłearth": 7539, "ÄłBet": 7540, "Äłmeasures": 7541, "ÄłMicroso": 7542, "Äłcapac": 7543, "Äłratio": 7544, "ÄłMicrosof": 7545, "ÄłMicrosoft": 7546, "ÄłGovernm": 7547, "ÄłGovernme": 7548, "ÄłGovernmen": 7549, "ÄłGovernment": 7550, "ÄłConst": 7551, "Äłcapaci": 7552, "Äłgirls": 7553, "ÄłGroup": 7554, "Äłmaster": 7555, "Äłtechniq": 7556, "Äłtheref": 7557, "Äłtechniqu": 7558, "Äłtechnique": 7559, "Äłdiss": 7560, "Äłtip": 7561, "Äłsubscr": 7562, "Äłsubscri": 7563, "ÄłAw": 7564, "ÄłUnd": 7565, "Äłlicense": 7566, "Äłlocate": 7567, "Äłmanaged": 7568, "Äłfiles": 7569, "ÄłOnl": 7570, "Äłconventi": 7571, "Äłconventio": 7572, "Äłconvention": 7573, "Äłidentified": 7574, "Äłack": 7575, "Äłreci": 7576, "Äłvas": 7577, "Äłenvironmenta": 7578, "Äłenvironmental": 7579, "ÄłVirgin": 7580, "ÄłLee": 7581, "Äłfocused": 7582, "Äłtherefo": 7583, "Äłtherefor": 7584, "Äłcapacit": 7585, "Äłapprop": 7586, "Äłsolv": 7587, "Äłinfra": 7588, "Äłemergen": 7589, "Äłdebu": 7590, "Äłskills": 7591, "Äłappropr": 7592, "Äłappropri": 7593, "Äłoccurre": 7594, "ÄłMel": 7595, "Äłappropria": 7596, "Äłappropriat": 7597, "Äłfinished": 7598, "ÄłProf": 7599, "Äłarrived": 7600, "Äłconsidera": 7601, "ÄłDistr": 7602, "ÄłRya": 7603, "Äłvete": 7604, "Äłveter": 7605, "Äłfigures": 7606, "ÄłSwi": 7607, "Äłlibra": 7608, "ÄłPaki": 7609, "ÄłJapane": 7610, "Äłkeepi": 7611, "Äłackn": 7612, "¸Ä": 7613, "Äłackno": 7614, "ÄłJapanes": 7615, "Äłkeepin": 7616, "ÄłJapanese": 7617, "Äłacknow": 7618, "Äłconclud": 7619, "Äłacknowl": 7620, "Äłfrequent": 7621, "Äłacknowle": 7622, "Äłcommitted": 7623, "Äłtherefore": 7624, "Äłdefensi": 7625, "Äłacknowled": 7626, "Äłacknowledg": 7627, "Äłacto": 7628, "Äłkeeping": 7629, "Äłfunds": 7630, "ÄłPakis": 7631, "Äłlibrar": 7632, "ÄłGri": 7633, "Äłappre": 7634, "Äłexclus": 7635, "Äładju": 7636, "ÄłPakist": 7637, "ÄłDai": 7638, "Äłexclusi": 7639, "ÄłCaroli": 7640, "Äłeg": 7641, "ÄłPakista": 7642, "ÄłPakistan": 7643, "Äłrevolu": 7644, "ÄłCarolin": 7645, "Äłofferi": 7646, "Äłofferin": 7647, "Äłactor": 7648, "Äłoffering": 7649, "Äłoutc": 7650, "Äłpointe": 7651, "ause": 7652, "ÄłMexico": 7653, "Äłidentity": 7654, "ÄłSupreme": 7655, "ÄłColleg": 7656, "ÄłRam": 7657, "ÄłRiver": 7658, "Äłcapti": 7659, "Äłrever": 7660, "Äłsides": 7661, "ÄłAls": 7662, "Äłvu": 7663, "Äłexercise": 7664, "Äłrevolut": 7665, "Äłrevoluti": 7666, "Äłrevolutio": 7667, "Äłrevolution": 7668, "Äłstrange": 7669, "Äłfeels": 7670, "Äłotherwi": 7671, "Äłotherwis": 7672, "Äłotherwise": 7673, "Äłsteps": 7674, "Äłcomplaint": 7675, "Äłfamilia": 7676, "Äłfello": 7677, "Äłdip": 7678, "Äłfellow": 7679, "Äłskin": 7680, "Äłattacke": 7681, "Äłinstruc": 7682, "ÄłAndroi": 7683, "ÄłAndroid": 7684, "Äłrecal": 7685, "Äłinstruct": 7686, "ÄłRyan": 7687, "Äłquote": 7688, "Äłrelativel": 7689, "Äłrelatively": 7690, "ÄłSpec": 7691, "Äłtransfo": 7692, "Äłapplie": 7693, "Äłtechnica": 7694, "Äłtransfor": 7695, "Äłtransform": 7696, "ÄłAlb": 7697, "Äłtechnical": 7698, "ÄłSE": 7699, "Äłimposs": 7700, "Äłimpossi": 7701, "Äłimmigrat": 7702, "Äłimpossib": 7703, "Äłspar": 7704, "ÄłJou": 7705, "Äł2000": 7706, "Äłgal": 7707, "Äłcircum": 7708, "Äłloan": 7709, "ÄłSee": 7710, "Äłslightl": 7711, "Äłslightly": 7712, "ÄłSti": 7713, "Äłguil": 7714, "ÄłEdit": 7715, "Äłcontrolle": 7716, "Äłinterp": 7717, "Äłvan": 7718, "Äłexcepti": 7719, "Äłprime": 7720, "ÄłZi": 7721, "Äłdefensiv": 7722, "Äłdefensive": 7723, "Äłqualif": 7724, "Äłcheap": 7725, "ÄłArmy": 7726, "ÄłDistri": 7727, "ÄłWho": 7728, "Äłske": 7729, "Äłshal": 7730, "Äłhappeni": 7731, "Äłhappenin": 7732, "Äłaffi": 7733, "ÄłAlth": 7734, "Äłhappening": 7735, "ÄłAmaz": 7736, "Äłmere": 7737, "Äłcoin": 7738, "ÄłSpor": 7739, "ÄłFire": 7740, "Äłsymp": 7741, "ÄłSar": 7742, "Äłedge": 7743, "ÄłKat": 7744, "Äłexceptio": 7745, "Äłexception": 7746, "Äłvisio": 7747, "Äłvision": 7748, "Äłemergenc": 7749, "Äłforge": 7750, "ÄłMem": 7751, "Äłtopi": 7752, "Äłuti": 7753, "Äłelements": 7754, "Äłblame": 7755, "Äłutil": 7756, "Äładvocat": 7757, "Äłdenie": 7758, "ÃłÂ": 23151, "Äłtopic": 7760, "ÄłCollege": 7761, "Äłplo": 7762, "ÄłSwe": 7763, "ÄłBitc": 7764, "Äłclot": 7765, "Äłblow": 7766, "Äłappo": 7767, "Don": 7768, "Äłsuggests": 7769, "ÄłBern": 7770, "ÄłScienc": 7771, "ÄłScience": 7772, "ÄłMcCa": 7773, "Äłaggres": 7774, "ÄłSub": 7775, "Äłneur": 7776, "Äłconvic": 7777, "ret": 7778, "Äłsust": 7779, "Äłclassic": 7780, "ÄłSecreta": 7781, "Äłaggress": 7782, "Äłconvict": 7783, "Äłacci": 7784, "ÄłSecretar": 7785, "Äłwoo": 7786, "ÄłBow": 7787, "Äłisl": 7788, "Äłtin": 7789, "ÄłChampi": 7790, "ÄłAltho": 7791, "Äłtransla": 7792, "Äłtranslat": 7793, "ÄłChampio": 7794, "ÄłDN": 7795, "ÄłChampion": 7796, "ÄłAlthou": 7797, "Äłtaxes": 7798, "ÄłPatri": 7799, "Äłselecti": 7800, "Äłze": 7801, "ÄłAlthoug": 7802, "ÄłAlthough": 7803, "Äłaccid": 7804, "Äłdivis": 7805, "Äłaccide": 7806, "Äłacciden": 7807, "sing": 7808, "ÄłThei": 7809, "Äłaccident": 7810, "Äłbigger": 7811, "Äłutili": 7812, "ÄłLake": 7813, "ÄłHor": 7814, "Äłclin": 7815, "Äłtigh": 7816, "Äłoutp": 7817, "Äłmagi": 7818, "Äłmut": 7819, "Äłtight": 7820, "Äłcounc": 7821, "ÄłSpr": 7822, "Äłprovinc": 7823, "Äłcounci": 7824, "Äłcouncil": 7825, "Äłfamiliar": 7826, "Äłremind": 7827, "Äłpresente": 7828, "Äłdela": 7829, "ÄłMars": 7830, "ÄłSport": 7831, "Äłspeaki": 7832, "Äłspeakin": 7833, "Äłstarts": 7834, "Äłconsul": 7835, "Äłspeaking": 7836, "Äłlaug": 7837, "Äłlaugh": 7838, "ÄłOut": 7839, "Äłvul": 7840, "Äłdistanc": 7841, "ÃĥÂ": 7842, "Äłorganizations": 7843, "ÄłAustralian": 7844, "Äłimpossibl": 7845, "Äłsudd": 7846, "Äłrequirem": 7847, "Äłrequireme": 7848, "Äłrequiremen": 7849, "Äłrequirement": 7850, "Äłplanned": 7851, "Äłsudde": 7852, "Äłimmigrati": 7853, "Äłsudden": 7854, "Äłdemonstrate": 7855, "ÄłJour": 7856, "Äłdivisi": 7857, "Äłmigr": 7858, "ÄłToro": 7859, "Äłmigra": 7860, "ÄłJose": 7861, "ÄłAdv": 7862, "ÄłPari": 7863, "ÄłGood": 7864, "ÄłConse": 7865, "Äłsati": 7866, "Äłtalks": 7867, "Äłcrew": 7868, "Äłsuspen": 7869, "Äłspect": 7870, "Äłrecall": 7871, "****": 7872, "Äłemba": 7873, "ÄłThoma": 7874, "Äłdeplo": 7875, "Äłthanks": 7876, "Äłimmigratio": 7877, "Äłimmigration": 7878, "Äłdelay": 7879, "Äłautomati": 7880, "Äłscrip": 7881, "Äłscientif": 7882, "Äłscientifi": 7883, "Äłarmy": 7884, "ÄłProt": 7885, "Äłcuts": 7886, "Äłcarried": 7887, "ÄłBitco": 7888, "Äłseconds": 7889, "ÄłClo": 7890, "Äł193": 7891, "Äłscientific": 7892, "Äłappoi": 7893, "Äłappoin": 7894, "Äłappoint": 7895, "ÄłPrime": 7896, "Äłcompari": 7897, "Äłhelpi": 7898, "Äłhelpin": 7899, "Äłasset": 7900, "Äłsusta": 7901, "Äłcreativ": 7902, "Äłaca": 7903, "ÄłThomas": 7904, "Äłhelping": 7905, "Äłfighte": 7906, "Äłfighter": 7907, "ÄłBitcoi": 7908, "ÄłBitcoin": 7909, "ÄłTO": 7910, "Äłscript": 7911, "ÄłLy": 7912, "Äłsustai": 7913, "Äłsustain": 7914, "Äłvolun": 7915, "Äłvolunt": 7916, "ÄłJourn": 7917, "Äłstee": 7918, "ÄłMary": 7919, "Äłpromoti": 7920, "Äłcompos": 7921, "ÄłUnde": 7922, "Ever": 7923, "ÄłMidd": 7924, "ÄłGuar": 7925, "Äłmoo": 7926, "Äłescap": 7927, "ÄłTheir": 7928, "Äłphilo": 7929, "Äłturns": 7930, "Äłbag": 7931, "ress": 7932, "Äłisla": 7933, "Äłhistorica": 7934, "Äłhistorical": 7935, "ÄłPas": 7936, "Äładap": 7937, "Äłbutto": 7938, "Äładapt": 7939, "Äłconsequenc": 7940, "Äłconsequence": 7941, "ÄłAlso": 7942, "Äłdic": 7943, "ÄłCN": 7944, "Äłfiled": 7945, "Äłoptim": 7946, "ÄłMiddl": 7947, "ÄłSecretary": 7948, "ÄłMiddle": 7949, "Äłstandards": 7950, "ÄłFounda": 7951, "Äłdistance": 7952, "Äłrin": 7953, "Äłdroppe": 7954, "ÄłNO": 7955, "ÄłFoundat": 7956, "ÄłFoundati": 7957, "ÄłFoundatio": 7958, "ÄłFoundation": 7959, "ÄłWork": 7960, "Äłvariety": 7961, "Äłsola": 7962, "Äłpriori": 7963, "Äłmarkets": 7964, "Äłignore": 7965, "Äłpal": 7966, "Äłphilos": 7967, "Äłsounds": 7968, "ÄłRoa": 7969, "Äłhei": 7970, "ÄłCorp": 7971, "Äłwaste": 7972, "Äłphiloso": 7973, "Äłphilosop": 7974, "Äłphilosoph": 7975, "Äłsensi": 7976, "Äłcongr": 7977, "ÄłES": 7978, "ÄłSig": 7979, "Äłconclude": 7980, "ÄłAtlan": 7981, "Äłimpossible": 7982, "Äłtack": 7983, "ÄłUSA": 7984, "nder": 7985, "Äłaggressi": 7986, "ÄłOpen": 7987, "ÄłEnt": 7988, "ÄłAtlant": 7989, "ÄłRoma": 7990, "Äłaccounts": 7991, "Äłbroadc": 7992, "Äłvotes": 7993, "Äłobjecti": 7994, "Äłacad": 7995, "Äłprospec": 7996, "Äłprospect": 7997, "Äłdropped": 7998, "Äłbroadca": 7999, "Äłbroadcas": 8000, "Äłbroadcast": 8001, "Äł33": 8002, "Äładvise": 8003, "Äłcomba": 8004, "Äłinteracti": 8005, "Äłcombat": 8006, "Äłacade": 8007, "Äłacadem": 8008, "Äłterrit": 8009, "Äłneighborh": 8010, "Äłneighborho": 8011, "Äłneighborhoo": 8012, "Äłneighborhood": 8013, "Äłcold": 8014, "Äłterrito": 8015, "Äłpossibly": 8016, "Äłislan": 8017, "Äłisland": 8018, "ÄłBor": 8019, "Äłdivid": 8020, "Äłharde": 8021, "ÄłTwo": 8022, "Äłoperatin": 8023, "Äłterritor": 8024, "Äłoperating": 8025, "Äłvetera": 8026, "Äłveteran": 8027, "Äłhones": 8028, "Äłtheme": 8029, "Äłrefugee": 8030, "ÄłFig": 8031, "Äłtests": 8032, "Äłcarbo": 8033, "Äłcloth": 8034, "Äłworry": 8035, "Äłhonest": 8036, "ÄłPA": 8037, "ÄłMana": 8038, "Äłruli": 8039, "Äłrulin": 8040, "Äłbike": 8041, "Äłruling": 8042, "ÄłRoy": 8043, "ÄłAN": 8044, "Äłrush": 8045, "Äłincreasingl": 8046, "Äłincreasingly": 8047, "ÄłKel": 8048, "Äłplen": 8049, "ÄłMea": 8050, "Äłscra": 8051, "Äłchangi": 8052, "Äłlosi": 8053, "Äłperforme": 8054, "Äłchangin": 8055, "Äłlosin": 8056, "Äłlived": 8057, "ÄłWoo": 8058, "Äłlosing": 8059, "Äłchanging": 8060, "Äłrein": 8061, "Äłapparentl": 8062, "Äłapparently": 8063, "ÄłEli": 8064, "Äłagenci": 8065, "Äłdevelopers": 8066, "Äłultimatel": 8067, "Äłcloser": 8068, "Äłultimately": 8069, "Äłhumans": 8070, "Äłagencie": 8071, "Äłagencies": 8072, "ÄłCarolina": 8073, "Äłcorporate": 8074, "Äłsitt": 8075, "Äłyards": 8076, "Äłchain": 8077, "Äłtwic": 8078, "Äłtwice": 8079, "Äłbutton": 8080, "Äłpriorit": 8081, "ÄłParis": 8082, "ÄłLast": 8083, "ÄłImages": 8084, "ÄłPower": 8085, "Äłfunda": 8086, "Äłcultura": 8087, "Äłabsolutel": 8088, "Äłabsolutely": 8089, "Äłjur": 8090, "ÄłFrancisc": 8091, "Äłexpresse": 8092, "ÄłRad": 8093, "Äłwir": 8094, "Äłcollea": 8095, "Äłsoldiers": 8096, "Äłcolleag": 8097, "Äłspli": 8098, "Äłcolleagu": 8099, "Äłcolleague": 8100, "ÄłWei": 8101, "ÄłDat": 8102, "Äłinnov": 8103, "Äłdefa": 8104, "ÄłElec": 8105, "Äłinnova": 8106, "Äłunits": 8107, "Äłgia": 8108, "Äłcentre": 8109, "Äłpena": 8110, "ÄłChil": 8111, "Äłvisu": 8112, "Äłfundam": 8113, "Äłinnovat": 8114, "Äłfundame": 8115, "Äłcultural": 8116, "Äłfundamen": 8117, "Äłhealthy": 8118, "Äłauthority": 8119, "Äłfundament": 8120, "Äłtast": 8121, "Äłunfo": 8122, "ÄłUnder": 8123, "ÄłSing": 8124, "Äłpossibility": 8125, "Äłpayi": 8126, "Äłpayin": 8127, "Äłexpensi": 8128, "Äłvillag": 8129, "ÄłEi": 8130, "ÄłElect": 8131, "Äłpaying": 8132, "Äłfundamenta": 8133, "Äłtrib": 8134, "Äłvillage": 8135, "Äłconfu": 8136, "Äłfundamental": 8137, "Äłcalcu": 8138, "ÄłHuma": 8139, "Äłvast": 8140, "Äłcalcul": 8141, "ÄłCentra": 8142, "ÄłPlea": 8143, "Äłexpensiv": 8144, "Äłexpensive": 8145, "Äłours": 8146, "Äłral": 8147, "Äłdevelopi": 8148, "Äłdevelopin": 8149, "Äłdeveloping": 8150, "ÄłLau": 8151, "Äłconfus": 8152, "Äłbound": 8153, "ÄłST": 8154, "Äłathl": 8155, "Äłgian": 8156, "Äłathle": 8157, "American": 8158, "Äłgiant": 8159, "Äłappropriate": 8160, "Äłcontaine": 8161, "Äłjai": 8162, "Äłwarni": 8163, "Äłlands": 8164, "Äłathlet": 8165, "Äłwarnin": 8166, "Äłwarning": 8167, "Äłvisua": 8168, "Äłracis": 8169, "Äłcaref": 8170, "Äłvisual": 8171, "ÄłCentral": 8172, "Äłtransiti": 8173, "Äłleak": 8174, "Äłpuni": 8175, "Äłoffs": 8176, "Äłrall": 8177, "Äłregardi": 8178, "Äłregardin": 8179, "Äłregarding": 8180, "Äłnume": 8181, "Äłjail": 8182, "ÄłToron": 8183, "Äładjus": 8184, "Äładjust": 8185, "Äłchart": 8186, "Äłseeki": 8187, "Äłseekin": 8188, "Äłseeking": 8189, "Äłsurvive": 8190, "Äłdeploy": 8191, "Äłexperts": 8192, "ÄłToront": 8193, "ÄłToronto": 8194, "Äłnumer": 8195, "Äłstatis": 8196, "ÄłVen": 8197, "Äłsitti": 8198, "Äłsittin": 8199, "Äłinvesto": 8200, "Äłinvestor": 8201, "Äłfif": 8202, "Äłsolar": 8203, "Äłsitting": 8204, "Äłratin": 8205, "Äłrating": 8206, "uring": 8207, "ÄłGuard": 8208, "Äłlawsu": 8209, "Äłlawsui": 8210, "Äłlawsuit": 8211, "Äłconso": 8212, "Äłnomina": 8213, "Äłsubse": 8214, "Äłspon": 8215, "Äłplent": 8216, "ÄłHav": 8217, "Äłbann": 8218, "Äłapplications": 8219, "Äłmaxi": 8220, "Äłcomic": 8221, "Äłpenal": 8222, "ÄłPleas": 8223, "Äłfift": 8224, "ÄłAC": 8225, "Äłwelcome": 8226, "Äłpercenta": 8227, "Äłproto": 8228, "Äłpercentag": 8229, "Äłpercentage": 8230, "ÄłDistric": 8231, "ÄłDistrict": 8232, "ÄłBost": 8233, "Äłcapacity": 8234, "Äłstatist": 8235, "ÄłCamp": 8236, "Äłintegrat": 8237, "ange": 8238, "ÄłDie": 8239, "ÄłWilliams": 8240, "Äłschem": 8241, "Äłcovere": 8242, "ÄłFrancisco": 8243, "Äłgeo": 8244, "Äłcovered": 8245, "Äłgraduat": 8246, "Äłhers": 8247, "%)": 8248, "Äłshee": 8249, "ÄłMak": 8250, "Äłrewa": 8251, "ÄłChie": 8252, "ÄłAmazo": 8253, "ÄłDia": 8254, "Äłhonor": 8255, "Äłelim": 8256, "Äłarms": 8257, "Äłtransitio": 8258, "Äłtransition": 8259, "Äłcarefu": 8260, "Äłcareful": 8261, "Äłdepo": 8262, "ÄłAmazon": 8263, "Äłpersp": 8264, "Äłunles": 8265, "ÄłTak": 8266, "Äłunless": 8267, "cause": 8268, "Äłtruc": 8269, "ÄłImp": 8270, "Äłresponsibility": 8271, "Äłelimi": 8272, "Äłelections": 8273, "Äłelimin": 8274, "Äłlob": 8275, "Äłmaga": 8276, "Äłimprovem": 8277, "Äłimproveme": 8278, "Äłimprovemen": 8279, "Äłimprovement": 8280, "Äłelimina": 8281, "Äłpermit": 8282, "ÄłAwa": 8283, "ÄłTow": 8284, "Äłdefiniti": 8285, "Äłmanufacture": 8286, "ÄłPut": 8287, "Äłeliminat": 8288, "Äłbaby": 8289, "ÄłEmp": 8290, "Äłguilt": 8291, "Äłmagic": 8292, "Äłuniversity": 8293, "ÄłMass": 8294, "Äł2004": 8295, "Äłmagaz": 8296, "Äłdeadl": 8297, "Äłmagazi": 8298, "Äłmagazin": 8299, "Äłmagazine": 8300, "Äłviolati": 8301, "Äłillus": 8302, "Äłtechnologi": 8303, "yle": 8304, "inn": 8305, "Äłpresented": 8306, "Äłforms": 8307, "Äłsad": 8308, "Äłshr": 8309, "Äłhire": 8310, "Äłodd": 8311, "ÄłEt": 8312, "Äłguara": 8313, "Äłguaran": 8314, "ÄłGor": 8315, "ÄłGui": 8316, "Äłrewar": 8317, "Äłrand": 8318, "Äłmaxim": 8319, "cle": 8320, "ÄłAno": 8321, "Äłguarant": 8322, "Äłreward": 8323, "ÄłNev": 8324, "Äłstatisti": 8325, "Äłintenti": 8326, "Äłdisr": 8327, "Äłintentio": 8328, "Äłintention": 8329, "Äłperspe": 8330, "Äłbodi": 8331, "ÄłEgy": 8332, "Äłstatistic": 8333, "Äłsymb": 8334, "Äłinfras": 8335, "Äłkit": 8336, "ÄłEgyp": 8337, "Äłexpans": 8338, "ÄłEgypt": 8339, "ÄłDow": 8340, "Äłperspec": 8341, "Äładmitt": 8342, "Äłly": 8343, "Äłperspect": 8344, "Äłperspecti": 8345, "ÄłMA": 8346, "Äłperspectiv": 8347, "Äłimmigran": 8348, "Äłimmigrant": 8349, "ÄłDani": 8350, "Äłbroken": 8351, "Äłboos": 8352, "Äłintende": 8353, "Äłperspective": 8354, "Äłhelps": 8355, "Äłrobo": 8356, "Äłintended": 8357, "ÄłRat": 8358, "ÄłColor": 8359, "Äłguns": 8360, "ÄłIN": 8361, "Äłinfrast": 8362, "Just": 8363, "ÄłNav": 8364, "Äłheads": 8365, "Äłinfrastr": 8366, "ÄłBosto": 8367, "Äłtric": 8368, "Äłbrig": 8369, "Äłinfrastru": 8370, "Äłspring": 8371, "Äłoutco": 8372, "ÄłVirgini": 8373, "Äłvehicles": 8374, "Ã¢Ä¢Äº": 8375, "Äłstrin": 8376, "Äłinfrastruc": 8377, "ÄłAdam": 8378, "Äłinfrastruct": 8379, "ÄłBes": 8380, "ÄłQua": 8381, "Äłstring": 8382, "Äłdistributi": 8383, "Äłinfrastructu": 8384, "Äłinfrastructur": 8385, "Äłestimated": 8386, "Äłoutcom": 8387, "ÄłPublic": 8388, "ÄłAgen": 8389, "Äłrecorde": 8390, "Äłexclusiv": 8391, "ÄłBoston": 8392, "ÄłOnc": 8393, "Äłstreets": 8394, "Äłrapid": 8395, "Äłconsult": 8396, "Äłoccurred": 8397, "Äłshall": 8398, "Äłluck": 8399, "Äłhang": 8400, "ÄłVirginia": 8401, "Äłridi": 8402, "ÄłThos": 8403, "ÄłChief": 8404, "Äłpieces": 8405, "Äłyout": 8406, "Äłdres": 8407, "Äłinterpr": 8408, "ÄłThose": 8409, "ÄłTou": 8410, "Äłoutcome": 8411, "ÄłMode": 8412, "Äłdress": 8413, "Äłrape": 8414, "ÄłJourna": 8415, "ÄłLuc": 8416, "Äłabor": 8417, "ÄłJournal": 8418, "Äłfired": 8419, "Äłacknowledge": 8420, "Äłguarante": 8421, "Äłguarantee": 8422, "ÄłHuman": 8423, "Äłpatr": 8424, "Äłtroops": 8425, "Äłjok": 8426, "Äłrepli": 8427, "Äłrene": 8428, "Äłendo": 8429, "Äłshad": 8430, "Äłrecip": 8431, "Äłsei": 8432, "Äłexcel": 8433, "Äłmetal": 8434, "Äłproducer": 8435, "Äłoutr": 8436, "Äłinfrastructure": 8437, "Äłlocated": 8438, "Äłstars": 8439, "Äłdim": 8440, "Äłrent": 8441, "Äłinterpre": 8442, "Äłinterpret": 8443, "ÄłPea": 8444, "Äłtempo": 8445, "Äłcorru": 8446, "Äłcalcula": 8447, "Äłexplore": 8448, "Äłdistinc": 8449, "Äłprepared": 8450, "Äłdistinct": 8451, "Äłcalculat": 8452, "ÄłSocia": 8453, "ÄłBul": 8454, "ÄłAny": 8455, "Äłmagn": 8456, "Äłsno": 8457, "Äłcharacteri": 8458, "Äłrecru": 8459, "ÄłBob": 8460, "Äłspecifical": 8461, "Äłbringi": 8462, "Äłmyst": 8463, "Äłbringin": 8464, "Äłspecificall": 8465, "Äłspecifically": 8466, "Äłwarr": 8467, "Äłbringing": 8468, "Äłame": 8469, "Äłpotentiall": 8470, "Äłpotentially": 8471, "ÄłShow": 8472, "Äłsile": 8473, "Äłpip": 8474, "Äłrecrui": 8475, "Äłrecruit": 8476, "Äłtank": 8477, "Äłcomplic": 8478, "Äłrando": 8479, "Äłelectron": 8480, "Äłsilen": 8481, "ÄłSocial": 8482, "Äłvuln": 8483, "Äładvocate": 8484, "Äłsis": 8485, "Äłconclus": 8486, "ÄłReal": 8487, "Äłsanc": 8488, "Äłhab": 8489, "ÄłYear": 8490, "Äłgif": 8491, "Äłequipm": 8492, "Äłequipme": 8493, "Äłequipmen": 8494, "Äłequipment": 8495, "Äłinspire": 8496, "Äłtackl": 8497, "Äłconclusi": 8498, "Äłfaster": 8499, "Äłtourn": 8500, "Äłdivide": 8501, "Äłgovernments": 8502, "ÄłDirecto": 8503, "ÄłOnce": 8504, "Äłlun": 8505, "ÄłDirector": 8506, "Äłrandom": 8507, "Äłplenty": 8508, "Äłboost": 8509, "Äłdyn": 8510, "Äłsanct": 8511, "Äłselli": 8512, "Äłsellin": 8513, "Äłvulne": 8514, "Äłvulner": 8515, "Äłfing": 8516, "Äłvulnera": 8517, "Äłselling": 8518, "Äłvulnerab": 8519, "ÄłTerr": 8520, "Äłsimu": 8521, "ÄłSteph": 8522, "ÄłFam": 8523, "Äłfinge": 8524, "Äłconsc": 8525, "Äłbreat": 8526, "Äłfinger": 8527, "Äłbreath": 8528, "Äłgrav": 8529, "Äłsimul": 8530, "¿Â": 8531, "ÄłRub": 8532, "Äłseasons": 8533, "Äłcorrup": 8534, "ÄłWee": 8535, "ÄłBrad": 8536, "Äłchemic": 8537, "Äłheavi": 8538, "Äłchemica": 8539, "Äłchemical": 8540, "ÄłSant": 8541, "ÄłHas": 8542, "Äłplus": 8543, "ÄłISI": 8544, "ÄłLit": 8545, "Äłrepresentativ": 8546, "Äłcorrupt": 8547, "Äłrepresentative": 8548, "ÄłFederal": 8549, "Äłrefused": 8550, "Äłoffense": 8551, "Äłfactors": 8552, "Äłwoun": 8553, "Äłwound": 8554, "Äłexpressio": 8555, "Äłexpression": 8556, "Äłdefende": 8557, "Äłretail": 8558, "Äłexpose": 8559, "Äłyounge": 8560, "ÄłCy": 8561, "Äłhunt": 8562, "Äłwinne": 8563, "Äłwinner": 8564, "Äłexpansi": 8565, "Äł=>": 8566, "Äłambi": 8567, "Äłrh": 8568, "ÄłLif": 8569, "ÄłTro": 8570, "Äłmodi": 8571, "Äłeveni": 8572, "Äłdivisio": 8573, "Äłdivision": 8574, "Äłcarbon": 8575, "Äłresolu": 8576, "ÄłRon": 8577, "Äłexpressed": 8578, "Äłvoted": 8579, "Äłpee": 8580, "Äłevenin": 8581, "Äłresolut": 8582, "Äłevening": 8583, "Äłchallenges": 8584, "ÄłNin": 8585, "ÄłFun": 8586, "Äłdyna": 8587, "Äłconducte": 8588, "ÄłIntel": 8589, "ÄłSca": 8590, "Äłconducted": 8591, "Äłmethods": 8592, "Äłcurrenc": 8593, "Äłdisas": 8594, "Äłspin": 8595, "Äłrain": 8596, "Äłgoverno": 8597, "Äłembr": 8598, "Äłexclusive": 8599, "ÄłActi": 8600, "Äłsist": 8601, "Äłmel": 8602, "Äłflat": 8603, "mme": 8604, "Äłpushe": 8605, "Äłescape": 8606, "Äłelecte": 8607, "Äłelected": 8608, "Every": 8609, "Äłcycle": 8610, "ÄłPlease": 8611, "Äłcreatio": 8612, "Äłwing": 8613, "uni": 8614, "Äłsymbo": 8615, "Äłcreation": 8616, "Äłpunis": 8617, "Äłsymbol": 8618, "Äłcombina": 8619, "Äłpunish": 8620, "ÄłCho": 8621, "ÄłMO": 8622, "Äłsiste": 8623, "Äłpointed": 8624, "ÄłMit": 8625, "Äłmoto": 8626, "Äłremaine": 8627, "Äłpositions": 8628, "Äłrobot": 8629, "Äłcompete": 8630, "Äłtrig": 8631, "Äłcombinat": 8632, "ÄłJav": 8633, "ÄłSpac": 8634, "Äłremained": 8635, "Äłsolve": 8636, "Äłgovernor": 8637, "ÄłNH": 8638, "Äłring": 8639, "ÄłDuri": 8640, "ÄłWom": 8641, "Äłriva": 8642, "Äłoriginall": 8643, "Äłoriginally": 8644, "ÄłContr": 8645, "Äłinfec": 8646, "Äłalc": 8647, "Äłviolent": 8648, "Äłinfect": 8649, "Äłrival": 8650, "Äłprogressi": 8651, "Äłtruck": 8652, "Äłinse": 8653, "Äłvolum": 8654, "Äłreserve": 8655, "Äłweren": 8656, "Äłallega": 8657, "Äłvoti": 8658, "Äłallegat": 8659, "Äłsigns": 8660, "Äłallegati": 8661, "Äłallegatio": 8662, "Äłallegation": 8663, "Äłcriticism": 8664, "Äłtourna": 8665, "ÄłChampions": 8666, "Äłnarra": 8667, "ÄłFinal": 8668, "Äłtournam": 8669, "Äłtourname": 8670, "Äłtournamen": 8671, "Äłtournament": 8672, "Äłtransa": 8673, "Äłgift": 8674, "Äłnarrat": 8675, "Äłgreates": 8676, "Äł34": 8677, "Äłgreatest": 8678, "Äłfacin": 8679, "ÄłDurin": 8680, "Äłfacing": 8681, "ÄłSpace": 8682, "Äłboug": 8683, "ÄłTon": 8684, "Äłmisse": 8685, "Äłsignificantl": 8686, "Äłsignificantly": 8687, "Äłsplit": 8688, "Äłvotin": 8689, "Äłvoting": 8690, "Äłfolk": 8691, "Äłyouth": 8692, "ÄłPrinc": 8693, "ÄłDuring": 8694, "Äłdedi": 8695, "Äłcrac": 8696, "Äłdecre": 8697, "Äłairp": 8698, "Äłcrack": 8699, "Äłstret": 8700, "Äłveg": 8701, "ÄłDoc": 8702, "Äłdeserv": 8703, "Äłprofil": 8704, "Äłmodif": 8705, "Äłhole": 8706, "Äłaffecte": 8707, "Ã¯Â": 25820, "Äłfores": 8709, "Äłaffected": 8710, "Äłbough": 8711, "Äłdedic": 8712, "Äłstretc": 8713, "Äłstretch": 8714, "Äłdedica": 8715, "Äłmotor": 8716, "Äłweari": 8717, "Äłsmi": 8718, "ÄłAna": 8719, "ÄłBoth": 8720, "ªÄ": 8721, "Äłdetermined": 8722, "ÄłRou": 8723, "ÄłBoa": 8724, "ÄłPin": 8725, "Äłsister": 8726, "ÄłRem": 8727, "Äłstronge": 8728, "Äłreduced": 8729, "ÄłRoman": 8730, "Äłaftern": 8731, "Äłdedicat": 8732, "Äłafterno": 8733, "Äłafternoo": 8734, "Äłjustif": 8735, "Äłafternoon": 8736, "Äłhoo": 8737, "Äłinterve": 8738, "Äłwood": 8739, "Äł500": 8740, "ÄłDre": 8741, "Äłbought": 8742, "ÄłKl": 8743, "ÄłSaud": 8744, "Äłsevere": 8745, "Äłtrick": 8746, "Äłherse": 8747, "Äłsigh": 8748, "Äłhersel": 8749, "Äłinterven": 8750, "Äłherself": 8751, "Äłpicke": 8752, "ÄłProg": 8753, "ÄłDiv": 8754, "Äłabort": 8755, "Äłindee": 8756, "Äłwatche": 8757, "Äłindeed": 8758, "ÄłPic": 8759, "Äłminimu": 8760, "Äłpulle": 8761, "Äłobviousl": 8762, "Äłobviously": 8763, "Since": 8764, "Äłmarg": 8765, "Äłminimum": 8766, "Äłgrew": 8767, "Äłannouncem": 8768, "Äłemotiona": 8769, "Äłemotional": 8770, "free": 8771, "Äłannounceme": 8772, "Äłannouncemen": 8773, "Äłannouncement": 8774, "Äłcombinati": 8775, "Äłcombinatio": 8776, "Äłcombination": 8777, "Äłcoas": 8778, "Äłcoast": 8779, "Äłremaini": 8780, "Äłcontras": 8781, "Äłremainin": 8782, "Äłradic": 8783, "Äłremaining": 8784, "rela": 8785, "ÄłLar": 8786, "ÄłBara": 8787, "Äłwearin": 8788, "Äłinven": 8789, "Äłradica": 8790, "Äłdut": 8791, "Äłvolume": 8792, "Äłinvent": 8793, "Äłturni": 8794, "Äłcontrast": 8795, "ÄłFai": 8796, "Äłradical": 8797, "ÄłLev": 8798, "ÄłClar": 8799, "Äłconstituti": 8800, "Äłunab": 8801, "Äłpoliticians": 8802, "ÄłAdm": 8803, "Äłinnovati": 8804, "Äłargued": 8805, "Äłaba": 8806, "ÄłLoc": 8807, "Äłwire": 8808, "Äłsupportin": 8809, "Äłsupporting": 8810, "Äłediti": 8811, "Äłrail": 8812, "Äłairc": 8813, "inu": 8814, "Äłrecorded": 8815, "Äłoverl": 8816, "Äłdiscusse": 8817, "Äłpoun": 8818, "Äłvali": 8819, "ÄłKha": 8820, "Äłapol": 8821, "Äłworri": 8822, "Äłleads": 8823, "Äłconvince": 8824, "Äłsquar": 8825, "Äłsurprisi": 8826, "Äłcivilia": 8827, "Äłsurprisin": 8828, "Äłcivilian": 8829, "Äłlift": 8830, "Äłsurprising": 8831, "Äłapprec": 8832, "Äłconsci": 8833, "Äłearne": 8834, "Äłappreci": 8835, "Äłapprecia": 8836, "Äłemph": 8837, "Äłwearing": 8838, "Äłcolu": 8839, "Äłsala": 8840, "Äłmatche": 8841, "Äłaircr": 8842, "whe": 8843, "Äłbrows": 8844, "Äłfilms": 8845, "Äłexcited": 8846, "Äłtact": 8847, "round": 8848, "Äłconsideri": 8849, "ÄłSai": 8850, "Äłquan": 8851, "Äłconsiderin": 8852, "Äłconsidering": 8853, "Äłvideos": 8854, "ÄłConser": 8855, "Äłconsen": 8856, "Äłunderg": 8857, "Äłclou": 8858, "ÄłDail": 8859, "ÄłLis": 8860, "ÄłConserv": 8861, "Äłcolum": 8862, "ÄłBook": 8863, "Äłexplos": 8864, "Äłresoluti": 8865, "¤Ä": 8866, "ÄłPra": 8867, "Äłresolutio": 8868, "Äłresolution": 8869, "Äłbasica": 8870, "Äłexplosi": 8871, "ÄłKur": 8872, "Äłbasical": 8873, "Äłovert": 8874, "Äłproced": 8875, "ÄłBud": 8876, "Äł1990": 8877, "Äłbasicall": 8878, "Äłtalke": 8879, "Äłbasically": 8880, "Äłtrigg": 8881, "ÄłOly": 8882, "Äłtrigge": 8883, "Äłglas": 8884, "Äłautomatic": 8885, "Äłturnin": 8886, "ÄłQui": 8887, "Äłtrigger": 8888, "ÄłBei": 8889, "Äłturning": 8890, "Äłexperienced": 8891, "Äłdifferences": 8892, "Äłconcen": 8893, "Äłsavi": 8894, "Äłnegotiati": 8895, "ÄłConserva": 8896, "ÄłMedia": 8897, "Äłconcent": 8898, "ÄłPenn": 8899, "Äłconcentr": 8900, "Äłempha": 8901, "Äłhote": 8902, "Äłprogramme": 8903, "Äłexisten": 8904, "ÄłProgr": 8905, "Äłcof": 8906, "Äłhttps": 8907, "Äłopportuniti": 8908, "Äłcontes": 8909, "Äłprocedu": 8910, "Äłopportunitie": 8911, "Äłopportunities": 8912, "Äłprocedur": 8913, "Äłbelon": 8914, "Äłcontest": 8915, "Äłbelong": 8916, "Äłpulled": 8917, "Äłhotel": 8918, "ÄłProj": 8919, "ÄłZo": 8920, "Äłcommitm": 8921, "Äłaircra": 8922, "Äłcommitme": 8923, "Äłcommitmen": 8924, "Äłcommitment": 8925, "rent": 8926, "Äłcolumn": 8927, "resi": 8928, "Äłseriousl": 8929, "Äłseriously": 8930, "Äłaircraf": 8931, "Äłaircraft": 8932, "Äłiso": 8933, "Äłpipe": 8934, "Äłwre": 8935, "Äłrebe": 8936, "Äłglass": 8937, "line": 8938, "Äłcampu": 8939, "ÄłHaw": 8940, "Äłcampus": 8941, "ÄłLife": 8942, "Äłrebel": 8943, "Äłplot": 8944, "Äłfixe": 8945, "ÄłProje": 8946, "Äłconsumers": 8947, "Äłnav": 8948, "Äłsquare": 8949, "Äłends": 8950, "Äłbid": 8951, "ÄłNS": 8952, "Äłrealis": 8953, "Äłmetr": 8954, "Äłnominat": 8955, "ÄłJacks": 8956, "Äłquie": 8957, "Äłdeck": 8958, "Äłtreate": 8959, "Äłmotiva": 8960, "Äłemergency": 8961, "Äłcompleted": 8962, "Äłcollap": 8963, "Äłcollaps": 8964, "Äłcoc": 8965, "Äłtreated": 8966, "Äłtransac": 8967, "Äłmotivat": 8968, "Äłperma": 8969, "Äłtransact": 8970, "Äłstudio": 8971, "ÄłBon": 8972, "¦Ä": 8973, "Äłcapitali": 8974, "Äłsuppli": 8975, "ÄłDaily": 8976, "Äłmann": 8977, "Äłprecis": 8978, "Äłcombined": 8979, "ıÄ": 8980, "Äłmargi": 8981, "ÄłSaudi": 8982, "Äłstands": 8983, "Äłmargin": 8984, "Äłapps": 8985, "ÄłRoad": 8986, "Äłenemy": 8987, "ÄłIP": 8988, "Äłtom": 8989, "Äłdramat": 8990, "Äłdisast": 8991, "Äłpassin": 8992, "Äłmort": 8993, "Äłhopes": 8994, "Äłpassing": 8995, "Äłlots": 8996, "ÄłOlym": 8997, "Äłamen": 8998, "ÄłOlymp": 8999, "Äłappreciat": 9000, "Äłacademi": 9001, "Äłinjuri": 9002, "Äłtalked": 9003, "Äłdiag": 9004, "Äłconclusio": 9005, "Äłconclusion": 9006, "Äłapolo": 9007, "Äłapolog": 9008, "Äłparl": 9009, "Äłsuffere": 9010, "Äłdramati": 9011, "Äłposts": 9012, "Äłconstitutio": 9013, "Äłhumani": 9014, "Äłconstitution": 9015, "Äłprivac": 9016, "Äłneuro": 9017, "Äłconcentra": 9018, "ÄłDou": 9019, "ÄłSys": 9020, "Äłprivacy": 9021, "ÄłCarl": 9022, "ÄłJackso": 9023, "ÄłJackson": 9024, "ÄłAdmi": 9025, "Äłweat": 9026, "Äłpenalt": 9027, "Äłweath": 9028, "Äłtacti": 9029, "Äłconcentrat": 9030, "Äłdanc": 9031, "Äłbow": 9032, "Äłweathe": 9033, "Äłpowers": 9034, "Äłweather": 9035, "Äłinfla": 9036, "ÄłReco": 9037, "Äłparticipan": 9038, "Äłinitiati": 9039, "Äłdepre": 9040, "Äłplants": 9041, "Äłparticipant": 9042, "Äłdiscl": 9043, "Äłopposed": 9044, "Äłfer": 9045, "Äłexcell": 9046, "Äłwidel": 9047, "Äłwidely": 9048, "Äłdismi": 9049, "Äłgap": 9050, "Äłscheme": 9051, "Äłcollab": 9052, "Äłdismis": 9053, "Äłdismiss": 9054, "Äłnorthe": 9055, "Äłprocee": 9056, "sion": 9057, "Äłproceed": 9058, "ÄłProjec": 9059, "ÄłProject": 9060, "ÄłUse": 9061, "Äłattempts": 9062, "Äłpages": 9063, "Äłoverw": 9064, "ÄłKorean": 9065, "Äłsupplie": 9066, "Äłbrid": 9067, "Äłdefau": 9068, "Äłdefaul": 9069, "alled": 9070, "Äłdefault": 9071, "Äłcopyr": 9072, "Äłcopyri": 9073, "Äłcopyrig": 9074, "Äłcopyrigh": 9075, "Äłcopyright": 9076, "ÄłClu": 9077, "ople": 9078, "Äłcart": 9079, "ÄłiPh": 9080, "ÄłSpri": 9081, "ÄłRose": 9082, "ÄłiPho": 9083, "Äłinjure": 9084, "Äłfrus": 9085, "ÄłBBC": 9086, "ÄłSq": 9087, "Äłfrust": 9088, "Äłtempor": 9089, "Äłsuic": 9090, "ÄłCatho": 9091, "Äłsuici": 9092, "Äłsuicid": 9093, "Äłbodie": 9094, "ÄłEco": 9095, "Äłplas": 9096, "Äłpilo": 9097, "Äłdistributio": 9098, "Äłdistribution": 9099, "Äłconsol": 9100, "Äłtransacti": 9101, "Äłstoo": 9102, "Äłstorm": 9103, "ÄłToda": 9104, "Äłreporters": 9105, "Äłcollabo": 9106, "Äłupg": 9107, "ÄłRei": 9108, "Äłupgr": 9109, "ÄłCathol": 9110, "Äłupgra": 9111, "Äładdresse": 9112, "Äłcollabor": 9113, "ÄłConservat": 9114, "Äłrelev": 9115, "Äłupgrad": 9116, "ÄłCatholi": 9117, "Äłtypicall": 9118, "Äłtypically": 9119, "Äłcollabora": 9120, "ÄłOk": 9121, "Äłconvert": 9122, "Äłlaye": 9123, "ÄłRoo": 9124, "Äłfille": 9125, "Äłfrustr": 9126, "Äłcaptio": 9127, "Äłgrab": 9128, "Äł2003": 9129, "Äłpilot": 9130, "Äłvalid": 9131, "ÄłiPhon": 9132, "Äłcollaborat": 9133, "ÄłCatholic": 9134, "Äłcontributio": 9135, "Äłcontribution": 9136, "Äłcaption": 9137, "ÄłiPhone": 9138, "Äłfrustra": 9139, "Äłexcelle": 9140, "Äłquant": 9141, "Äłfrustrat": 9142, "Äłreleva": 9143, "ecause": 9144, "Äłcoor": 9145, "Äłalco": 9146, "Äłdiso": 9147, "Äłrelevan": 9148, "Äłrepa": 9149, "Äłcoop": 9150, "Äłcoord": 9151, "Äłlayer": 9152, "Äłquiet": 9153, "Äłforget": 9154, "ÄłLig": 9155, "Äłencoun": 9156, "Äłpsychol": 9157, "Äłencount": 9158, "eople": 9159, "Äłencounte": 9160, "Äłencounter": 9161, "ÄłCard": 9162, "ÄłSeat": 9163, "Äłbacke": 9164, "Äłhabi": 9165, "Äłdisappo": 9166, "Äłwrites": 9167, "Äłdisappoi": 9168, "Äłdisappoin": 9169, "Äłdisappoint": 9170, "Äłpsycholo": 9171, "Äłsecreta": 9172, "Äłpsycholog": 9173, "ÄłEne": 9174, "ÄłSov": 9175, "Äłtransactio": 9176, "Äłtransaction": 9177, "ÄłPop": 9178, "rke": 9179, "Äłsecretar": 9180, "Äłinvestigate": 9181, "Äłtempora": 9182, "Äłdenied": 9183, "Äłpound": 9184, "Äłphas": 9185, "Äłsubmit": 9186, "Äłnativ": 9187, "ÄłAT": 9188, "Äłapproved": 9189, "ÄłFoll": 9190, "Äłbodies": 9191, "Äłexpecta": 9192, "Äłcapabl": 9193, "Äłcoordi": 9194, "Äłacquir": 9195, "Äłproteste": 9196, "ÄłSyst": 9197, "ÄłRepo": 9198, "Äłcoordin": 9199, "Äłcongre": 9200, "Äłcoordina": 9201, "ÄłBran": 9202, "Äłcircums": 9203, "Äłmatters": 9204, "ÄłVis": 9205, "Äłentert": 9206, "Äł202": 9207, "Äłenterta": 9208, "Äłentertai": 9209, "Äłentertain": 9210, "ÄłToday": 9211, "Äłcoordinat": 9212, "Äłresponded": 9213, "Äłworrie": 9214, "Äłsets": 9215, "Äłnob": 9216, "Äłvit": 9217, "Äłconfidenc": 9218, "Äłconfidence": 9219, "Äł//": 9220, "ÄłAB": 9221, "Äłexpansio": 9222, "Äłexpansion": 9223, "Äłalcoh": 9224, "ÄłSqu": 9225, "Äłalcoho": 9226, "Äłalcohol": 9227, "Äłhabit": 9228, "Äłnumero": 9229, "ÄłCharle": 9230, "Äłmol": 9231, "ÄłNAS": 9232, "Äł192": 9233, "ÄłRod": 9234, "Äłcapable": 9235, "ÄłKell": 9236, "ÄłDam": 9237, "Äłlobb": 9238, "Äłmanne": 9239, "Äłrenew": 9240, "Äłdrag": 9241, "ÄłConservati": 9242, "ÄłKenn": 9243, "Äłbrigh": 9244, "Äłdeserve": 9245, "Äłbright": 9246, "ÄłWis": 9247, "Äłexploi": 9248, "Äł37": 9249, "ÄłFort": 9250, "Äłexploit": 9251, "Äłformal": 9252, "Äłcomplica": 9253, "Äłinstitutions": 9254, "ÄłOlympi": 9255, "ÄłHy": 9256, "Äłparticipate": 9257, "Äłobl": 9258, "ÄłSyste": 9259, "ÄłAfghani": 9260, "ÄłMinn": 9261, "ÄłSpeci": 9262, "Äłjun": 9263, "Äłrot": 9264, "ÄłSystem": 9265, "Äłcomplicat": 9266, "ÄłCapi": 9267, "ÄłYet": 9268, "Äłfranc": 9269, "ÄłTurke": 9270, "ÄłIll": 9271, "ÄłMille": 9272, "Äłcoff": 9273, "ÄłFC": 9274, "ÄłRen": 9275, "Äłclini": 9276, "ÄłThin": 9277, "Äłdramatic": 9278, "Äłliteral": 9279, "Äłsatis": 9280, "Äłconfident": 9281, "Äłcraz": 9282, "Äłunabl": 9283, "Äłunable": 9284, "Äłclinic": 9285, "Äłreasona": 9286, "Äłideal": 9287, "Äłreasonab": 9288, "Äłpromp": 9289, "ÄłOhi": 9290, "Äłreasonabl": 9291, "ÄłLabou": 9292, "Äłsatisf": 9293, "Äłprompt": 9294, "Äł2001": 9295, "Äłmir": 9296, "Äłcloud": 9297, "Äłprou": 9298, "Äłrelia": 9299, "Äłcraf": 9300, "Äłcraft": 9301, "Äłmand": 9302, "ÄłLabour": 9303, "ÄłAfghanis": 9304, "Äłjoke": 9305, "Äłaccurat": 9306, "Äłhin": 9307, "Äłaccurate": 9308, "ÄłOhio": 9309, "Äłnumerou": 9310, "Äłnumerous": 9311, "Äłmarrie": 9312, "Äłcompre": 9313, "ÄłAfghanist": 9314, "ÄłAfghanista": 9315, "ÄłAfghanistan": 9316, "Äłtactic": 9317, "Äłballo": 9318, "Äłattach": 9319, "ÄłVall": 9320, "Äłproud": 9321, "Äł(Ã": 9322, "Äładvic": 9323, "Äładvice": 9324, "Äłreportedl": 9325, "Äłreportedly": 9326, "ÄłTurkey": 9327, "Äłaborti": 9328, "Äłcrimes": 9329, "Äłdebut": 9330, "Äłpray": 9331, "Äłresto": 9332, "Äłwak": 9333, "Äłrespecti": 9334, "ÄłBroo": 9335, "ÄłCub": 9336, "ÄłSher": 9337, "Äłlogic": 9338, "Äłshouldn": 9339, "ition": 9340, "Äłpictures": 9341, "Äłordere": 9342, "Äłordered": 9343, "Äłloved": 9344, "Äłfaces": 9345, "Äłner": 9346, "Äłsavin": 9347, "ÄłGrand": 9348, "ÄłConfe": 9349, "Äłdemocrac": 9350, "Äłexperiences": 9351, "Äłsaving": 9352, "Äłexplains": 9353, "Äłoptimi": 9354, "ÄłCapit": 9355, "Äłprofile": 9356, "Äłfavou": 9357, "Äłfavour": 9358, "ÄłAndrew": 9359, "Äłdeclared": 9360, "Äłong": 9361, "Äłsuffered": 9362, "ÄłWA": 9363, "Äłapprox": 9364, "Äłreporti": 9365, "Äłreportin": 9366, "Äłrestricti": 9367, "Äłreporting": 9368, "Äłbitc": 9369, "ÄłSprin": 9370, "ÄłJen": 9371, "Äłmessages": 9372, "ÄłFollo": 9373, "ÄłFollow": 9374, "Äłcoope": 9375, "Äłobli": 9376, "Äłchampions": 9377, "Äłmovies": 9378, "Äłsubstant": 9379, "Äłsubstanti": 9380, "Äłongo": 9381, "Äłongoi": 9382, "Äłongoin": 9383, "Äłongoing": 9384, "Äłscena": 9385, "ÄłID": 9386, "ÄłArch": 9387, "Äłcircumst": 9388, "ÄłBarr": 9389, "Äłscenar": 9390, "Äłscenari": 9391, "Äłdelivere": 9392, "ÄłThou": 9393, "Äłphase": 9394, "Äłwalki": 9395, "Äłscenario": 9396, "Äłassig": 9397, "Äłconnecte": 9398, "Äłassign": 9399, "Äłcircumsta": 9400, "Äłcircumstan": 9401, "Äłcite": 9402, "Äłcooper": 9403, "ÄłWeek": 9404, "Äłdeclined": 9405, "Over": 9406, "Äłconnected": 9407, "Äłdiscou": 9408, "ÄłSel": 9409, "Äłnod": 9410, "ÄłQuee": 9411, "ÄłDO": 9412, "ÄłChristm": 9413, "ÄłChristma": 9414, "Äłwra": 9415, "Äłinjured": 9416, "Äłdelivered": 9417, "relat": 9418, "Äłthoughts": 9419, "Äłpicked": 9420, "Äłsubscrib": 9421, "ying": 9422, "Äłtaste": 9423, "Äłtackle": 9424, "Äłdiscri": 9425, "Äłeval": 9426, "Äłnative": 9427, "Äłdiscrim": 9428, "Äłemphas": 9429, "Äłcoopera": 9430, "ÄłIre": 9431, "Äłexcellen": 9432, "Äłdiscrimi": 9433, "Äłdiscrimin": 9434, "Äłaccompl": 9435, "Äłdiscrimina": 9436, "Äłaccompli": 9437, "Äłfindings": 9438, "Äładmitte": 9439, "Äładmitted": 9440, "Äłmotio": 9441, "ÄłChristmas": 9442, "Äłmotion": 9443, "Äłattri": 9444, "ÄłGil": 9445, "ÄłJava": 9446, "Äłcooperat": 9447, "Äłsouthe": 9448, "ÄłColu": 9449, "cons": 9450, "Äłdial": 9451, "Äłbug": 9452, "Äłleaves": 9453, "ÄłRepor": 9454, "ÄłWarr": 9455, "def": 9456, "ÄłReport": 9457, "ount": 9458, "Äłeu": 9459, "ÄłSign": 9460, "Äłguest": 9461, "ÄłLov": 9462, "ÄłRegi": 9463, "ÄłCrea": 9464, "Äłinvite": 9465, "Äłemphasi": 9466, "Äłmarried": 9467, "ÄłVol": 9468, "Äłdiscriminat": 9469, "ÄłSeri": 9470, "Äłmodu": 9471, ",Ã¢Ä¢Ä»": 9472, "Äłabortio": 9473, "Äłabortion": 9474, "Äłpublicl": 9475, "ÄłMichi": 9476, "Äłpublicly": 9477, "Äłfinance": 9478, "Äłcreative": 9479, "Äłunu": 9480, "During": 9481, "Äłarchit": 9482, "ÄłDeve": 9483, "ÄłCome": 9484, "Äłwalkin": 9485, "ÄłPR": 9486, "Äłupdates": 9487, "Äłarchite": 9488, "Äłreaders": 9489, "ÄłColum": 9490, "Äłmath": 9491, "Äłperman": 9492, "ÄłFan": 9493, "ÄłDown": 9494, "Äłarchitec": 9495, "Äłminori": 9496, "ÄłWood": 9497, "ÄłRac": 9498, "Äłarchitect": 9499, "ÄłBraz": 9500, "Äłwalking": 9501, "ÄłPy": 9502, "called": 9503, "Äłemails": 9504, "Äłrestor": 9505, "ÄłSum": 9506, "Äłpermane": 9507, "Äłminorit": 9508, "ÄłFur": 9509, "Äł38": 9510, "ÄłML": 9511, "Äłsena": 9512, "ÄłSouthe": 9513, "Äłnut": 9514, "Äłpermanen": 9515, "Äłstatements": 9516, "Äłarme": 9517, "Äłourse": 9518, "Äłoursel": 9519, "Äłdrivers": 9520, "Äłgod": 9521, "ÄłBack": 9522, "Äłstrip": 9523, "Äłdisclo": 9524, "Äłdisclos": 9525, "Äłlegit": 9526, "Äłsmil": 9527, "Äłanimat": 9528, "ÄłMuslims": 9529, "Äłactivists": 9530, "Äłcomforta": 9531, "Äłcomfortab": 9532, "Äłourselv": 9533, "Äłourselve": 9534, "Äłsacr": 9535, "Äłourselves": 9536, "Äł191": 9537, "Äłsenat": 9538, "ÄłWri": 9539, "Äł75": 9540, "Äłcomfortabl": 9541, "Äłpool": 9542, "Äłarmed": 9543, "Äłagents": 9544, "Äłcontains": 9545, "Äłrend": 9546, "Äł48": 9547, "ÄłStudi": 9548, "ÄłCharles": 9549, "Äłyel": 9550, "Äłapproxi": 9551, "Äłapproxim": 9552, "Äłapproxima": 9553, "Äłquarterb": 9554, "Äłatti": 9555, "Äłquarterba": 9556, "Äłquarterbac": 9557, "Äłquarterback": 9558, "ÄłIo": 9559, "Äłzer": 9560, "Äłobjects": 9561, "Äłapproximat": 9562, "Äłthea": 9563, "Äłmanda": 9564, "Äłhardw": 9565, "Äłfilled": 9566, "ÄłAbo": 9567, "ÄłProte": 9568, "Äłbuildings": 9569, "Äłfrau": 9570, "Äł42": 9571, "Äłdipl": 9572, "Äłcomparis": 9573, "ÄłSovi": 9574, "Äłhall": 9575, "ÄłMoun": 9576, "Äłevalu": 9577, "Äłcelebrate": 9578, "ÄłSovie": 9579, "Äłdiplo": 9580, "ÄłSoviet": 9581, "Äłpractices": 9582, "Äłbos": 9583, "Äłcompariso": 9584, "Äłcomparison": 9585, "ÄłJor": 9586, "Äłunus": 9587, "Äłevalua": 9588, "Äłcircumstanc": 9589, "ÄłCapt": 9590, "Äłcircumstance": 9591, "Äłdynam": 9592, "Äłsurroundi": 9593, "Äłsurroundin": 9594, "Äłsurrounding": 9595, "Äłrevers": 9596, "Äłarran": 9597, "Äłdisab": 9598, "Äłprovince": 9599, "Äłbol": 9600, "Äłsemi": 9601, "Äł1980": 9602, "Äłcollapse": 9603, "ÄłTechn": 9604, "Äłlinke": 9605, "Äłevaluat": 9606, "Äłeffectivel": 9607, "Äłeffectively": 9608, "ÄłMichig": 9609, "ÄłMichiga": 9610, "Äłthri": 9611, "Äłmissed": 9612, "ÄłMichigan": 9613, "Äłbanne": 9614, "Äłsic": 9615, "ÄłGM": 9616, "Äłarrang": 9617, "rme": 9618, "Äłexamples": 9619, "Äłpermanent": 9620, "ÄłUkraine": 9621, "ole": 9622, "Äłphe": 9623, "Äłaggressiv": 9624, "Äłcauses": 9625, "Äłyest": 9626, "Äłaban": 9627, "Äłyeste": 9628, "ÄłQueen": 9629, "Äłattracti": 9630, "Äłsubseq": 9631, "Äłgott": 9632, "Äłyester": 9633, "Äłtotall": 9634, "ÄłGlob": 9635, "Äłsubsequ": 9636, "Äłaggressive": 9637, "Äłsubseque": 9638, "Äłaband": 9639, "Äłsubsequen": 9640, "Äłallegations": 9641, "Äłabando": 9642, "ÄłArabi": 9643, "Äłabandon": 9644, "ÄłCompan": 9645, "Äłunif": 9646, "ÄłSeatt": 9647, "ÄłSeattl": 9648, "Äłboot": 9649, "ÄłSeattle": 9650, "Äłsecretary": 9651, "ÄłVict": 9652, "Äłmodul": 9653, "Äłrum": 9654, "tyle": 9655, "Äłbond": 9656, "ÄłAI": 9657, "Äłinjurie": 9658, "Äłinjuries": 9659, "Äłdiplom": 9660, "Äłthinks": 9661, "ÄłBoar": 9662, "Äłico": 9663, "Äłsubsequent": 9664, "Äłdiploma": 9665, "Äłessentiall": 9666, "Äłessentially": 9667, "ÄłKim": 9668, "Äłhell": 9669, "Äłelit": 9670, "Äłince": 9671, "Äłspeciali": 9672, "rem": 9673, "Äłdominat": 9674, "Äłbare": 9675, "ÄłPers": 9676, "ÄłDun": 9677, "Äłvariab": 9678, "Äłyell": 9679, "Äłrow": 9680, "ÄłBatt": 9681, "Äłnecessari": 9682, "ÄłAssa": 9683, "Äłinitiall": 9684, "Äłapproache": 9685, "Äłexplan": 9686, "Äłinitially": 9687, "Äłsubsi": 9688, "Äłtheat": 9689, "Äłicon": 9690, "Äłpure": 9691, "ÄłBrazi": 9692, "pon": 9693, "Äłsancti": 9694, "Äłwhee": 9695, "Äłcolon": 9696, "Äłresista": 9697, "Äłresc": 9698, "Äłresistan": 9699, "ÄłSeco": 9700, "Äłmaterials": 9701, "Äłgraphi": 9702, "ÄłId": 9703, "ÄłHos": 9704, "Äłclimb": 9705, "Äłsand": 9706, "Äłfranch": 9707, "Äłfranchi": 9708, "Äłexplana": 9709, "Äłfranchis": 9710, "Äłimplic": 9711, "Äłunsu": 9712, "Äłcontroversi": 9713, "ÄłAga": 9714, "uss": 9715, "Äłexplanat": 9716, "Äłfacts": 9717, "ning": 9718, "Äłnecessaril": 9719, "Äłatm": 9720, "Äłnecessarily": 9721, "Äłinfa": 9722, "Äłprovider": 9723, "Äłdynami": 9724, "Äłdocumenta": 9725, "ÄłPS": 9726, "Äłincor": 9727, "Äłing": 9728, "Äłdum": 9729, "ÄłBoard": 9730, "ÄłLoo": 9731, "Äłseiz": 9732, "ÄłBrazil": 9733, "Äłconde": 9734, "ÄłLord": 9735, "Äłhypo": 9736, "Äłwarne": 9737, "Äłaccepte": 9738, "Äłdatab": 9739, "Äłlinked": 9740, "Äłperformed": 9741, "Äłattrib": 9742, "Äłcontem": 9743, "Äłscheduled": 9744, "ÄłMinne": 9745, "Äłmyste": 9746, "Äłattribu": 9747, "Äłcontemp": 9748, "Äłking": 9749, "Äłaccepted": 9750, "Äłmyster": 9751, "Äłdevo": 9752, "Äłwarned": 9753, "Äłlou": 9754, "Äłattribut": 9755, "Äłclasse": 9756, "Äłlisted": 9757, "ÄłConn": 9758, "gle": 9759, "Äłsharp": 9760, "Äłgras": 9761, "Äłheig": 9762, "ÄłMount": 9763, "Äłdataba": 9764, "Äłheigh": 9765, "Äłhumanit": 9766, "Äłplayo": 9767, "Äłunpr": 9768, "Äłmandat": 9769, "Äłheight": 9770, "Äłincreases": 9771, "Äłdefinitio": 9772, "Äłdefinition": 9773, "Äłjoint": 9774, "Äładvanced": 9775, "Äłplayof": 9776, "Äłplayoff": 9777, "Äłfaced": 9778, "ÄłLG": 9779, "Äłlap": 9780, "Äłyesterd": 9781, "Äłyesterda": 9782, "Äłyesterday": 9783, "Äłneit": 9784, "Äłneith": 9785, "Äłneithe": 9786, "Äłneither": 9787, "Äłknoc": 9788, "Äłknock": 9789, "Äłfranchise": 9790, "Äłinp": 9791, "Äłdatabas": 9792, "Äłange": 9793, "Äłdatabase": 9794, "ÄłValle": 9795, "Äłcompetitiv": 9796, "Äłeveryb": 9797, "Äłprocesse": 9798, "ÄłManag": 9799, "Äłeverybo": 9800, "Äłeverybod": 9801, "ÄłSecon": 9802, "Äłrecon": 9803, "Äłfos": 9804, "Äłeverybody": 9805, "Äłseg": 9806, "Äłnations": 9807, "ÄłSecond": 9808, "Äłtir": 9809, "Äłpassen": 9810, "Äłcompetitive": 9811, "Äłnarrati": 9812, "ÄłGP": 9813, "ÄłEll": 9814, "Äłviolatio": 9815, "Äłviolation": 9816, "Äłmounta": 9817, "Äłrespectiv": 9818, "Äłpasseng": 9819, "Äłpassenge": 9820, "Äłpassenger": 9821, "Äłfic": 9822, "Äłprocedure": 9823, "Äłpossessi": 9824, "Äłatmo": 9825, "ÄłPhili": 9826, "Äłnearb": 9827, "Äłnearby": 9828, "Äłatmos": 9829, "Äłdiet": 9830, "Äłmountai": 9831, "Äłinterc": 9832, "Äłmountain": 9833, "Äłfollows": 9834, "even": 9835, "Äłdepres": 9836, "ÄłDevel": 9837, "Äłbegins": 9838, "ming": 9839, "Äłatmosp": 9840, "Äłoverse": 9841, "Äłatmosph": 9842, "Äłatmosphe": 9843, "Äłatmospher": 9844, "Äłrespective": 9845, "ÄłCommo": 9846, "Äłheade": 9847, "Äłmoves": 9848, "Äłchr": 9849, "Äłconsequences": 9850, "Äłdepress": 9851, "ÄłIrel": 9852, "Äłsurprised": 9853, "ÄłSpan": 9854, "ÄłBrook": 9855, "ÄłDE": 9856, "Äłbrowse": 9857, "ÄłBou": 9858, "ÄłHarri": 9859, "Äłmissil": 9860, "Äłmissile": 9861, "Äłsmoke": 9862, "Äłapartm": 9863, "Äłapartme": 9864, "Äłapartmen": 9865, "Äłapartment": 9866, "Äłimproved": 9867, "Äłamend": 9868, "Äł\\": 9869, "Äłapplied": 9870, "Äłwheel": 9871, "ÄłIrela": 9872, "ÄłIrelan": 9873, "Äłspons": 9874, "ÄłIreland": 9875, "ÄłDevelo": 9876, "Äłrepresents": 9877, "ÄłDevelop": 9878, "ÄłCNN": 9879, "Äłdeali": 9880, "Äłsponso": 9881, "ÄłWay": 9882, "ÄłDefens": 9883, "Äłenh": 9884, "Äłfounder": 9885, "Äłcup": 9886, "Äłstood": 9887, "Äłphen": 9888, "Äłsignin": 9889, "ÄłSports": 9890, "Äładds": 9891, "Äłdealin": 9892, "Äłallie": 9893, "Äłchari": 9894, "Äłsigning": 9895, "Äłsponsor": 9896, "Äłsuicide": 9897, "Äłenha": 9898, "Äłdealing": 9899, "Äłbrew": 9900, "ÄłRomn": 9901, "Äłparli": 9902, "ÄłRomne": 9903, "Äłconfig": 9904, "Äłinitiativ": 9905, "Äłparlia": 9906, "Äłparliam": 9907, "Äłparliame": 9908, "Äłparliamen": 9909, "Äłinitiative": 9910, "Äłparliament": 9911, "ÄłRomney": 9912, "ÄłColumb": 9913, "Äłrisi": 9914, "Äłenhan": 9915, "ÄłSky": 9916, "Äłmerc": 9917, "Äłdemocracy": 9918, "Äłenhanc": 9919, "Äłbottl": 9920, "long": 9921, "ÄłLA": 9922, "Äłsongs": 9923, "ÄłBarac": 9924, "Äłmayo": 9925, "Äłpreser": 9926, "ÄłAff": 9927, "Äłflood": 9928, "Äłpreserv": 9929, "Äłupgrade": 9930, "Äłacademic": 9931, "Äłguilty": 9932, "Äłthreats": 9933, "Äł49": 9934, "ÄłMayb": 9935, "Äłpushed": 9936, "ÄłJesu": 9937, "ÄłNBA": 9938, "ÄłMI": 9939, "Äłbrings": 9940, "Äłattende": 9941, "Äłoutpu": 9942, "Äłuncon": 9943, "ÄłIts": 9944, "Äłshots": 9945, "ÄłBarack": 9946, "Äłoutput": 9947, "Äłexamine": 9948, "Äłzero": 9949, "Then": 9950, "ÄłPhilip": 9951, "Äłiro": 9952, "ÄłAven": 9953, "Äłfewe": 9954, "ÄłJews": 9955, "Äłexistenc": 9956, "Äłwithd": 9957, "Äłelectroni": 9958, "Äłtotally": 9959, "Äłelectronic": 9960, "Äłcircl": 9961, "Äłwithdr": 9962, "Äłbranc": 9963, "Äłiron": 9964, "Äłexistence": 9965, "Äłdiscussed": 9966, "Äłstora": 9967, "Äłprimari": 9968, "Äłbranch": 9969, "ÄłSwed": 9970, "ÄłPrem": 9971, "Äłsoug": 9972, "Äłsough": 9973, "ÄłSev": 9974, "Äłrisin": 9975, "Äłtouri": 9976, "ÄłOnly": 9977, "Äłrising": 9978, "Äłsought": 9979, "Äłcompi": 9980, "Äłgraduate": 9981, "Äłmains": 9982, "Äłunlikel": 9983, "Äłentry": 9984, "Cont": 9985, "Äłreceivi": 9986, "Äłreceivin": 9987, "Äłentere": 9988, "Äłreceiving": 9989, "Äłinvestors": 9990, "ÄłUt": 9991, "Äłentered": 9992, "Äłgraphic": 9993, "Äłboys": 9994, "ÄłCel": 9995, "Äłstorag": 9996, "Äłstorage": 9997, "Äłaccomplis": 9998, "Äłuncl": 9999, "Äłheadl": 10000, "Äłanalyst": 10001, "Äłdisappe": 10002, "Äłaccomplish": 10003, "Äłspel": 10004, "Äłdisappea": 10005, "Äłdisappear": 10006, "Äłopposite": 10007, "Äłideo": 10008, "Äłvisib": 10009, "ÄłCos": 10010, "ÄłOri": 10011, "Äłgan": 10012, "Äłarticles": 10013, "ÄłEric": 10014, "Äł2002": 10015, "ÄłWalk": 10016, "Äłdepende": 10017, "ÄłLong": 10018, "Äłcompil": 10019, "ÄłSA": 10020, "Äłassem": 10021, "ÄłBell": 10022, "Äłcorres": 10023, "Äłcoffe": 10024, "Äłagend": 10025, "Äłcorresp": 10026, "Äłassemb": 10027, "Äłcorrespo": 10028, "Äłcorrespon": 10029, "Äłassembl": 10030, "Äłscored": 10031, "Äłcorrespond": 10032, "Äłroughl": 10033, "Äłroughly": 10034, "Äłpose": 10035, "Äłjourne": 10036, "bout": 10037, "Äłjourney": 10038, "Äłinpu": 10039, "Äłclasses": 10040, "Äłinput": 10041, "Äłmanner": 10042, "ÄłDC": 10043, "Äłarrange": 10044, "Äłporti": 10045, "Äłdedicate": 10046, "Äłunlikely": 10047, "ÄłMaybe": 10048, "Äłaffa": 10049, "ÄłLand": 10050, "Äłcorporati": 10051, "Äłagenda": 10052, "ÄłFI": 10053, "ÄłAriz": 10054, "Äłknowi": 10055, "Äłanci": 10056, "Äłideol": 10057, "Äłknowin": 10058, "Äłvice": 10059, "Äłboss": 10060, "ÄłAnot": 10061, "Äłknowing": 10062, "Äł300": 10063, "Äłdecrea": 10064, "Äłdecreas": 10065, "Äłspecu": 10066, "Äłlegiti": 10067, "Äłexplanati": 10068, "Äłexplanatio": 10069, "Äłlegitim": 10070, "Äłexplanation": 10071, "Äłideolo": 10072, "Äłpheno": 10073, "Äłspecul": 10074, "Äłideolog": 10075, "ÄłAnoth": 10076, "Äłnetworks": 10077, "ÄłAnothe": 10078, "ÄłAnother": 10079, "Äłchap": 10080, "Äłteste": 10081, "ÄłRef": 10082, "ÄłSenato": 10083, "Äłrive": 10084, "ÄłAF": 10085, "Äłfairl": 10086, "Äłexpectat": 10087, "Äłrecordi": 10088, "Äłexpectati": 10089, "Äłmeat": 10090, "Äłfairly": 10091, "Äłsky": 10092, "Äłspecula": 10093, "ÄłYu": 10094, "ÄłSenator": 10095, "Äłemis": 10096, "Äłsuccee": 10097, "Äłcata": 10098, "ÄłISIS": 10099, "Äłselectio": 10100, "Äłselection": 10101, "Äłsucceed": 10102, "Äłexpectatio": 10103, "Äłexpectation": 10104, "Äłsequen": 10105, "ÄłHarv": 10106, "Äłdispu": 10107, "Äłrecordin": 10108, "Äłcolleagues": 10109, "Äłslav": 10110, "ÄłHist": 10111, "Äłsnow": 10112, "Äłrecording": 10113, "Äłabse": 10114, "Äłdisor": 10115, "Äłfunctions": 10116, "Äłplate": 10117, "ÄłMs": 10118, "style": 10119, "Äłheavil": 10120, "Äłheavily": 10121, "ÄłClub": 10122, "ÄłYan": 10123, "Äłlibrary": 10124, "Äłunk": 10125, "Äłemiss": 10126, "ÄłGeorgi": 10127, "Äłhouseh": 10128, "Äłdeaths": 10129, "Äłdisput": 10130, "Äłtear": 10131, "ÄłTop": 10132, "Äłhouseho": 10133, "Äłhousehol": 10134, "Äłhousehold": 10135, "rep": 10136, "ÄłPrince": 10137, "Äławe": 10138, "Äłapproximate": 10139, "Äłproh": 10140, "ÄłRights": 10141, "Äłanywh": 10142, "ÄłOa": 10143, "ÄłYouT": 10144, "Äłanywhe": 10145, "Äłabsen": 10146, "Äłanywher": 10147, "Äłanywhere": 10148, "Äłhosti": 10149, "ÄłYouTu": 10150, "Äłprohi": 10151, "ÄłYouTub": 10152, "Äłprohib": 10153, "Äłsight": 10154, "ÄłYouTube": 10155, "Äłshari": 10156, "Äłcabl": 10157, "Äłprohibi": 10158, "ÄłSet": 10159, "Äłprotests": 10160, "Äłbottle": 10161, "Äłflas": 10162, "Äłcurrency": 10163, "Äłprai": 10164, "Äłyounger": 10165, "Äłlibert": 10166, "ÄłLove": 10167, "Äłexpor": 10168, "Äłimportanc": 10169, "Äłtargets": 10170, "Äłprohibit": 10171, "Äłexport": 10172, "Äłspeculat": 10173, "Äłsenato": 10174, "Äłmechanis": 10175, "Äłsenator": 10176, "ÄłEner": 10177, "Äłexter": 10178, "ÄłColora": 10179, "Äłbreaki": 10180, "Äłbreakin": 10181, "Äłimportance": 10182, "Äłbridg": 10183, "ÄłOlympic": 10184, "Äłdestroye": 10185, "Äłholi": 10186, "Äłdefined": 10187, "Äłnota": 10188, "ÄłColorad": 10189, "Äłbreaking": 10190, "Äłwalke": 10191, "Äłbird": 10192, "Äłfraud": 10193, "Äłrally": 10194, "ÄłHisto": 10195, "Äłdescrip": 10196, "Äłblin": 10197, "Äłevolu": 10198, "Äłsubsid": 10199, "Äłfash": 10200, "Äłpassio": 10201, "Äłpassion": 10202, "Äłdescript": 10203, "Äłlinks": 10204, "Äłdynamic": 10205, "Äłcere": 10206, "ÄłFO": 10207, "Äłlatt": 10208, "Äłprotester": 10209, "Äłpromin": 10210, "Äłstores": 10211, "Äłbask": 10212, "ÄłEac": 10213, "Äłmarketi": 10214, "Äłfashi": 10215, "Äłreplaced": 10216, "Äłfashio": 10217, "Äłpromine": 10218, "Äłfashion": 10219, "Äłprominen": 10220, "ÄłEach": 10221, "Äłdoctors": 10222, "Äłtemporar": 10223, "Äłevolut": 10224, "Äłportr": 10225, "Äłpreg": 10226, "ÄłDanie": 10227, "ÄłAR": 10228, "Äłempt": 10229, "ÄłMaj": 10230, "Äłcancel": 10231, "Äłevoluti": 10232, "Äłportra": 10233, "Äłspell": 10234, "Äłwint": 10235, "Äłbuyi": 10236, "ÄłWatc": 10237, "Äłbuyin": 10238, "Äłevolutio": 10239, "Äłevolution": 10240, "Äłmainst": 10241, "ÄłWatch": 10242, "Äłsensit": 10243, "Äłbuying": 10244, "Äłconfr": 10245, "Äłsensiti": 10246, "Äłelite": 10247, "ÄłDaniel": 10248, "Äłfounda": 10249, "Äłfoundat": 10250, "Äłmarketin": 10251, "Äłfoundati": 10252, "Äłfoundatio": 10253, "Äłfoundation": 10254, "ÄłSma": 10255, "Äłpractica": 10256, "Äłcable": 10257, "Äłmarketing": 10258, "Äłtermi": 10259, "Äłfacility": 10260, "ÄłSqua": 10261, "Äłaffai": 10262, "Äłregulations": 10263, "Äłaffair": 10264, "Äłdefic": 10265, "Äłsomewha": 10266, "Äłsomewhat": 10267, "Äłdefici": 10268, "ÄłEnerg": 10269, "ÄłAwar": 10270, "Äłconfro": 10271, "ÄłHoust": 10272, "Äłflee": 10273, "Äłconfron": 10274, "Äłconfront": 10275, "Äłdestru": 10276, "ÄłHousto": 10277, "Äłindustria": 10278, "Äłschol": 10279, "ÄłMul": 10280, "Äłallegedl": 10281, "Äłallegedly": 10282, "ÄłHouston": 10283, "ÄłConsti": 10284, "Äłillust": 10285, "Äłillustr": 10286, "ÄłLibera": 10287, "Äłholds": 10288, "ÄłColorado": 10289, "Äłdesk": 10290, "ÄłBoy": 10291, "Äłae": 10292, "Äłschola": 10293, "ÄłTrea": 10294, "Äłindustrial": 10295, "Äłasser": 10296, "Äłslave": 10297, "Äłdestruc": 10298, "ÄłPremi": 10299, "Äłversions": 10300, "Äłassert": 10301, "ÄłFA": 10302, "ÄłThre": 10303, "ÄłConstit": 10304, "Äłdept": 10305, "Äłdestruct": 10306, "ÄłConstitu": 10307, "Äłrelevant": 10308, "Äłprosecuto": 10309, "Äłprosecutor": 10310, "resid": 10311, "Äłcapitalis": 10312, "ÄłStephe": 10313, "Äłsubstantia": 10314, "Äłuniverse": 10315, "Äłmoments": 10316, "ÄłStephen": 10317, "Äłhardwa": 10318, "ÄłBloo": 10319, "Äłlobby": 10320, "Äłemissi": 10321, "Äłhardwar": 10322, "Äłhardware": 10323, "Äłbiol": 10324, "Äłcutt": 10325, "Äładults": 10326, "Äłmayor": 10327, "Äłfunn": 10328, "ÄłDri": 10329, "Äłsweet": 10330, "ÄłHistor": 10331, "Äłcorporatio": 10332, "Äłcorporation": 10333, "Äłmainl": 10334, "Äłfict": 10335, "Äłcomed": 10336, "Äłresig": 10337, "Äłfes": 10338, "Äłficti": 10339, "Äłresign": 10340, "ÄłCame": 10341, "Äłsees": 10342, "Äłsufferi": 10343, "Äłsufferin": 10344, "Äłancie": 10345, "Äłancien": 10346, "Äłsuffering": 10347, "Äłwinte": 10348, "Äłnarrativ": 10349, "Äłwinter": 10350, "Äłsanctio": 10351, "Äłsanction": 10352, "Äłirre": 10353, "ÄłLigh": 10354, "Äłemissio": 10355, "Äłemission": 10356, "Äłprovis": 10357, "Äł41": 10358, "Äłlad": 10359, "ÄłValley": 10360, "Äłhopi": 10361, "Äłassociati": 10362, "ÄłLight": 10363, "ÄłLati": 10364, "Äłvita": 10365, "Äłhopin": 10366, "ÄłUl": 10367, "Äłendor": 10368, "Äłnarrative": 10369, "ÄłMarin": 10370, "Äłhoping": 10371, "Äłharder": 10372, "Äłclosel": 10373, "Äłclosely": 10374, "Äłdeepe": 10375, "Äłrouti": 10376, "Äłfewer": 10377, "Äłfarme": 10378, "Äłroutin": 10379, "Äłregulato": 10380, "Äłregulator": 10381, "Äłsick": 10382, "Äłapprova": 10383, "Äłdownt": 10384, "Äłregiona": 10385, "ÄłWate": 10386, "Äłplai": 10387, "Äłregional": 10388, "Äłcruc": 10389, "Äłpersonali": 10390, "Äłacts": 10391, "ÄłScr": 10392, "ÄłGames": 10393, "Äłapproval": 10394, "Äłterrib": 10395, "Äłasi": 10396, "rev": 10397, "Äłancient": 10398, "Äłcruci": 10399, "Äłextent": 10400, "ÄłPlu": 10401, "Äłterribl": 10402, "Äłvolunte": 10403, "ÄłWater": 10404, "Äłtraine": 10405, "Äłvoluntee": 10406, "Äłvolunteer": 10407, "Äłexcellent": 10408, "reside": 10409, "ÄłHolly": 10410, "Äłfunctiona": 10411, "ÄłOF": 10412, "ÄłCIA": 10413, "Äłale": 10414, "Äłportio": 10415, "Äłportion": 10416, "Äłscholar": 10417, "Äłreturns": 10418, "Äłfest": 10419, "Äłpractical": 10420, "ÄłWik": 10421, "ÄłNex": 10422, "Äłdeco": 10423, "ÄłOrl": 10424, "Äłmechanism": 10425, "relate": 10426, "ÄłUr": 10427, "Äłcreatu": 10428, "Äłwake": 10429, "Äłdispute": 10430, "Äłcreatur": 10431, "Äłbiolo": 10432, "Äłparticipants": 10433, "Äłcreature": 10434, "Äłsquad": 10435, "Äłbiolog": 10436, "ÄłHT": 10437, "Äłacquire": 10438, "Äłisol": 10439, "Äłrende": 10440, "residen": 10441, "ÄłDavis": 10442, "ÄłCP": 10443, "Äłrely": 10444, "Äłped": 10445, "Äłsensitiv": 10446, "inter": 10447, "ÄłCop": 10448, "Äłcontroversia": 10449, "Äłtermin": 10450, "Äłcontroversial": 10451, "ÄłUb": 10452, "ÄłManage": 10453, "Äłgrown": 10454, "Äłprovisi": 10455, "related": 10456, "ÄłEnte": 10457, "Äłisola": 10458, "Äłprovisio": 10459, "Äłprovision": 10460, "Äłcircle": 10461, "Äłunkn": 10462, "Äłpolls": 10463, "Äłhors": 10464, "Äłunkno": 10465, "Äłcircumstances": 10466, "Äłisolat": 10467, "Äłanywa": 10468, "reg": 10469, "Äłanyway": 10470, "Äłbridge": 10471, "Äłactin": 10472, "ÄłConservativ": 10473, "Äłunknow": 10474, "ÄłConservative": 10475, "Äłresolv": 10476, "ÄłExc": 10477, "Äł44": 10478, "ÄłEcon": 10479, "ÄłNetw": 10480, "Äłendors": 10481, "Äłservin": 10482, "owing": 10483, "Äłserving": 10484, "Äłattit": 10485, "Äłchairm": 10486, "Äłmout": 10487, "Äłdetaile": 10488, "Äłwins": 10489, "Äłattitu": 10490, "Äłattitud": 10491, "ÄłVicto": 10492, "arge": 10493, "Äłparam": 10494, "Äłtau": 10495, "Äłmouth": 10496, "Äłdetailed": 10497, "ÄłTar": 10498, "ÄłNetwo": 10499, "Äłdecen": 10500, "Äłseed": 10501, "ÄłIc": 10502, "ÄłNetwor": 10503, "Äłflash": 10504, "ÄłMov": 10505, "ÄłStri": 10506, "ÄłNetwork": 10507, "Äłdestructi": 10508, "ÄłFour": 10509, "Äłembar": 10510, "Äłcapabi": 10511, "ÄłVictor": 10512, "Äłcapabil": 10513, "Äłmixe": 10514, "Äłcapabili": 10515, "Äłcapabilit": 10516, "Äłbaske": 10517, "ÄłConstitut": 10518, "Äłcrazy": 10519, "ÄłYoun": 10520, "Äłpublica": 10521, "ÄłHunt": 10522, "ÄłDut": 10523, "Äłalg": 10524, "Äłteachi": 10525, "Äłteachin": 10526, "Äłrelationships": 10527, "Äłteaching": 10528, "Äłgenet": 10529, "ÄłConstituti": 10530, "Äłattitude": 10531, "Äłston": 10532, "Äł55": 10533, "Äłlies": 10534, "ÄłWiki": 10535, "ÄłEaste": 10536, "Äłcarryi": 10537, "Äłcarryin": 10538, "Äłcarrying": 10539, "Äłgeneti": 10540, "ÄłSpani": 10541, "ÄłConstitutio": 10542, "Äłgenetic": 10543, "Äłtire": 10544, "ÄłConstitution": 10545, "ÄłGat": 10546, "Äłindicati": 10547, "Äłkinds": 10548, "Äłexhi": 10549, "ÄłIri": 10550, "ÄłJesus": 10551, "Äłhorse": 10552, "ÄłEaster": 10553, "Äłimmigrants": 10554, "Äłcontinui": 10555, "ÄłGeorgia": 10556, "¬Ä": 10557, "ÄłMia": 10558, "Äłtiny": 10559, "Äłlatte": 10560, "ÄłNon": 10561, "Äłbasket": 10562, "Äłfeatured": 10563, "Äłchip": 10564, "Äłsurvei": 10565, "Äłsurveil": 10566, "Äłconsp": 10567, "Äłreferre": 10568, "Äłearned": 10569, "Äłram": 10570, "ÄłClas": 10571, "Äłspeake": 10572, "Äłbitco": 10573, "Äłclassif": 10574, "Äłfrui": 10575, "Äłplain": 10576, "Äłauthors": 10577, "Äłupc": 10578, "ÄłKer": 10579, "Äłfruit": 10580, "Äłdonati": 10581, "ÄłEcono": 10582, "Äł65": 10583, "Äłtall": 10584, "Äłpushi": 10585, "Äłacting": 10586, "Äłartists": 10587, "Äłformed": 10588, "Äłpushin": 10589, "Äłefficient": 10590, "Äłfunctional": 10591, "Äłprais": 10592, "mple": 10593, "ÄłArizo": 10594, "Äładven": 10595, "ÄłArizon": 10596, "ÄłCrim": 10597, "Äłbitcoi": 10598, "Äłbitcoin": 10599, "ÄłLead": 10600, "Äłurb": 10601, "Äładvent": 10602, "Äłpushing": 10603, "Äłthera": 10604, "ÄłArizona": 10605, "ÄłPuti": 10606, "Äłembra": 10607, "Äłlawm": 10608, "Äłcriticiz": 10609, "Äłinstrum": 10610, "Äłinstrume": 10611, "Äłinstrumen": 10612, "Äłinstrument": 10613, "Äłillustra": 10614, "ÄłAL": 10615, "Äłheadli": 10616, "Äłobjectiv": 10617, "Äłillustrat": 10618, "Äłshoulde": 10619, "aut": 10620, "Äłliq": 10621, "ÄłEnter": 10622, "Äłembrac": 10623, "Äłshoulder": 10624, "ÄłEconom": 10625, "Äłcoffee": 10626, "Äłster": 10627, "Äłliqu": 10628, "ÄłSC": 10629, "ÄłPutin": 10630, "resident": 10631, "Äłsharin": 10632, "Äłurba": 10633, "Äłsharing": 10634, "Äłpermis": 10635, "Äłtherap": 10636, "Äłconspi": 10637, "Äłurban": 10638, "Äłcomfortable": 10639, "ÄłAsian": 10640, "Äłreferred": 10641, "Äłfrequentl": 10642, "Äłfrequently": 10643, "ÄłCommon": 10644, "Äłsteal": 10645, "Äłuncle": 10646, "Like": 10647, "Äłowned": 10648, "Äłlawma": 10649, "ÄłKev": 10650, "Äłevil": 10651, "Äłlesso": 10652, "Äłriver": 10653, "Äłchairma": 10654, "ÄłSupp": 10655, "Äłpermiss": 10656, "Äłchairman": 10657, "ÄłWild": 10658, "Äłupdated": 10659, "Äłalongs": 10660, "Äłvariabl": 10661, "Äłchro": 10662, "ÄłBir": 10663, "Äłalongsi": 10664, "Äłalongsid": 10665, "Äłalongside": 10666, "Äłpermissi": 10667, "Äłsurveill": 10668, "Äłrepeatedl": 10669, "Äłrepeatedly": 10670, "ÄłCros": 10671, "Äłupco": 10672, "ÄłNorthe": 10673, "ÄłInfo": 10674, "Äłdescripti": 10675, "Äłobserva": 10676, "Äłattempte": 10677, "Äłextensio": 10678, "Äłhitt": 10679, "Äłextension": 10680, "Äłremot": 10681, "ÄłRog": 10682, "ÄłOre": 10683, "Äłplast": 10684, "£Ä¤": 10951, "Äłspeaker": 10686, "ÄłAuth": 10687, "Äłtende": 10688, "Äłattempted": 10689, "ÄłGla": 10690, "Äłlesson": 10691, "ÄłCiv": 10692, "Äłfemi": 10693, "Äłvariable": 10694, "ÄłWars": 10695, "ÄłItali": 10696, "Äłunw": 10697, "Äłparticipati": 10698, "ÄłWol": 10699, "Äłupcom": 10700, "Äłfilt": 10701, "Äłinstructi": 10702, "ÄłDivi": 10703, "Äłremote": 10704, "Äłsettlem": 10705, "Äłsettleme": 10706, "Äłsettlemen": 10707, "Äłsettlement": 10708, "ÄłOld": 10709, "Äłupcomi": 10710, "Äłupcomin": 10711, "Äłupcoming": 10712, "ÄłAsh": 10713, "Äłegg": 10714, "ÄłNY": 10715, "Äłmete": 10716, "ÄłEnergy": 10717, "Äłlawmak": 10718, "Äłimpressiv": 10719, "Äłimpressive": 10720, "Äłairpo": 10721, "ÄłNigh": 10722, "Äłdisaste": 10723, "Äłfemin": 10724, "Äłdisaster": 10725, "Äłpeak": 10726, "Äłfarmer": 10727, "Äłrealized": 10728, "¦Â": 10729, "Äł39": 10730, "ÄłLeo": 10731, "Äłdepth": 10732, "Äłdedicated": 10733, "Äłdict": 10734, "Äłtil": 10735, "Äłlegitima": 10736, "ÄłWils": 10737, "Äłstruck": 10738, "ÄłMS": 10739, "ÄłCruz": 10740, "ÄłCreat": 10741, "Äłdependen": 10742, "Äłfemini": 10743, "ÄłAgenc": 10744, "Äłbenc": 10745, "ÄłDefense": 10746, "Äłbench": 10747, "Äłpregn": 10748, "Äłreput": 10749, "Äłinspired": 10750, "Äłnoi": 10751, "ÄłAlle": 10752, "Äłboat": 10753, "Äłvalua": 10754, "ÄłNight": 10755, "Äłpregna": 10756, "Äłupp": 10757, "Äłantic": 10758, "Äłpregnan": 10759, "Äłrender": 10760, "Äłmons": 10761, "Äłunderw": 10762, "Äłwalked": 10763, "ÄłBase": 10764, "ÄłDesp": 10765, "Äłordi": 10766, "ÄłMissi": 10767, "Äłtargete": 10768, "Äłmainstr": 10769, "ÄłÃĥÂ": 10770, "Äłmainstre": 10771, "ÄłTan": 10772, "Äłordin": 10773, "ÄłRadi": 10774, "Äłcerti": 10775, "ÄłFis": 10776, "Äłlawmake": 10777, "Äłlawmaker": 10778, "Äłmainstrea": 10779, "Äłinterfa": 10780, "Äłsequenc": 10781, "Äłtargeted": 10782, "Äłmainstream": 10783, "Äłairpor": 10784, "Äłfasc": 10785, "ÄłBull": 10786, "Äłairport": 10787, "Äłgea": 10788, "Äłpled": 10789, "Äłfrac": 10790, "ÄłConti": 10791, "ÄłUF": 10792, "Äłsalar": 10793, "dge": 10794, "Äłteena": 10795, "Äłteenag": 10796, "Äłdesti": 10797, "Äłteenage": 10798, "game": 10799, "Äłoccasiona": 10800, "Äłoccasional": 10801, "Äłopponents": 10802, "Äłstun": 10803, "Äłelev": 10804, "Äłcausi": 10805, "Äłbrowser": 10806, "Äłordina": 10807, "Äłfasci": 10808, "Äłcausin": 10809, "Äłrocke": 10810, "Äłorders": 10811, "Äłassets": 10812, "Äłcausing": 10813, "Äłnewsl": 10814, "Äłgear": 10815, "ÄłItalia": 10816, "Äłnewsle": 10817, "Äłnewslet": 10818, "Äłnewslett": 10819, "Äłnewslette": 10820, "Äłnewsletter": 10821, "read": 10822, "Äłslid": 10823, "Äłwrap": 10824, "Äłcollectiv": 10825, "ÄłKon": 10826, "Äł64": 10827, "ÄłThoug": 10828, "ÄłThough": 10829, "Äłsurveilla": 10830, "Äłenhance": 10831, "Äłsurveillan": 10832, "Äłreduct": 10833, "Äłassociatio": 10834, "Äłassociation": 10835, "ÄłAgai": 10836, "ÄłTay": 10837, "ÄłAgain": 10838, "Äłsurveillanc": 10839, "Äłsurveillance": 10840, "ÄłBowl": 10841, "ÄłNE": 10842, "ÄłChro": 10843, "People": 10844, "Äłfictio": 10845, "Äłwatched": 10846, "Äłoverwh": 10847, "Äłfiction": 10848, "Äłoverwhe": 10849, "Äłasid": 10850, "inde": 10851, "Äłoverwhel": 10852, "Äłoverwhelm": 10853, "Äłwhis": 10854, "ÄłSocie": 10855, "Äłaside": 10856, "Äłtag": 10857, "Äłtort": 10858, "Äłlatter": 10859, "ÄłYoung": 10860, "ÄłTit": 10861, "Äłprotecte": 10862, "ÄłVeg": 10863, "ÄłFul": 10864, "ÄłHop": 10865, "Äłliterall": 10866, "Äłliterally": 10867, "Äłobserved": 10868, "Äłalie": 10869, "ÄłLam": 10870, "ÄłAS": 10871, "Äłalien": 10872, "ÄłAdmin": 10873, "Äłstone": 10874, "Äłprotected": 10875, "Äłevolv": 10876, "Äłreducti": 10877, "ÄłAward": 10878, "Äłvent": 10879, "Äłmusc": 10880, "Äłunusu": 10881, "Äłteachers": 10882, "Äłunusua": 10883, "Äłunusual": 10884, "Äłpublicat": 10885, "ÄłCivi": 10886, "Äłbattery": 10887, "Äłassistant": 10888, "Äłfuc": 10889, "Äłprecise": 10890, "Äłprogressiv": 10891, "Äłpublicati": 10892, "Äłsubstantial": 10893, "Äłpublicatio": 10894, "§Ä": 10895, "Äłpublication": 10896, "Äł43": 10897, "Äłdeepl": 10898, "Äłimper": 10899, "Äłsendi": 10900, "ÄłDom": 10901, "Äłdeeply": 10902, "Äłtowe": 10903, "Äłsendin": 10904, "ÄłLatin": 10905, "ÄłSeve": 10906, "Äłsending": 10907, "Äłnegotiatio": 10908, "Äłnegotiation": 10909, "Äłhorri": 10910, "ÄłTest": 10911, "Äłsham": 10912, "Äłphenom": 10913, "Äłcongres": 10914, "Äłka": 10915, "Äłdepu": 10916, "Äłcertif": 10917, "Äłcongress": 10918, "Äłfolks": 10919, "Äłvoc": 10920, "ÄłPit": 10921, "ÄłTake": 10922, "Äłpunc": 10923, "Äłchas": 10924, "ÄłContin": 10925, "Äłimpose": 10926, "Äłdron": 10927, "Äłproperti": 10928, "ÄłCast": 10929, "Äłnoticed": 10930, "Äłpropertie": 10931, "Äłexciti": 10932, "Äłlocke": 10933, "Äłexcitin": 10934, "ÄłCarr": 10935, "Äłexciting": 10936, "ÄłNote": 10937, "Äłtransm": 10938, "Äłfixed": 10939, "Äłforth": 10940, "Äładvertise": 10941, "Äłextende": 10942, "Äłsuffi": 10943, "Äłaliv": 10944, "ÄłInve": 10945, "Äłendi": 10946, "Äłunem": 10947, "Äłalive": 10948, "ÄłJr": 10949, "Äłexpense": 10950, "Äłproperties": 10952, "Äłnorther": 10953, "ÄłSociet": 10954, "ÄłPolit": 10955, "Äłgang": 10956, "Äłpossessio": 10957, "Äłpossession": 10958, "Äłrisks": 10959, "Äłminds": 10960, "Äłbarri": 10961, "ÄłCS": 10962, "Äłconscio": 10963, "Äłrequirements": 10964, "Äłconsciou": 10965, "ÄłÃİ": 10966, "ÄłTam": 10967, "Äłconscious": 10968, "Äłabr": 10969, "Äłneut": 10970, "Äłshak": 10971, "Äłmemori": 10972, "Äłnarro": 10973, "Äłrefugees": 10974, "Äłdeput": 10975, "Äłnarrow": 10976, "ÄłSpring": 10977, "ÄłBuc": 10978, "Äłrescu": 10979, "ÄłStand": 10980, "ÄłTrad": 10981, "Äłmarc": 10982, "Äłinterfac": 10983, "Äłtai": 10984, "ÄłCall": 10985, "Äłexhib": 10986, "ÄłIT": 10987, "Äłfau": 10988, "Äłreductio": 10989, "Äłdisord": 10990, "Äłnur": 10991, "Äłpledg": 10992, "Äłfuck": 10993, "Äłexhibi": 10994, "ÃĻÄ": 31913, "Äłdisorde": 10996, "Äłdisorder": 10997, "ÄłMiller": 10998, "Äłderi": 10999, "Äł1970": 11000, "Äłunemp": 11001, "ille": 11002, "Äłunknown": 11003, "Äłexhibit": 11004, "ÄłAca": 11005, "Äłami": 11006, "ÄłDetr": 11007, "ÄłThro": 11008, "ÄłQa": 11009, "ÄłJord": 11010, "ÄłMax": 11011, "Äłfak": 11012, "Äłtested": 11013, "Äłeati": 11014, "Äłsole": 11015, "Äłeatin": 11016, "Äłpromised": 11017, "Äłunempl": 11018, "Äłunemplo": 11019, "Äłunemploy": 11020, "Äłforest": 11021, "ÄłIris": 11022, "Äłunfor": 11023, "ÄłKenne": 11024, "Äłeating": 11025, "Äłinvolvi": 11026, "Äłinvolvin": 11027, "Äłinvolving": 11028, "Äłoverc": 11029, "Äłreduction": 11030, "Äłattacked": 11031, "Äłdrone": 11032, "Äłobjective": 11033, "ÄłEdw": 11034, "ÄłFat": 11035, "Äłmechanic": 11036, "Äłphenome": 11037, "Äłnorthern": 11038, "Äłproo": 11039, "Äłangr": 11040, "Äłphenomen": 11041, "Äłlocations": 11042, "Äłdestroyed": 11043, "Äłinteractio": 11044, "Äłinteraction": 11045, "ÄłChild": 11046, "ÄłSomet": 11047, "Äłproperl": 11048, "Äłproperly": 11049, "ÄłRevi": 11050, "Äłmono": 11051, "Äłextended": 11052, "Äłproof": 11053, "ÄłOS": 11054, "Äłequiv": 11055, "ÄłRoya": 11056, "Äłstak": 11057, "ÄłEp": 11058, "ÄłMoor": 11059, "Äłputs": 11060, "ÄłHit": 11061, "ÄłFrie": 11062, "ÄłBest": 11063, "Äłprogressive": 11064, "Äłsuddenl": 11065, "Äł150": 11066, "Äłsuddenly": 11067, "Äłmodifi": 11068, "ÄłKevi": 11069, "Äłendin": 11070, "ÄłWome": 11071, "Äłapproximatel": 11072, "Äłapproximately": 11073, "Äłtape": 11074, "Äłmatches": 11075, "ÃĲÂ": 11076, "Äłending": 11077, "ÄłKevin": 11078, "ÄłWomen": 11079, "Äłterritory": 11080, "ÄłHarris": 11081, "ÄłPoi": 11082, "Äłpov": 11083, "Äłinhe": 11084, "Äłmaximu": 11085, "ÄłRoyal": 11086, "Äłinher": 11087, "Äłdry": 11088, "Äłenth": 11089, "Äłreliab": 11090, "Äłprotesters": 11091, "Äłracia": 11092, "Äłracial": 11093, "Äłslowl": 11094, "Äłpate": 11095, "inf": 11096, "ÄłVil": 11097, "Äłenr": 11098, "Äłslowly": 11099, "Äłinterface": 11100, "Äłhype": 11101, "Äłmerel": 11102, "Äłheadlin": 11103, "Äłmerely": 11104, "Äłbunc": 11105, "Äłterrorism": 11106, "Äłinsul": 11107, "Äłbunch": 11108, "Äłmaximum": 11109, "ÄłForm": 11110, "ÄłWilso": 11111, "ÄłWilson": 11112, "Äłhomo": 11113, "Äłdestin": 11114, "Äłselecte": 11115, "Äłroutine": 11116, "Äłattribute": 11117, "Äłmarch": 11118, "Äłreputa": 11119, "ÄłHin": 11120, "Äłrequests": 11121, "Äłdiagn": 11122, "Äłselected": 11123, "ÄłKy": 11124, "ÄłGh": 11125, "ÄłSno": 11126, "Äłdiagno": 11127, "ÄłSumm": 11128, "Äłdiagnos": 11129, "Äł51": 11130, "Äłdistribute": 11131, "ÄłHenr": 11132, "Äłveri": 11133, "Äłuppe": 11134, "Äłconfigu": 11135, "Äłconfigur": 11136, "ÄłBol": 11137, "ÄłStati": 11138, "Äłoblig": 11139, "Äłhara": 11140, "Äłfalli": 11141, "Äłnotab": 11142, "Äłviewer": 11143, "Äłoce": 11144, "Äłdance": 11145, "ÄłDetro": 11146, "Äłempty": 11147, "Äłpove": 11148, "Äłimmu": 11149, "Äłdisag": 11150, "Äłresistanc": 11151, "Äłresistance": 11152, "ÄłDetroi": 11153, "ÄłDetroit": 11154, "Äłdescriptio": 11155, "Äłdescription": 11156, "Äłmodera": 11157, "Äłdecrease": 11158, "Äłworried": 11159, "name": 11160, "Äłunfa": 11161, "Äłmoderat": 11162, "Äłappreciate": 11163, "Äłstabi": 11164, "ÄłGreek": 11165, "Äłstabil": 11166, "Äł_": 11167, "Äłfesti": 11168, "ÄłAlexa": 11169, "ÄłHot": 11170, "ÄłMast": 11171, "ÄłCamer": 11172, "Äłbia": 11173, "Äłdecent": 11174, "Äłfestiv": 11175, "ÄłHollyw": 11176, "Äłtrap": 11177, "ÄłFord": 11178, "Äłpover": 11179, "cond": 11180, "Äłeliminate": 11181, "Äłmonst": 11182, "ÄłCD": 11183, "ÄłMain": 11184, "Äłrub": 11185, "ÄłTele": 11186, "ÄłAgency": 11187, "Äłcomplicate": 11188, "Äłdeals": 11189, "Äłsupports": 11190, "ÄłHollywo": 11191, "ÄłHollywoo": 11192, "ÄłItalian": 11193, "ÄłClass": 11194, "Äłpace": 11195, "ÄłHollywood": 11196, "Äłpovert": 11197, "Äłundersto": 11198, "Äłholid": 11199, "Äłholida": 11200, "Äłstabili": 11201, "Äłregr": 11202, "Äłpoverty": 11203, "Äłholiday": 11204, "Äłlikes": 11205, "Äłnotabl": 11206, "Äłocea": 11207, "Äłcollective": 11208, "Äłocean": 11209, "Äłunb": 11210, "ÄłAdmini": 11211, "ÄłJers": 11212, "ÄłAdminis": 11213, "Äłnomine": 11214, "ÄłAdminist": 11215, "Äłstric": 11216, "ÄłSuc": 11217, "Äłstake": 11218, "Äłfaciliti": 11219, "Äłnominee": 11220, "Äłallies": 11221, "Äłfacilitie": 11222, "Äłfacilities": 11223, "Äłcrucia": 11224, "Äłcopi": 11225, "Äłdiversi": 11226, "ÄłEnd": 11227, "Äłmedici": 11228, "Äłdisagr": 11229, "Äłdisagre": 11230, "ÄłJerse": 11231, "Äłdisagree": 11232, "ÄłSociety": 11233, "ÄłJersey": 11234, "Äłarguments": 11235, "ÄłAtto": 11236, "Äłsubt": 11237, "Äłunderstoo": 11238, "ÄłEth": 11239, "Äłunderstood": 11240, "ÄłOrg": 11241, "Äłanon": 11242, "Äłsouther": 11243, "Äłmedicin": 11244, "Äłrost": 11245, "Äłtransmi": 11246, "Äłprominent": 11247, "Äłelectrici": 11248, "Äłcontrolled": 11249, "Äłinch": 11250, "Äłfees": 11251, "ÄłConv": 11252, "Äłresolve": 11253, "Äłplug": 11254, "ÄłNick": 11255, "Äłsomeh": 11256, "Äłinsig": 11257, "ÄłTurn": 11258, "ves": 11259, "ÄłVid": 11260, "Äłsomeho": 11261, "ÄłJas": 11262, "Äłendorse": 11263, "Äłsomehow": 11264, "Äłwarra": 11265, "ÄłNatu": 11266, "Äłwarran": 11267, "Äłwarrant": 11268, "ÄłAttor": 11269, "ÄłAh": 11270, "ÄłAdministr": 11271, "ÄłEdu": 11272, "ÄłAdministra": 11273, "ÄłAttorn": 11274, "ÄłAttorne": 11275, "ÄłAttorney": 11276, "ÄłBria": 11277, "Äłneutr": 11278, "ÄłItaly": 11279, "ÄłVin": 11280, "Äłethi": 11281, "ÄłProfe": 11282, "ÄłCompany": 11283, "Äłinstant": 11284, "Äłcritics": 11285, "ÄłMarke": 11286, "Äłequiva": 11287, "Äłequival": 11288, "Äłsmile": 11289, "Äłjournalists": 11290, "Äłinstalle": 11291, "Äłvoca": 11292, "Äłregions": 11293, "Äłkni": 11294, "ÄłAdministrat": 11295, "Äłequivale": 11296, "Äłcommunications": 11297, "Äłstim": 11298, "Äłwithdra": 11299, "Äłwithdraw": 11300, "Äłequivalen": 11301, "Äłunn": 11302, "Äłpromotio": 11303, "ÄłAcad": 11304, "Äłpromotion": 11305, "Äłobtaine": 11306, "ÄłProfes": 11307, "Äłethic": 11308, "Äłobtained": 11309, "ÄłGall": 11310, "Äłlimits": 11311, "Äłpersonall": 11312, "Äłpersonally": 11313, "Äłcutti": 11314, "Äłsoul": 11315, "Äłcuttin": 11316, "ÄłWea": 11317, "ÄłPoliti": 11318, "Äłpitche": 11319, "Äłcutting": 11320, "Äłexposed": 11321, "Äłnerv": 11322, "ÄłProfess": 11323, "Äłdisci": 11324, "Äłsurger": 11325, "ÄłSpanis": 11326, "incl": 11327, "ÄłSpanish": 11328, "Äłdiscip": 11329, "ħÂ": 11330, "Äłdiscipl": 11331, "Äłemployer": 11332, "while": 11333, "Äłfallin": 11334, "Äłnos": 11335, "ÄłManc": 11336, "Äłaudio": 11337, "Äłsouthern": 11338, "Äłthread": 11339, "Äłfalling": 11340, "Äłstrongl": 11341, "Äłnois": 11342, "Äłsomewhe": 11343, "lling": 11344, "Äłstrongly": 11345, "ÄłDA": 11346, "Äłdemonstrati": 11347, "ÄłGaz": 11348, "ÄłSla": 11349, "Äłsomewher": 11350, "Äłsomewhere": 11351, "ÄłLes": 11352, "Äłflav": 11353, "Äłpoe": 11354, "Äłtempl": 11355, "Äłcondem": 11356, "Äłfake": 11357, "Äłvacc": 11358, "ÄłAutho": 11359, "ÄłDespi": 11360, "ÄłNASA": 11361, "ÄłAuthor": 11362, "Äłcondemn": 11363, "Äłves": 11364, "Äłcrucial": 11365, "Äłharas": 11366, "Äłswo": 11367, "Äłtouris": 11368, "Äłharass": 11369, "Äłdrawi": 11370, "Äłheadline": 11371, "Äłcertifi": 11372, "Äłsuffic": 11373, "Äłdrawin": 11374, "Äłcoali": 11375, "Äłknee": 11376, "Äłdrawing": 11377, "Äłeditio": 11378, "Äłrif": 11379, "Äłvacci": 11380, "Äłedition": 11381, "Äłvaccin": 11382, "Äławes": 11383, "Äłimplementa": 11384, "Äłrestrictio": 11385, "Äłchic": 11386, "Äłrestriction": 11387, "Äłrescue": 11388, "ÄłSara": 11389, "ÄłTour": 11390, "ÄłDy": 11391, "Äłplasti": 11392, "Äłinti": 11393, "Äłconspir": 11394, "Äłroste": 11395, "Äłroster": 11396, "Äłestat": 11397, "ÄłRA": 11398, "ÄłNatur": 11399, "ÄłRand": 11400, "ÄłLen": 11401, "Äłmeetings": 11402, "Äłcoalit": 11403, "Äłcoaliti": 11404, "Äłflex": 11405, "ÄłKno": 11406, "Äłcoalitio": 11407, "Äłcoalition": 11408, "ÄłMiam": 11409, "Äłsuspend": 11410, "ÄłMiami": 11411, "Äłhyd": 11412, "Äłbarre": 11413, "Äłanony": 11414, "Äłtrag": 11415, "ÄłLabor": 11416, "Äłanonym": 11417, "Äłemissions": 11418, "Äłinfi": 11419, "Äłballot": 11420, "Äłstimu": 11421, "Äłstimul": 11422, "Äłinstructio": 11423, "Äłinstruction": 11424, "Äłimplementat": 11425, "ÄłKni": 11426, "ÄłCod": 11427, "Äłestate": 11428, "Äłimplementati": 11429, "Äłastr": 11430, "Äłimplementatio": 11431, "Äłimplementation": 11432, "ÄłMake": 11433, "Äłplastic": 11434, "Äłcompro": 11435, "Äłhydr": 11436, "ÄłArti": 11437, "Äłdirecte": 11438, "Äłdespe": 11439, "ÄłJuli": 11440, "Äłhits": 11441, "Äłcrus": 11442, "Äłflavo": 11443, "Äłcomprom": 11444, "Äłsmartp": 11445, "Äłtrees": 11446, "Äłsnap": 11447, "ÄłCart": 11448, "Äłclassifi": 11449, "Äłsmartph": 11450, "Äłsmartpho": 11451, "Äłsmartphon": 11452, "Äłsmartphone": 11453, "Äłcooperati": 11454, "Äłdesper": 11455, "Äłhopef": 11456, "Äłhopefu": 11457, "Äłhopeful": 11458, "ÄłDespit": 11459, "ÄłDespite": 11460, "Äłbias": 11461, "ÄłSP": 11462, "ÄłJorda": 11463, "ÄłNHL": 11464, "Äłcompromi": 11465, "Äłgoods": 11466, "Äłcompromis": 11467, "Äławeso": 11468, "Äławesom": 11469, "Äłanx": 11470, "Äłstronger": 11471, "Äłbai": 11472, "Äłdespera": 11473, "Äłanxi": 11474, "Äławesome": 11475, "Äłgotte": 11476, "Äłgotten": 11477, "Äłloud": 11478, "ÄłIrish": 11479, "ÄłBrian": 11480, "ÄłDer": 11481, "ÄłAnde": 11482, "Äłpurposes": 11483, "Äłqualifi": 11484, "Äłdirected": 11485, "ÄłRay": 11486, "Äłlege": 11487, "Äłdesperat": 11488, "Äłhung": 11489, "Äłinq": 11490, "Äłdeleg": 11491, "mont": 11492, "Äłinqu": 11493, "Äłintelle": 11494, "Äłweir": 11495, "Äłreasonable": 11496, "Äłclaimi": 11497, "Äłcharit": 11498, "Äłclaimin": 11499, "Äłclaiming": 11500, "Äłartif": 11501, "ÄłKil": 11502, "ÄłDall": 11503, "Äłdonatio": 11504, "Äłdonation": 11505, "ÄłJordan": 11506, "Äłintellec": 11507, "ÄłChai": 11508, "Äłintellect": 11509, "ÄłDark": 11510, "Äłfinds": 11511, "ÄłNations": 11512, "Äłpermissio": 11513, "Äłpermission": 11514, "ÄłView": 11515, "Äłsignat": 11516, "Äłupper": 11517, "Äłpraise": 11518, "Äłclar": 11519, "Äłchosen": 11520, "ÄłNaz": 11521, "Äłfifth": 11522, "Äłofficiall": 11523, "Äłofficially": 11524, "Äłintensi": 11525, "Äłdisru": 11526, "Äłdisrup": 11527, "ÄłAlli": 11528, "Äłdisrupt": 11529, "ÄłGiv": 11530, "Äłproductiv": 11531, "ÄłAmen": 11532, "Äłwine": 11533, "Äłelectricit": 11534, "Äłelectricity": 11535, "Äłdriven": 11536, "Äłextensiv": 11537, "ÄłJay": 11538, "Äłextensive": 11539, "ÄłRol": 11540, "Äłamounts": 11541, "Äłpatc": 11542, "Äłfold": 11543, "Äłinvestigato": 11544, "Äłinvestigator": 11545, "Äłlegen": 11546, "Äłpatch": 11547, "ÄłKee": 11548, "ÄłSav": 11549, "Äłties": 11550, "Äłlegend": 11551, "Äłenthu": 11552, "Äłruled": 11553, "ÄłDNA": 11554, "Äłdrawn": 11555, "Äłenthus": 11556, "Äłsubscribe": 11557, "Äłweird": 11558, "Äłvisibl": 11559, "Äładventu": 11560, "ÄłSouther": 11561, "Äłinflat": 11562, "Äładventur": 11563, "Äłchat": 11564, "Äłinterr": 11565, "Äłdogs": 11566, "Äłpayments": 11567, "Äłsequence": 11568, "Äłthreatene": 11569, "some": 11570, "Äłatmosphere": 11571, "Äłthreatened": 11572, "Äłretain": 11573, "Äłham": 11574, "Äłpod": 11575, "Äłparal": 11576, "inclu": 11577, "Äłrejecte": 11578, "Äłparad": 11579, "Äłsomeb": 11580, "Äłsomebo": 11581, "Äłsomebod": 11582, "Äłrejected": 11583, "Äłperfectl": 11584, "Äłperfectly": 11585, "Äłaspects": 11586, "ÄłStil": 11587, "Äłcaptured": 11588, "ÄłGreg": 11589, "Äłsomebody": 11590, "Äłanswers": 11591, "ÄłData": 11592, "300": 11593, "Äłora": 11594, "Äłpledge": 11595, "Äłbrut": 11596, "Äłstepp": 11597, "Äłstrict": 11598, "Äłreceiver": 11599, "Äłintim": 11600, "Äłprimaril": 11601, "ÄłVI": 11602, "Äłchoices": 11603, "Äłprimarily": 11604, "Äłconstantl": 11605, "Äłconstantly": 11606, "Äłmanufacturer": 11607, "ÄłFie": 11608, "Äłtradin": 11609, "Äłtrading": 11610, "Äłparki": 11611, "Che": 11612, "ÄłFli": 11613, "Äłfighters": 11614, "ÄłLiberal": 11615, "Äłparkin": 11616, "Äłfields": 11617, "Äłseats": 11618, "Äłaccepta": 11619, "ÄłSouthern": 11620, "ÄłEva": 11621, "Äłdiplomat": 11622, "Äłinforme": 11623, "Äł52": 11624, "ÄłHei": 11625, "Äłraisi": 11626, "Äłraisin": 11627, "Äłpsychologi": 11628, "Äłhouses": 11629, "Äłexposu": 11630, "Äłexposur": 11631, "Äłexposure": 11632, "Äłflyi": 11633, "Äłreputat": 11634, "ÄłServices": 11635, "Äłflyin": 11636, "Äłreputati": 11637, "Äłreputatio": 11638, "Äłanym": 11639, "Äłdeny": 11640, "Äłreputation": 11641, "ÄłPaci": 11642, "Äłparking": 11643, "Äłanymo": 11644, "Äłanymor": 11645, "Äłanymore": 11646, "Äłtermina": 11647, "Äłunce": 11648, "Äłnobo": 11649, "ÄłProp": 11650, "Äłestimates": 11651, "Äłnobod": 11652, "ÄłAnth": 11653, "Äłflying": 11654, "ÄłDru": 11655, "Äłtechnologie": 11656, "Äłdemocrat": 11657, "Äłclari": 11658, "Äłnotio": 11659, "Äłnotion": 11660, "Äłsolutions": 11661, "Äłtechnologies": 11662, "ÄłOrga": 11663, "ÄłDisn": 11664, "ÄłGuardi": 11665, "ÄłSerie": 11666, "ÄłDisne": 11667, "ÄłDisney": 11668, "Äłhip": 11669, "Äłsmoo": 11670, "Äłlai": 11671, "Äłelsew": 11672, "Äłpursue": 11673, "Äłextrac": 11674, "Äłelsewh": 11675, "Äłelsewhe": 11676, "Äłresulti": 11677, "Äłcourts": 11678, "Äłregularl": 11679, "Äłregularly": 11680, "Äłelsewher": 11681, "Äłelsewhere": 11682, "Äłemploym": 11683, "Äłemployme": 11684, "Äłemploymen": 11685, "Äłemployment": 11686, "Äłresultin": 11687, "Äłblas": 11688, "Äłresulting": 11689, "Äłaccessi": 11690, "Cons": 11691, "ÄłMoore": 11692, "Äłstol": 11693,
[...]
