{"<|endoftext|>": 0, "!": 1, "\"": 2, "#": 3, "$": 4, "%": 5, "&": 6, "'": 7, "(": 8, ")": 9, "*": 10, "+": 11, ",": 12, "-": 13, ".": 14, "/": 15, "0": 16, "1": 17, "2": 18, "3": 19, "4": 20, "5": 21, "6": 22, "7": 23, "8": 24, "9": 25, ":": 26, ";": 27, "<": 28, "=": 29, ">": 30, "?": 31, "@": 32, "A": 33, "B": 34, "C": 35, "D": 36, "E": 37, "F": 38, "G": 39, "H": 40, "I": 41, "J": 42, "K": 43, "L": 44, "M": 45, "N": 46, "O": 47, "P": 48, "Q": 49, "R": 50, "S": 51, "T": 52, "U": 53, "V": 54, "W": 55, "X": 56, "Y": 57, "Z": 58, "[": 59, "\\": 60, "]": 61, "^": 62, "_": 63, "`": 64, "a": 65, "b": 66, "c": 67, "d": 68, "e": 69, "f": 70, "g": 71, "h": 72, "i": 73, "j": 74, "k": 75, "l": 76, "m": 77, "n": 78, "o": 79, "p": 80, "q": 81, "r": 82, "s": 83, "t": 84, "u": 85, "v": 86, "w": 87, "x": 88, "y": 89, "z": 90, "{": 91, "|": 92, "}": 93, "~": 94, "¡": 95, "¢": 96, "£": 97, "¤": 98, "¥": 99, "¦": 100, "§": 101, "¨": 102, "©": 103, "ª": 104, "«": 105, "¬": 106, "®": 107, "¯": 108, "°": 109, "±": 110, "²": 111, "³": 112, "´": 113, "µ": 114, "¶": 115, "·": 116, "¸": 117, "¹": 118, "º": 119, "»": 120, "¼": 121, "½": 122, "¾": 123, "¿": 124, "Â": 125, "Ã": 126, "Ä": 127, "Å": 128, "Æ": 129, "Ç": 130, "È": 131, "É": 132, "Ê": 133, "Ë": 134, "Ì": 135, "Í": 136, "Î": 137, "Ï": 138, "Ð": 139, "Ñ": 140, "Ò": 141, "Ó": 142, "Ô": 143, "Õ": 144, "Ö": 145, "×": 146, "Ø": 147, "Ù": 148, "Ú": 149, "Û": 150, "Ü": 151, "Ý": 152, "Þ": 153, "ß": 154, "à": 155, "á": 156, "â": 157, "ã": 158, "ä": 159, "å": 160, "æ": 161, "ç": 162, "è": 163, "é": 164, "ê": 165, "ë": 166, "ì": 167, "í": 168, "î": 169, "ï": 170, "ð": 171, "ñ": 172, "ò": 173, "ó": 174, "ô": 175, "Ċ": 176, "Ġ": 177, "ġ": 178, "Ģ": 179, "ģ": 180, "Ĥ": 181, "ĥ": 182, "Ħ": 183, "ħ": 184, "Ĩ": 185, "ĩ": 186, "Ī": 187, "ī": 188, "Ĭ": 189, "ĭ": 190, "Į": 191, "į": 192, "İ": 193, "ı": 194, "Ĳ": 195, "ĳ": 196, "Ĵ": 197, "ĵ": 198, "Ķ": 199, "ķ": 200, "ĸ": 201, "Ĺ": 202, "ĺ": 203, "Ļ": 204, "ļ": 205, "Ľ": 206, "ľ": 207, "Ŀ": 208, "ŀ": 209, "Ł": 210, "ł": 211, "Ń": 212, "Ġt": 213, "Ġa": 214, "he": 215, "in": 216, "Ġth": 217, "re": 218, "Ġthe": 219, "on": 220, "Ġs": 221, "Ġw": 222, "Ġc": 223, "it": 224, "is": 225, "ou": 226, "Ġb": 227, "Ġf": 228, "Ġp": 229, "ve": 230, "Ġan": 231, "le": 232, "Ġto": 233, "ing": 234, "me": 235, "de": 236, "âĢ": 237, "ic": 238, "Ġand": 239, "ra": 240, "Ġe": 241, "la": 242, "ma": 243, "rs": 244, "Ġn": 245, "Ġre": 246, "ly": 247, "Ġbe": 248, "ion": 249, "Ġg": 250, "rt": 251, "Ġtha": 252, "ie": 253, "Ġfo": 254, "ĠT": 255, "Ġco": 256, "ĠI": 257, "Ġthat": 258, "Ġon": 259, "ke": 260, "ĠS": 261, "Ġis": 262, "Ġwi": 263, "Ġfor": 264, "âĢĻ": 265, "Ġwa": 266, "ĠA": 267, "Ġu": 268, "ĠC": 269, "her": 270, "Ġst": 271, "Ġy": 272, "Ġit": 273, "Ġca": 274, "Ġma": 275, "mp": 276, "Ġse": 277, "ver": 278, "Ġde": 279, "Ġwh": 280, "Ġwe": 281, "ĠM": 282, "Ġar": 283, "Ġpr": 284, "Ġno": 285, "Ġwit": 286, "Ġwith": 287, "Ġas": 288, "ĠB": 289, "Ġal": 290, "Ġsa": 291, "Ġso": 292, "ĠP": 293, "Ġwas": 294, "Ġyou": 295, "Ġcon": 296, "Ġwo": 297, "Ġthi": 298, "int": 299, "Ġpro": 300, "Ġat": 301, "ĠW": 302, "ĠH": 303, "Ġpo": 304, "Ġsu": 305, "Ġare": 306, "ĠD": 307, "Ġfr": 308, "Ġpa": 309, "Ġ1": 310, "Ġcom": 311, "his": 312, "Ġne": 313, "ĠR": 314, "Ġme": 315, "ĠThe": 316, "Ġ2": 317, "Ġbu": 318, "Ġ(": 319, "ine": 320, "ĠF": 321, "Ġpe": 322, "âĢľ": 323, "Ġex": 324, "âĢĿ": 325, "Ġnot": 326, "Ġle": 327, "ĠN": 328, "Ġtr": 329, "Ġby": 330, "Ġla": 331, "ĠG": 332, "Ġfro": 333, "Ġfrom": 334, "Ġfa": 335, "'s": 336, "Ġou": 337, "ĠL": 338, "Ġsh": 339, "Ġthis": 340, "Ġgo": 341, "qu": 342, "va": 343, "Ġba": 344, "Ġfi": 345, "Ġte": 346, "Ġsta": 347, "ĠE": 348, "Ġint": 349, "Ġhis": 350, "Ġch": 351, "Ġab": 352, "Ġpl": 353, "Ġun": 354, "Ġen": 355, "00": 356, "Ġac": 357, "ĠâĢľ": 358, "ĠJ": 359, "inc": 360, "ĠO": 361, "Ġj": 362, "Ġta": 363, "ind": 364, "Ġcan": 365, "Ġwor": 366, "Ġwhi": 367, "Ġpla": 368, "Ġcou": 369, "Ġsp": 370, "Ġus": 371, "Ġthey": 372, "Ġall": 373, "Ġwil": 374, "Ġbut": 375, "Ġsi": 376, "Ġ20": 377, "Ġsai": 378, "Ġwill": 379, "Ġsaid": 380, "Ġwhe": 381, "ĠU": 382, "Ġwho": 383, "Ġ\"": 384, "Ġsho": 385, "Ġeve": 386, "Ġpre": 387, "Ġcl": 388, "ĠMa": 389, "Ġout": 390, "ina": 391, "Ġthei": 392, "Ġtheir": 393, "Ġti": 394, "Ġres": 395, "ks": 396, "Ġabo": 397, "Ġfe": 398, "Ġrea": 399, "Ġbo": 400, "Ġper": 401, "Ġup": 402, "lit": 403, "ike": 404, "Ġge": 405, "ins": 406, "Ġsom": 407, "Ġye": 408, "ther": 409, "Ġsome": 410, "Ġra": 411, "dis": 412, "Ġone": 413, "Ġad": 414, "ide": 415, "Ġcha": 416, "Ġabou": 417, "Ġabout": 418, "ĠIn": 419, "Ġcomp": 420, "Ġpu": 421, "Ġag": 422, "Ġwere": 423, "ĠK": 424, "Ġwou": 425, "Ġher": 426, "Ġwoul": 427, "Ġwould": 428, "Ġbee": 429, "Ġdis": 430, "Ġwhic": 431, "Ġwhich": 432, "Ġcont": 433, "like": 434, "Ġexp": 435, "Ġsc": 436, "Ġpar": 437, "ĠSt": 438, "Ġbeen": 439, "other": 440, "Ġlike": 441, "ĠTh": 442, "Ġga": 443, "Ġju": 444, "Ġyea": 445, "Ġthr": 446, "Ġtra": 447, "Ġman": 448, "over": 449, "Ġrec": 450, "Ġinc": 451, "Ġtim": 452, "ice": 453, "Ġinte": 454, "Ġtime": 455, "Ġlea": 456, "Ġap": 457, "Ġfu": 458, "ze": 459, "Ġsee": 460, "Ġother": 461, "kn": 462, "Ġthin": 463, "Ġther": 464, "Ġuse": 465, "ĠRe": 466, "Ġea": 467, "Ġ201": 468, "Ġits": 469, "âĢĶ": 470, "Ġwha": 471, "Ġover": 472, "Ġthere": 473, "Ġwhat": 474, "ĠCa": 475, "ĠHe": 476, "ort": 477, "Ġnew": 478, "Ġrep": 479, "Ġals": 480, "Ġthan": 481, "Ġalso": 482, "Ġbec": 483, "ĠCo": 484, "Ġthem": 485, "Ġaf": 486, "Ġtho": 487, "Ġapp": 488, "Ġyour": 489, "Ġwork": 490, "Ġpart": 491, "Ġwhen": 492, "Ġpeo": 493, "Ġpeop": 494, "Ġpeopl": 495, "Ġpeople": 496, "ini": 497, "Ġqu": 498, "ĠAn": 499, "ĠCh": 500, "ĠDe": 501, "Ġmak": 502, "Ġjus": 503, "Ġany": 504, "Ġjust": 505, "ĠY": 506, "Ġbr": 507, "Ġna": 508, "Ġcr": 509, "ĠIt": 510, "Ġkn": 511, "Ġcomm": 512, "lis": 513, "Ġsay": 514, "Ġspe": 515, "Ġ3": 516, "Ġget": 517, "ĠV": 518, "Ġpol": 519, "ĠWe": 520, "Ġinto": 521, "don": 522, ".âĢĿ": 523, "Ġcons": 524, "imp": 525, "Ġtw": 526, "ica": 527, "Ġstat": 528, "vel": 529, "ĠPa": 530, "Ġacc": 531, "Ġfin": 532, "ĠSe": 533, "Ġcu": 534, "Ġbi": 535, "Ġeven": 536, "Ġplay": 537, "Ġfir": 538, "Ġimp": 539, "ĠBu": 540, "Ġrel": 541, "Ġinter": 542, "Ġour": 543, "Ġonl": 544, "Ġgr": 545, "Ġ-": 546, "Ġact": 547, "Ġpos": 548, "âĢĵ": 549, "Ġkno": 550, "Ġins": 551, "Ġshe": 552, "Ġstr": 553, "Ġce": 554, "Ġaft": 555, "Ġafte": 556, "Ġafter": 557, "Ġever": 558, ",âĢĿ": 559, "Ġcoul": 560, "Ġcould": 561, "Ġfirs": 562, "Ġfirst": 563, "Ġknow": 564, "Ġtak": 565, "ĠNo": 566, "Ġ19": 567, "Ġver": 568, "Ġmake": 569, "'t": 570, "Ġsto": 571, "Ġdes": 572, "Ġonly": 573, "Ġbeca": 574, "Ġatt": 575, "ĠNe": 576, "lle": 577, "Ġreal": 578, "Ġtwo": 579, "Ġbl": 580, "Ġsup": 581, "Ġdon": 582, "ĠSa": 583, "Ġbac": 584, "Ġdec": 585, "hed": 586, "Ġser": 587, "Ġsec": 588, "Ġpres": 589, "Ġbet": 590, ".\"": 591, "Ġback": 592, "ĠBa": 593, "Ġgi": 594, "Ġunde": 595, "Ġsuc": 596, "Ġstate": 597, "Ġfou": 598, "Ġfac": 599, "ĠBe": 600, "Ġam": 601, "ĠâĢĵ": 602, "Ġwan": 603, "Ġaga": 604, "Ġexpe": 605, "Ġagai": 606, "Ġagain": 607, "Ġ4": 608, "inf": 609, "Ġunder": 610, "ĠWa": 611, "Ġway": 612, "Ġfl": 613, "Ġwant": 614, "Ġtake": 615, "Ġva": 616, "Ġgame": 617, "Ġci": 618, "Ġbecau": 619, "Ġbecaus": 620, "Ġbecause": 621, "ĠâĢĶ": 622, "ĠHa": 623, "Ġnow": 624, "ĠUn": 625, "Ġcal": 626, "ble": 627, "Ġyears": 628, "ile": 629, "Ġnee": 630, "Ġcoun": 631, "Ġthro": 632, "Ġ$": 633, "Ġtea": 634, "Ġind": 635, "Ġchan": 636, "Ġstar": 637, "ĠSta": 638, "Ġadd": 639, ",\"": 640, "Ġtoo": 641, "Ġstu": 642, "ving": 643, "Ġcre": 644, "Ġmea": 645, "Ġevery": 646, "ding": 647, "Ġpri": 648, "Ġ5": 649, "Ġyear": 650, "Ġsupp": 651, "Ġthes": 652, "ĠDa": 653, "Ġgu": 654, "Ġwr": 655, "Ġem": 656, "Ġcam": 657, "Ġthese": 658, "ĠJa": 659, "Ġinf": 660, "Ġwher": 661, "Ġwhere": 662, "Ġshow": 663, "Ġthre": 664, "ĠHo": 665, "Ġcount": 666, "Ġcar": 667, "Ġwel": 668, "Ġthink": 669, "ĠRo": 670, "Ġbein": 671, "Ġbeing": 672, "ĠLa": 673, "ĠFo": 674, "ĠSo": 675, "Ġincl": 676, "Ġsin": 677, "Ġnu": 678, "Ġmar": 679, "Ġpi": 680, "Ġcontr": 681, "Ġinclu": 682, "Ġrem": 683, "ick": 684, "Ġmay": 685, "Ġdef": 686, "Ġthen": 687, "Ġmany": 688, "ĠMe": 689, "ĠMo": 690, "Ġshou": 691, "Ġcol": 692, "Ġlas": 693, "Ġrepo": 694, "ĠBut": 695, "Ġcall": 696, "Ġ[": 697, "ĠAnd": 698, "Ġsti": 699, "Ġinclud": 700, "Ġsen": 701, "Ġcompa": 702, "Ġreg": 703, "Ġthrou": 704, "Ġthroug": 705, "Ġthrough": 706, "Ġrece": 707, "Ġrepor": 708, "Ġreport": 709, "Ġsea": 710, "Ġshoul": 711, "Ġshould": 712, "Ġsy": 713, "Ġcla": 714, "Ġpas": 715, "Ġthing": 716, "ĠSu": 717, "Ġass": 718, "ĠLe": 719, "Ġlast": 720, "Ġvery": 721, "Ġthos": 722, "Ġthose": 723, "ĠAme": 724, "ĠTr": 725, "Ġneed": 726, "Ġbel": 727, "ĠThis": 728, "ĠAl": 729, "Ġpub": 730, "ĠGo": 731, "ĠPo": 732, "Ġgen": 733, "ime": 734, "Ġ10": 735, "Ġcas": 736, "Ġwell": 737, "ĠWh": 738, "Ġph": 739, "ions": 740, "Ġpubl": 741, "za": 742, "Ġdea": 743, "Ġform": 744, "Ġke": 745, "Ġthou": 746, "Ġstart": 747, "Ġau": 748, "ĠAmer": 749, "Ġgove": 750, "Ġgover": 751, "Ġgovern": 752, "ĠAmeri": 753, "Ġbef": 754, "ĠAmeric": 755, "ĠAmerica": 756, "Ġgrou": 757, "Ġsuppo": 758, "Ġes": 759, "Ġprov": 760, "Ġbefo": 761, "Ġbefore": 762, "Ġgre": 763, "Ġreco": 764, "ĠAs": 765, "Ġplan": 766, "ĠTo": 767, "Ġcome": 768, "ĠPr": 769, "ĠBr": 770, "Ġbas": 771, "ĠNew": 772, "Ġteam": 773, "ĠGe": 774, "Ġnat": 775, "Ġmade": 776, "ĠPe": 777, "Ġlat": 778, "Ġsam": 779, "ĠJu": 780, "Ġsuch": 781, "Ġgoo": 782, "Ġ200": 783, "ici": 784, "Ġfil": 785, "Ġgoing": 786, "Ġsm": 787, "Ġchang": 788, "Ġbot": 789, "Ġworl": 790, "Ġworld": 791, "Ġwee": 792, "ĠCon": 793, "Ġstud": 794, "Ġpoli": 795, "Ġgood": 796, "Ġpolic": 797, "Ġchi": 798, "Ġmat": 799, "ĠTe": 800, "ĠNa": 801, "Ġref": 802, "Ġprob": 803, "iver": 804, "Ġfee": 805, "Ġsur": 806, "Ġpoin": 807, "Ġpoint": 808, "Ġef": 809, "Ġsub": 810, "Ġfun": 811, "Ġsha": 812, "Ġeff": 813, "Ġagains": 814, "Ġagainst": 815, "Ġweek": 816, "Ġsl": 817, "Ġset": 818, "Ġacti": 819, "Ġ6": 820, "dit": 821, "Ġchar": 822, "Ġcrea": 823, "Ġear": 824, "Ġent": 825, "Ġtu": 826, "Ġcri": 827, "Ġwhil": 828, "Ġserv": 829, "Ġplaye": 830, "Ġsig": 831, "Ġstil": 832, "Ġpers": 833, "Ġend": 834, "Ġstill": 835, "Ġide": 836, "Ġgovernm": 837, "Ġgovernme": 838, "Ġgovernmen": 839, "Ġgovernment": 840, "Ġacco": 841, "Ġlate": 842, "Ġjo": 843, "Ġele": 844, "Ġwhile": 845, "Ġwin": 846, "Ġmean": 847, "ĠYou": 848, "Ġlead": 849, "ĠBo": 850, "Ġsuppor": 851, "Ġsupport": 852, "ĠMar": 853, "Ġprod": 854, "ĠJo": 855, "Ġconc": 856, "Ġsays": 857, "Ġcreat": 858, "Ġprodu": 859, "Ġconf": 860, "Ġproduc": 861, "Ġfre": 862, "Ġgive": 863, "Ġchange": 864, "Ġinst": 865, "ĠRa": 866, "vie": 867, "Ġrev": 868, "Ġdisc": 869, "Ġsou": 870, "Ġsim": 871, "Ġresp": 872, "ling": 873, "Ġgra": 874, "Ġcompl": 875, "Ġsame": 876, "Ġrat": 877, "Ġthoug": 878, "Ġthough": 879, "ĠTru": 880, "Ġbetw": 881, "Ġbetwe": 882, "Ġbetwee": 883, "Ġbetween": 884, "Ġspec": 885, "ich": 886, "Ġaw": 887, "Ġcit": 888, "Ġlaw": 889, "ima": 890, "ĠSc": 891, "Ġtri": 892, "Ġed": 893, "Ġav": 894, "Ġfol": 895, "Ġsign": 896, "ĠFa": 897, "Ġaro": 898, "Ġclo": 899, "Ġtran": 900, "Ġret": 901, "Ġter": 902, "Ġsomet": 903, "Ġext": 904, "Ġcountr": 905, "Ġtrans": 906, "ĠGa": 907, "Ġarou": 908, "Ġfoun": 909, "Ġplac": 910, "Ġhere": 911, "Ġthree": 912, "Ġfound": 913, "Ġaroun": 914, "Ġaround": 915, "Ġmed": 916, "ĠStat": 917, "Ġsys": 918, "Ġused": 919, "Ġsyst": 920, "Ġsyste": 921, "Ġsystem": 922, "Ġmem": 923, "Ġreall": 924, "ĠOn": 925, "Ġreally": 926, "Ġgene": 927, "Ġplace": 928, "Ġexa": 929, "Ġgroup": 930, "Ġcour": 931, "Ġexc": 932, "Ġ7": 933, "ĠIs": 934, "Ġtol": 935, "Ġcompan": 936, "Ġwar": 937, ".[": 938, "ĠSp": 939, "Ġmen": 940, "Ġfam": 941, "Ġpubli": 942, "Ġpublic": 943, "Ġgrea": 944, "Ġnum": 945, "ĠTha": 946, "Ġsit": 947, "Ġnumb": 948, "Ġgreat": 949, "Ġnumbe": 950, "Ġpow": 951, "Ġcap": 952, "Ġstor": 953, "Ġcur": 954, "Ġadv": 955, "Ġwat": 956, "Ġcen": 957, "Ġbui": 958, "Ġbuil": 959, "Ġsol": 960, "Ġcase": 961, "ĠTrum": 962, "Ġtal": 963, "Ġwom": 964, "Ġfact": 965, "Ġlit": 966, "ĠTrump": 967, "Ġimpo": 968, "Ġexper": 969, "Ġperson": 970, "ĠThey": 971, "Ġboth": 972, "Ġdep": 973, "Ġfina": 974, "Ġque": 975, "Ġfind": 976, "Ġawa": 977, "Ġmedi": 978, "Ġread": 979, "ĠSh": 980, "Ġprop": 981, "Ġpowe": 982, "ĠCom": 983, "Ġdet": 984, "Ġano": 985, "Ġai": 986, "ĠState": 987, "ĠRu": 988, "line": 989, "Ġaut": 990, "Ġprot": 991, "ĠPre": 992, "Ġfoll": 993, "Ġbig": 994, "Ġfig": 995, "Ġdeve": 996, "Ġdevel": 997, "Ġdevelo": 998, "Ġdevelop": 999, "Ġcoll": 1000, "Ġfollo": 1001, "Ġfollow": 1002, "Ġpower": 1003, "Ġcent": 1004, "Ġ8": 1005, "Ġsinc": 1006, "Ġsince": 1007, "Ġiss": 1008, "Ġtold": 1009, "Ġissu": 1010, "Ġparti": 1011, "Ġtru": 1012, "ĠAmerican": 1013, "Ġpolit": 1014, "âĢĺ": 1015, "Ġprog": 1016, "Ġspeci": 1017, "ĠFor": 1018, "ĠAu": 1019, "Ġlar": 1020, "Ġperc": 1021, "Ġfew": 1022, "Ġcor": 1023, "Ġcle": 1024, "Ġtur": 1025, "Ġleg": 1026, "Ġissue": 1027, "Ġspo": 1028, "Ġincr": 1029, "ĠJe": 1030, "Ġpoliti": 1031, "ĠLi": 1032, "Ġlarg": 1033, "Ġincre": 1034, "Ġlarge": 1035, "iona": 1036, "Ġpolitic": 1037, "Ġart": 1038, "Ġperce": 1039, "Ġage": 1040, "Ġexpl": 1041, "Ġblo": 1042, "Ġcontin": 1043, "Ġrela": 1044, "Ġsel": 1045, "Ġbeli": 1046, "Ġbelie": 1047, "Ġwri": 1048, "Ġplayer": 1049, "Ġproc": 1050, "Ġ9": 1051, "Ġask": 1052, "Ġreq": 1053, "Ġsma": 1054, "Ġboo": 1055, "Ġrequ": 1056, "Ġcommu": 1057, "Ġname": 1058, "Ġelec": 1059, "Ġche": 1060, "Ġelect": 1061, "ĠTa": 1062, "Ġappe": 1063, "Ġprovi": 1064, "Ġput": 1065, "Ġprovid": 1066, "Ġsoc": 1067, "ĠIf": 1068, "Ġwrit": 1069, "Ġanot": 1070, "Ġanoth": 1071, "Ġanothe": 1072, "Ġanother": 1073, "Ġbes": 1074, "Ġsev": 1075, "Ġseve": 1076, "Ġsometh": 1077, "Ġsomethin": 1078, "Ġsomething": 1079, "Ġchil": 1080, "ĠCha": 1081, "Ġste": 1082, "Ġnati": 1083, "Ġban": 1084, "Ġbeg": 1085, "Ġrele": 1086, "Ġfar": 1087, "Ġmark": 1088, "Ġallo": 1089, "Ġconce": 1090, "ĠWo": 1091, "ĠMi": 1092, "ĠEn": 1093, "Ġtel": 1094, "Ġfami": 1095, "Ġfamil": 1096, "Ġconsi": 1097, "Ġrespo": 1098, "Ġrespon": 1099, "Ġbus": 1100, "Ġec": 1101, "Ġ'": 1102, "Ġpass": 1103, "Ġcommun": 1104, "Ġtre": 1105, "ĠMu": 1106, "Ġwea": 1107, "Ġresu": 1108, "Ġpat": 1109, "Ġcontinu": 1110, "Ġthings": 1111, "ĠFe": 1112, "Ġatte": 1113, "Ġposs": 1114, "Ġappr": 1115, "Ġmet": 1116, "Ġclea": 1117, "Ġappea": 1118, "Ġdefe": 1119, "Ġcamp": 1120, "Ġlan": 1121, "Ġseas": 1122, "Ġproce": 1123, "This": 1124, "Ġrelat": 1125, "Ġcommuni": 1126, "Ġfea": 1127, "Ġgenera": 1128, "Ġeac": 1129, "Ġeach": 1130, "Ġneve": 1131, "Ġnever": 1132, "Ġchild": 1133, "Ġamo": 1134, "Ġnex": 1135, "ĠPro": 1136, "Ġtry": 1137, "Ġnext": 1138, "ĠLo": 1139, "Ġearl": 1140, "Ġseason": 1141, "Ġques": 1142, "Ġsecon": 1143, "Ġsecond": 1144, "Ġprote": 1145, "Ġgot": 1146, "Ġturn": 1147, "Ġquest": 1148, "Ġbro": 1149, "Ġatta": 1150, "Ġel": 1151, "Ġfoo": 1152, "Ġbeco": 1153, "Ġfree": 1154, "Ġbecom": 1155, "ĠâĢĺ": 1156, "ĠCou": 1157, "Ġindi": 1158, "Ġbest": 1159, "ĠRep": 1160, "Ġinfo": 1161, "Ġallow": 1162, "Ġdem": 1163, "Ġacce": 1164, "Ġsoci": 1165, "Ġstre": 1166, "ĠThat": 1167, "Ġcare": 1168, "Ġclos": 1169, "Ġlet": 1170, "Ġev": 1171, "Ġseem": 1172, "ĠUS": 1173, "fice": 1174, "Ġfeel": 1175, "Ġattac": 1176, "Ġpost": 1177, "ffice": 1178, "Ġpercen": 1179, "Ġpercent": 1180, "Ġtop": 1181, "Ġbre": 1182, "Ġstan": 1183, "list": 1184, "Ġexperi": 1185, "Ġline": 1186, "Ġrese": 1187, "Ġgro": 1188, "Ġdist": 1189, "Ġcame": 1190, "ĠAf": 1191, "Ġbase": 1192, "Ġnation": 1193, "icia": 1194, "office": 1195, "Ġles": 1196, "Ġquestion": 1197, "Ġcontro": 1198, "Ġperf": 1199, "Ġoffice": 1200, "Ġresul": 1201, "âĢ¦": 1202, "Ġresult": 1203, "Ġeas": 1204, "Ġsch": 1205, "Ġimport": 1206, "Ġbeliev": 1207, "Ġcomple": 1208, "Ġincrea": 1209, "Ġincreas": 1210, "ĠAr": 1211, "Ġwitho": 1212, "Ġwithou": 1213, "Ġwithout": 1214, "Ġwon": 1215, "Ġconv": 1216, "Ġinfor": 1217, "Ġinform": 1218, "Ġincludin": 1219, "Ġincluding": 1220, "Ġdesi": 1221, "Ġprovide": 1222, "Ġmemb": 1223, "Ġevent": 1224, "Ġcau": 1225, "Ġseri": 1226, "Ġprobl": 1227, "Ġproble": 1228, "Ġproblem": 1229, "ĠDo": 1230, "Ġbuild": 1231, "Ġbett": 1232, "Ġful": 1233, "Ġnumber": 1234, "Ġcountry": 1235, "Ġrema": 1236, "Ġmembe": 1237, "Ġmember": 1238, "Ġran": 1239, "Ġcurre": 1240, "Ġcurren": 1241, "Ġinclude": 1242, "Ġrelea": 1243, "Ġlitt": 1244, "Ġstand": 1245, "Ġreleas": 1246, "ĠWi": 1247, "Ġqua": 1248, "Ġscho": 1249, "ĠKe": 1250, "Ġfour": 1251, "Ġkee": 1252, "Ġbette": 1253, "Ġbil": 1254, "ĠTher": 1255, "Ġbetter": 1256, "Ġbelieve": 1257, "Ġpop": 1258, "Ġpartic": 1259, "Ġforc": 1260, "Ġrecen": 1261, "Ġrecent": 1262, "ict": 1263, "Ġcalle": 1264, "Ġintere": 1265, "Ġinteres": 1266, "Ġcho": 1267, "Ġinterest": 1268, "ficia": 1269, "Ġless": 1270, "Ġtalk": 1271, "Ġlittl": 1272, "Ġlittle": 1273, "fficia": 1274, "ĠCl": 1275, "Ġappro": 1276, "Ġclose": 1277, "Ġbeh": 1278, "fficial": 1279, "Ġann": 1280, "Ġexam": 1281, "Ġleve": 1282, "Ġcalled": 1283, "Ġprev": 1284, "Ġnea": 1285, "Ġpic": 1286, "ĠShe": 1287, "ĠThere": 1288, "ĠKa": 1289, "Ġlist": 1290, "Ġpossi": 1291, "Ġpossib": 1292, "Ġtec": 1293, "Ġbill": 1294, "Ġpay": 1295, "Ġemp": 1296, "Ġtech": 1297, "ĠPres": 1298, "Ġattack": 1299, "Ġproduct": 1300, "Ġrelease": 1301, "Ġrest": 1302, "Ġlef": 1303, "Ġleft": 1304, "ĠAc": 1305, "Ġmarke": 1306, "ĠAp": 1307, "Ġarr": 1308, "Ġred": 1309, "Ġkeep": 1310, "ĠZ": 1311, "Ġpresi": 1312, "Ġpresid": 1313, "Ġactu": 1314, "official": 1315, "vide": 1316, "Ġactua": 1317, "Ġfull": 1318, "Ġfai": 1319, "Ġtes": 1320, "Ġpolice": 1321, "Ġpreside": 1322, "Ġtest": 1323, "Ġactual": 1324, "Ġcreate": 1325, "Ġmain": 1326, "Ġbla": 1327, "Ġalo": 1328, "Ġcontinue": 1329, "Ġeffe": 1330, "Ġsw": 1331, "ĠTu": 1332, "Ġofficial": 1333, "Ġeffec": 1334, "Ġeffect": 1335, "Ġpresiden": 1336, "ĠAt": 1337, "Ġprogr": 1338, "Ġprogra": 1339, "Ġprogram": 1340, "Ġusing": 1341, "ĠUnit": 1342, "Ġtow": 1343, "Ġstra": 1344, "ĠMan": 1345, "Ġspa": 1346, "ĠEa": 1347, "__": 1348, "Ġbecome": 1349, "Ġforce": 1350, "Ġappear": 1351, "Ġval": 1352, "Ġalon": 1353, "Ġsk": 1354, "Ġimporta": 1355, "Ġecon": 1356, "ĠFi": 1357, "Ġreas": 1358, "Ġidea": 1359, "Ġecono": 1360, "Ġeconom": 1361, "Ġimportan": 1362, "Ġcolle": 1363, "Ġnews": 1364, "Ġlevel": 1365, "Ġclas": 1366, "Ġnear": 1367, "ĠCan": 1368, "Ġedit": 1369, "Ġcomme": 1370, "Ġcond": 1371, "ĠNat": 1372, "Ġtou": 1373, "Ġgrow": 1374, "Ġsmal": 1375, "Ġsmall": 1376, "Ġschoo": 1377, "Ġschool": 1378, "Ġservi": 1379, "Ġprese": 1380, "Ġcli": 1381, "Ġinforma": 1382, "Ġservic": 1383, "'re": 1384, "Ġproces": 1385, "Ġconte": 1386, "Ġarea": 1387, "Ġprocess": 1388, "Ġfri": 1389, "Ġwome": 1390, "Ġwomen": 1391, "wit": 1392, "Ġservice": 1393, "Ġtrad": 1394, "Ġdefen": 1395, "Ġsimp": 1396, "Ġsimpl": 1397, "ĠChr": 1398, "Ġarti": 1399, "Ġbea": 1400, "Ġactiv": 1401, "Ġhist": 1402, "Ġalr": 1403, "Ġcurrent": 1404, "Ġsid": 1405, "Ġprom": 1406, "Ġbrea": 1407, "ĠCe": 1408, "Ġty": 1409, "Ġrecei": 1410, "Ġcompany": 1411, "Ġcontrol": 1412, "Ġhisto": 1413, "Ġpresident": 1414, "Ġ--": 1415, "Ġreaso": 1416, "ĠInt": 1417, "Ġreason": 1418, "Ġunt": 1419, "Ġside": 1420, "Ġhistor": 1421, "ĠUnite": 1422, "Ġalre": 1423, "ĠMon": 1424, "Ġalrea": 1425, "Ġalread": 1426, "Ġalready": 1427, "Ġcos": 1428, "Ġvar": 1429, "ĠOb": 1430, "ĠUnited": 1431, "Ġ=": 1432, "ĠFr": 1433, "Ġwhy": 1434, "Ġaddi": 1435, "Ġposit": 1436, "Ġmaj": 1437, "Ġrecor": 1438, "Ġrecord": 1439, "Ġreceiv": 1440, "ĠSi": 1441, "Ġalw": 1442, "Ġalwa": 1443, "Ġalway": 1444, "Ġalways": 1445, "Ġexpec": 1446, "Ġinformat": 1447, "Ġinformati": 1448, "Ġexpect": 1449, "Ġleas": 1450, "Ġconsid": 1451, "Ġconside": 1452, "ĠHow": 1453, "Ġbusin": 1454, "Ġregi": 1455, "Ġtechn": 1456, "Ġbusine": 1457, "Ġbusines": 1458, "Ġbusiness": 1459, "Ġbook": 1460, "ĠQ": 1461, "Ġ12": 1462, "Ġmajo": 1463, "Ġproj": 1464, "Ġpositi": 1465, "Ġproje": 1466, "Ġmajor": 1467, "Ġclass": 1468, "Ġbra": 1469, "Ġprojec": 1470, "Ġproject": 1471, "Ġmarket": 1472, "Ġreac": 1473, "ilit": 1474, "Ġclai": 1475, "Ġinformatio": 1476, "Ġinformation": 1477, "Ġjob": 1478, "Ġclaim": 1479, "Ġrequi": 1480, "ĠHi": 1481, "ĠPh": 1482, "Ġexperie": 1483, "Ġabl": 1484, "Ġexperien": 1485, "ĠBi": 1486, "Ġlater": 1487, "view": 1488, "Ġexperienc": 1489, "Ġprof": 1490, "Ġdesig": 1491, "Ġdesign": 1492, "Ġable": 1493, "ĠRus": 1494, "Ġpopu": 1495, "Ġnon": 1496, "ĠTi": 1497, "Ġstory": 1498, "Ġforme": 1499, "Ġpast": 1500, "Ġrelati": 1501, "Ġpopul": 1502, "imag": 1503, "Ġpra": 1504, "Ġadm": 1505, "Ġreporte": 1506, "Ġaway": 1507, "Ġpolitica": 1508, "Ġpolitical": 1509, "Ġdel": 1510, "Ġcity": 1511, "Ġauth": 1512, "Ġadmi": 1513, "Ġpur": 1514, "Ġtrai": 1515, "Ġtyp": 1516, "Ġ18": 1517, "Ġimportant": 1518, "ĠSan": 1519, "Ġmana": 1520, "ĠHu": 1521, "Ġclear": 1522, "Ġest": 1523, "Ġcommunit": 1524, "ĠDi": 1525, "Ġleast": 1526, "Ġmas": 1527, "ĠInte": 1528, "ĠHou": 1529, "Ġappl": 1530, "Ġair": 1531, "Ġretu": 1532, "Ġrespons": 1533, "Ġretur": 1534, "Ġreturn": 1535, "Ġexperience": 1536, "Ġfrie": 1537, "Ġdeal": 1538, "kind": 1539, "ĠEu": 1540, "Ġshi": 1541, "Ġfigh": 1542, "Ġfight": 1543, "ĠInd": 1544, "Ġcost": 1545, "Ġtell": 1546, "Ġbit": 1547, "Ġremain": 1548, "Ġpopula": 1549, "Ġunders": 1550, "Ġfinal": 1551, "Ġcer": 1552, "Ġcampa": 1553, "Ġsucc": 1554, "ĠCol": 1555, "Ġcampai": 1556, "Ġcampaig": 1557, "Ġcampaign": 1558, "Ġenou": 1559, "Ġspen": 1560, "Ġnor": 1561, "Ġconst": 1562, "Ġenoug": 1563, "Ġenough": 1564, "Ġaff": 1565, "Ġsecu": 1566, "Ġni": 1567, "Ġworke": 1568, "Ġpossibl": 1569, "Ġmanag": 1570, "Ġreve": 1571, "Ġmaking": 1572, "Ġimag": 1573, "ille": 1574, "Ġkind": 1575, "Ġview": 1576, "Ġrequire": 1577, "ĠGre": 1578, "Ġconta": 1579, "ĠJoh": 1580, "ĠYo": 1581, "Ġexamp": 1582, "Ġexample": 1583, "ĠAd": 1584, "ĠDu": 1585, "Ġfamily": 1586, "Ġfrien": 1587, "Ġfriend": 1588, "Ġfan": 1589, "video": 1590, "Ġten": 1591, "Ġface": 1592, "Ġtax": 1593, "Ġaccor": 1594, "Ġaccord": 1595, "Ġleade": 1596, "Ġleader": 1597, "ĠRuss": 1598, "Ġ15": 1599, "Ġcert": 1600, "Ġant": 1601, "ĠChris": 1602, "Ġsucce": 1603, "Ġuni": 1604, "Ġunti": 1605, "Ġworkin": 1606, "Ġresea": 1607, "Ġworking": 1608, "Ġresear": 1609, "Ġresearc": 1610, "Ġuntil": 1611, "Ġvideo": 1612, "Ġcoa": 1613, "ĠRepu": 1614, "aving": 1615, "Ġpresen": 1616, "ĠRepub": 1617, "ĠSou": 1618, "Ġthought": 1619, "ĠRepubl": 1620, "Ġunderst": 1621, "Ġdeb": 1622, "Ġcomplet": 1623, "Ġtook": 1624, "ĠRepublic": 1625, "Ġrac": 1626, "ĠJohn": 1627, "Ġcaus": 1628, "Ġmedia": 1629, "Ġautho": 1630, "Ġauthor": 1631, "Ġagr": 1632, "Ġreceive": 1633, "Ġincrease": 1634, "Ġfore": 1635, "Ġintern": 1636, "ĠHous": 1637, "Ġfeat": 1638, "ĠWhe": 1639, "Ġactuall": 1640, "Ġactually": 1641, "Ġvalu": 1642, "Ġcommi": 1643, "Ġfund": 1644, "Ġcov": 1645, "Ġwal": 1646, "Ġwate": 1647, "Ġterm": 1648, "ĠEur": 1649, "Ġexe": 1650, "Ġmanage": 1651, "Ġcove": 1652, "Ġformer": 1653, "Ġwater": 1654, "ĠEuro": 1655, "Ġgl": 1656, "Ġaccordi": 1657, "Ġmee": 1658, "Ġagen": 1659, "ĠGu": 1660, "Ġaccordin": 1661, "Ġaccording": 1662, "ĠCu": 1663, "Ġterr": 1664, "ĠUni": 1665, "Ġmeet": 1666, "Ġgames": 1667, "Ġperfo": 1668, "Ġperfor": 1669, "ĠWor": 1670, "Ġtimes": 1671, "Ġsens": 1672, "Ġstru": 1673, "Ġstude": 1674, "Ġstuden": 1675, "Ġstudent": 1676, "Ġperform": 1677, "Ġ11": 1678, "Ġword": 1679, "Ġfra": 1680, "ĠVa": 1681, "Ġtod": 1682, "Ġfal": 1683, "Ġsocia": 1684, "Ġbat": 1685, "Ġreli": 1686, "Ġcro": 1687, "Ġsocial": 1688, "mini": 1689, "Ġfilm": 1690, "ĠChin": 1691, "ĠOba": 1692, "Ġben": 1693, "Ġfla": 1694, "Ġsug": 1695, "Ġdev": 1696, "ĠMc": 1697, "Ġconfi": 1698, "Ġsever": 1699, "Ġsing": 1700, "Ġshor": 1701, "Ġnig": 1702, "ĠObama": 1703, "ĠSy": 1704, "Ther": 1705, "ĠSte": 1706, "Ġshort": 1707, "Ġchara": 1708, "Ġresi": 1709, "There": 1710, "Ġcra": 1711, "Ġsci": 1712, "Ġcharac": 1713, "Ġcharact": 1714, "Ġcharacte": 1715, "Ġcharacter": 1716, "ĠFra": 1717, "Ġnigh": 1718, "ĠMay": 1719, "ĠTw": 1720, "ĠRussi": 1721, "ĠRussia": 1722, "Ġ199": 1723, "milit": 1724, "Ġnight": 1725, "having": 1726, "Ġacr": 1727, "Ġconve": 1728, "ĠPresi": 1729, "ĠPresid": 1730, "ĠCar": 1731, "Ġlear": 1732, "Ġlearn": 1733, "Ġbal": 1734, "Ġcompe": 1735, "Ġplayers": 1736, "Ġsca": 1737, "Ġtoda": 1738, "ĠPreside": 1739, "ĠPresiden": 1740, "Ġcours": 1741, "Ġtoday": 1742, "Ġfeatu": 1743, "Ġcourse": 1744, "Ġpot": 1745, "Ġhaving": 1746, "Ġseen": 1747, "Ġearly": 1748, "ĠYor": 1749, "Ġfut": 1750, "Ġfel": 1751, "Ġsevera": 1752, "//": 1753, "Ġstop": 1754, "Ġwhet": 1755, "ĠPresident": 1756, "ĠCr": 1757, "Ġchildre": 1758, "Ġchildren": 1759, "Ġalt": 1760, "Ġwhethe": 1761, "Ġwhether": 1762, "Ġwen": 1763, "Ġcrit": 1764, "Ġvers": 1765, "Ġcomplete": 1766, "Ġseveral": 1767, "Ġactio": 1768, "Ġaction": 1769, "ĠDem": 1770, "Ġfiv": 1771, "Ġfive": 1772, "Ġsure": 1773, "Ġpress": 1774, "Ġwent": 1775, "ĠMin": 1776, "Ġdecis": 1777, "ĠUniver": 1778, "Ġdecisi": 1779, "ĠUnivers": 1780, "ĠEurop": 1781, "Ġeq": 1782, "ĠMic": 1783, "Ġyoun": 1784, "Ġyoung": 1785, "Ġmilit": 1786, "Ġsubs": 1787, "Ġcommen": 1788, "Ġdesc": 1789, "Ġequ": 1790, "ĠWil": 1791, "Ġlikely": 1792, "Ġfutu": 1793, "ĠNation": 1794, "Ġeng": 1795, "Ġmembers": 1796, "ĠComm": 1797, "Ġscie": 1798, "Ġcerta": 1799, "Ġscien": 1800, "Ġanno": 1801, "Ġcertain": 1802, "Ġflo": 1803, "Ġene": 1804, "Ġindu": 1805, "Ġdone": 1806, "Ġcontra": 1807, "Ġarg": 1808, "Ġava": 1809, "ĠSen": 1810, "Ġsucces": 1811, "ĠRi": 1812, "ĠStates": 1813, "Ġsuccess": 1814, "Ġreali": 1815, "Ġfuture": 1816, "inal": 1817, "Ġalong": 1818, "ĠEurope": 1819, "Ġundersta": 1820, "Ġagre": 1821, "Ġtrea": 1822, "Ġagree": 1823, "Ġonc": 1824, "Ġshare": 1825, "ĠRepublica": 1826, "ĠRepublican": 1827, "Ġple": 1828, "Ġsex": 1829, "Ġstarte": 1830, "Ġfire": 1831, "Ġcourt": 1832, "Ġlau": 1833, "Ġwithin": 1834, "Ġdecision": 1835, "Ġargu": 1836, "Ġinsi": 1837, "Ġdisp": 1838, "Ġgeneral": 1839, "Ġonce": 1840, "Ġamon": 1841, "Ġamong": 1842, "ĠYork": 1843, "Ġbod": 1844, "Ġcat": 1845, "Ġacro": 1846, "Ġregu": 1847, "Ġsus": 1848, "Ġdete": 1849, "Ġpossible": 1850, "Ġunderstan": 1851, "Ġunderstand": 1852, "Ġconcer": 1853, "Ġregul": 1854, "Ġregula": 1855, "ĠVe": 1856, "Ġ]": 1857, "Ġvalue": 1858, "Ġmeans": 1859, "ĠWhen": 1860, "Ġcharg": 1861, "Ġgoa": 1862, "Ġsal": 1863, "Ġcomment": 1864, "Ġbrin": 1865, "Ġavai": 1866, "Ġmilita": 1867, "Ġpriv": 1868, "ĠWes": 1869, "Ġavail": 1870, "Ġnote": 1871, "Ġknown": 1872, "ĠKo": 1873, "Ġrate": 1874, "Ġana": 1875, "Ġdisa": 1876, "ĠWha": 1877, "Ġyet": 1878, "Ġacros": 1879, "ĠNort": 1880, "Ġacross": 1881, "Ġprotec": 1882, "Ġprotect": 1883, "Ġcoo": 1884, "ĠPu": 1885, "Ġcut": 1886, "Ġcommunity": 1887, "Ġfail": 1888, "Ġstron": 1889, "Ġcel": 1890, "Ġexpla": 1891, "ĠFre": 1892, "Ġcause": 1893, "Ġson": 1894, "Ġstrong": 1895, "Ġsugg": 1896, "Ġsugge": 1897, "Ġsugges": 1898, "Ġsuggest": 1899, "Ġavaila": 1900, "Ġconse": 1901, "Ġavailab": 1902, "Ġfas": 1903, "Ġanti": 1904, "Ġpric": 1905, "Ġmakes": 1906, "Ġimpr": 1907, "Ġcriti": 1908, "Ġ&": 1909, "ĠDemo": 1910, "ĠOr": 1911, "Ġmini": 1912, "Ġfeature": 1913, "Ġaske": 1914, "ĠIndi": 1915, "Ġ2016": 1916, "Ġasked": 1917, "Ġbring": 1918, "Ġgiven": 1919, "Ġ30": 1920, "Ġatten": 1921, "ĠCoun": 1922, "ĠHouse": 1923, "Ġet": 1924, "Ġreported": 1925, "Ġgoal": 1926, "Ġouts": 1927, "Ġthrea": 1928, "Ġnationa": 1929, "Ġnational": 1930, "ĠFran": 1931, "Ġothers": 1932, "Ġserve": 1933, "Ġgett": 1934, "Ġarm": 1935, "tions": 1936, "ĠCen": 1937, "Ġsco": 1938, "ĠWhat": 1939, "Ġgetting": 1940, "ĠWest": 1941, "Ġweb": 1942, "ĠEx": 1943, "Ġinsta": 1944, "zon": 1945, "Ġcrim": 1946, "ĠUniversit": 1947, "ĠDemoc": 1948, "Ġexte": 1949, "Ġannou": 1950, "Ġannoun": 1951, "Ġannounc": 1952, "ĠDemocra": 1953, "ĠYe": 1954, "ĠMr": 1955, "Ġmatt": 1956, "Ġiden": 1957, "Ġident": 1958, "Ġreso": 1959, "Ġsent": 1960, "Ġinterv": 1961, "ĠPar": 1962, "ĠChrist": 1963, "ĠPla": 1964, "Ġnet": 1965, "ĠIns": 1966, "Ġevi": 1967, "ĠUniversity": 1968, "Ġwrite": 1969, "Ġago": 1970, "Ġdescr": 1971, "Ġdescri": 1972, "Ġtog": 1973, "Ġtrain": 1974, "Ġparticu": 1975, "Ġrepre": 1976, "Ġsour": 1977, "Ġparticul": 1978, "Ġparticula": 1979, "Ġposition": 1980, "Ġmatte": 1981, "Ġwatc": 1982, "Ġcharge": 1983, "Ġfur": 1984, "iving": 1985, "Ġland": 1986, "Ġalm": 1987, "'ve": 1988, "ĠOf": 1989, "Ġspac": 1990, "Ġparticular": 1991, "Ġpresent": 1992, "Ġrepres": 1993, "Ġdeta": 1994, "Ġsaf": 1995, "Ġcritic": 1996, "ĠX": 1997, "Ġfat": 1998, "Ġdeci": 1999, "Ġeconomi": 2000, "ĠSha": 2001, "Ġstarted": 2002, "rst": 2003, "Ġbar": 2004, "ĠCit": 2005, "Ġstri": 2006, "Ġproba": 2007, "Ġ2015": 2008, "Ġavailabl": 2009, "Ġavailable": 2010, "Ġbri": 2011, "Ġsafe": 2012, "Ġdeat": 2013, "Ġdeath": 2014, "ĠBro": 2015, "Ġbegin": 2016, "Ġindus": 2017, "Ġindust": 2018, "Ġindustr": 2019, "Ġalmo": 2020, "Ġaccou": 2021, "Ġbased": 2022, "ĠDemocrat": 2023, "Ġaccoun": 2024, "Ġaccount": 2025, "Ġfollowin": 2026, "Ġfollowing": 2027, "Ġempl": 2028, "rae": 2029, "ĠWar": 2030, "ĠAll": 2031, "Ġcul": 2032, "Ġhistory": 2033, "ĠCent": 2034, "Ġemplo": 2035, "Ġemploy": 2036, "Ġtreat": 2037, "Ġparty": 2038, "Ġspace": 2039, ".)": 2040, "Ġnatu": 2041, "Ġstudy": 2042, "Ġmatter": 2043, "ĠCal": 2044, "Ġspee": 2045, "Ġprice": 2046, "Ġexce": 2047, "Ġsite": 2048, "Ġsourc": 2049, "ĠHar": 2050, "Ġcommit": 2051, "ĠIndia": 2052, "Ġanyt": 2053, "Ġsecur": 2054, "ĠSout": 2055, "Ġtryi": 2056, "Ġcomes": 2057, "Ġtryin": 2058, "Ġtrying": 2059, "isit": 2060, "ĠSec": 2061, "Ġ#": 2062, "Ġexis": 2063, "Ġexist": 2064, "Ġserie": 2065, "Ġalmos": 2066, "Ġalmost": 2067, "Ġseries": 2068, "ĠTra": 2069, "Ġtoge": 2070, "Ġtoget": 2071, "Ġtogeth": 2072, "Ġtogethe": 2073, "Ġtogether": 2074, "Ġconcern": 2075, "Ġaddit": 2076, "Ġadditi": 2077, "Ġsource": 2078, "Ġstatem": 2079, "Ġstateme": 2080, "Ġstatemen": 2081, "Ġstatement": 2082, "ĠIra": 2083, "Ġglo": 2084, "Ġannounce": 2085, "Ġcover": 2086, "Ġfoc": 2087, "ĠCana": 2088, "ĠInter": 2089, "Ġment": 2090, "Ġacces": 2091, "Ġkey": 2092, "Ġimpro": 2093, "Ġactivi": 2094, "Ġaccess": 2095, "ĠWas": 2096, "mind": 2097, "Ġsix": 2098, "Ġisn": 2099, "Ġcarr": 2100, "ĠOne": 2101, "Ġrefe": 2102, "Ġinde": 2103, "Ġprobab": 2104, "Ġprope": 2105, "Ġadde": 2106, "Ġadditio": 2107, "Ġaddition": 2108, "Ġ16": 2109, "Ġbor": 2110, "port": 2111, "Ġprac": 2112, "Ġstep": 2113, "Ġpersona": 2114, "Ġpract": 2115, "Ġbreak": 2116, "Ġreprese": 2117, "Ġadded": 2118, "Ġrepresen": 2119, "Ġrepresent": 2120, "Ġtype": 2121, "Ġprevi": 2122, "Ġinten": 2123, "Ġpho": 2124, "Ġfile": 2125, "Ġpote": 2126, "Ġpoten": 2127, "Ġsingl": 2128, "Ġfocu": 2129, "Ġfocus": 2130, "Ġmes": 2131, "Ġsingle": 2132, "Ġenc": 2133, "Ġconsider": 2134, "Ġ2014": 2135, "Ġmilitar": 2136, "Ġdeli": 2137, "Ġpotent": 2138, "Ġsecuri": 2139, "Ġsecurit": 2140, "ĠOc": 2141, "Ġtar": 2142, "Ġanyth": 2143, "Ġanythi": 2144, "Ġanythin": 2145, "Ġanything": 2146, "Ġproduce": 2147, "Ġlega": 2148, "Ġanal": 2149, "Ġappli": 2150, "Ġsurv": 2151, "Ġelecti": 2152, "Ġfav": 2153, "Ġindiv": 2154, "Ġindivi": 2155, "ĠSun": 2156, "Ġpriva": 2157, "ĠDon": 2158, "vict": 2159, "Ġindivid": 2160, "Ġindividu": 2161, "Ġsayin": 2162, "Ġindividua": 2163, "Ġbuildin": 2164, "Ġbuilding": 2165, "Ġconsu": 2166, "Ġsaying": 2167, "Ġelection": 2168, "Ġindividual": 2169, "Ġcus": 2170, "Ġdefin": 2171, "Ġversi": 2172, "Ġfed": 2173, "Ġversion": 2174, "Ġbene": 2175, "Ġvari": 2176, "Ġpersonal": 2177, "ĠClin": 2178, "ĠSch": 2179, "Ġwid": 2180, "Ġbad": 2181, "ĠEd": 2182, "Ġeffo": 2183, "Ġeffor": 2184, "Ġeffort": 2185, "Ġvict": 2186, "ĠCanad": 2187, "Ġ13": 2188, "Ġinterna": 2189, "Ġrevi": 2190, "Ġpor": 2191, "ĠQu": 2192, "Ġthir": 2193, "ĠMus": 2194, "Ġtaken": 2195, "Ġsimi": 2196, "ĠWit": 2197, "Ġenti": 2198, "Ġsimil": 2199, "Ġspea": 2200, "Ġrepl": 2201, "ĠJan": 2202, "ĠEng": 2203, "Ġentire": 2204, "Ġcompet": 2205, "Ġphot": 2206, "Ġsimila": 2207, "Ġsimilar": 2208, "Ġbehin": 2209, "Ġbehind": 2210, "Ġpick": 2211, "'m": 2212, "Ġguy": 2213, "Ġ14": 2214, "Ġtrac": 2215, "Ġ)": 2216, "ginal": 2217, "Ġpotenti": 2218, "Ġdiscu": 2219, "ĠHis": 2220, "Ġtot": 2221, "Ġpotentia": 2222, "Ġfie": 2223, "Ġmilitary": 2224, "Ġsecurity": 2225, "ĠMarc": 2226, "Ġproper": 2227, "iginal": 2228, "riginal": 2229, "Ġspecia": 2230, "ĠLea": 2231, "Ġpotential": 2232, "Ġdiscus": 2233, "Ġpracti": 2234, "Ġpractic": 2235, "Ġrelatio": 2236, "Ġrelation": 2237, "Ġspecial": 2238, "Ġbatt": 2239, "Ġdiscuss": 2240, "Ġfinan": 2241, "Ġfinanc": 2242, "Ġcust": 2243, "Ġdee": 2244, "Ġrathe": 2245, "Ġ|": 2246, "Ġrather": 2247, "Ġinco": 2248, "Ġtechno": 2249, "Ġdecide": 2250, "Ġpropo": 2251, "ĠDep": 2252, "Ġquic": 2253, "Ġthreat": 2254, "Ġcusto": 2255, "Ġquick": 2256, "ĠBrit": 2257, "Ġmind": 2258, "Ġartic": 2259, "Ġpret": 2260, "Ġphoto": 2261, "ĠÂ": 2262, "ĠGoo": 2263, "Ġspecif": 2264, "Ġprevio": 2265, "Ġpreviou": 2266, "Ġprevious": 2267, "Ġpublis": 2268, "Ġfall": 2269, "Ġwante": 2270, "Ġwanted": 2271, "ĠNorth": 2272, "Ġmess": 2273, "Ġaccu": 2274, "Ġprobabl": 2275, "Ġofficer": 2276, "Ġwhol": 2277, "Ġpolicy": 2278, "Ġexplain": 2279, "Ġsomeon": 2280, "Ġsomeone": 2281, "Ġprim": 2282, "Ġtota": 2283, "Ġtotal": 2284, "ĠBra": 2285, "Ġsum": 2286, "Ġimage": 2287, "Ġfood": 2288, "Ġremo": 2289, "ĠAb": 2290, "Ġspok": 2291, "Ġblac": 2292, "Ġblack": 2293, "Ġspoke": 2294, "ĠClint": 2295, "Ġcult": 2296, "Ġtechnol": 2297, "Ġtechnolo": 2298, "Ġtechnolog": 2299, "Ġconn": 2300, "Ġspeak": 2301, "Ġredu": 2302, "Ġdistr": 2303, "Ġfoot": 2304, "Ġcomb": 2305, "Ġ17": 2306, "ĠGer": 2307, "Ġente": 2308, "Ġboa": 2309, "Ġasse": 2310, "Ġattem": 2311, "Ġattemp": 2312, "Ġattempt": 2313, "Ġcompani": 2314, "ĠAss": 2315, "Ġtaki": 2316, "Ġtakin": 2317, "Ġtaking": 2318, "ĠGra": 2319, "Ġtro": 2320, "ĠAus": 2321, "Ġexplo": 2322, "Ġfunc": 2323, "ĠClinto": 2324, "ĠClinton": 2325, "ĠNationa": 2326, "ĠNational": 2327, "Ġciti": 2328, "ĠGi": 2329, "Ġ25": 2330, "Ġsigni": 2331, "ĠBl": 2332, "Ġclu": 2333, "Ġsignif": 2334, "ĠPol": 2335, "original": 2336, "**": 2337, "Ġexten": 2338, "Ġbloc": 2339, "Ġdevelopm": 2340, "Ġdevelopme": 2341, "Ġdevelopmen": 2342, "Ġdevelopment": 2343, "Ġels": 2344, "Ġfron": 2345, "Ġbody": 2346, "Ġtowa": 2347, "visit": 2348, "Ġden": 2349, "Ġtowar": 2350, "Ġtoward": 2351, "Ġelse": 2352, "Ġdecl": 2353, "Ġevide": 2354, "Ġeviden": 2355, "Ġnoth": 2356, "Ġfront": 2357, "Ġcann": 2358, "Ġprobably": 2359, "Ġnothing": 2360, "Ġwhole": 2361, "://": 2362, "init": 2363, "ĠIsra": 2364, "Ġpac": 2365, "Ġinfl": 2366, "ĠWorl": 2367, "Ġsignifi": 2368, "ĠFu": 2369, "ĠIsrae": 2370, "Ġconne": 2371, "ĠBla": 2372, "ĠIsrael": 2373, "ĠWorld": 2374, "Ġcomin": 2375, "Ġresearch": 2376, "ĠSup": 2377, "Ġfunct": 2378, "Ġcoming": 2379, "Ġvisit": 2380, "Ġconnec": 2381, "Ġconnect": 2382, "Ġalle": 2383, "Ġchal": 2384, "ĠIsla": 2385, "ĠRes": 2386, "Ġanaly": 2387, "Ġadva": 2388, "Ġrais": 2389, "Ġmass": 2390, "Ġadvan": 2391, "Ġreduc": 2392, "Ġcollec": 2393, "Ġcollect": 2394, "Ġfuncti": 2395, "Ġfunction": 2396, "ĠCity": 2397, "Ġpoints": 2398, "Ġarticl": 2399, "Ġarticle": 2400, "Ġdescrib": 2401, "Ġfede": 2402, "Ġfeder": 2403, "Ġfedera": 2404, "Ġdetai": 2405, "Ġoriginal": 2406, "ĠGr": 2407, "Ġintr": 2408, "Ġbenef": 2409, "Ġconten": 2410, "Ġeit": 2411, "Ġeithe": 2412, "Ġeither": 2413, "Ġsupe": 2414, "Ġsignific": 2415, "Ġsignifica": 2416, "Ġoutsi": 2417, "ĠVi": 2418, "Ġunc": 2419, "Ġsuper": 2420, "Ġbank": 2421, "Ġspecifi": 2422, "Ġsignifican": 2423, "ĠSer": 2424, "Ġquit": 2425, "Ġfurt": 2426, "ĠAust": 2427, "Ġabs": 2428, "Ġsce": 2429, "ĠNot": 2430, "Ġtarg": 2431, "Ġwro": 2432, "Ġfurthe": 2433, "Ġtarge": 2434, "Ġtarget": 2435, "ĠEl": 2436, "Ġoutsid": 2437, "Ġoutside": 2438, "Ġlegal": 2439, "Ġprin": 2440, "Ġenv": 2441, "Ġeconomic": 2442, "Ġcod": 2443, "ĠWash": 2444, "Ġfurther": 2445, "Ġblock": 2446, "ĠJun": 2447, "ĠHowe": 2448, "ĠDr": 2449, "iza": 2450, "Ġsli": 2451, "Ġchall": 2452, "Ġwrot": 2453, "Ġwrote": 2454, "Ġlaun": 2455, "Ġ2013": 2456, "Ġchalle": 2457, "Ġchallen": 2458, "ĠDis": 2459, "Ġfederal": 2460, "Ġchalleng": 2461, "Ġwhit": 2462, "Ġshot": 2463, "Ġdevi": 2464, "Ġthird": 2465, "Ġdisco": 2466, "Ġslo": 2467, "Ġsav": 2468, "ĠWith": 2469, "Ġfiel": 2470, "Ġfield": 2471, "Ġissues": 2472, "Ġave": 2473, "Ġrelations": 2474, "ĠFac": 2475, "Ġrefu": 2476, "Ġwhite": 2477, "Ġwide": 2478, "Ġleave": 2479, "Ġseems": 2480, "Ġscen": 2481, "Ġeveryt": 2482, "ĠWhit": 2483, "Ġtem": 2484, "Ġmeas": 2485, "Ġeveryth": 2486, "Ġeverythin": 2487, "Ġeverything": 2488, "fie": 2489, "Ġadmin": 2490, "Ġcand": 2491, "Ġey": 2492, "Ġcompanie": 2493, "Ġcompanies": 2494, "Ġexec": 2495, "Ġfigu": 2496, "Ġscre": 2497, "Ġbilli": 2498, "ĠWashing": 2499, "Ġeye": 2500, "ĠHea": 2501, "ĠDec": 2502, "Ġgenerat": 2503, "ĠGerma": 2504, "ĠWashingt": 2505, "ĠWashingto": 2506, "ĠWashington": 2507, "Ġbillion": 2508, "Ġwatch": 2509, "Ġlab": 2510, "Ġbelo": 2511, "Ġperi": 2512, "Ġ2012": 2513, "Ġtemp": 2514, "Ġchec": 2515, "Ġcheck": 2516, "Ġpros": 2517, "Ġren": 2518, "pport": 2519, "Ġleaders": 2520, "Ġsoun": 2521, "ĠWal": 2522, "Ġsound": 2523, "Ġself": 2524, "Ġstates": 2525, "ĠHowever": 2526, "ĠGerman": 2527, "Ġbur": 2528, "ĠThu": 2529, "Ġnec": 2530, "Ġcop": 2531, "Ġpag": 2532, "Ġspend": 2533, "Ġcustom": 2534, "ĠLu": 2535, "Ġcoup": 2536, "Ġbega": 2537, "Ġesp": 2538, "Ġofficials": 2539, "Ġreleased": 2540, "Ġbegan": 2541, "Ġsusp": 2542, "Ġstudents": 2543, "ĠDav": 2544, "ĠApp": 2545, "initi": 2546, "Ġmeasu": 2547, "ĠSouth": 2548, "Ġpai": 2549, "ĠInst": 2550, "Ġbuy": 2551, "Ġener": 2552, "Ġsett": 2553, "Ġenerg": 2554, "Ġqual": 2555, "Ġema": 2556, "Ġwai": 2557, "Ġ2017": 2558, "Ġexecu": 2559, "Ġexecut": 2560, "initia": 2561, "Ã©": 2562, "Ġstati": 2563, "Ġani": 2564, "ĠPart": 2565, "Ġadmini": 2566, "Ġadminis": 2567, "Ġadminist": 2568, "Ġabov": 2569, "Ġabove": 2570, "Ġitse": 2571, "Ġitsel": 2572, "Ġitself": 2573, "Ġamou": 2574, "Ġcard": 2575, "Ġamoun": 2576, "Ġamount": 2577, "Ġgun": 2578, "Ġthems": 2579, "Ġthemse": 2580, "Ġthemsel": 2581, "Ġsense": 2582, "Ġthemselv": 2583, "Ġthemselve": 2584, "Ġthemselves": 2585, "Ġevidenc": 2586, "Ġevidence": 2587, "Ġaddr": 2588, "izat": 2589, "Ġtrue": 2590, "Ġanim": 2591, "Ġdefens": 2592, "Ġbecam": 2593, "Ġbecame": 2594, "Ġpropos": 2595, "Ġregio": 2596, "Ġregion": 2597, "ĠIntern": 2598, "Ġneg": 2599, "Ġaddre": 2600, "Ġaddres": 2601, "Ġaddress": 2602, "Ġspecific": 2603, "Ġpage": 2604, "Ġcountri": 2605, "Ġcountrie": 2606, "Ġcountries": 2607, "Ġimprove": 2608, "Ġpasse": 2609, "ĠAg": 2610, "ĠSome": 2611, "Ġ100": 2612, "Ġwasn": 2613, "Ġlaunc": 2614, "Ġ198": 2615, "Ġsimply": 2616, "Ġmedic": 2617, "Ġcode": 2618, "ĠJus": 2619, "Ġintervi": 2620, "Ġintervie": 2621, "Ġinitia": 2622, "Ġinterview": 2623, "Ġesta": 2624, "Ġsitu": 2625, "'l": 2626, "'ll": 2627, "Ġsignificant": 2628, "Ġpen": 2629, "Ġaver": 2630, "Ġphon": 2631, "Ġgroun": 2632, "Ġground": 2633, "ĠGen": 2634, "Ġdescribe": 2635, "Ġdevelope": 2636, "Ġauthori": 2637, "Ġsitua": 2638, "Ġcommon": 2639, "Ġsumm": 2640, "ĠChina": 2641, "Ġimpa": 2642, "ĠJust": 2643, "Ġball": 2644, "ĠSea": 2645, "Ġsituat": 2646, "Ġmatc": 2647, "Ġfigure": 2648, "Ġsn": 2649, "Ġprofe": 2650, "Ġprofes": 2651, "Ġtrade": 2652, "Ġrad": 2653, "Ġprofess": 2654, "Ġneeds": 2655, "ĠTime": 2656, "ĠGree": 2657, "Ġans": 2658, "Ġeveryon": 2659, "Ġeveryone": 2660, "Ġemai": 2661, "Ġsor": 2662, "Ġapproa": 2663, "Ġapproac": 2664, "Ġapproach": 2665, "Ġgroups": 2666, "ĠSep": 2667, "Ġcultu": 2668, "Ġnetw": 2669, "Ġnetwo": 2670, "Ġnetwor": 2671, "Ġnetwork": 2672, "Ġemploye": 2673, "Ġshows": 2674, "Ġwalk": 2675, "Ġwoma": 2676, "Ġwoman": 2677, "ĠRob": 2678, "Ġphy": 2679, "Ġbenefit": 2680, "Ġdest": 2681, "Ġansw": 2682, "Ġanswe": 2683, "Ġanswer": 2684, "Ġneede": 2685, "Ġchanc": 2686, "Ġneeded": 2687, "Ġtradi": 2688, "Ġprett": 2689, "Ġchance": 2690, "Ġforw": 2691, "Ġforwa": 2692, "Ġforwar": 2693, "Ġforward": 2694, "Ġbelow": 2695, "Ġpie": 2696, "Ġcondi": 2697, "Ġ50": 2698, "Ġphone": 2699, "Ġsaw": 2700, "Ġsurp": 2701, "Ġassi": 2702, "Ġalleg": 2703, "Ġdeca": 2704, "Ġspi": 2705, "Ġdeep": 2706, "Ġmag": 2707, "Ġpretty": 2708, "Ġfavo": 2709, "Ġcondit": 2710, "Ġconditi": 2711, "Ġcondition": 2712, "Ġshoo": 2713, "Ġpus": 2714, "Ġprivat": 2715, "Ġdistri": 2716, "Ġmeasure": 2717, "Ġenvi": 2718, "Ġcandi": 2719, "ĠRea": 2720, "Ġquite": 2721, "Ġplayed": 2722, "Ġworker": 2723, "Ġdevic": 2724, "Ġdevice": 2725, "ĠWhite": 2726, "Ġsituati": 2727, "ĠCons": 2728, "ĠMed": 2729, "Ġsituation": 2730, "Ġabi": 2731, "ĠRic": 2732, "ĠAct": 2733, "gher": 2734, "Ġindustry": 2735, "Ġcapt": 2736, "Ġpublishe": 2737, "Ġplayin": 2738, "Ġfast": 2739, "kille": 2740, "Ġenergy": 2741, "Ġstay": 2742, "Ġidenti": 2743, "Ġplaying": 2744, "Ġcandid": 2745, "ĠTwit": 2746, "Ġglob": 2747, "Ġsect": 2748, "Ġeasi": 2749, "ĠFranc": 2750, "Ġphys": 2751, "Ġpain": 2752, "Ġski": 2753, "Ġphysi": 2754, "Ġbeha": 2755, "ĠAft": 2756, "Ġmeeting": 2757, "Ġbigg": 2758, "Ġavera": 2759, "Ġenvir": 2760, "Ġfriends": 2761, "Ġaverag": 2762, "Ġadministr": 2763, "Ġemail": 2764, "Ġadministra": 2765, "Ġespe": 2766, "Ġcontain": 2767, "Ġenviron": 2768, "Ġadministrat": 2769, "Ġresponse": 2770, "Ġbigge": 2771, "ĠAfte": 2772, "Ġpoo": 2773, "Ġinste": 2774, "Ġespec": 2775, "Ġinstea": 2776, "Ġinstead": 2777, "ĠFl": 2778, "Ġespeci": 2779, "Ġgran": 2780, "ĠAfter": 2781, "Ġscr": 2782, "Ġespecia": 2783, "Ġespecial": 2784, "Ġenvironm": 2785, "Ġenvironme": 2786, "Ġenvironmen": 2787, "Ġenvironment": 2788, "Ġmessa": 2789, "Ġmessag": 2790, "ĠNews": 2791, "Ġproducti": 2792, "Ġespeciall": 2793, "Ġespecially": 2794, "Ġcontent": 2795, "Ġearli": 2796, "Ġearlie": 2797, "pportu": 2798, "pportun": 2799, "Ġrace": 2800, "Ġcandida": 2801, "Ġawar": 2802, "Ġwors": 2803, "opportun": 2804, "Ġcompu": 2805, "Ġrecentl": 2806, "Ġrecently": 2807, "Ġauto": 2808, "Ġtrack": 2809, "Ġcontrac": 2810, "Ġconver": 2811, "Ġkille": 2812, "Ġdesp": 2813, "Ġsuf": 2814, "Ġweeks": 2815, "ĠBar": 2816, "ĠTwitt": 2817, "Ġopportun": 2818, "Ġcorre": 2819, "Ġdeter": 2820, "ĠTwitte": 2821, "Ġsuff": 2822, "ĠTwitter": 2823, "Ġperio": 2824, "Ġjud": 2825, "Ġanima": 2826, "Ġchanges": 2827, "ĠOct": 2828, "Ġport": 2829, "Ġkne": 2830, "Ġperiod": 2831, "Ġextra": 2832, "Ġmate": 2833, "Ġcoupl": 2834, "Ġpara": 2835, "Ġep": 2836, "Ġstanda": 2837, "Ġchallenge": 2838, "Ġabil": 2839, "Ġabili": 2840, "Ġabilit": 2841, "nizat": 2842, "Ġaccep": 2843, "Ġaccept": 2844, "Ġcir": 2845, "ĠMat": 2846, "ĠCor": 2847, "Ġclim": 2848, "Ġraise": 2849, "ĠDepa": 2850, "Ġstruc": 2851, "igher": 2852, "Ġsoon": 2853, "Ġfavor": 2854, "Ġshoot": 2855, "ĠChe": 2856, "ĠDepart": 2857, "Ġcirc": 2858, "ĠLon": 2859, "Ġprivate": 2860, "ĠCong": 2861, "Ġgui": 2862, "Ġjou": 2863, "ĠBan": 2864, "ĠSena": 2865, "Ġtit": 2866, "ovie": 2867, "ĠMy": 2868, "Ġenter": 2869, "Ġworks": 2870, "anizat": 2871, "Ġpractice": 2872, "Ġpare": 2873, "higher": 2874, "Ġserio": 2875, "Ġcouple": 2876, "Ġseriou": 2877, "ganizat": 2878, "Ġserious": 2879, "rganizat": 2880, "Ġwait": 2881, "ĠDepartme": 2882, "ĠDepartmen": 2883, "ĠDepartment": 2884, "Ġwron": 2885, "Ġwrong": 2886, "Ġ24": 2887, "Ġconsum": 2888, "Ġ21": 2889, "ĠSept": 2890, "Ġaverage": 2891, "Ġrelig": 2892, "ĠSw": 2893, "Ġremov": 2894, "Ġreligi": 2895, "Ġjour": 2896, "Ġreligio": 2897, "Ġinsid": 2898, "organizat": 2899, "Ġ{": 2900, "Ġopportunit": 2901, "Ġedu": 2902, "Ġhigher": 2903, "____": 2904, "ĠFace": 2905, "ĠTho": 2906, "Ġbou": 2907, "Ġstore": 2908, "Ġelectr": 2909, "ĠThes": 2910, "ĠSenat": 2911, "Ġtrav": 2912, "Ġtab": 2913, "Ġjourn": 2914, "Ġeduc": 2915, "Ġcred": 2916, "ĠMarch": 2917, "Ġparen": 2918, "Ġeduca": 2919, "Ġgir": 2920, "Ġrega": 2921, "Ġorganizat": 2922, "Ġplea": 2923, "Ġparent": 2924, "Ġeducat": 2925, "Ġphysic": 2926, "Ġwebs": 2927, "Ġstandar": 2928, "Ġstandard": 2929, "Ġonlin": 2930, "Ġonline": 2931, "ĠGeo": 2932, "Ġlett": 2933, "ĠEas": 2934, "Ġled": 2935, "time": 2936, "Ġmessage": 2937, "Ġdema": 2938, "Ġcandidat": 2939, "ĠSyr": 2940, "Ġwords": 2941, "Ġtrave": 2942, "Ġcomput": 2943, "Ġpred": 2944, "ĠThese": 2945, "ĠWill": 2946, "Ġinside": 2947, "Ġdetail": 2948, "Ġcandidate": 2949, "Ġresid": 2950, "Ġresults": 2951, "Ġ+": 2952, "hile": 2953, "Ġdecade": 2954, "Ġciv": 2955, "Ġrevie": 2956, "Ġstudi": 2957, "ĠSyri": 2958, "Ġpopulat": 2959, "ĠHil": 2960, "Ġreview": 2961, "Ġgirl": 2962, "Ġcolo": 2963, "Ġsold": 2964, "Ġlaws": 2965, "Ġcontract": 2966, "movie": 2967, "Ġcivi": 2968, "Ġwind": 2969, "Ġwebsi": 2970, "Ġwebsit": 2971, "Ġwebsite": 2972, "ĠKi": 2973, "Ġindic": 2974, "ĠAug": 2975, "Ġaud": 2976, "Ġapplic": 2977, "Ġapplica": 2978, "Ġservices": 2979, "ĠFri": 2980, "Ġplat": 2981, "river": 2982, "ĠMich": 2983, "Ġpopular": 2984, "Ġanyo": 2985, "Ġanyon": 2986, "ĠSpa": 2987, "Ġanyone": 2988, "ĠSyria": 2989, "ĠJune": 2990, "Ġagenc": 2991, "Ġexac": 2992, "Ġdeman": 2993, "Ġmeth": 2994, "Ġanalys": 2995, "Ġemb": 2996, "Ġmovie": 2997, "Ġprotes": 2998, "Ġprotest": 2999, "Ġsuspe": 3000, "Ġnece": 3001, "Ġneces": 3002, "Ġexpre": 3003, "Ġexpres": 3004, "Ġupd": 3005, "Ġexpress": 3006, "Ġupda": 3007, "Ġupdat": 3008, "Ġearlier": 3009, "Ġnecess": 3010, "Ġcontri": 3011, "Ġrespe": 3012, "Ġstag": 3013, "Ġfinanci": 3014, "Ġteac": 3015, "Ġinternat": 3016, "Ġinternati": 3017, "Ġinternatio": 3018, "Ġinternation": 3019, "Ġrespec": 3020, "Ġja": 3021, "Ġunit": 3022, "Ġinternationa": 3023, "Ġinternational": 3024, "ĠBen": 3025, "Ġpiec": 3026, "Ġ2011": 3027, "Ġperforma": 3028, "Ġpea": 3029, "Ġwei": 3030, "Ġdead": 3031, "Ġrespect": 3032, "ĠCount": 3033, "Ġteach": 3034, "Ġtechnology": 3035, "Ġaudi": 3036, "Ġperforman": 3037, "Ġpiece": 3038, "Ġcapi": 3039, "Ġexpecte": 3040, "Ġexpected": 3041, "Ġcreated": 3042, "ĠApr": 3043, "Ġgloba": 3044, "Ġlac": 3045, "Ġglobal": 3046, "Ġidentif": 3047, "Ġlang": 3048, "Ġsurpr": 3049, "Ġproblems": 3050, "Ġmemo": 3051, "Ġperformanc": 3052, "Ġsurpri": 3053, "Ġperformance": 3054, "Ġsurpris": 3055, "Ġrang": 3056, "Ġfamili": 3057, "ĠBre": 3058, "Ġtravel": 3059, "Ġreceived": 3060, "ĠSco": 3061, "Ġtrie": 3062, "ĠCongre": 3063, "ĠJuly": 3064, "Ġadministrati": 3065, "Ġcapit": 3066, "Ġscient": 3067, "Ġtas": 3068, "Ġways": 3069, "Ġscienti": 3070, "Ġrevea": 3071, "Ġreveal": 3072, "Ġcoac": 3073, "Ġeasy": 3074, "ĠEve": 3075, "Ġpul": 3076, "Ġcontrib": 3077, "Ġsecre": 3078, "Ġsell": 3079, "Ġquestions": 3080, "Ġcanno": 3081, "Ġcannot": 3082, "Ġtour": 3083, "ĠMos": 3084, "Ġ<": 3085, "Ġfinancia": 3086, "Ġannounced": 3087, "Ġresponsi": 3088, "Ġcontribu": 3089, "Ġfinancial": 3090, "Ġlangu": 3091, "Ġpack": 3092, "Ġcommitt": 3093, "ĠCongres": 3094, "Ġcontribut": 3095, "ĠMond": 3096, "Ġtitl": 3097, "Ġrepe": 3098, "ĠCongress": 3099, "Ġimpac": 3100, "Ġimpact": 3101, "ĠEast": 3102, "Ġengin": 3103, "Ġuna": 3104, "Ġsiz": 3105, "Ġengine": 3106, "ĠGod": 3107, "Ġtitle": 3108, "Ġpap": 3109, "ĠWin": 3110, "ĠFaceb": 3111, "ĠSat": 3112, "Ġsimple": 3113, "ĠFacebo": 3114, "Ġsche": 3115, "ĠFaceboo": 3116, "Ġstrat": 3117, "Ġpan": 3118, "ĠFacebook": 3119, "ĠFrid": 3120, "Ġsupporte": 3121, "Ġcivil": 3122, "Ġpoll": 3123, "Ġsof": 3124, "Ġactivit": 3125, "Ġcapa": 3126, "Ġreside": 3127, "ĠWhi": 3128, "Ġunive": 3129, "Ġuniver": 3130, "Ġmater": 3131, "Ġunivers": 3132, "Ġauthorit": 3133, "ĠFrida": 3134, "Ġperm": 3135, "Ġexpa": 3136, "ĠFriday": 3137, "Ġprep": 3138, "Ġpopulati": 3139, "Ġpopulation": 3140, "Ġterro": 3141, "Ġcapita": 3142, "Ġexact": 3143, "Ġterror": 3144, "ĠAustra": 3145, "living": 3146, "Ġcru": 3147, "Ġnearl": 3148, "Ġfacto": 3149, "Ġnearly": 3150, "ĠAustral": 3151, "Ġlangua": 3152, "Ġlanguag": 3153, "Ġupdate": 3154, "Ġlanguage": 3155, "Ġcaree": 3156, "Ġdelive": 3157, "Ġboar": 3158, "Ġrelationsh": 3159, "Ġrelationshi": 3160, "Ġrelationship": 3161, "Ġstaf": 3162, "Ġstaff": 3163, "ĠGoog": 3164, "Ġregar": 3165, "Ġregard": 3166, "Ġextre": 3167, "Ġextrem": 3168, "Ġcareer": 3169, "Ġ197": 3170, "Ġasso": 3171, "ĠStre": 3172, "Ġcases": 3173, "ĠOp": 3174, "ĠCour": 3175, "ĠMini": 3176, "ĠAustrali": 3177, "ĠTue": 3178, "ĠAustralia": 3179, "ĠMonda": 3180, "ĠGoogle": 3181, "Ġboard": 3182, "Ġmarr": 3183, "Ġsoft": 3184, "Ġsui": 3185, "ĠPat": 3186, "Ġarre": 3187, "Ġusu": 3188, "lling": 3189, "Ġsq": 3190, "Ġsear": 3191, "ĠMonday": 3192, "Ġexpan": 3193, "Ġbroa": 3194, "Ġfans": 3195, "Ġsubj": 3196, "ãģ": 3197, "Ġcredi": 3198, "Ġintel": 3199, "Ġwort": 3200, "ĠApri": 3201, "Ġinsu": 3202, "ĠApril": 3203, "ĠBer": 3204, "Ġscree": 3205, "Ġarres": 3206, "Ġarrest": 3207, "ĠCla": 3208, "Ġcy": 3209, "Ġrepla": 3210, "ĠTues": 3211, "Ġfini": 3212, "Ġliving": 3213, "Ġbroad": 3214, "ĠTuesd": 3215, "ĠTuesda": 3216, "ĠTuesday": 3217, "Ġsize": 3218, "Ġreports": 3219, "Ġworth": 3220, "Ġsecret": 3221, "Ġer": 3222, "Ġintro": 3223, "Ġrap": 3224, "Ġkilled": 3225, "ĠCali": 3226, "Ġsearc": 3227, "Ġcompeti": 3228, "Ġjudg": 3229, "Ġassu": 3230, "Ġcompetit": 3231, "Ġencou": 3232, "ĠDan": 3233, "Ġtele": 3234, "Ġusers": 3235, "Ġworked": 3236, "Ġmac": 3237, "Ġstrate": 3238, "Ġtwe": 3239, "Ġstrateg": 3240, "Ġ2010": 3241, "Ġpape": 3242, "Ġsubje": 3243, "Ġresponsib": 3244, "Ġsubjec": 3245, "Ġsubject": 3246, "oice": 3247, "Ġestab": 3248, "ĠFin": 3249, "Ġintell": 3250, "Ġrespond": 3251, "Ġpaper": 3252, "Ġclub": 3253, "ĠNi": 3254, "ĠAmericans": 3255, "Ġcell": 3256, "Ġ40": 3257, "Ġreque": 3258, "Ġestabl": 3259, "Ġestablis": 3260, "ĠPos": 3261, "Ġtakes": 3262, "Ġreques": 3263, "Ġrequest": 3264, "Ġusua": 3265, "ĠJap": 3266, "Ġscreen": 3267, "Ġability": 3268, "Ġusual": 3269, "Ġmedica": 3270, "Ġexecuti": 3271, "ĠRed": 3272, "Ġassoc": 3273, "Ġweap": 3274, "Ġweapon": 3275, "mother": 3276, "Ġsele": 3277, "Ġbasi": 3278, "Ġassoci": 3279, "ĠJapa": 3280, "Ġassocia": 3281, "Ġterms": 3282, "ĠRussian": 3283, "ĠJapan": 3284, "Ġassociat": 3285, "Ġtradit": 3286, "Ġworkers": 3287, "Ġtraditi": 3288, "Ġtraditio": 3289, "Ġtradition": 3290, "Ġtheo": 3291, "Ġcapital": 3292, "Ġtransf": 3293, "oks": 3294, "Ġpublished": 3295, "Ġbehav": 3296, "Ġ22": 3297, "ĠSpe": 3298, "Ġreme": 3299, "Ġexpo": 3300, "Ġselec": 3301, "ooks": 3302, "Ġselect": 3303, "ĠWhile": 3304, "Ġlack": 3305, "Ġsend": 3306, "ĠOu": 3307, "Ġdeterm": 3308, "Ġgave": 3309, "Ġdetermin": 3310, "Ġsqu": 3311, "Ġcommitte": 3312, "Ġdecided": 3313, "ĠTur": 3314, "Ġsort": 3315, "Ġresiden": 3316, "ĠWed": 3317, "Ġliste": 3318, "Ġsla": 3319, "Ġmother": 3320, "ĠEuropea": 3321, "Ġeme": 3322, "ĠEuropean": 3323, "Ġsale": 3324, "Ġmateri": 3325, "Ġscore": 3326, "Ġbasic": 3327, "Ġpati": 3328, "Ġchoi": 3329, "Ġemer": 3330, "ĠMil": 3331, "Ġfactor": 3332, "Ġgoe": 3333, "Ġinflu": 3334, "ĠPer": 3335, "Ġmateria": 3336, "Ġfinis": 3337, "Ġsat": 3338, "Ġpartn": 3339, "Ġpartne": 3340, "Ġdemo": 3341, "ĠNow": 3342, "Ġmaterial": 3343, "Ġscene": 3344, "Ġur": 3345, "ĠCalif": 3346, "Ġregulat": 3347, "ĠBy": 3348, "Ġ@": 3349, "Ġnecessa": 3350, "Ġnecessar": 3351, "Ġforei": 3352, "Ġforeig": 3353, "Ġforeign": 3354, "Ġfem": 3355, "ĠAfr": 3356, "Ġseven": 3357, "Ġprima": 3358, "Ġgoes": 3359, "ĠNove": 3360, "ĠLib": 3361, "Ġcente": 3362, "ĠJanu": 3363, "Ġcurrentl": 3364, "Ġcurrently": 3365, "Ġtabl": 3366, "Ġconstr": 3367, "ĠOff": 3368, "Ġwhos": 3369, "Ġconfir": 3370, "Ġconfirm": 3371, "Ġbran": 3372, "ĠGeor": 3373, "Ġwhose": 3374, "Ġincom": 3375, "Ġaffe": 3376, "ĠPen": 3377, "ĠGeorg": 3378, "Ġgreate": 3379, "Ġpatie": 3380, "Ġpatien": 3381, "Ġindica": 3382, "Ġpartici": 3383, "Ġplans": 3384, "Ġparticip": 3385, "Ġaffec": 3386, "Ġaffect": 3387, "Ġmetho": 3388, "Ġarri": 3389, "Ġdeba": 3390, "Ġplu": 3391, "Ġcrime": 3392, "ĠJanua": 3393, "ĠJanuar": 3394, "Ġmethod": 3395, "Ġequa": 3396, "Ġsuppl": 3397, "Ġadministratio": 3398, "Ġadministration": 3399, "Ġarriv": 3400, "Ġpropert": 3401, "Ġindicat": 3402, "ĠJanuary": 3403, "Ġemerg": 3404, "Ġparticipa": 3405, "Ġchoic": 3406, "Ġchoice": 3407, "Ġdemand": 3408, "ĠSund": 3409, "Ġpict": 3410, "Ġturne": 3411, "ĠFeb": 3412, "Ġrecog": 3413, "Ġdiscov": 3414, "Ġdiscove": 3415, "Ġreplac": 3416, "Ġteams": 3417, "ĠHol": 3418, "Ġrecogn": 3419, "Ġrecogni": 3420, "Ġpreve": 3421, "ĠPau": 3422, "Ġturned": 3423, "Ġnatura": 3424, "ĠSepte": 3425, "Ġpreven": 3426, "ĠSeptem": 3427, "Ġprevent": 3428, "ĠSeptemb": 3429, "Ġadve": 3430, "ĠSeptembe": 3431, "Ġevents": 3432, "ĠSeptember": 3433, "Ġnatural": 3434, "ĠCourt": 3435, "ĠKing": 3436, "Ġtex": 3437, "Ġmenti": 3438, "ĠPri": 3439, "Ġmention": 3440, "Ġship": 3441, "Ġslow": 3442, "Ġbattl": 3443, "Ġintrod": 3444, "Ġprepa": 3445, "Ġintrodu": 3446, "ĠSto": 3447, "Ġpictu": 3448, "Ġintroduc": 3449, "Ġareas": 3450, "Ġcompute": 3451, "Ġsexu": 3452, "Ġdesigne": 3453, "Ġtext": 3454, "Ġsexua": 3455, "Ġsexual": 3456, "Ġproduction": 3457, "ĠSunda": 3458, "Ġapplicat": 3459, "ĠIslam": 3460, "Ġgon": 3461, "Ġpicture": 3462, "Ġapplicati": 3463, "Ġgua": 3464, "Ġapplicatio": 3465, "Ġapplication": 3466, "ĠTV": 3467, "Ġlette": 3468, "Ġtool": 3469, "ĠHer": 3470, "ĠDavi": 3471, "ĠAng": 3472, "Ġnic": 3473, "ĠThurs": 3474, "Ġens": 3475, "Ġfelt": 3476, "Ġpartner": 3477, "Ġletter": 3478, "Ġreduce": 3479, "ĠNovem": 3480, "ĠNovemb": 3481, "ĠNovembe": 3482, "ĠNovember": 3483, "ĠAfric": 3484, "ĠWedn": 3485, "ĠWedne": 3486, "ĠWednes": 3487, "Ġtable": 3488, "ĠWednesd": 3489, "ĠWednesda": 3490, "ĠWednesday": 3491, "ĠAfrica": 3492, "ĠComp": 3493, "Ġquickl": 3494, "Ġattr": 3495, "Ġquickly": 3496, "Ġsep": 3497, "ĠDavid": 3498, "ĠEven": 3499, "Ġrange": 3500, "Ġcombin": 3501, "ĠMinis": 3502, "Ġsocie": 3503, "ĠJac": 3504, "ĠGene": 3505, "Ġpull": 3506, "ĠThursd": 3507, "ĠThursda": 3508, "ĠThursday": 3509, "Ġseek": 3510, "lice": 3511, "Ġsociet": 3512, "Ġvicti": 3513, "ĠJon": 3514, "Ġinflue": 3515, "Ġinfluen": 3516, "Ġnumbers": 3517, "Ġvictim": 3518, "Ġplane": 3519, "Ġconfe": 3520, "ĠMinist": 3521, "Ġeffecti": 3522, "ĠAm": 3523, "Ġplant": 3524, "Ġeffective": 3525, "Ġfathe": 3526, "ĠChristi": 3527, "Ġfather": 3528, "ĠPhi": 3529, "Ġbuilt": 3530, "Ġpromo": 3531, "ĠBea": 3532, "ĠAcc": 3533, "Ġstage": 3534, "Ġstree": 3535, "Ġgain": 3536, "ĠAi": 3537, "Ġstreet": 3538, "ĠBel": 3539, "ĠSunday": 3540, "Ġdestr": 3541, "Ġenj": 3542, "Ġenjo": 3543, "Ġfle": 3544, "ĠOcto": 3545, "Ġadvi": 3546, "Ġprec": 3547, "Ġthous": 3548, "Ġthousa": 3549, "Ġthousan": 3550, "Ġthousand": 3551, "ĠScot": 3552, "Ġdebat": 3553, "Ġeconomy": 3554, "Ġstrik": 3555, "Ġboy": 3556, "ĠTex": 3557, "Ġmatch": 3558, "Ġplann": 3559, "Ġenjoy": 3560, "Ġprove": 3561, "ĠYa": 3562, "Ġallowe": 3563, "Ġallowed": 3564, "Ġtechni": 3565, "ĠMas": 3566, "ĠAugu": 3567, "Ġali": 3568, "Ġspent": 3569, "ĠOctob": 3570, "ĠCap": 3571, "ĠOctobe": 3572, "ĠOctober": 3573, "Ġmemor": 3574, "Ġeducati": 3575, "Ġprimar": 3576, "ĠAugus": 3577, "Ġalte": 3578, "ĠAugust": 3579, "Ġeducation": 3580, "Ġlen": 3581, "Ġei": 3582, "Ġfli": 3583, "Ġpromis": 3584, "Ġdefini": 3585, "Ġincluded": 3586, "Ġnei": 3587, "Ġminis": 3588, "Ġ23": 3589, "Ġinci": 3590, "Ġwants": 3591, "Ġalter": 3592, "Ġattent": 3593, "Ġdefinit": 3594, "Ġremem": 3595, "Ġattenti": 3596, "Ġmarri": 3597, "Ġcustome": 3598, "Ġlegis": 3599, "Ġcustomer": 3600, "Ġrememb": 3601, "Ġlegisl": 3602, "Ġlegisla": 3603, "Ġtown": 3604, "Ġknew": 3605, "Ġneig": 3606, "Ġlegislat": 3607, "Ġneigh": 3608, "Ġneighb": 3609, "ĠCalifo": 3610, "ĠCalifor": 3611, "ĠBriti": 3612, "Ġsave": 3613, "ĠCaliforn": 3614, "ĠPaul": 3615, "ĠBritis": 3616, "ĠBritish": 3617, "ĠCaliforni": 3618, "ĠCalifornia": 3619, "Ġsepa": 3620, "Ġsepar": 3621, "Ġsepara": 3622, "Ġperfe": 3623, "ĠPet": 3624, "ĠCanada": 3625, "Ġarc": 3626, "Ġgets": 3627, "Ġaren": 3628, "Ġspot": 3629, "Ġperfec": 3630, "Ġperfect": 3631, "Ġquart": 3632, "Ġeig": 3633, "ĠBus": 3634, "Ġseparat": 3635, "ĠCont": 3636, "Ġpleas": 3637, "ĠCente": 3638, "Ġcenter": 3639, "Ġpromot": 3640, "?âĢĿ": 3641, "Ġpurp": 3642, "Ġsan": 3643, "Ġremembe": 3644, "Ġdemon": 3645, "Ġrepea": 3646, "Ġtried": 3647, "Ġgas": 3648, "ĠMac": 3649, "ĠDece": 3650, "Ġmaint": 3651, "Ġbir": 3652, "Ġcomputer": 3653, "Ġavo": 3654, "Ġattentio": 3655, "Ġattention": 3656, "Ġdispl": 3657, "200": 3658, "Ġinstan": 3659, "veh": 3660, "ĠStree": 3661, "Ġpatient": 3662, "Ġstruct": 3663, "Ġbattle": 3664, "ĠSho": 3665, "Ġvariou": 3666, "Ġvarious": 3667, "Ġeigh": 3668, "Ġeight": 3669, "Ġforces": 3670, "looks": 3671, "Ġfear": 3672, "Ġwis": 3673, "ĠKen": 3674, "ĠKore": 3675, "ical": 3676, "Ġaccus": 3677, "Ġpun": 3678, "Ġbrou": 3679, "Ġcompare": 3680, "vehi": 3681, "vehic": 3682, "Ġminist": 3683, "Ġtheor": 3684, "Ġ}": 3685, "Ġpris": 3686, "Ġbroug": 3687, "ĠStreet": 3688, "Ġbrough": 3689, "Ġwinn": 3690, "Ġreach": 3691, "Ġbrought": 3692, "Ġlooks": 3693, "oving": 3694, "Ġfirm": 3695, "Ġfit": 3696, "Ġfell": 3697, "Ġbud": 3698, "Ġstatu": 3699, "ĠKorea": 3700, "ĠKu": 3701, "ĠUK": 3702, "Ġgrowt": 3703, "Ġgrowth": 3704, "Ġquarte": 3705, "Ġtraini": 3706, "Ġtrainin": 3707, "Ġtraining": 3708, "vehicl": 3709, "vehicle": 3710, "'d": 3711, "Ġdebate": 3712, "Ġshowe": 3713, "Ġqualit": 3714, "Ġreb": 3715, "Ġcounte": 3716, "Ġfair": 3717, "Ġassis": 3718, "ĠBil": 3719, "Ġcondu": 3720, "Ġassist": 3721, "Ġswi": 3722, "Ġprogre": 3723, "Ġprogres": 3724, "Ġsuffe": 3725, "Ġdispla": 3726, "Ġprogress": 3727, "Ġbehavi": 3728, "Ġach": 3729, "ĠFlo": 3730, "Ġang": 3731, "Ġterri": 3732, "ĠLin": 3733, "Ġforma": 3734, "Ġcontac": 3735, "Ġcontact": 3736, "ĠDecem": 3737, "Ġmanu": 3738, "ĠBlac": 3739, "ĠDecemb": 3740, "ĠDecembe": 3741, "ĠDecember": 3742, "Ġbon": 3743, "ĠChar": 3744, "Ġdepe": 3745, "Ġesti": 3746, "Ġess": 3747, "ĠBlack": 3748, "ĠIS": 3749, "Ġvehicle": 3750, "ĠPolic": 3751, "Ġdefense": 3752, "Ġsong": 3753, "Ġestim": 3754, "Ġestima": 3755, "Ġdepen": 3756, "ĠPost": 3757, "Ġestimat": 3758, "Ġtwi": 3759, "voice": 3760, "While": 3761, "Ġcitiz": 3762, "Ġcitize": 3763, "Ġcitizen": 3764, "Ġculture": 3765, "Ġmedical": 3766, "Ġavoi": 3767, "Ġabu": 3768, "Ġanimal": 3769, "Ġregular": 3770, "Ġavoid": 3771, "Ġfloo": 3772, "Ġ196": 3773, "Ġtalki": 3774, "Ġsearch": 3775, "Ġclima": 3776, "Ġtouc": 3777, "Ġthrow": 3778, "Ġlates": 3779, "Ġlatest": 3780, "Ġite": 3781, "ĠSatu": 3782, "Ġton": 3783, "Ġtouch": 3784, "Ġconduc": 3785, "Ġtalkin": 3786, "Ġcredit": 3787, "Ġstructu": 3788, "Ġstrug": 3789, "Ġsometi": 3790, "Ġstrugg": 3791, "Ġremove": 3792, "Ġsometim": 3793, "Ġstruggl": 3794, "Ġsometime": 3795, "Ġupon": 3796, "Ġconsis": 3797, "Ġconsist": 3798, "Ġcoach": 3799, "Ġuns": 3800, "ĠDes": 3801, "Ġsym": 3802, "Ġtalking": 3803, "Ġindep": 3804, "ĠSatur": 3805, "Ġreplace": 3806, "Ġindepe": 3807, "Ġindepen": 3808, "Ġindepend": 3809, "Ġsuccessf": 3810, "Ġsuccessfu": 3811, "Ġsuccessful": 3812, "Ġspeed": 3813, "ĠLan": 3814, "Ġchu": 3815, "Ġindepende": 3816, "Ġindependen": 3817, "Ġwond": 3818, "Ġspor": 3819, "Ġachi": 3820, "ĠSenate": 3821, "Ġfeatures": 3822, "Ġtransp": 3823, "ĠFou": 3824, "ĠPho": 3825, "Ġrelativ": 3826, "Ġpush": 3827, "Ġdepa": 3828, "ĠJew": 3829, "Ġdepar": 3830, "Ġps": 3831, "Ġdepart": 3832, "Ġjourna": 3833, "Ġearn": 3834, "Ġjournal": 3835, "Ġcorp": 3836, "ĠTimes": 3837, "Ġextreme": 3838, "Ġcompetiti": 3839, "Ġconsidere": 3840, "Ġprison": 3841, "Ġnotic": 3842, "Ġconsidered": 3843, "Ġattend": 3844, "Ġtesti": 3845, "Ġconser": 3846, "Ġwonde": 3847, "Ġconserv": 3848, "Ġinsp": 3849, "Ġscienc": 3850, "Ġscience": 3851, "ĠParty": 3852, "Ġresident": 3853, "Ġconduct": 3854, "Ġlevels": 3855, "Ġargue": 3856, "Ġwarn": 3857, "Ġconsume": 3858, "Ġvoice": 3859, "ĠCounty": 3860, "Ġachie": 3861, "Ġachiev": 3862, "Ġensu": 3863, "ĠDona": 3864, "Ġincid": 3865, "ĠCenter": 3866, "Ġincide": 3867, "Ġinciden": 3868, "Ġemployee": 3869, "Ġpressu": 3870, "Ġmach": 3871, "ĠAnt": 3872, "Ġweig": 3873, "Ġcros": 3874, "Ġfis": 3875, "Ġcircu": 3876, "Ġcentu": 3877, "Ġcentur": 3878, "Ġcross": 3879, "mine": 3880, "Ġ2008": 3881, "Ġpurpo": 3882, "Ġprio": 3883, "Ġprior": 3884, "Ġgue": 3885, "Ġfollowe": 3886, "Ġbox": 3887, "ĠIran": 3888, "Ġconstru": 3889, "Ġclimat": 3890, "ĠWat": 3891, "Ġnort": 3892, "Ġjobs": 3893, "ĠAle": 3894, "ĠChristia": 3895, "Ġbrok": 3896, "Ġsport": 3897, "Ġbroke": 3898, "Ġresou": 3899, "ĠChristian": 3900, "Ġsystems": 3901, "ĠIma": 3902, "Ġnorma": 3903, "Ġparents": 3904, "Ġskil": 3905, "ĠIndian": 3906, "mile": 3907, "ĠVo": 3908, "Ġequi": 3909, "Ġsumme": 3910, "ĠGame": 3911, "Ġspokes": 3912, "Ġmajorit": 3913, "Ġwritt": 3914, "Ġwritte": 3915, "Ġwritten": 3916, "Ġsil": 3917, "Ġinitial": 3918, "Ġunl": 3919, "Ġrefere": 3920, "Ġincreasin": 3921, "Ġhistori": 3922, "Ġincreasing": 3923, "ĠSoc": 3924, "ĠCat": 3925, "Ġestimate": 3926, "Ġrelative": 3927, "Ġskill": 3928, "ĠMusl": 3929, "ĠNet": 3930, "Ġwall": 3931, "ĠMusli": 3932, "Ġreact": 3933, "Ġmachin": 3934, "Ġsty": 3935, "Ġblu": 3936, "Ġpit": 3937, "Ġexecutive": 3938, "Ġtac": 3939, "driver": 3940, "ĠMuslim": 3941, "Ġphysica": 3942, "Ġphysical": 3943, "Ġlay": 3944, "Ġfix": 3945, "Ġgla": 3946, "Ġconcl": 3947, "Ġwritin": 3948, "Ġwriting": 3949, "Ġterrori": 3950, "Ġbloo": 3951, "Ġcolor": 3952, "Ġcompletel": 3953, "Ġcompletely": 3954, "Ġcomma": 3955, "Ġnotice": 3956, "Ġspeec": 3957, "Ġconserva": 3958, "Ġcham": 3959, "Ġconclu": 3960, "Ġemerge": 3961, "Ġbrain": 3962, "Ġuser": 3963, "Ġconservat": 3964, "Ġadvanc": 3965, "ĠCre": 3966, "Ġband": 3967, "ĠTexa": 3968, "Ġrefer": 3969, "Ġbott": 3970, "Ġnormal": 3971, "Ġclimate": 3972, "Ġul": 3973, "Ġbul": 3974, "Ġcolla": 3975, "Ġpressure": 3976, "ĠOt": 3977, "Ġfine": 3978, "Ġconstruc": 3979, "Ġsurve": 3980, "Ġgree": 3981, "Ġ2009": 3982, "Ġconstruct": 3983, "Ġresour": 3984, "Ġdespit": 3985, "Ġdespite": 3986, "Ġresourc": 3987, "ĠIraq": 3988, "Ġreadin": 3989, "ĠSaturd": 3990, "ĠSaturda": 3991, "ĠSaturday": 3992, "ĠLond": 3993, "Ġinterestin": 3994, "Ġinteresting": 3995, "Ġresource": 3996, "Ġmap": 3997, "Ġopportunity": 3998, "Ġunf": 3999, "Ġconservati": 4000, "Ġclaims": 4001, "ĠOffic": 4002, "ĠSm": 4003, "Ġparticularl": 4004, "Ġparticularly": 4005, "ĠLondon": 4006, "Ġcomman": 4007, "Ġstori": 4008, "Ġcommand": 4009, "Ġfaci": 4010, "Ġcolleg": 4011, "Ġdriver": 4012, "Ġinstal": 4013, "ĠPark": 4014, "inat": 4015, "Ġsociety": 4016, "Ġstorie": 4017, "Ġpark": 4018, "Ġstyl": 4019, "Ġmajority": 4020, "Ġdemons": 4021, "Ġattacks": 4022, "Ġmachine": 4023, "Ġfindin": 4024, "Ġfinding": 4025, "Ġexactl": 4026, "Ġexactly": 4027, "Ġswe": 4028, "ĠDonal": 4029, "Ġcrow": 4030, "Ġcarry": 4031, "Ġcarri": 4032, "Ġbigges": 4033, "Ġbiggest": 4034, "Ġincident": 4035, "ĠDonald": 4036, "Ġconvers": 4037, "Ġsummer": 4038, "Ġterroris": 4039, "Ġtend": 4040, "Ġimpos": 4041, "Ġrequired": 4042, "ĠMore": 4043, "Ġstation": 4044, "Ġrealit": 4045, "Ġbeat": 4046, "Ġsolu": 4047, "ĠWel": 4048, "Ġ26": 4049, "Ġpaid": 4050, "Ġexcep": 4051, "Ġinfluenc": 4052, "Ġequal": 4053, "Ġexcept": 4054, "Ġremember": 4055, "Ġspr": 4056, "Ġinstall": 4057, "Ġofficers": 4058, "Ġquarter": 4059, "ĠStu": 4060, "Ġdetermine": 4061, "ĠTor": 4062, "ĠGar": 4063, "Ġcertainl": 4064, "Ġcertainly": 4065, "Ġjudge": 4066, "ĠImag": 4067, "Ġfill": 4068, "Ġgues": 4069, "ĠGreen": 4070, "Ġtria": 4071, "Ġ27": 4072, "ĠMcC": 4073, "Ġsurvi": 4074, "Ġsurviv": 4075, "Ġstories": 4076, "Ġstudie": 4077, "Ġ28": 4078, "ĠMor": 4079, "Ġcollecti": 4080, "Ġstuf": 4081, "Ġtie": 4082, "Ġstuff": 4083, "Ġult": 4084, "Ġcreati": 4085, "Ġcompla": 4086, "Ġfinall": 4087, "Ġfinally": 4088, "Ġsometimes": 4089, "Ġcommunic": 4090, "Ġcommunica": 4091, "Ġsolut": 4092, "Ġproducts": 4093, "Ġthank": 4094, "Ġsoluti": 4095, "Ġsolution": 4096, "ĠEr": 4097, "Ġexpen": 4098, "Ġallege": 4099, "ĠStar": 4100, "Ġabso": 4101, "Ġleadin": 4102, "Ġleading": 4103, "Ġcommunicat": 4104, "Ġfeelin": 4105, "Ġimple": 4106, "Ġassum": 4107, "Ġforg": 4108, "Ġimplem": 4109, "Ġelem": 4110, "Ġimpleme": 4111, "Ġcanc": 4112, "Ġimplemen": 4113, "Ġones": 4114, "Ġfeeling": 4115, "Ġimplement": 4116, "Ġdescribed": 4117, "Ġreading": 4118, "Ġsqua": 4119, "Ġapprov": 4120, "Ġcance": 4121, "Ġdeg": 4122, "Ġcollege": 4123, "Ġmeta": 4124, "Ġdetails": 4125, "ĠFebr": 4126, "Ġsmo": 4127, "ĠFebru": 4128, "Ġchanged": 4129, "ĠScho": 4130, "Ġradi": 4131, "ĠFebrua": 4132, "Ġprofessi": 4133, "Ġprofession": 4134, "Ġweigh": 4135, "ĠFebruar": 4136, "Ġeleme": 4137, "Ġelemen": 4138, "Ġmanager": 4139, "Ġelement": 4140, "ĠFebruary": 4141, "Ġexpert": 4142, "Ġblood": 4143, "Ġleag": 4144, "Ġquality": 4145, "Ġleagu": 4146, "Ġleague": 4147, "Ġcrimin": 4148, "Ġstartin": 4149, "Ġstarting": 4150, "Ġshowed": 4151, "Ġgiv": 4152, "Ġsout": 4153, "Ġjoin": 4154, "Ġassa": 4155, "Ġgiving": 4156, "ĠHal": 4157, "Ġprovided": 4158, "Ġnamed": 4159, "Ġchie": 4160, "Ġbudg": 4161, "Ġenga": 4162, "Ġpredi": 4163, "ĠLab": 4164, "Ġremains": 4165, "Ġengag": 4166, "Ġcosts": 4167, "ĠMicha": 4168, "Ġcele": 4169, "ĠTH": 4170, "ĠPi": 4171, "Ġchief": 4172, "Ġeat": 4173, "Ġbudge": 4174, "Ġintelli": 4175, "Ġintellig": 4176, "Ġpref": 4177, "Ġpath": 4178, "Ġrelate": 4179, "Ġpoor": 4180, "Ġappa": 4181, "Ġcrimina": 4182, "Ġcriminal": 4183, "Ġinfluence": 4184, "Ġexcit": 4185, "ĠÐ": 4186, "Ġyours": 4187, "Ġsigna": 4188, "Ġdisplay": 4189, "ĠTre": 4190, "Ġgrowing": 4191, "Ġcarrie": 4192, "Ġthinki": 4193, "Ġthinkin": 4194, "ĠLeag": 4195, "Ġparts": 4196, "ĠLeagu": 4197, "ional": 4198, "ĠLeague": 4199, "Ġcontinued": 4200, "Ġworr": 4201, "Ġdemonst": 4202, "Ġune": 4203, "Ġthinking": 4204, "Ġdemonstr": 4205, "Ġintellige": 4206, "Ġintelligen": 4207, "Ġdemonstra": 4208, "ĠJame": 4209, "Ġready": 4210, "Ġrefus": 4211, "Ġcomments": 4212, "Ġcris": 4213, "Ġgat": 4214, "Ġcomplain": 4215, "Ġresearche": 4216, "Ġpurpos": 4217, "Ġmainta": 4218, "ĠBec": 4219, "Ġmaintain": 4220, "Ġargum": 4221, "Ġargume": 4222, "Ġargumen": 4223, "Ġargument": 4224, "Ġsle": 4225, "Ġpurpose": 4226, "Ġbudget": 4227, "Ġposte": 4228, "Ġwouldn": 4229, "Ġstrike": 4230, "ĠDay": 4231, "Ġchoo": 4232, "Ġbeginn": 4233, "ĠRepublicans": 4234, "Ġpil": 4235, "Ġpurc": 4236, "Ġpurch": 4237, "Ġpurcha": 4238, "Ġarch": 4239, "Ġpurchas": 4240, "Ġadvance": 4241, "Ġchoos": 4242, "ĠDemocratic": 4243, "Ġreta": 4244, "Ġah": 4245, "ĠEver": 4246, "Ġwear": 4247, "Ġincreased": 4248, "Ġado": 4249, "Ġcounter": 4250, "Ġreferen": 4251, "Ġwonder": 4252, "ĠMichae": 4253, "Ġrecom": 4254, "ĠMichael": 4255, "Ġtreatm": 4256, "Ġtreatme": 4257, "Ġtreatmen": 4258, "Ġachieve": 4259, "Ġtreatment": 4260, "Ġepis": 4261, "Ġrank": 4262, "Ġje": 4263, "Ġrealiz": 4264, "Ġnuc": 4265, "Ġefforts": 4266, "Ġcamer": 4267, "Ġaccom": 4268, "Ġcamera": 4269, "Ġpredic": 4270, "Ġdemonstrat": 4271, "ĠMis": 4272, "Ġclean": 4273, "Ġplatf": 4274, "Ġpromise": 4275, "Ġplatfo": 4276, "Ġplatfor": 4277, "Ġcalls": 4278, "Ġplatform": 4279, "Ġstructure": 4280, "Ġnucle": 4281, "ĠAir": 4282, "ĠJames": 4283, "Ġperh": 4284, "Ġperha": 4285, "Ġperhap": 4286, "Ġperhaps": 4287, "Ġalone": 4288, "Ġdeclin": 4289, "Ġitem": 4290, "Ġguys": 4291, "Ġprinc": 4292, "Ġconfere": 4293, "ĠCas": 4294, "Ġthu": 4295, "Ġsurprise": 4296, "Ġsubst": 4297, "Ġtowards": 4298, "Ġalth": 4299, "Ġconferen": 4300, "Ġine": 4301, "Ġcritici": 4302, "Ġadditiona": 4303, "Ġadditional": 4304, "Ġaltho": 4305, "Ġconferenc": 4306, "Ġalthou": 4307, "Ġalthoug": 4308, "Ġalthough": 4309, "Ġusually": 4310, "Ġabus": 4311, "Ġbio": 4312, "Ġfootb": 4313, "Ġbey": 4314, "Ġeffects": 4315, "Ġreality": 4316, "Ġeventu": 4317, "pini": 4318, "Ġceleb": 4319, "Ġeventua": 4320, "Ġshar": 4321, "Ġconference": 4322, "ĠNA": 4323, "ĠAra": 4324, "Ġbeyon": 4325, "Ġwif": 4326, "Ġbeyond": 4327, "ĠFirs": 4328, "Ġeventual": 4329, "ĠFirst": 4330, "ĠGenera": 4331, "Ġfootba": 4332, "Ġfootbal": 4333, "Ġfootball": 4334, "ĠChine": 4335, "ĠZe": 4336, "pinio": 4337, "pinion": 4338, "ĠRos": 4339, "Ġspeech": 4340, "Ġcouldn": 4341, "Ġcast": 4342, "ĠBas": 4343, "ĠChines": 4344, "Ġ(@": 4345, "ĠChinese": 4346, "Ġfarm": 4347, "Ġbord": 4348, "ĠMiniste": 4349, "ĠMinister": 4350, "ĠBill": 4351, "Ġrestr": 4352, "Ġborde": 4353, "ĠArt": 4354, "ĠTexas": 4355, "Ġorganization": 4356, "Ġinsti": 4357, "Ġthrougho": 4358, "Ġthroughou": 4359, "Ġincludes": 4360, "Ġthroughout": 4361, "Ġmile": 4362, "Ġsafet": 4363, "Ġcomplex": 4364, "Ġcelebr": 4365, "Ġdeliver": 4366, "Ġmeaning": 4367, "Ġbom": 4368, "Ġrecomm": 4369, "Ġrefl": 4370, "Ġbomb": 4371, "Ġconcep": 4372, "ĠFro": 4373, "Ġnar": 4374, "Ġconcept": 4375, "moving": 4376, "ĠHig": 4377, "Ġrepeat": 4378, "Ġborder": 4379, "Ġwife": 4380, "Ġepiso": 4381, "Ġepisod": 4382, "Ġrecomme": 4383, "Ġrecommen": 4384, "Ġincome": 4385, "Ġfacil": 4386, "Ġcorpo": 4387, "Ġdise": 4388, "opinion": 4389, "Ġrecommend": 4390, "Ġresearcher": 4391, "Ġcorrec": 4392, "Ġesse": 4393, "Ġassociate": 4394, "Ġbooks": 4395, "Ġcorrect": 4396, "Ġgone": 4397, "ĠMart": 4398, "Ġ60": 4399, "Ġneighbo": 4400, "ĠSin": 4401, "Ġcopy": 4402, "Ġpsy": 4403, "Ġinstr": 4404, "ĠâĢ¦": 4405, "Ġahe": 4406, "ĠUp": 4407, "Ġsafety": 4408, "Ġrefle": 4409, "Ġinstru": 4410, "ĠII": 4411, "Ġdesigned": 4412, "Ġsoftw": 4413, "ĠJos": 4414, "Ġcorpor": 4415, "Ġcorpora": 4416, "Ġende": 4417, "Ġfacilit": 4418, "Ġagency": 4419, "Ġreache": 4420, "Ġsoftwa": 4421, "Ġsoftware": 4422, "Ġcentr": 4423, "Ġpositiv": 4424, "Ġclassi": 4425, "Ġahea": 4426, "Ġahead": 4427, "Ġessen": 4428, "Ġbeginnin": 4429, "Ġbeginning": 4430, "Ġseparate": 4431, "Ġpsyc": 4432, "Ġtrip": 4433, "ĠPlay": 4434, "Ġappar": 4435, "Ġopinion": 4436, "Ġministe": 4437, "Ġminister": 4438, "rding": 4439, "Ġepisode": 4440, "Ġblog": 4441, "Ġthousands": 4442, "ĠChu": 4443, "Ġimagin": 4444, "Ġgol": 4445, "Ġartis": 4446, "Ġtale": 4447, "ĠRec": 4448, "ĠApple": 4449, "?\"": 4450, "Ġdecla": 4451, "Ġstyle": 4452, "Ġut": 4453, "ĠAnge": 4454, "Ġcorporat": 4455, "ĠHan": 4456, "ĠBri": 4457, "ĠWilli": 4458, "Ġpassed": 4459, "ĠAsso": 4460, "ĠOffice": 4461, "Ġneu": 4462, "Ġappears": 4463, "Ġconfid": 4464, "Ġexpos": 4465, "Ġlaunch": 4466, "ĠWillia": 4467, "Ġdistrib": 4468, "Ġdistribu": 4469, "Ġproperty": 4470, "Ġpredict": 4471, "ĠAssoc": 4472, "Ġsmar": 4473, "Ġinsur": 4474, "Ġdistribut": 4475, "Ġagreem": 4476, "Ġagreeme": 4477, "Ġagreemen": 4478, "Ġagreement": 4479, "Ġconnecti": 4480, "Ġseni": 4481, "Ġpositive": 4482, "Ġdisap": 4483, "Ġshu": 4484, "Ġdisapp": 4485, "ĠWilliam": 4486, "ĠAssoci": 4487, "Ġsmart": 4488, "ĠAssocia": 4489, "âĢ¢": 4490, "Ġarrive": 4491, "ĠAssociat": 4492, "Ġsuppos": 4493, "ĠThen": 4494, "ĠSupe": 4495, "Ġnature": 4496, "ĠDea": 4497, "Ġ>": 4498, "Ġsenio": 4499, "Ġsenior": 4500, "Ġena": 4501, "Ġalleged": 4502, "Ġsuit": 4503, "Ġconditions": 4504, "Ġstea": 4505, "ĠImage": 4506, "Ġshootin": 4507, "Ġsuspec": 4508, "Ġsuspect": 4509, "ĠCro": 4510, "ĠRan": 4511, "Ġshooting": 4512, "ĠServ": 4513, "Ġmoving": 4514, "Ġreasons": 4515, "ĠRich": 4516, "Ġscal": 4517, "ĠTea": 4518, "ĠInterna": 4519, "ĠGol": 4520, "Ġtrial": 4521, "ĠDemocrats": 4522, "Ġsettl": 4523, "ĠSam": 4524, "Ġenf": 4525, "Ġconven": 4526, "Ġprefe": 4527, "Ġmayb": 4528, "Ġmaybe": 4529, "Ġpowerf": 4530, "Ġpowerfu": 4531, "Ġpowerful": 4532, "Ġnuclea": 4533, "Ġya": 4534, "Ġcool": 4535, "ĠJack": 4536, "Ġsuppose": 4537, "Ġovera": 4538, "Ġfaile": 4539, "Ġfailed": 4540, "Ġsecti": 4541, "Ġsection": 4542, "Ġencour": 4543, "ĠFren": 4544, "Ġfema": 4545, "Ġencoura": 4546, "Ġencourag": 4547, "Ġfemal": 4548, "ĠMatt": 4549, "Ġfemale": 4550, "Ġcharacters": 4551, "Ġartist": 4552, "Ġlisten": 4553, "Ġconfide": 4554, "ĠEngl": 4555, "ĠRobe": 4556, "Ġadver": 4557, "Ġnuclear": 4558, "Ġx": 4559, "Ġalb": 4560, "Ġreflec": 4561, "Ġaim": 4562, "Ġreflect": 4563, "Ġreligiou": 4564, "Ġreligious": 4565, "illeg": 4566, "Ġeva": 4567, "Ġtraditiona": 4568, "Ġtraditional": 4569, "Ġesc": 4570, "Ġcompared": 4571, "Ġprofessiona": 4572, "Ġprofessional": 4573, "ĠEnglis": 4574, "Ġyourse": 4575, "Ġanalysi": 4576, "Ġyoursel": 4577, "ĠSim": 4578, "ĠEnglish": 4579, "ĠExp": 4580, "Ġenfo": 4581, "Ġsched": 4582, "ĠFree": 4583, "Ġfavorit": 4584, "Ġeyes": 4585, "Ġcentury": 4586, "Ġenfor": 4587, "Ġenforc": 4588, "Ġregis": 4589, "Ġschedu": 4590, "Ġschedul": 4591, "ĠPhot": 4592, "Ġregist": 4593, "Ġlite": 4594, "Ġnice": 4595, "Ġfram": 4596, "Ġseat": 4597, "Ġshown": 4598, "Ġinstit": 4599, "Ġinstitu": 4600, "ĠPhil": 4601, "ĠHere": 4602, "Ġlarges": 4603, "ĠFrenc": 4604, "ĠFrench": 4605, "Ġapa": 4606, "Ġtrus": 4607, "Ġyes": 4608, "Ġlegislati": 4609, "ĠEs": 4610, "Ġadmit": 4611, "ĠUs": 4612, "ĠAlt": 4613, "Ġinstitut": 4614, "Ġstren": 4615, "Ġtask": 4616, "Ġconfiden": 4617, "ĠBal": 4618, "ĠBat": 4619, "Ġagent": 4620, "Ġfavorite": 4621, "Ġnecessary": 4622, "Ġbrand": 4623, "Ġscientis": 4624, "Ġcitizens": 4625, "Ġforced": 4626, "Ġflow": 4627, "ĠPhoto": 4628, "Ġconfl": 4629, "Ġtrust": 4630, "Ġnom": 4631, "Ġscientist": 4632, "Ġexpens": 4633, "Ġsurf": 4634, "Ġactive": 4635, "ĠGeorge": 4636, "Ġliter": 4637, "Ġlargest": 4638, "ĠGO": 4639, "Ġanalysis": 4640, "Ġspendin": 4641, "Ġspending": 4642, "ĠRobert": 4643, "ĠChan": 4644, "Ġintroduce": 4645, "Ġvaria": 4646, "Ġtypi": 4647, "Ġpresidenti": 4648, "Ġpresidentia": 4649, "Ġpresidential": 4650, "Ġshop": 4651, "Ġgri": 4652, "ĠMet": 4653, "Ġ29": 4654, "ĠAla": 4655, "Ġconservativ": 4656, "Ġnin": 4657, "Ġconservative": 4658, "Ġaware": 4659, "Ġtee": 4660, "Ġschools": 4661, "ĠRese": 4662, "Ġmer": 4663, "Ġmeant": 4664, "Ġpurchase": 4665, "illing": 4666, "ording": 4667, "Ġimpre": 4668, "Ġpeac": 4669, "Ġeventuall": 4670, "Ġeventually": 4671, "Ġstrea": 4672, "ĠSuper": 4673, "Ġresol": 4674, "Ġasp": 4675, "cording": 4676, "ĠCam": 4677, "Ġfollowed": 4678, "Ġstreng": 4679, "Ġfamilie": 4680, "Ġcentra": 4681, "Ġbrot": 4682, "Ġfamilies": 4683, "Ġilleg": 4684, "Ġcrowd": 4685, "Ġtor": 4686, "Ġcentral": 4687, "Ġstrengt": 4688, "Ġconsti": 4689, "Ġsyn": 4690, "Ġbehavio": 4691, "Ġcorn": 4692, "Ġbehavior": 4693, "Ġprint": 4694, "Ġdecline": 4695, "ĠWind": 4696, "Ġindependent": 4697, "Ġeasil": 4698, "Ġfort": 4699, "ĠServic": 4700, "Ġsigne": 4701, "Ġeasily": 4702, "Ġama": 4703, "ĠQue": 4704, "Ġensure": 4705, "Ġautom": 4706, "Ġallows": 4707, "ccording": 4708, "ĠBrow": 4709, "Ġnomin": 4710, "Ġfru": 4711, "ĠService": 4712, "Ġexcl": 4713, "Ġgives": 4714, "Ġyourself": 4715, "ĠChi": 4716, "ĠJi": 4717, "Ġfeed": 4718, "Ġuniq": 4719, "Ġdeveloper": 4720, "Ġactions": 4721, "Ġuniqu": 4722, "ĠOpe": 4723, "Ġunique": 4724, "Ġgenerati": 4725, "Ġconstit": 4726, "Ġconstitu": 4727, "Ġconsumer": 4728, "Ġelectri": 4729, "ĠArm": 4730, "Ġprinci": 4731, "Ġprincip": 4732, "Ġoveral": 4733, "Ġappare": 4734, "Ġoverall": 4735, "ĠMex": 4736, "Ġsoli": 4737, "Ġsettle": 4738, "Ġshif": 4739, "Ġshift": 4740, "ĠBlo": 4741, "Ġgeneration": 4742, "Ġconversa": 4743, "Ġbutt": 4744, "Ġstruggle": 4745, "ĠChic": 4746, "Ġappeare": 4747, "Ġlitera": 4748, "Ġspre": 4749, "ĠMexic": 4750, "ief": 4751, "Ġideas": 4752, "Ġappeared": 4753, "Ġframe": 4754, "Ġapar": 4755, "ĠGover": 4756, "Ġemo": 4757, "Ġpolitics": 4758, "Ġmale": 4759, "Ġsigned": 4760, "Ġimpres": 4761, "Ġconversat": 4762, "Ġrefo": 4763, "Ġconversati": 4764, "Ġquo": 4765, "Ġconversation": 4766, "ĠGovern": 4767, "Ġdegre": 4768, "Ġstrai": 4769, "Ġweapons": 4770, "ĠAsi": 4771, "Ġidentifi": 4772, "Ġchamp": 4773, "Ġchur": 4774, "Ġfreq": 4775, "Ġpsych": 4776, "Ġdegree": 4777, "Ġdecades": 4778, "Ġabuse": 4779, "Ġinstanc": 4780, "Ġinteg": 4781, "Ġfrequ": 4782, "Ġuses": 4783, "Ġfreque": 4784, "Ġfrequen": 4785, "Ġschedule": 4786, "Ġdiscussi": 4787, "Ġapart": 4788, "Ġdiscussion": 4789, "Ġinstance": 4790, "ĠGeneral": 4791, "Ġimpress": 4792, "ĠInternat": 4793, "ĠInternation": 4794, "Ġexperime": 4795, "ĠInternationa": 4796, "Ġexperimen": 4797, "Ġexperiment": 4798, "ĠInternational": 4799, "Ġdestro": 4800, "ĠLas": 4801, "licen": 4802, "Ġrealize": 4803, "Ġdestroy": 4804, "Ġbrothe": 4805, "Ġdisea": 4806, "Ġdiseas": 4807, "Ġdisease": 4808, "Ġtrou": 4809, "ĠPete": 4810, "Ġpeace": 4811, "Ġfreed": 4812, "Ġbeau": 4813, "Ġenforce": 4814, "Ġamb": 4815, "Ġtrut": 4816, "ĠSmit": 4817, "Ġcrisi": 4818, "Ġtruth": 4819, "Ġcrisis": 4820, "Ġwriter": 4821, "ĠUnion": 4822, "According": 4823, "ĠPort": 4824, "Ġrevo": 4825, "ĠMid": 4826, "Ġaltern": 4827, "Ġbenefits": 4828, "Ġdeveloped": 4829, "Ġconfli": 4830, "Ġalterna": 4831, "Ġalternat": 4832, "Ġengage": 4833, "Ġconflic": 4834, "Ġpropose": 4835, "Ġconflict": 4836, "ĠStan": 4837, "Ġnoted": 4838, "Ġsettin": 4839, "Ġsetting": 4840, "Ġevo": 4841, "ĠÂ£": 4842, "ĠSchoo": 4843, "Ġrelated": 4844, "Ġhistoric": 4845, "Ġjournalis": 4846, "Ġsales": 4847, "Ġillega": 4848, "Ġgoals": 4849, "Ġminim": 4850, "Ġillegal": 4851, "Ġbeaut": 4852, "Ġindividuals": 4853, "Ġconsiste": 4854, "Ġcontinues": 4855, "kick": 4856, "ĠArab": 4857, "Ġconnection": 4858, "ĠEU": 4859, "ĠPolice": 4860, "ĠEart": 4861, "Ġintelligenc": 4862, "Ġrates": 4863, "Ġintelligence": 4864, "ĠSchool": 4865, "Ġcustomers": 4866, "Ġrefor": 4867, "ĠRig": 4868, "Ġprojects": 4869, "Ġstraig": 4870, "Ġstraigh": 4871, "Ġelectric": 4872, "ĠEarth": 4873, "Ġstraight": 4874, "Ġreform": 4875, "Ġapparen": 4876, "Ġapparent": 4877, "ĠNic": 4878, "ĠCounc": 4879, "Ġprem": 4880, "ĠCounci": 4881, "ĠCouncil": 4882, "ptions": 4883, "Ġgrad": 4884, "Ġparticipat": 4885, "Ġ31": 4886, "Ġcapab": 4887, "ĠCi": 4888, "Ġpreviousl": 4889, "Ġoutl": 4890, "Ġpreviously": 4891, "Ġfully": 4892, "Ġlines": 4893, "ĠGermany": 4894, "ĠSmith": 4895, "ĠMag": 4896, "Ġadu": 4897, "Ġadvant": 4898, "Ġadvanta": 4899, "Ġadvantag": 4900, "ĠSk": 4901, "Ġbrother": 4902, "Ġlarger": 4903, "Ġadvantage": 4904, "Ġweeke": 4905, "ĠSpo": 4906, "Ġweeken": 4907, "Ġweekend": 4908, "Ġplease": 4909, "Ġclearl": 4910, "Ġvicto": 4911, "Ġclearly": 4912, "Ġprotecti": 4913, "Ġadul": 4914, "Ġvictor": 4915, "ĠPac": 4916, "Ġtransi": 4917, "Ġlicen": 4918, "Ġseeme": 4919, "ĠCanadi": 4920, "ĠCanadia": 4921, "ĠCanadian": 4922, "Ġseemed": 4923, "ĠIm": 4924, "ĠHigh": 4925, "Ġknowle": 4926, "Ġerr": 4927, "Ġknowled": 4928, "Ġprepare": 4929, "Ġknowledg": 4930, "Ġdefend": 4931, "Ġprimary": 4932, "Ġchai": 4933, "Ġcompo": 4934, "Ġgreen": 4935, "Ġtraf": 4936, "Ġwarm": 4937, "ĠLat": 4938, "Ġdepartme": 4939, "Ġdepartmen": 4940, "Ġdepartment": 4941, "ĠTurk": 4942, "Ġulti": 4943, "Ġknowledge": 4944, "Ġattra": 4945, "Ġexclu": 4946, "Ġsprea": 4947, "Ġspread": 4948, "Ġrecogniz": 4949, "Ġtraff": 4950, "Ġtraffi": 4951, "Ġtraffic": 4952, "Ġadult": 4953, "Ġcritica": 4954, "Ġattrac": 4955, "Ġattract": 4956, "Ġspir": 4957, "lding": 4958, "Ġcritical": 4959, "Ġresources": 4960, "Ġprograms": 4961, "Ġchoose": 4962, "ĠReg": 4963, "Ġreached": 4964, "Ġultima": 4965, "Ġgreater": 4966, "Ġkep": 4967, "Ġultimat": 4968, "Ġweight": 4969, "Ġemot": 4970, "Ġaccuse": 4971, "Ġprogramm": 4972, "Ġkept": 4973, "options": 4974, "Ġessent": 4975, "Ġessenti": 4976, "Ġessentia": 4977, "Ġessential": 4978, "ĠAre": 4979, "Ġaudie": 4980, "Ġaudien": 4981, "Ġaudienc": 4982, "Ġrare": 4983, "Ġaudience": 4984, "ĠInterne": 4985, "100": 4986, "ĠDef": 4987, "Ġstab": 4988, "Ġexch": 4989, "Ġslee": 4990, "Ġtan": 4991, "Ġexcha": 4992, "Ġexchan": 4993, "ĠJohns": 4994, "Ġexchang": 4995, "ĠInternet": 4996, "Ġfeet": 4997, "Ġannu": 4998, "Ġstudies": 4999, "Ġplaces": 5000, "Ġteache": 5001, "Ġabsol": 5002, "ĠLos": 5003, "Ġmanuf": 5004, "Ġtypic": 5005, "Ġmanufa": 5006, "Ġtypica": 5007, "Ġmanufac": 5008, "Ġtypical": 5009, "Ġmanufact": 5010, "ĠBrown": 5011, "Ġbala": 5012, "Ġmanufactu": 5013, "ĠColle": 5014, "Ġcompar": 5015, "Ġmec": 5016, "Ġinspi": 5017, "ĠFlor": 5018, "Ġinspir": 5019, "Ġagg": 5020, "ĠIr": 5021, "Ġeli": 5022, "Ġstatus": 5023, "Ġprose": 5024, "Ġknows": 5025, "ĠNu": 5026, "ĠNor": 5027, "Ġchurc": 5028, "Ġweak": 5029, "Ġjump": 5030, "Ġfightin": 5031, "Ġemoti": 5032, "bile": 5033, "Ġsources": 5034, "ĠLou": 5035, "Ġfighting": 5036, "Ġbalan": 5037, "ĠSteve": 5038, "ĠOl": 5039, "Ġbalanc": 5040, "Ġadvis": 5041, "Ġlaunche": 5042, "ĠEle": 5043, "Ġdebt": 5044, "ride": 5045, "ĠBlu": 5046, "Ġactivity": 5047, "ĠScie": 5048, "diver": 5049, "ĠScien": 5050, "obile": 5051, "Ġaggr": 5052, "ĠAma": 5053, "Ġultimate": 5054, "Ġcab": 5055, "Ġoptions": 5056, "Ġkick": 5057, "ĠLet": 5058, "Ġmassi": 5059, "Ġsupporter": 5060, "Ġovers": 5061, "Ġcompli": 5062, "Ġcaused": 5063, "Ġmech": 5064, "ĠAge": 5065, "Ġmassive": 5066, "Ġclaime": 5067, "Ġvarie": 5068, "Ġclaimed": 5069, "Ġpou": 5070, "Ġended": 5071, "Ġabsolu": 5072, "Ġcitie": 5073, "Ġunli": 5074, "ĠNF": 5075, "Ġcities": 5076, "Ġcallin": 5077, "Ġtwee": 5078, "Ġabsolut": 5079, "ĠMark": 5080, "Ġcalling": 5081, "Ġemotion": 5082, "Ġstopp": 5083, "ĠAcco": 5084, "Ġ2007": 5085, "ĠVan": 5086, "ĠScott": 5087, "Ġenem": 5088, "ĠPale": 5089, "Ġintegr": 5090, "ĠSecu": 5091, "ĠFlori": 5092, "Ġsente": 5093, "Ġappeal": 5094, "Ġsurfa": 5095, "Ġsenten": 5096, "Ġpitc": 5097, "Ġsurfac": 5098, "Ġcyc": 5099, "ĠFrance": 5100, "Ġsun": 5101, "Ġfue": 5102, "ĠTom": 5103, "ĠEvery": 5104, "ĠGua": 5105, "Ġsentenc": 5106, "Ġcycl": 5107, "ĠVal": 5108, "Ġmiles": 5109, "Ġworse": 5110, "hich": 5111, "ĠEngla": 5112, "ĠEnglan": 5113, "Ġshut": 5114, "Ġaid": 5115, "ĠFina": 5116, "Ġresearchers": 5117, "Ġexchange": 5118, "Ġbirt": 5119, "Ġchair": 5120, "Ġshap": 5121, "ĠDar": 5122, "Ġwillin": 5123, "Ġprices": 5124, "Ġwilling": 5125, "ĠDen": 5126, "Ġcaptu": 5127, "ĠFrom": 5128, "Ġnames": 5129, "ĠCham": 5130, "Ġtelev": 5131, "Ġintent": 5132, "ĠAsia": 5133, "Ġstoc": 5134, "Ġbull": 5135, "Ġsubm": 5136, "ĠEngland": 5137, "Ġrai": 5138, "Ġchampi": 5139, "ĠKn": 5140, "Ġchampion": 5141, "Ġemployees": 5142, "Ġcreatin": 5143, "ĠCE": 5144, "Ġpolici": 5145, "Ġaddin": 5146, "Ġ35": 5147, "Ġadding": 5148, "Ġanyw": 5149, "Ġabsolute": 5150, "kra": 5151, "ĠTran": 5152, "Ġslig": 5153, "Ġsupposed": 5154, "Ġsligh": 5155, "Ġmarria": 5156, "Ġmarriag": 5157, "Ġmarriage": 5158, "Ġslight": 5159, "Ġpolicie": 5160, "Ġtelevi": 5161, "ĠNB": 5162, "Ġpolicies": 5163, "Ġsurface": 5164, "Ġalbu": 5165, "Ġreporter": 5166, "ĠBur": 5167, "Ġtelevis": 5168, "Ġdiver": 5169, "Ġraised": 5170, "Ġrej": 5171, "Ġalbum": 5172, "Ġunp": 5173, "ĠFlorid": 5174, "Ġwindo": 5175, "Ġrecov": 5176, "Ġrecove": 5177, "Ġwindow": 5178, "Ġstock": 5179, "Ġcharges": 5180, "Ġconcerns": 5181, "Ġtweet": 5182, "ĠInc": 5183, "ĠBay": 5184, "ĠCle": 5185, "Ġlearne": 5186, "ĠAccor": 5187, "Ġfly": 5188, "Ġacq": 5189, "Ġacqu": 5190, "Ġcreating": 5191, "ĠAccord": 5192, ".'": 5193, "Ġinstituti": 5194, "Ġinstitutio": 5195, "Ġdemoc": 5196, "Ġinstitution": 5197, "ĠInstit": 5198, "ĠInstitu": 5199, "Ġpatients": 5200, "Ġannua": 5201, "Ġfundin": 5202, "Ġfunding": 5203, "Ġannual": 5204, "ĠDra": 5205, "Ġmecha": 5206, "lions": 5207, "Ġboun": 5208, "ĠInstitut": 5209, "Ġdemocr": 5210, ".âĢĻ": 5211, "Ġfuel": 5212, "Ġauthoriti": 5213, "Ġtree": 5214, "Ġauthoritie": 5215, "Ġauthorities": 5216, "Ġmenta": 5217, "Ġdemocra": 5218, "Ġunion": 5219, "Ġfreedo": 5220, "Ġfreedom": 5221, "Ġseein": 5222, "ĠRoc": 5223, "Ġcommer": 5224, "Ġgrant": 5225, "Ġseeing": 5226, "Ġnega": 5227, "Ġmental": 5228, "Ġpacka": 5229, "Ġrevol": 5230, "ĠRigh": 5231, "ĠRight": 5232, "Ġcommerc": 5233, "Ġpackag": 5234, "Ġdeni": 5235, "Ġnegat": 5236, "ĠPeo": 5237, "Ġguide": 5238, "Ġindicate": 5239, "ĠAP": 5240, "Ġrefuse": 5241, "ĠCO": 5242, "Ġneighbor": 5243, "Ġleav": 5244, "Ġbirth": 5245, "Ġactivis": 5246, "Ġleavin": 5247, "Ġcry": 5248, "Ġwag": 5249, "ĠWell": 5250, "Ġleaving": 5251, "Ġmechan": 5252, "Ġeasie": 5253, "ĠSecre": 5254, "ĠMedic": 5255, "Ġcelebra": 5256, "Ġtempe": 5257, "ĠFlorida": 5258, "Ġtroub": 5259, "Ġconsisten": 5260, "Ġnine": 5261, "ĠLaw": 5262, "Ġtroubl": 5263, "Ġserver": 5264, "ĠBoo": 5265, "Ġevol": 5266, "ĠBit": 5267, "Ġtransit": 5268, "Ġcelebrat": 5269, "Ġpatt": 5270, "Ġcatc": 5271, "Ġarra": 5272, "ĠSn": 5273, "Ġenginee": 5274, "Ġengineer": 5275, "ĠSecret": 5276, "ĠPeop": 5277, "ĠMost": 5278, "ĠPeople": 5279, "ĠHilla": 5280, "Ġautoma": 5281, "Ġdefine": 5282, "Ġgrap": 5283, "Ġthreate": 5284, "ĠCommit": 5285, "Ġdepend": 5286, "ĠHeal": 5287, "Ġthreaten": 5288, "Ġeth": 5289, "ĠHillar": 5290, "Ġvac": 5291, "ĠGran": 5292, "ĠHillary": 5293, "Ġprosec": 5294, "Ġreveale": 5295, "Ġsubsta": 5296, "Ġrevealed": 5297, "Ġposted": 5298, "Ġprosecu": 5299, "Ġprosecut": 5300, "Ġadop": 5301, "Ġtemper": 5302, "Ġadopt": 5303, "Ġesca": 5304, "Ġanc": 5305, "Ġvalues": 5306, "ĠBos": 5307, "ĠRy": 5308, "Ġwhom": 5309, "Ġblue": 5310, "ĠChica": 5311, "Ġuniversit": 5312, "Ġpartie": 5313, "Ġintera": 5314, "Ġinfr": 5315, "ĠAccording": 5316, "Ġbrie": 5317, "Ġetc": 5318, "Ġcommittee": 5319, "ĠVer": 5320, "Ġble": 5321, "ĠAlex": 5322, "Ġwav": 5323, "Ġadj": 5324, "Ġbrief": 5325, "Ġclie": 5326, "Ġclien": 5327, "Ġbelieved": 5328, "Ġclient": 5329, "ĠTrans": 5330, "Ġsubstan": 5331, "Ġaccomp": 5332, "Ġstrategy": 5333, "Ġtic": 5334, "Ġrecords": 5335, "Ġlearned": 5336, "Ġshel": 5337, "ĠMont": 5338, "Ġwhate": 5339, "Ġwhatev": 5340, "Ġtransfe": 5341, "Ġscale": 5342, "Ġarreste": 5343, "Ġwhateve": 5344, "Ġwhatever": 5345, "ĠCommitt": 5346, "Ġlawy": 5347, "Ġchea": 5348, "Ġlawye": 5349, "Ġgrand": 5350, "Ġreferenc": 5351, "Ġguar": 5352, "ĠChicag": 5353, "ĠChicago": 5354, "ĠCommitte": 5355, "Ġlawyer": 5356, "zing": 5357, "Ġinterac": 5358, "Ġcars": 5359, "Ġinteract": 5360, "Ġmine": 5361, "ĠSecur": 5362, "ĠVie": 5363, "Ġshowin": 5364, "ĠMiss": 5365, "Ġedito": 5366, "Ġdista": 5367, "Ġeditor": 5368, "Ġshowing": 5369, "Ġsurr": 5370, "Ġintend": 5371, "ĠIta": 5372, "Ġresta": 5373, "Ġsurro": 5374, "Ġtransfer": 5375, "Ġrepresenta": 5376, "Ġparties": 5377, "Ġwild": 5378, "Ġsomew": 5379, "Ġarrested": 5380, "Ġdese": 5381, "ĠGet": 5382, "ĠCommittee": 5383, "Ġdevices": 5384, "Ġpet": 5385, "Ġnego": 5386, "Ġcate": 5387, "Ġbalance": 5388, "Ġfloor": 5389, "Ġquot": 5390, "Ġtoug": 5391, "Ġtough": 5392, "Ġride": 5393, "Ġassau": 5394, "Ġassaul": 5395, "Ġassault": 5396, "Ġpatte": 5397, "Ġerro": 5398, "Ġbrow": 5399, "Ġtick": 5400, "ĠRev": 5401, "ĠSecurit": 5402, "Ġrepresentat": 5403, "ĠWeste": 5404, "Ġrepresentati": 5405, "ĠEm": 5406, "Ġerror": 5407, "Ġpha": 5408, "Ġreven": 5409, "llions": 5410, "Ġaski": 5411, "riving": 5412, "Ġaskin": 5413, "Ġresponsibl": 5414, "Ġasking": 5415, "Ġnegot": 5416, "illions": 5417, "Ġnegoti": 5418, "Ġsna": 5419, "ĠOh": 5420, "Ġfocuse": 5421, "Ġnegotia": 5422, "Ġstran": 5423, "ĠWester": 5424, "Ġnegati": 5425, "Ġurg": 5426, "Ġstream": 5427, "Ġprovides": 5428, "ĠYea": 5429, "Ġproduced": 5430, "Ġconfirme": 5431, "ĠThan": 5432, "Ġproposa": 5433, "ĠBush": 5434, "Ġont": 5435, "Ġproposal": 5436, "Ġconfirmed": 5437, "ĠAnn": 5438, "ĠColo": 5439, "Ġestablish": 5440, "Ġimages": 5441, "ĠPress": 5442, "Ġgradu": 5443, "Ġcontroll": 5444, "Ġnegotiat": 5445, "ĠAut": 5446, "Ġpatter": 5447, "Ġgradua": 5448, "zen": 5449, "Ġsamp": 5450, "Ġprofit": 5451, "ĠCommis": 5452, "ĠMad": 5453, "Ġresidents": 5454, "Ġsampl": 5455, "Ġbab": 5456, "ĠCommiss": 5457, "ĠTri": 5458, "ĠHealt": 5459, "Ġdistric": 5460, "Ġdistrict": 5461, "ĠHealth": 5462, "Ġburn": 5463, "Ġpattern": 5464, "Ġconsta": 5465, "Ġencourage": 5466, "Ġextens": 5467, "Ġenab": 5468, "Ġsoldi": 5469, "Ġshape": 5470, "Ġsmalle": 5471, "ĠBank": 5472, "Ġlicens": 5473, "Ġ195": 5474, "Ġaward": 5475, "Ġsoldie": 5476, "ĠMicr": 5477, "ĠPan": 5478, "Ġcore": 5479, "Ġprotection": 5480, "Ġhero": 5481, "Ġextensi": 5482, "ĠPub": 5483, "Ġ32": 5484, "Ġsoldier": 5485, "ĠCommissi": 5486, "ĠCommission": 5487, "Ġteacher": 5488, "Ġtelevisi": 5489, "Ġborn": 5490, "ĠJustic": 5491, "Ġreti": 5492, "ĠFrancis": 5493, "Ġonto": 5494, "Ġpremi": 5495, "Ġcoal": 5496, "ĠWhy": 5497, "Ġdistin": 5498, "Ġcompetition": 5499, "ĠFoun": 5500, "Ġtelevisio": 5501, "Ġtelevision": 5502, "Ġath": 5503, "Ġtap": 5504, "Ġspiri": 5505, "Ġcorne": 5506, "Ġadvo": 5507, "Ġspirit": 5508, "ĠJustice": 5509, "zed": 5510, "ĠMer": 5511, "Ġcommunicati": 5512, "Ġadvoc": 5513, "Ġadvoca": 5514, "Ġ194": 5515, "Ġflu": 5516, "Ġcivili": 5517, "Ġappeara": 5518, "Ġappearan": 5519, "ĠDel": 5520, "Ġappearanc": 5521, "Ġappearance": 5522, "ĠPales": 5523, "Ġinfe": 5524, "ĠPalest": 5525, "ĠCup": 5526, "Ġintereste": 5527, "Ġinterested": 5528, "ĠCoo": 5529, "Ġlearnin": 5530, "ĠPalestin": 5531, "Ġlearning": 5532, "Ġcapture": 5533, "Ġexer": 5534, "driving": 5535, "Ġsentence": 5536, "Ġsuffer": 5537, "Ġpaint": 5538, "millions": 5539, "Ġtalen": 5540, "Ġrew": 5541, "Ġtalent": 5542, "ĠBeca": 5543, "Ġcommunication": 5544, "Ġtren": 5545, "ĠSon": 5546, "Ġresponsible": 5547, "Ġacqui": 5548, "ĠMicro": 5549, "ĠHen": 5550, "Ġ80": 5551, "ĠCoa": 5552, "Ġdistan": 5553, "ĠWindo": 5554, "Ġyar": 5555, "Ġrestri": 5556, "ĠHarr": 5557, "Ġdefinite": 5558, "Ġcorr": 5559, "ĠOver": 5560, "Ġgenerate": 5561, "killing": 5562, "Ġformat": 5563, "Ġrestric": 5564, "ĠWindow": 5565, "Ġagreed": 5566, "ĠOther": 5567, "ĠEc": 5568, "Ġrestrict": 5569, "ĠGl": 5570, "Ġmemory": 5571, "ĠFede": 5572, "Ġautomat": 5573, "Ġradio": 5574, "Ġexplaine": 5575, "Ġreference": 5576, "ĠLibe": 5577, "Ġalternati": 5578, "ĠInf": 5579, "olding": 5580, "Ġrecognize": 5581, "ĠWestern": 5582, "Ġgar": 5583, "Ġsurg": 5584, "Ġ;": 5585, "Ġtypes": 5586, "Ġder": 5587, "Ġterrorist": 5588, "Ġflig": 5589, "Ġfligh": 5590, "Ġflight": 5591, "ĠArc": 5592, "Ġprosp": 5593, "Ġprospe": 5594, "Ġgathe": 5595, "Ġgather": 5596, "Ġchem": 5597, "mobile": 5598, "Ġfounde": 5599, "Ġguard": 5600, "Ġsurvey": 5601, "ĠBecau": 5602, "ĠBecaus": 5603, "ĠBecause": 5604, "Ġconstan": 5605, "Ġtheory": 5606, "Ġbasis": 5607, "Ġmillions": 5608, "Ġice": 5609, "Ġgenerall": 5610, "Ġexplained": 5611, "Ġgenerally": 5612, "Ġunderstanding": 5613, "Ġreca": 5614, "Ġaggre": 5615, "Ġproposed": 5616, "Ġconstant": 5617, "Ġpossibi": 5618, "ĠSande": 5619, "Ġpossibil": 5620, "Ġequip": 5621, "Ġeffic": 5622, "ĠAtt": 5623, "Ġpurs": 5624, "ĠFound": 5625, "Ġlabo": 5626, "ized": 5627, "Ġdetec": 5628, "Ġdefea": 5629, "Ġdetect": 5630, "ĠMike": 5631, "Ġdefeat": 5632, "Ġcommerci": 5633, "Ġdeser": 5634, "Ġcommercia": 5635, "Ġcommercial": 5636, "Ġnegative": 5637, "Ġpossibilit": 5638, "Ġpin": 5639, "Ġplanet": 5640, "Ġtempera": 5641, "ĠInstitute": 5642, "ĠGrea": 5643, "Ġsleep": 5644, "rich": 5645, "ĠWeb": 5646, "ĠGrou": 5647, "Ġreje": 5648, "ĠMartin": 5649, "ĠOur": 5650, "Ġfailu": 5651, "Ġfailure": 5652, "Ġchos": 5653, "Ġadvert": 5654, "Ġstic": 5655, "Ġrejec": 5656, "Ġreject": 5657, "ĠJohnson": 5658, "ĠNFL": 5659, "Ġchose": 5660, "Ġwave": 5661, "Ġidentifie": 5662, "Ġstick": 5663, "ĠFB": 5664, "Ġbecomes": 5665, "Ġpartners": 5666, "Ġspl": 5667, "ĠBru": 5668, "Ġgay": 5669, "Ġassociated": 5670, "ĠTy": 5671, "ĠCaro": 5672, "Ġera": 5673, "Ġcorner": 5674, "Ġfals": 5675, "ĠHun": 5676, "Ġbear": 5677, "Ġresis": 5678, "Ġconstructi": 5679, "ĠDire": 5680, "Ġresist": 5681, "Ġsurrou": 5682, "Ġsurroun": 5683, "Ġsurround": 5684, "Ġcomf": 5685, "Ġidentit": 5686, "Ġcombine": 5687, "ĠSander": 5688, "ĠSecurity": 5689, "Ġfres": 5690, "Ġmari": 5691, "ĠAndre": 5692, "ozen": 5693, "Ġmanageme": 5694, "Ġmanagemen": 5695, "Ġmanagement": 5696, "ĠBig": 5697, "Ġreturne": 5698, "Ġactivist": 5699, "Ġpolitici": 5700, "Ġremar": 5701, "Ġphotog": 5702, "Ġsolid": 5703, "Ġwinnin": 5704, "Ġwinning": 5705, "________": 5706, "Ġkilling": 5707, "Ġapply": 5708, "Ġtranspo": 5709, "Ġpackage": 5710, "Ġcontrov": 5711, "Ġcontrove": 5712, "Ġcontrover": 5713, "Ġassista": 5714, "Ġassistan": 5715, "Ġeasier": 5716, "Ġlegislation": 5717, "Ġspecie": 5718, "Ġcontrovers": 5719, "ĠZa": 5720, "ĠCommu": 5721, "Ġcong": 5722, "Ġclic": 5723, "Ġputt": 5724, "Ġbecomin": 5725, "Ġbecoming": 5726, "Ġreade": 5727, "Ġthus": 5728, "Ġaccused": 5729, "ĠWindows": 5730, "Ġbeer": 5731, "ĠSinc": 5732, "holding": 5733, "Ġamaz": 5734, "Ġreader": 5735, "Ġunlike": 5736, "Ġphotogr": 5737, "Ġphotogra": 5738, "Ġspecies": 5739, "Ġalternativ": 5740, "Ġfinishe": 5741, "ĠFeder": 5742, "Ġwage": 5743, "Ġjustic": 5744, "Ġinterne": 5745, "Ġalternative": 5746, "ĠUk": 5747, "ĠGreat": 5748, "ĠSanders": 5749, "Ġphotograp": 5750, "ĠMany": 5751, "Ġjustice": 5752, "Ġcomfo": 5753, "Ġcomfor": 5754, "Ġcomfort": 5755, "!!": 5756, "ĠDirec": 5757, "Ġpreci": 5758, "Ġconstitut": 5759, "Ġ90": 5760, "ĠTer": 5761, "Ġweal": 5762, "Ġyard": 5763, "Ġwealt": 5764, "Ġwealth": 5765, "Ġserved": 5766, "ĠJes": 5767, "Ġwes": 5768, "ĠPlan": 5769, "Ġbelief": 5770, "ĠCommun": 5771, "Ġshared": 5772, "Ġfait": 5773, "Ġwest": 5774, "Ġscan": 5775, "ĠStr": 5776, "Ġextremel": 5777, "Ġextremely": 5778, "Ġatto": 5779, "Ġscientists": 5780, "Ġbotto": 5781, "Ġbottom": 5782, "Ġattor": 5783, "Ġattorn": 5784, "Ġbed": 5785, "Ġattorne": 5786, "Ġattorney": 5787, "Ġtrouble": 5788, "Ġast": 5789, "ĠJoe": 5790, "ĠIslamic": 5791, "Ġincred": 5792, "Ġvictims": 5793, "Ġ2006": 5794, "Ġremark": 5795, "zone": 5796, "Ġreturned": 5797, "ĠChur": 5798, "Ġmarij": 5799, "Ġarchi": 5800, "Ġmariju": 5801, "Ġflag": 5802, "Ġmarijua": 5803, "Ġmarijuan": 5804, "Ġmarijuana": 5805, "ĠFla": 5806, "Ġjournalist": 5807, "Ġfaste": 5808, "Ġmobile": 5809, "Ġpaym": 5810, "Ġreser": 5811, "Ġreserv": 5812, "ĠYour": 5813, "Ġprovin": 5814, "ĠDist": 5815, "Ġchurch": 5816, "ĠTec": 5817, "Ġexistin": 5818, "Ġexisting": 5819, "irst": 5820, "Ġcommuniti": 5821, "Ġcommunitie": 5822, "Ġcommunities": 5823, "Ġpayme": 5824, "Ġpaymen": 5825, "Ġpayment": 5826, "Ġmast": 5827, "Ġnove": 5828, "Ġvictory": 5829, "Ġholding": 5830, "Ġleadersh": 5831, "Ġleadershi": 5832, "Ġleadership": 5833, "ĠAndr": 5834, "ĠAve": 5835, "Ġtranspor": 5836, "Ġwatchin": 5837, "Ġtransport": 5838, "Ġcovera": 5839, "ĠDirect": 5840, "Ġwatching": 5841, "Ġrati": 5842, "Ġinternet": 5843, "Ġshoc": 5844, "Ġfaith": 5845, "Ġputtin": 5846, "Ġswit": 5847, "Ġadverti": 5848, "Ġputting": 5849, "Ġshock": 5850, "Ġsignal": 5851, "Ġnotes": 5852, "Ġimagine": 5853, "minat": 5854, "Ġswitc": 5855, "ĠKan": 5856, "Ġnone": 5857, "Ġcontribute": 5858, "Ġcoverag": 5859, "Ġcoverage": 5860, "Ġadvertis": 5861, "ĠChurc": 5862, "Ġreacti": 5863, "ĠAfrican": 5864, "ĠPatr": 5865, "Ġnovel": 5866, "ĠPow": 5867, "Ġexiste": 5868, "Ġdism": 5869, "Ġswa": 5870, "Ġpane": 5871, "ĠFedera": 5872, "ĠFoo": 5873, "ĠLike": 5874, "Ġbackg": 5875, "Ġsac": 5876, "ĠBrita": 5877, "Ġrelie": 5878, "Ġdefinitel": 5879, "Ġdefinitely": 5880, "Ġpromote": 5881, "ĠLeg": 5882, "Ġdiscover": 5883, "Ġcollection": 5884, "Ġfresh": 5885, "ĠPM": 5886, "Ġposse": 5887, "ĠAM": 5888, "Ġconsistent": 5889, "Ġtemperat": 5890, "Ġviews": 5891, "Ġimpl": 5892, "ĠSau": 5893, "Ġbackgr": 5894, "Ġbun": 5895, "Ġbackgrou": 5896, "Ġbackgroun": 5897, "Ġbackground": 5898, "Ġalli": 5899, "ĠThank": 5900, "Ġresponde": 5901, "ĠTHE": 5902, "Ġregulati": 5903, "Ġsprin": 5904, "Ġimpe": 5905, "Ġsample": 5906, "Ġregulatio": 5907, "Ġregulation": 5908, "ĠCra": 5909, "Ġlaunched": 5910, "Ġpsycho": 5911, "ĠFox": 5912, "ĠPubl": 5913, "Ġsupporters": 5914, "Ġissued": 5915, "Ġincredi": 5916, "Ġincredib": 5917, "Ġrepeate": 5918, "which": 5919, "Ġtrend": 5920, "Ġincredibl": 5921, "Ġses": 5922, "ĠVir": 5923, "Ġdesire": 5924, "Ġplays": 5925, "ĠEg": 5926, "ĠHall": 5927, "Ġinterf": 5928, "Ġfran": 5929, "Ġnorth": 5930, "Ġmax": 5931, "Ġ70": 5932, "ĠCarol": 5933, "Ġpair": 5934, "Ġposses": 5935, "ĠForc": 5936, "Ġsuggeste": 5937, "Ġsmok": 5938, "ĠMal": 5939, "Ġ36": 5940, "Ġstres": 5941, "Ġfalse": 5942, "Ġsuggested": 5943, "Ġstress": 5944, "ĠHill": 5945, "Ġsites": 5946, "Ġexh": 5947, "Ġfinish": 5948, "Ġcards": 5949, "Ġdece": 5950, "Ġpoliticia": 5951, "ĠMot": 5952, "Ġups": 5953, "Ġpolitician": 5954, "Ġscri": 5955, "Ġchemi": 5956, "ãĤ": 5957, "Ġcancer": 5958, "Ġitems": 5959, "Ġremin": 5960, "Ġrepeated": 5961, "Ġtechnic": 5962, "ĠKh": 5963, "Ġsecure": 5964, "Ġpossess": 5965, "Ġcash": 5966, "Ġstated": 5967, "ĠBot": 5968, "Ġtelli": 5969, "dozen": 5970, "ĠRE": 5971, "Ġtellin": 5972, "Ġnoti": 5973, "Ġtelling": 5974, "Ġworst": 5975, "ĠTech": 5976, "ĠChurch": 5977, "ĠSince": 5978, "Ġclosed": 5979, "Ġintens": 5980, "Ġpursu": 5981, "Ġtemperatu": 5982, "Ġtemperatur": 5983, "Ġcharged": 5984, "ĠFBI": 5985, "Ġtemperature": 5986, "Ġaspe": 5987, "Ġdiscovere": 5988, "Ġblam": 5989, "ĠAfg": 5990, "Ġsmaller": 5991, "Ġprefer": 5992, "Ġaffo": 5993, "ĠRicha": 5994, "Ġaffor": 5995, "ĠAfgh": 5996, "Ġrestau": 5997, "Ġtools": 5998, "ĠBritain": 5999, "Ġrestaur": 6000, "ĠAfgha": 6001, "Ġrestaura": 6002, "ĠAfghan": 6003, "Ġded": 6004, "ĠUN": 6005, "Ġretire": 6006, "Ġafford": 6007, "Ġunle": 6008, "Ġassume": 6009, "ĠRichar": 6010, "ĠForce": 6011, "Ġdriving": 6012, "Ġbatte": 6013, "ĠDefe": 6014, "Ġcras": 6015, "Ġtig": 6016, "Ġeffici": 6017, "ĠRichard": 6018, "Ġefficie": 6019, "Ġefficien": 6020, "Ġfourt": 6021, "ĠCru": 6022, "Ġentirel": 6023, "Ġentirely": 6024, "ĠPle": 6025, "ĠBac": 6026, "Ġdiscovered": 6027, "Ġapo": 6028, "Ġexcite": 6029, "Ġteen": 6030, "Ġpanel": 6031, "Ġexamin": 6032, "Ġprofesso": 6033, "Ġprofessor": 6034, "ĠMou": 6035, "Ġrevenu": 6036, "Ġbru": 6037, "ations": 6038, "ĠInde": 6039, "Ġrevenue": 6040, "Ġresponsibi": 6041, "Ġresponsibil": 6042, "Ġconcerne": 6043, "Ġinitiat": 6044, "Ġexerc": 6045, "Ġresponsibili": 6046, "Ġresponsibilit": 6047, "Ġconcerned": 6048, "ĠJone": 6049, "Ġsupported": 6050, "Ġanimals": 6051, "Ġaspec": 6052, "Ġaspect": 6053, "ĠHam": 6054, "ĠIsraeli": 6055, "ĠJones": 6056, "ĠOs": 6057, "Ġestablishe": 6058, "Ġexercis": 6059, "Ġstrang": 6060, "Ġbin": 6061, "Ġleng": 6062, "side": 6063, "Ġconstruction": 6064, "Ġplanne": 6065, "Ġcateg": 6066, "Ġcatego": 6067, "Ġcategor": 6068, "Ġrestauran": 6069, "Ġrestaurant": 6070, "Ġcandidates": 6071, "Ġ45": 6072, "ĠPowe": 6073, "Ġstrength": 6074, "Ġlengt": 6075, "Ġrequires": 6076, "Ġreligion": 6077, "ĠUkra": 6078, "Ġdeclare": 6079, "Ġdona": 6080, "ĠFrank": 6081, "Ġcontex": 6082, "Ġbusinesse": 6083, "Ġcontext": 6084, "Ġbusinesses": 6085, "ĠHon": 6086, "Ġactiviti": 6087, "ĠDet": 6088, "Ġactivitie": 6089, "Ġactivities": 6090, "Ġimpressi": 6091, "Ġtestin": 6092, "Ġcaug": 6093, "Ġcaugh": 6094, "Ġsess": 6095, "Ġcaught": 6096, "Ġlargel": 6097, "Ġtesting": 6098, "Ġlargely": 6099, "ĠUkrain": 6100, "Ġphi": 6101, "Ġconseq": 6102, "Ġconsequ": 6103, "Ġallowi": 6104, "Ġallowin": 6105, "Ġinsura": 6106, "Ġsecto": 6107, "Ġallowing": 6108, "ĠIslan": 6109, "Ġdonat": 6110, "ĠTod": 6111, "Ġclick": 6112, "Ġconseque": 6113, "Ġconsequen": 6114, "Ġinsuran": 6115, "Ġinsuranc": 6116, "Ġinsurance": 6117, "Ġvariet": 6118, "Ġsector": 6119, "lyn": 6120, "Ġsessi": 6121, "Ġticke": 6122, "Ġsubmi": 6123, "ĠLouis": 6124, "ĠPC": 6125, "Ġdele": 6126, "Ġsession": 6127, "Ġaccur": 6128, "ĠAssociation": 6129, "Ġprincipl": 6130, "Ġprinciple": 6131, "Ġstrategi": 6132, "Ġregiste": 6133, "Ġada": 6134, "Ġphil": 6135, "Ġtrul": 6136, "ĠChamp": 6137, "Ġbelieves": 6138, "Ġtruly": 6139, "Ġrefug": 6140, "Ġseq": 6141, "Ġenable": 6142, "Ġaccura": 6143, "Ġcommis": 6144, "Ġdecisions": 6145, "ĠBlue": 6146, "Ġcompon": 6147, "Ġpresenc": 6148, "Ġcompone": 6149, "Ġfamou": 6150, "Ġfamous": 6151, "Ġcomponen": 6152, "Ġrefuge": 6153, "Ġcomponent": 6154, "Ġeast": 6155, "Ġpresence": 6156, "Ġexpand": 6157, "ĠConf": 6158, "ĠAda": 6159, "Ġguess": 6160, "Ġspokesm": 6161, "ĠTeam": 6162, "Ġregim": 6163, "Ġwitn": 6164, "ĠResea": 6165, "Ġwitne": 6166, "Ġwitnes": 6167, "Ġwitness": 6168, "Ġgende": 6169, "ĠResear": 6170, "Ġtun": 6171, "ĠResearc": 6172, "ĠJewis": 6173, "Ġregime": 6174, "ĠJewish": 6175, "Ġgold": 6176, "Ġdozen": 6177, "ĠHel": 6178, "ĠPak": 6179, "ĠPrin": 6180, "Ġbeauti": 6181, "Ġapprove": 6182, "Ġsurge": 6183, "Ġcommiss": 6184, "Ġcriticis": 6185, "Ġdivers": 6186, "Ġunre": 6187, "Ġplannin": 6188, "Ġplanning": 6189, "Ġsupply": 6190, "Ġentit": 6191, "ĠVirg": 6192, "Ġasses": 6193, "Ġspecifica": 6194, "Ġlabe": 6195, "ĠCI": 6196, "Ġjoine": 6197, "Ġplaced": 6198, "Ġtells": 6199, "Ġsud": 6200, "Ġlength": 6201, "ĠGOP": 6202, "Ġwish": 6203, "ĠStep": 6204, "ĠDur": 6205, "Ġintegra": 6206, "Ġmentione": 6207, "Ġsequ": 6208, "Ġmentioned": 6209, "Ġwaitin": 6210, "ĠSal": 6211, "Ġspokesma": 6212, "Ġspokesman": 6213, "Ġwaiting": 6214, "ĠAngele": 6215, "Ġwast": 6216, "Ġstoppe": 6217, "Ġmani": 6218, "Ġviewe": 6219, "Ġjoined": 6220, "Ġcatch": 6221, "ĠAndro": 6222, "Ġchee": 6223, "Ġinternal": 6224, "Ġidentify": 6225, "Ġurge": 6226, "ĠMen": 6227, "ĠMicros": 6228, "ĠAtla": 6229, "ĠCB": 6230, "ĠJud": 6231, "Ġinsis": 6232, "Ġinsist": 6233, "Ġreactio": 6234, "Ġreaction": 6235, "ĠNig": 6236, "ĠFal": 6237, "Ġindustri": 6238, "Ġedg": 6239, "Ġrecover": 6240, "Ġbeautif": 6241, "ĠAdd": 6242, "ĠTen": 6243, "Ġsem": 6244, "Ġcommissi": 6245, "Ġcommission": 6246, "Ġzone": 6247, "Ġusef": 6248, "Ġusefu": 6249, "Ġbanks": 6250, "Ġuseful": 6251, "Ġtaxe": 6252, "Ġund": 6253, "ĠAngeles": 6254, "Ġenforceme": 6255, "Ġenforcemen": 6256, "Ġenforcement": 6257, "ĠStra": 6258, "Ġinterests": 6259, "ĠDefen": 6260, "ĠMP": 6261, "Ġintroduced": 6262, "Ġprovidin": 6263, "Ġproviding": 6264, "Ġsports": 6265, "ĠYes": 6266, "Ġestablished": 6267, "Ġcells": 6268, "Ġswee": 6269, "Ġrepu": 6270, "ĠInste": 6271, "Ġnewsp": 6272, "Ġconvent": 6273, "ĠSyrian": 6274, "ĠJef": 6275, "Ġremoved": 6276, "Ġcarb": 6277, "Ġseque": 6278, "Ġstandin": 6279, "Ġwelc": 6280, "ĠInstea": 6281, "ĠInstead": 6282, "Ġconvin": 6283, "Ġstanding": 6284, "Ġgender": 6285, "ĠMedica": 6286, "Ġchann": 6287, "ĠHome": 6288, "Ġchanne": 6289, "Ġchannel": 6290, "Ġbeautifu": 6291, "Ġbeautiful": 6292, "Ġstopped": 6293, "Ġfant": 6294, "ĠCA": 6295, "Ġconvinc": 6296, "Ġtroo": 6297, "Ġotherw": 6298, "Ġamazi": 6299, "Ġamazin": 6300, "ĠFore": 6301, "ĠShi": 6302, "Ġamazing": 6303, "Ġassess": 6304, "Ġfanta": 6305, "Ġtroop": 6306, "Ġwelco": 6307, "Ġwelcom": 6308, "Ġmaste": 6309, "ĠCompa": 6310, "Ġnewspa": 6311, "Ġfantas": 6312, "Ġnewspap": 6313, "Ġnewspape": 6314, "Ġsubsc": 6315, "ĠTes": 6316, "Ġtens": 6317, "Ġsouth": 6318, "ĠSupre": 6319, "ĠJeff": 6320, "Ġbik": 6321, "ĠSuprem": 6322, "Ġcalc": 6323, "Ġfourth": 6324, "ĠCEO": 6325, "ĠPalestini": 6326, "Ġcook": 6327, "ĠPalestinia": 6328, "ĠPalestinian": 6329, "Ġticket": 6330, "Ġphotos": 6331, "ĠBB": 6332, "Ġtransl": 6333, "Ġeart": 6334, "Ġ2005": 6335, "Ġtrail": 6336, "Ġ2018": 6337, "ĠBet": 6338, "Ġmeasures": 6339, "ĠMicroso": 6340, "Ġcapac": 6341, "ĠMicrosof": 6342, "ĠMicrosoft": 6343, "ĠGovernm": 6344, "ĠGovernme": 6345, "ĠGovernmen": 6346, "ĠGovernment": 6347, "ĠConst": 6348, "Ġcapaci": 6349, "Ġgirls": 6350, "ĠGroup": 6351, "Ġgraph": 6352, "ĠGlo": 6353, "ĠJim": 6354, "Ġtechniq": 6355, "zer": 6356, "Ġtheref": 6357, "Ġtechniqu": 6358, "Ġtechnique": 6359, "Ġdiss": 6360, "Ġtip": 6361, "Ġsubscr": 6362, "Ġsubscri": 6363, "ĠAw": 6364, "Ġlicense": 6365, "Ġmanaged": 6366, "Ġfiles": 6367, "Ġconventi": 6368, "Ġconvention": 6369, "Ġidentified": 6370, "Ġack": 6371, "Ġvas": 6372, "Ġreci": 6373, "Ġenvironmenta": 6374, "Ġenvironmental": 6375, "ĠLee": 6376, "Ġfocused": 6377, "Ġtherefo": 6378, "Ġtherefor": 6379, "Ġcapacit": 6380, "Ġapprop": 6381, "Ġsolv": 6382, "Ġinfra": 6383, "Ġemergen": 6384, "Ġdebu": 6385, "Ġskills": 6386, "Ġappropr": 6387, "Ġappropri": 6388, "Ġappropria": 6389, "Ġappropriat": 6390, "Ġfinished": 6391, "ĠProf": 6392, "Ġarrived": 6393, "Ġconsidera": 6394, "Ġearth": 6395, "ĠRya": 6396, "Ġfigures": 6397, "ĠJapane": 6398, "Ġackn": 6399, "Ġackno": 6400, "ĠJapanes": 6401, "ĠJapanese": 6402, "Ġacknow": 6403, "Ġconclud": 6404, "Ġacknowl": 6405, "Ġfrequent": 6406, "Ġacknowle": 6407, "Ġcommitted": 6408, "Ġtherefore": 6409, "cks": 6410, "Ġmal": 6411, "Ġacknowled": 6412, "Ġacknowledg": 6413, "Ġacto": 6414, "Ġdefensi": 6415, "Ġkeeping": 6416, "Ġfunds": 6417, "ĠPakis": 6418, "Ġappre": 6419, "Ġexclus": 6420, "Ġadju": 6421, "ĠPakist": 6422, "Ġeg": 6423, "Ġexclusi": 6424, "****": 6425, "ĠPakista": 6426, "ĠPakistan": 6427, "Ġrevolu": 6428, "Ġactor": 6429, "Ġoutc": 6430, "Ġpointe": 6431, "ĠDistr": 6432, "ĠMexico": 6433, "Ġidentity": 6434, "ĠSupreme": 6435, "Ã¡": 6436, "ĠColleg": 6437, "Ġcapti": 6438, "Ġsides": 6439, "ĠAls": 6440, "ĠRiver": 6441, "Ġexercise": 6442, "Ġrevolut": 6443, "Ġrevoluti": 6444, "Ġrevolutio": 6445, "Ġrevolution": 6446, "Ġstrange": 6447, "Ġfeels": 6448, "Ġotherwi": 6449, "Ġotherwis": 6450, "Ġotherwise": 6451, "ĠCarolin": 6452, "Ġsteps": 6453, "Ġcomplaint": 6454, "Ġfish": 6455, "Ġfamilia": 6456, "Ġfello": 6457, "Ġfellow": 6458, "Ġskin": 6459, "Ġattacke": 6460, "Ġinstruc": 6461, "ĠAndroi": 6462, "ĠAndroid": 6463, "Ġrecal": 6464, "Ġinstruct": 6465, "ĠRyan": 6466, "Ġquote": 6467, "Ġrelativel": 6468, "Ġrelatively": 6469, "ĠSpec": 6470, "Ġtransfo": 6471, "Ġapplie": 6472, "Ġtechnica": 6473, "Ġtransfor": 6474, "Ġtransform": 6475, "ĠAlb": 6476, "Ġtechnical": 6477, "Ġquali": 6478, "ĠSE": 6479, "Ġimposs": 6480, "Ġentr": 6481, "Ġimpossi": 6482, "Ġimpossib": 6483, "ĠJou": 6484, "Ġ2000": 6485, "tional": 6486, "Ġcircum": 6487, "ĠSee": 6488, "Ġslightl": 6489, "Ġslightly": 6490, "ĠEdit": 6491, "Ġcontrolle": 6492, "Ġinterp": 6493, "Ġvan": 6494, "Ġprime": 6495, "Ġdefensive": 6496, "Ġqualif": 6497, "Ġcheap": 6498, "ĠArmy": 6499, "Ġske": 6500, "Ġshal": 6501, "Ġaffi": 6502, "ĠDistri": 6503, "ĠAmaz": 6504, "Ġmere": 6505, "Ġcoin": 6506, "Ġbatter": 6507, "ĠWho": 6508, "ĠFire": 6509, "Ġsymp": 6510, "Ġedge": 6511, "Ġconvi": 6512, "Ġexcepti": 6513, "Ġexception": 6514, "Ġemergenc": 6515, "Ġforge": 6516, "Ġtopi": 6517, "ĠAlth": 6518, "Ġuti": 6519, "Ġelements": 6520, "Ġblame": 6521, "Ġguil": 6522, "vice": 6523, "Ġadvocat": 6524, "Ġdenie": 6525, "Ġutil": 6526, "Ġtopic": 6527, "ĠCollege": 6528, "ĠSwe": 6529, "ĠBitc": 6530, "Ġclot": 6531, "Ġblow": 6532, "Ġappo": 6533, "Ġsuggests": 6534, "ĠBern": 6535, "ĠScienc": 6536, "ĠScience": 6537, "ĠMcCa": 6538, "Ġaggres": 6539, "ĠSub": 6540, "Ġconvic": 6541, "Ġsust": 6542, "Ġclassic": 6543, "ĠSecreta": 6544, "Ġaggress": 6545, "Ġconvict": 6546, "Ġacci": 6547, "ĠSecretar": 6548, "ĠIsland": 6549, "ĠBow": 6550, "Ġwoo": 6551, "Ġisl": 6552, "ĠWall": 6553, "Ġtin": 6554, "Ġtransla": 6555, "Ġtranslat": 6556, "uling": 6557, "mort": 6558, "ĠDN": 6559, "ĠChampion": 6560, "ĠAlthou": 6561, "Ġtaxes": 6562, "witt": 6563, "ĠAlthoug": 6564, "ĠAlthough": 6565, "Ġaccid": 6566, "Ġaccide": 6567, "Ġacciden": 6568, "ĠThei": 6569, "Ġaccident": 6570, "Ġbigger": 6571, "ĠLake": 6572, "Ġclin": 6573, "Ġtigh": 6574, "Ġoutp": 6575, "Ġtight": 6576, "Ġcounc": 6577, "Ġprovinc": 6578, "Ġcounci": 6579, "Ġcouncil": 6580, "ĠMur": 6581, "Ġremind": 6582, "Ġpresente": 6583, "Ġdela": 6584, "ĠMars": 6585, "Ġfamiliar": 6586, "ĠSport": 6587, "Ġspeakin": 6588, "Ġstarts": 6589, "Ġconsul": 6590, "Ġspeaking": 6591, "Ġlaug": 6592, "ĠFar": 6593, "ĠOut": 6594, "Ġdistanc": 6595, "Ġorganizations": 6596, "Ġmaster": 6597, "ĠAustralian": 6598, "ãĥ": 6599, "Ġsudd": 6600, "Ġrequirem": 6601, "Ġrequireme": 6602, "Ġrequiremen": 6603, "Ġrequirement": 6604, "Ġplanned": 6605, "Ġsudde": 6606, "Ġsudden": 6607, "Ġdemonstrate": 6608, "ĠJour": 6609, "witte": 6610, "ĠJose": 6611, "Ġdepl": 6612, "ĠRead": 6613, "ĠConse": 6614, "Ġtalks": 6615, "Ġcrew": 6616, "Ġsuspen": 6617, "Ġspect": 6618, "ĠSur": 6619, "Ġrecall": 6620, "lym": 6621, "Ġemba": 6622, "ĠThoma": 6623, "Ġdeplo": 6624, "Ġthanks": 6625, "Ġdelay": 6626, "Ġautomati": 6627, "Ġscrip": 6628, "Ġscientif": 6629, "Ġscientifi": 6630, "Ġarmy": 6631, "ĠProt": 6632, "Ġcuts": 6633, "Ġcarried": 6634, "Ġseconds": 6635, "Ġ193": 6636, "Ġscientific": 6637, "Ġappoi": 6638, "Ġappoin": 6639, "ĠFer": 6640, "ĠIl": 6641, "Ġappoint": 6642, "ĠPrime": 6643, "ĠBitco": 6644, "Ġasset": 6645, "Ġsusta": 6646, "Ġcreativ": 6647, "Ġaca": 6648, "ĠThomas": 6649, "Ġfighte": 6650, "Ġfighter": 6651, "ĠBitcoin": 6652, "ĠTO": 6653, "Ġscript": 6654, "ĠLy": 6655, "Ġsustain": 6656, "ĠJourn": 6657, "Ġstee": 6658, "ĠMary": 6659, "Ġcompos": 6660, "ĠUnde": 6661, "Ġescap": 6662, "ĠTheir": 6663, "Ġphilo": 6664, "witter": 6665, "Ġturns": 6666, "Ġbag": 6667, "Ġisla": 6668, "Ġhistorica": 6669, "Ġhistorical": 6670, "ĠMidd": 6671, "ĠPas": 6672, "Ġsati": 6673, "Ġadap": 6674, "ĠFol": 6675, "Ġadapt": 6676, "Ġconsequenc": 6677, "Ġconsequence": 6678, "ĠResearch": 6679, "Ġplo": 6680, "ĠCN": 6681, "Ġfiled": 6682, "ĠAlso": 6683, "ĠSecretary": 6684, "ĠMiddle": 6685, "Ġstandards": 6686, "ĠFounda": 6687, "Ġdistance": 6688, "ĠNO": 6689, "ĠFoundat": 6690, "ĠFoundati": 6691, "ĠFoundation": 6692, "Ġvariety": 6693, "Ġsola": 6694, "Ġmarkets": 6695, "Ġpal": 6696, "ÃĤ": 6697, "Ġphilos": 6698, "Ġsounds": 6699, "ĠRoa": 6700, "ĠCorp": 6701, "Ġwaste": 6702, "Ġphiloso": 6703, "Ġphilosop": 6704, "ĠSil": 6705, "ĠStud": 6706, "ĠES": 6707, "ĠTim": 6708, "ĠSig": 6709, "Ġconclude": 6710, "ĠAtlan": 6711, "Ġimpossible": 6712, "Ġtack": 6713, "ĠUSA": 6714, "Ġaggressi": 6715, "ĠOpen": 6716, "ĠEnt": 6717, "ĠAtlant": 6718, "ĠRoma": 6719, "Ġaccounts": 6720, "Ġbroadc": 6721, "Ġacad": 6722, "Ġprospec": 6723, "Ġprospect": 6724, "inan": 6725, "Ġbroadca": 6726, "Ġbroadcas": 6727, "Ġbroadcast": 6728, "Ġ33": 6729, "Ġadvise": 6730, "Ġcomba": 6731, "ruling": 6732, "Ġcombat": 6733, "Ġacade": 6734, "Ġacadem": 6735, "Ġterrit": 6736, "Ġneighborh": 6737, "Ġneighborho": 6738, "Ġneighborhoo": 6739, "Ġneighborhood": 6740, "Ġcold": 6741, "Ġterrito": 6742, "Ġpossibly": 6743, "Ġislan": 6744, "Ġisland": 6745, "ĠDai": 6746, "Ġterritor": 6747, "ĠTwo": 6748, "Ġtheme": 6749, "ĠMedi": 6750, "Ġgam": 6751, "Ġrefugee": 6752, "ĠFig": 6753, "Ġtests": 6754, "Ġworry": 6755, "ĠPA": 6756, "ĠMana": 6757, "Ġbike": 6758, "Ġruling": 6759, "ĠRoy": 6760, "ĠAN": 6761, "Ġincreasingl": 6762, "Ġincreasingly": 6763, "Ġrich": 6764, "Ġplen": 6765, "ĠMea": 6766, "Ġscra": 6767, "Ġperforme": 6768, "Ġchangin": 6769, "Ġchanging": 6770, "Ġrein": 6771, "Ġapparentl": 6772, "Ġapparently": 6773, "Ġagenci": 6774, "Ġdevelopers": 6775, "Ġultimatel": 6776, "Ġcloser": 6777, "Ġultimately": 6778, "Ġcultur": 6779, "Ġagencie": 6780, "Ġagencies": 6781, "ĠCarolina": 6782, "Ġcorporate": 6783, "Ġsitt": 6784, "Ġyards": 6785, "ĠKat": 6786, "ĠVic": 6787, "Ġchain": 6788, "Ġtwic": 6789, "Ġtwice": 6790, "Ġbutton": 6791, "Ġpriorit": 6792, "ĠWoo": 6793, "ĠParis": 6794, "ĠLast": 6795, "Ġcomi": 6796, "ĠImages": 6797, "Ġfunda": 6798, "ĠGold": 6799, "Ġcultura": 6800, "Ġabsolutel": 6801, "Ġabsolutely": 6802, "ĠFrancisc": 6803, "Ġexpresse": 6804, "Ġcollea": 6805, "Ġsoldiers": 6806, "Ġcolleag": 6807, "Ġcolleagu": 6808, "Ġcolleague": 6809, "ĠDat": 6810, "Ġdefa": 6811, "ĠElec": 6812, "Ġunits": 6813, "Ġgia": 6814, "Ġcentre": 6815, "Ġpena": 6816, "Ġfundam": 6817, "Ġfundame": 6818, "Ġcultural": 6819, "Ġfundamen": 6820, "Ġauthority": 6821, "Ġfundament": 6822, "Ġtast": 6823, "ĠSing": 6824, "Ġpossibility": 6825, "Ġpayin": 6826, "ĠElect": 6827, "Ġpaying": 6828, "Ġfundamenta": 6829, "Ġtrib": 6830, "Ġconfu": 6831, "ĠGuar": 6832, "Ġfundamental": 6833, "Ġcalcu": 6834, "ĠPeter": 6835, "ĠHuma": 6836, "Ġvast": 6837, "Ġcalcul": 6838, "ĠCentra": 6839, "ĠUnder": 6840, "ĠPlea": 6841, "Ġexpensi": 6842, "Ġexpensive": 6843, "Ġours": 6844, "Ġdevelopin": 6845, "Ġdeveloping": 6846, "ĠLau": 6847, "Ġconfus": 6848, "Ġbound": 6849, "Ġral": 6850, "ĠST": 6851, "Ġathl": 6852, "Ġgian": 6853, "Ġathle": 6854, "Ġjur": 6855, "Ġgiant": 6856, "Ġappropriate": 6857, "Ġcontaine": 6858, "Ġlands": 6859, "Ġathlet": 6860, "Ġwarnin": 6861, "Ġwarning": 6862, "Ġracis": 6863, "Ġcaref": 6864, "Ġjai": 6865, "Ġtransiti": 6866, "Ġleak": 6867, "Ġregardin": 6868, "Ġprofi": 6869, "Ġregarding": 6870, "Ġrall": 6871, "Ġnume": 6872, "ĠCentral": 6873, "ĠToron": 6874, "Ġadjus": 6875, "Ġadjust": 6876, "ĠSoci": 6877, "Ġchart": 6878, "Ġseekin": 6879, "Ġseeking": 6880, "Ġsurvive": 6881, "Ġdeploy": 6882, "Ġexperts": 6883, "ĠToront": 6884, "Ġnumer": 6885, "Ġstatis": 6886, "ĠVen": 6887, "ĠKel": 6888, "Ġsittin": 6889, "Ġfif": 6890, "Ġsitting": 6891, "Ġrating": 6892, "Ġsolar": 6893, "Ġlawsu": 6894, "Ġlawsuit": 6895, "Ġexpressi": 6896, "Ġnomina": 6897, "Ġsubse": 6898, "Ġspon": 6899, "Ġcompr": 6900, "ĠGuard": 6901, "Ġplent": 6902, ",[": 6903, "Ġbann": 6904, "Ġapplications": 6905, "Ġcomic": 6906, "Ġpenal": 6907, "ĠPleas": 6908, "Ġfift": 6909, "ĠAC": 6910, "Ġwelcome": 6911, "Ġpercenta": 6912, "Ġpercentag": 6913, "Ġpercentage": 6914, "ĠDistric": 6915, "ĠDistrict": 6916, "ĠBost": 6917, "Ġcapacity": 6918, "Ġstatist": 6919, "Ġpassi": 6920, "ĠCamp": 6921, "Ġintegrat": 6922, "ĠDie": 6923, "ĠWilliams": 6924, "Ġschem": 6925, "ĠToronto": 6926, "Ġcovere": 6927, "ĠFrancisco": 6928, "Ġcovered": 6929, "Ġgraduat": 6930, "Ġmaxi": 6931, "Ġgeo": 6932, "Ġhers": 6933, "%)": 6934, "Ġshee": 6935, "Ġrewa": 6936, "ĠChie": 6937, "ĠDia": 6938, "Ġarms": 6939, "Ġelim": 6940, "Ġtransitio": 6941, "Ġtransition": 6942, "Ġcarefu": 6943, "Ġcareful": 6944, "ĠAmazon": 6945, "Ġpersp": 6946, "Ġunles": 6947, "ĠTak": 6948, "Ġunless": 6949, "Ġdepo": 6950, "Ġtruc": 6951, "ĠImp": 6952, "Ġresponsibility": 6953, "Ġelections": 6954, "Ġelimin": 6955, "Ġmaga": 6956, "Ġimprovem": 6957, "Ġimproveme": 6958, "Ġimprovemen": 6959, "Ġimprovement": 6960, "Ġelimina": 6961, "Ġpermit": 6962, "ĠAwa": 6963, "ĠTow": 6964, "Ġmanufacture": 6965, "Ġdefiniti": 6966, "ĠPut": 6967, "Ġeliminat": 6968, "ĠTal": 6969, "Ġdefi": 6970, "Ġbaby": 6971, "Ġsensi": 6972, "ĠEmp": 6973, "Ġguilt": 6974, "Ġmagic": 6975, "Ġuniversity": 6976, "ĠMass": 6977, "Ġ2004": 6978, "Ġmagaz": 6979, "Ġdeadl": 6980, "Ġmagazin": 6981, "Ġmagazine": 6982, "Ġtechnologi": 6983, "Ġpresented": 6984, "Ġforms": 6985, "Ġsad": 6986, "Ġrever": 6987, "ĠEt": 6988, "Ġguara": 6989, "Ġguaran": 6990, "Ġrewar": 6991, "Ġrand": 6992, "Ġguarant": 6993, "Ġreward": 6994, "Ġstatisti": 6995, "ĠGood": 6996, "Ġintenti": 6997, "Ġintentio": 6998, "Ġintention": 6999, "Ġperspe": 7000, "ĠEgy": 7001, "Ġstatistic": 7002, "Ġbodi": 7003, "Ġsymb": 7004, "ĠMari": 7005, "Ġinfras": 7006, "ĠEgyp": 7007, "Ġexpans": 7008, "ĠEgypt": 7009, "ĠDow": 7010, "Ġperspec": 7011, "Ġadmitt": 7012, "Ġperspect": 7013, "Ġlabor": 7014, "Ġperspecti": 7015, "ĠMA": 7016, "Ġperspectiv": 7017, "ĠKr": 7018, "ÑĤ": 7019, "Ġrapi": 7020, "Ġbroken": 7021, "Ġboos": 7022, "Ġintende": 7023, "Ġperspective": 7024, "Ġintended": 7025, "ĠRat": 7026, "Ġguns": 7027, "Ãĥ": 7028, "ĠIN": 7029, "Ġinfrast": 7030, "Ġinfrastr": 7031, "Ġtric": 7032, "Ġbrig": 7033, "Ġinfrastru": 7034, "Ġspring": 7035, "ĠVirgini": 7036, "Ġoutco": 7037, "Ġrecr": 7038, "Ġvehicles": 7039, "Ġstrin": 7040, "Ġinfrastruc": 7041, "Ġinfrastruct": 7042, "ĠBes": 7043, "ĠQua": 7044, "Ġstring": 7045, "Ġinfrastructu": 7046, "Ġinfrastructur": 7047, "Ġestimated": 7048, "Ġoutcom": 7049, "ĠPublic": 7050, "ĠAgen": 7051, "Ġrecorde": 7052, "ĠBoston": 7053, "ĠOnc": 7054, "Ġstreets": 7055, "Ġconsult": 7056, "Ġshall": 7057, "ĠVirginia": 7058, "ĠGal": 7059, "Ġrapid": 7060, "ĠAri": 7061, "ĠJer": 7062, "ĠThos": 7063, "ĠChief": 7064, "Ġpieces": 7065, "Ġyout": 7066, "Ġconso": 7067, "Ġinterpr": 7068, "iding": 7069, "ĠThose": 7070, "ĠTou": 7071, "Ġoutcome": 7072, "ĠMode": 7073, "Ġrape": 7074, "ĠJourna": 7075, "ĠLuc": 7076, "Ġabor": 7077, "ĠJournal": 7078, "Ġfired": 7079, "Ġacknowledge": 7080, "Ġguarante": 7081, "Ġguarantee": 7082, "ĠHuman": 7083, "Ġtroops": 7084, "Ġrepli": 7085, "Ġrene": 7086, "Ġshad": 7087, "Ġrecip": 7088, "Ġproducer": 7089, "Ġinfrastructure": 7090, "Ġmetal": 7091, "Ġstars": 7092, "Ġrent": 7093, "Ġinterpre": 7094, "Ġendo": 7095, "Ġexcel": 7096, "Ġinterpret": 7097, "ĠPea": 7098, "Ġtempo": 7099, "Ġpatr": 7100, "Ġcorru": 7101, "Ġcalcula": 7102, "Ġunfo": 7103, "âĪ": 7104, "Ġexplore": 7105, "Ġdistinc": 7106, "Ġprepared": 7107, "Ġdistinct": 7108, "Ġcalculat": 7109, "ĠSocia": 7110, "ĠAny": 7111, "Ġmagn": 7112, "Ġsno": 7113, "Ġcharacteri": 7114, "Ġrecru": 7115, "ĠBob": 7116, "Ġspecifical": 7117, "Ġbringin": 7118, "Ġspecificall": 7119, "Ġspecifically": 7120, "ĠCath": 7121, "Ġbringing": 7122, "Ġame": 7123, "Ġpotentiall": 7124, "Ġpotentially": 7125, "ĠShow": 7126, "Ġsile": 7127, "Ġpip": 7128, "Ġrecrui": 7129, "Ġrecruit": 7130, "Ġtank": 7131, "Ġcomplic": 7132, "Ġelectron": 7133, "Ġsilen": 7134, "Ġspli": 7135, "Ġadvocate": 7136, "Ġsis": 7137, "Ġconclus": 7138, "Ġrando": 7139, "ĠAdam": 7140, "Ġsanc": 7141, "Ġgif": 7142, "ĠNav": 7143, "Ġequipme": 7144, "Ġequipmen": 7145, "Ġequipment": 7146, "Ġinspire": 7147, "Ġtackl": 7148, "ĠSocial": 7149, "Ġconclusi": 7150, "Ġfaster": 7151, "Ġtourn": 7152, "Ġgovernments": 7153, "ĠDirecto": 7154, "ĠOnce": 7155, "ĠReal": 7156, "ĠDirector": 7157, "Ġplenty": 7158, "Ġboost": 7159, "Ġrandom": 7160, "Ġsanct": 7161, "Ġsellin": 7162, "Ġfing": 7163, "Ġselling": 7164, "Ġlabel": 7165, "Ġsimu": 7166, "Ġfinge": 7167, "Ġconsc": 7168, "Ġbreat": 7169, "Ġfinger": 7170, "Ġsimul": 7171, "ĠRub": 7172, "Ġseasons": 7173, "Ġcorrup": 7174, "Ġproto": 7175, "ĠWee": 7176, "Ġchemic": 7177, "Ġchemica": 7178, "Ġchemical": 7179, "ĠSant": 7180, "ĠHas": 7181, "Ġplus": 7182, "ĠISI": 7183, "ĠLit": 7184, "Ġrepresentativ": 7185, "Ġwarr": 7186, "Ġcorrupt": 7187, "Ġrepresentative": 7188, "Ġrefused": 7189, "ĠLor": 7190, "ĠSol": 7191, "Ġfactors": 7192, "Ġwoun": 7193, "Ġwound": 7194, "ĠSpr": 7195, "Ġexpressio": 7196, "Ġexpression": 7197, "ĠFederal": 7198, "Ġdefende": 7199, "Ġretai": 7200, "Ġretail": 7201, "with": 7202, "Ġexpose": 7203, "Ġyounge": 7204, "ĠCy": 7205, "Ġwinne": 7206, "Ġwinner": 7207, "Ġexpansi": 7208, "Ġ=>": 7209, "Ġambi": 7210, "ĠLif": 7211, "Ġselecti": 7212, "Ġcarbon": 7213, "Ġresolu": 7214, "ĠRon": 7215, ",'": 7216, "Ġexpressed": 7217, "Ġpee": 7218, "Ġevenin": 7219, "Ġresolut": 7220, "Ġevening": 7221, "Ġchallenges": 7222, "ominat": 7223, "ĠFun": 7224, "Ġconducte": 7225, "ĠSca": 7226, "Ġconducted": 7227, "Ġmethods": 7228, "ĠIntel": 7229, "Ġcurrenc": 7230, "Ġdisas": 7231, "Ġspin": 7232, "Ġrain": 7233, "Ġgoverno": 7234, "Ġexclusive": 7235, "ĠBul": 7236, "Ġsist": 7237, "Ġflat": 7238, "Ġpushe": 7239, "Ġescape": 7240, "Ġelecte": 7241, "Ġelected": 7242, "Ġcycle": 7243, "ĠPlease": 7244, "Ġcreatio": 7245, "Ġwing": 7246, "Ġsymbo": 7247, "Ġcreation": 7248, "Ġpunis": 7249, "Ġsymbol": 7250, "Ġcombina": 7251, "ĠMO": 7252, "Ġsiste": 7253, "Ġpointed": 7254, "ĠMit": 7255, "Ġremaine": 7256, "Ġpositions": 7257, "Ġcompete": 7258, "Ġtrig": 7259, "Ġcombinat": 7260, "Ġmaxim": 7261, "ĠSpac": 7262, "Ġremained": 7263, "Ġsolve": 7264, "Ġgovernor": 7265, "ĠNH": 7266, "Ġinteracti": 7267, "Ġunco": 7268, "Ġoriginall": 7269, "Ġoriginally": 7270, "ĠAv": 7271, "Ġinfec": 7272, "Ġalc": 7273, "Ġinfect": 7274, "Ġtruck": 7275, "ĠRom": 7276, "Ġinse": 7277, "Ġreserve": 7278, "Ġweren": 7279, "Ġallega": 7280, "Ġallegat": 7281, "Ġsigns": 7282, "Ġallegati": 7283, "Ġallegatio": 7284, "Ġallegation": 7285, "Ġcriticism": 7286, "Ġtourna": 7287, "ĠChampions": 7288, "Ġnarra": 7289, "ĠFinal": 7290, "Ġtournam": 7291, "Ġtourname": 7292, "Ġtournamen": 7293, "Ġtournament": 7294, "Ġtransa": 7295, "Ġgift": 7296, "ĠBrad": 7297, "Ġnarrat": 7298, "Ġgreates": 7299, "Ġ34": 7300, "Ġgreatest": 7301, "Ġfacin": 7302, "Ġfacing": 7303, "ĠSpace": 7304, "Ġboug": 7305, "ĠTon": 7306, "Ġsignificantl": 7307, "Ġsignificantly": 7308, "Ġsplit": 7309, "Ġfolk": 7310, "ĠPrinc": 7311, "ĠDuring": 7312, "Ġyouth": 7313, "Ġsei": 7314, "Ġcrac": 7315, "Ġdecre": 7316, "Ġdedi": 7317, "Ġairp": 7318, "Ġcrack": 7319, "Ġstret": 7320, "ĠWr": 7321, "Sinc": 7322, "ĠDoc": 7323, "Ġprofil": 7324, "Ġaffecte": 7325, "Ġfores": 7326, "Ġaffected": 7327, "Ġbough": 7328, "Ġdedic": 7329, "Ġstretc": 7330, "Ġdedica": 7331, "ĠAna": 7332, "Ġsmi": 7333, "Ġdetermined": 7334, "ĠRou": 7335, "Ġjusti": 7336, "ĠBoa": 7337, "Ġsister": 7338, "Ġstronge": 7339, "Ġreduced": 7340, "ĠRoman": 7341, "Ġaftern": 7342, "ĠPal": 7343, "Ġdedicat": 7344, "Ġafterno": 7345, "Ġafternoo": 7346, "Ġjustif": 7347, "Ġafternoon": 7348, "Ġinterve": 7349, "Ġwood": 7350, "Ġ500": 7351, "ĠDre": 7352, "Ġbought": 7353, "âĸ": 7354, "Ġsevere": 7355, "Ġtrick": 7356, "Ġherse": 7357, "Ġhersel": 7358, "Ġinterven": 7359, "Ġherself": 7360, "Ġpicke": 7361, "ĠProg": 7362, "Ġabort": 7363, "Ġindee": 7364, "ĠRock": 7365, "Ġindeed": 7366, "Ġwatche": 7367, "ĠPic": 7368, "ĠMem": 7369, "Ġminimu": 7370, "Ġpulle": 7371, "Since": 7372, "ĠSaud": 7373, "Ġmarg": 7374, "ĠRad": 7375, "Ġminimum": 7376, "Ġgrew": 7377, "Ġannouncem": 7378, "Ġemotiona": 7379, "Ġemotional": 7380, "ĠPl": 7381, "Ġannounceme": 7382, "Ġannouncemen": 7383, "Ġannouncement": 7384, "Ġcombinati": 7385, "Ġcombinatio": 7386, "Ġcombination": 7387, "ĠContr": 7388, "ĠBoth": 7389, "Ġcoas": 7390, "Ġcoast": 7391, "Ġcontras": 7392, "Ġremainin": 7393, "Ġradic": 7394, "Ġremaining": 7395, "ĠDal": 7396, "ĠBara": 7397, "Ġwearin": 7398, "First": 7399, "Ġradica": 7400, "Ġturni": 7401, "Ġcontrast": 7402, "Ġradical": 7403, "Ġunab": 7404, "Ġpoliticians": 7405, "Ġargued": 7406, "ĠStor": 7407, "Ġaba": 7408, "ĠLoc": 7409, "Ġwire": 7410, "Ġsupportin": 7411, "Ġsupporting": 7412, "ĠAdm": 7413, "Ġairc": 7414, "Ġrecorded": 7415, "Ġoverl": 7416, "Ġdiscusse": 7417, "Ġpoun": 7418, "ĠKha": 7419, "Ġapol": 7420, "Ġleads": 7421, "Ġworri": 7422, "Ġconvince": 7423, "¾Ð": 7424, "Ġcivilia": 7425, "Ġsurprisin": 7426, "Ġcivilian": 7427, "Ġsurprising": 7428, "Ġswitch": 7429, "Ġapprec": 7430, "Ġconsci": 7431, "Ġearne": 7432, "Ġappreci": 7433, "Ġapprecia": 7434, "Ġwearing": 7435, "Ġemph": 7436, "Ġcolu": 7437, "Ġsala": 7438, "Ġmatche": 7439, "Ġaircr": 7440, "Ġbrows": 7441, "Ġfilms": 7442, "Ġexcited": 7443, "Ġtact": 7444, "Ġquan": 7445, "Ġconsiderin": 7446, "Ġconsidering": 7447, "Ġvideos": 7448, "ĠConser": 7449, "Ġvali": 7450, "Ġconsen": 7451, "Ġunderg": 7452, "Ġclou": 7453, "ĠLis": 7454, "ĠConserv": 7455, "Ġcolum": 7456, "Ġexplos": 7457, "Ġresoluti": 7458, "ĠPra": 7459, "Ġresolutio": 7460, "Ġresolution": 7461, "Ġbasica": 7462, "Ġexplosi": 7463, "Ġbasical": 7464, "Ġovert": 7465, "Ġproced": 7466, "Ġ1990": 7467, "Ġbasicall": 7468, "Ġtalke": 7469, "Ġbasically": 7470, "Ġtrigg": 7471, "ĠOly": 7472, "Ġtrigge": 7473, "Ġglas": 7474, "Ġautomatic": 7475, "Ġturnin": 7476, "Ġtrigger": 7477, "Ġturning": 7478, "ĠMel": 7479, "Ġexperienced": 7480, "Ġconcen": 7481, "ĠConserva": 7482, "ĠMedia": 7483, "Ġconcent": 7484, "ĠBor": 7485, "ĠPenn": 7486, "Ġempha": 7487, "Ġprogramme": 7488, "Ġexisten": 7489, "Ġconcentr": 7490, "Ġcof": 7491, "Ġopportuniti": 7492, "Ã¤": 7493, "Ġcontes": 7494, "Ġprocedu": 7495, "Ġopportunitie": 7496, "Ġopportunities": 7497, "Ġbelon": 7498, "Ġcontest": 7499, "Ġbelong": 7500, "Ġpulled": 7501, "ĠProj": 7502, "Ġcommitm": 7503, "Ġaircra": 7504, "Ġcommitme": 7505, "Ġcommitmen": 7506, "Ġcommitment": 7507, "ĠMoo": 7508, "Ġcolumn": 7509, "Ġseriousl": 7510, "Ġseriously": 7511, "Ġaircraf": 7512, "Ġaircraft": 7513, "Ġpipe": 7514, "Ġwre": 7515, "Ġrebe": 7516, "Ġglass": 7517, "Ġextend": 7518, "Ġcampu": 7519, "ĠHaw": 7520, "Ġcampus": 7521, "ĠLife": 7522, "Ġiso": 7523, "Ġrebel": 7524, "Ġplot": 7525, "Ġfixe": 7526, "ĠProje": 7527, "Ġconsumers": 7528, "Ġsquare": 7529, "Ġends": 7530, "Ġconstituti": 7531, "ĠBud": 7532, "ĠNov": 7533, "Ġbid": 7534, "ĠNS": 7535, "Ġrealis": 7536, "Ġnominat": 7537, "ĠJacks": 7538, "Ġquie": 7539, "Ġdeck": 7540, "Ġtreate": 7541, "Ġemergency": 7542, "Ġcompleted": 7543, "Ġcollap": 7544, "Ġcollaps": 7545, "Ġcoc": 7546, "Ġtreated": 7547, "Ġtransac": 7548, "Ġperma": 7549, "ĠPower": 7550, "Ġtransact": 7551, "Ġstudio": 7552, "ĠBon": 7553, "ĠDaily": 7554, "Ġsuppli": 7555, "Ġmann": 7556, "Ġcapitali": 7557, "Ġprecis": 7558, "Ġneur": 7559, "Ġcombined": 7560, "dominat": 7561, "Ġstands": 7562, "Ġapps": 7563, "Ġmargin": 7564, "Ġenemy": 7565, "ĠIP": 7566, "Ġtom": 7567, "Ġdisast": 7568, "Ġpassin": 7569, "ĠRoad": 7570, "Ġmort": 7571, "Ġpassing": 7572, "ĠOlym": 7573, "Ġamen": 7574, "ĠOlymp": 7575, "Ġappreciat": 7576, "Ġacademi": 7577, "Ġtalked": 7578, "Ġconclusion": 7579, "Ġapolo": 7580, "Ġapolog": 7581, "Ġparl": 7582, "Ġsuffere": 7583, "Ġposts": 7584, "Ġconstitution": 7585, "Ġprivac": 7586, "Ġconcentra": 7587, "ĠDou": 7588, "ĠSys": 7589, "Ġprivacy": 7590, "ĠJackson": 7591, "Ġweat": 7592, "Ġpenalt": 7593, "Ġtacti": 7594, "Ġconcentrat": 7595, "Ġbow": 7596, "Ġweathe": 7597, "Ġpowers": 7598, "Ġweather": 7599, "Ġinfla": 7600, "Ġparticipan": 7601, "Ġdepre": 7602, "Ġplants": 7603, "Ġparticipant": 7604, "Ġdiscl": 7605, "Ġwidel": 7606, "Ġwidely": 7607, "Ġgap": 7608, "Ġscheme": 7609, "Ġcollab": 7610, "Ġfer": 7611, "Ġdismis": 7612, "Ġdismiss": 7613, "Ġdistributi": 7614, "Ġnorthe": 7615, "Ġprocee": 7616, "ĠPin": 7617, "Ġproceed": 7618, "Ġrail": 7619, "ĠProjec": 7620, "ĠProject": 7621, "ĠUse": 7622, "Ġattempts": 7623, "Ġpages": 7624, "Ġoverw": 7625, "ĠKorean": 7626, "Ġsupplie": 7627, "Ġbrid": 7628, "Ġdefau": 7629, "Ġdefaul": 7630, "Ġdefault": 7631, "Ġprogressi": 7632, "Ġcopyr": 7633, "Ġcopyri": 7634, "Ġcopyrig": 7635, "Ġcopyrigh": 7636, "Ġcopyright": 7637, "ĠClu": 7638, "Ġcart": 7639, "ĠRose": 7640, "Ġfrus": 7641, "ĠBBC": 7642, "ĠSq": 7643, "Ġfrust": 7644, "Ġtempor": 7645, "Ġsuic": 7646, "Ġsuici": 7647, "Ġsuicid": 7648, "Ġbodie": 7649, "ĠCatho": 7650, "Ġplas": 7651, "Ġnav": 7652, "Ġdistribution": 7653, "Ġconsol": 7654, "Ġpilo": 7655, "Ġtransacti": 7656, "Ġstoo": 7657, "Ġstorm": 7658, "ĠToda": 7659, "Ġreporters": 7660, "Ġcollabo": 7661, "Ġupg": 7662, "Ġupgra": 7663, "Ġaddresse": 7664, "Ġlaugh": 7665, "ĠCathol": 7666, "ĠConservat": 7667, "Ġrelev": 7668, "Ġcollabor": 7669, "Ġtypicall": 7670, "Ġcontributi": 7671, "Ġtypically": 7672, "Ġcollabora": 7673, "Ġconvert": 7674, "Ġlaye": 7675, "Ġfille": 7676, "Ġfrustr": 7677, "Ġgrab": 7678, "Ġ2003": 7679, "Ġpilot": 7680, "Ġcollaborat": 7681, "ĠCatholic": 7682, "Ġcontribution": 7683, "Ġcaption": 7684, "Ġfrustra": 7685, "Ġexcelle": 7686, "Ġquant": 7687, "Ġvalid": 7688, "Ġfrustrat": 7689, "Ġreleva": 7690, "Ġcoor": 7691, "Ġalco": 7692, "Ġrelevan": 7693, "Ġrepa": 7694, "Ġcoop": 7695, "Ġdiso": 7696, "ĠGri": 7697, "Ġcoord": 7698, "Ġquiet": 7699, "Ġforget": 7700, "ĠLig": 7701, "Ġencoun": 7702, "Ġpsychol": 7703, "Ġencount": 7704, "Ġencounte": 7705, "ĠSeat": 7706, "Ġbacke": 7707, "Ġwrites": 7708, "icat": 7709, "Ġdisappo": 7710, "Ġdisappoin": 7711, "Ġdisappoint": 7712, "Ġpsycholo": 7713, "Ġsecreta": 7714, "Ġpsycholog": 7715, "ĠEne": 7716, "Ġtransactio": 7717, "Ġtransaction": 7718, "ĠPop": 7719, "Ġsecretar": 7720, "Ġtempora": 7721, "Ġdenied": 7722, "Ġpound": 7723, "Ġphas": 7724, "Ġsubmit": 7725, "ĠAT": 7726, "Ġapproved": 7727, "Ġbodies": 7728, "Ġexpecta": 7729, "Ġcapabl": 7730, "Ġacquir": 7731, "zero": 7732, "Ġproteste": 7733, "ĠSyst": 7734, "Ġcoordin": 7735, "Ġcongre": 7736, "Ġcoordina": 7737, "ĠBran": 7738, "Ġcircums": 7739, "ĠRepo": 7740, "Ġmatters": 7741, "ĠVis": 7742, "Ġentert": 7743, "Ġ202": 7744, "Ġenterta": 7745, "Ġentertain": 7746, "ĠToday": 7747, "Ġcoordinat": 7748, "Ġresponded": 7749, "Ġworrie": 7750, "Ġsets": 7751, "Ġnob": 7752, "Ġconfidenc": 7753, "Ġconfidence": 7754, "Ġ//": 7755, "ĠAB": 7756, "Ġexpansion": 7757, "Ġalcoh": 7758, "ĠSqu": 7759, "Ġalcoho": 7760, "olle": 7761, "Ġalcohol": 7762, "ĠCharle": 7763, "ĠNAS": 7764, "Ġ192": 7765, "Ġcapable": 7766, "Ġmanne": 7767, "Ġrenew": 7768, "ĠConservati": 7769, "ĠKenn": 7770, "Ġphotograph": 7771, "Ġdeserve": 7772, "Ġbrigh": 7773, "Ġbright": 7774, "ĠWis": 7775, "Ġ37": 7776, "ĠFort": 7777, "Ġexploit": 7778, "Ġformal": 7779, "ĠCur": 7780, "Ġcomplica": 7781, "Ġinstitutions": 7782, "ĠHy": 7783, "Ġparticipate": 7784, "ĠSyste": 7785, "ĠMinn": 7786, "Ġjun": 7787, "Ġcomplicat": 7788, "ĠYet": 7789, "Ġfranc": 7790, "ĠTurke": 7791, "ĠMille": 7792, "Ġcoff": 7793, "ĠFC": 7794, "ĠRen": 7795, "Ġclini": 7796, "Ġliteral": 7797, "Ġsatis": 7798, "Ġconfident": 7799, "Ġcraz": 7800, "Ġunable": 7801, "Ġclinic": 7802, "Ġreasona": 7803, "Ġreasonab": 7804, "Ġpromp": 7805, "Ġpitch": 7806, "Ġideal": 7807, "Ġreasonabl": 7808, "Ġsigh": 7809, "ĠLabou": 7810, "ĠOhi": 7811, "Ġsatisf": 7812, "Ġprompt": 7813, "Ġ2001": 7814, "ĠOk": 7815, "Ġcloud": 7816, "Ġprou": 7817, "Ġrelia": 7818, "Ġcraf": 7819, "Ġrepr": 7820, "Ġcraft": 7821, "ĠAfghanis": 7822, "Ġjoke": 7823, "Ġaccurat": 7824, "Ġaccurate": 7825, "ĠOhio": 7826, "ĠFoll": 7827, "Ġnumerou": 7828, "Ġnumerous": 7829, "Ġmand": 7830, "ĠLabour": 7831, "Ġmarrie": 7832, "Ġcompre": 7833, "ĠCard": 7834, "Ġmel": 7835, "ĠAfghanist": 7836, "ĠAfghanista": 7837, "ĠAfghanistan": 7838, "Ġtactic": 7839, "Ġattach": 7840, "Ġproud": 7841, "Ġadvic": 7842, "Ġadvice": 7843, "Ġballo": 7844, "Ġreportedl": 7845, "Ġreportedly": 7846, "ĠTurkey": 7847, "Ġaborti": 7848, "Ġcrimes": 7849, "Ġdebut": 7850, "Ġpray": 7851, "Ġresto": 7852, "Ġwak": 7853, "Ġprepar": 7854, "ĠCub": 7855, "ĠSher": 7856, "Ġshouldn": 7857, "Ġpictures": 7858, "ĠBroo": 7859, "Ġfaces": 7860, "Ġjail": 7861, "Ġsavin": 7862, "ĠConfe": 7863, "Ġdemocrac": 7864, "Ġexperiences": 7865, "Ġsaving": 7866, "Ġexplains": 7867, "ĠCapit": 7868, "Ġprofile": 7869, "Ġfavou": 7870, "ĠAndrew": 7871, "Ġdeclared": 7872, "Ġong": 7873, "Ġsuffered": 7874, "ĠWA": 7875, "ĠSystem": 7876, "Ġapprox": 7877, "Ġreportin": 7878, "Ġreporting": 7879, "Ġbitc": 7880, "ĠJen": 7881, "Ġnewspaper": 7882, "Ġmessages": 7883, "Ġner": 7884, "ĠFollo": 7885, "ĠFollow": 7886, "Ġinitiati": 7887, "Ġcoope": 7888, "Ġchampions": 7889, "Ġmovies": 7890, "Ġsubstant": 7891, "Ġsubstanti": 7892, "Ġongo": 7893, "Ġongoin": 7894, "Ġongoing": 7895, "Ġbarr": 7896, "Ġscena": 7897, "ĠID": 7898, "Ġcircumst": 7899, "Ġscenar": 7900, "Ġscenari": 7901, "Ġdelivere": 7902, "ĠThou": 7903, "Ġphase": 7904, "Ġassig": 7905, "Ġscenario": 7906, "Ġconnecte": 7907, "Ġassign": 7908, "Ġcircumsta": 7909, "Ġcircumstan": 7910, "Ġcite": 7911, "Ġcooper": 7912, "Ġdeclined": 7913, "Ġconnected": 7914, "Ġdiscou": 7915, "âĤ": 7916, "ĠQuee": 7917, "ĠDO": 7918, "ĠChristm": 7919, "ĠChristma": 7920, "Ġwra": 7921, "Ġdelivered": 7922, "Ġdiscr": 7923, "Ġthoughts": 7924, "Ġpicked": 7925, "Ġsubscrib": 7926, "lying": 7927, "Ġtaste": 7928, "Ġtackle": 7929, "Ġdiscri": 7930, "Ġeval": 7931, "Ġnative": 7932, "Ġdiscrim": 7933, "Ġemphas": 7934, "Ġcoopera": 7935, "ĠIre": 7936, "ĠSl": 7937, "Ġexcellen": 7938, "Ġdiscrimin": 7939, "Ġaccompl": 7940, "Ġdiscrimina": 7941, "Ġaccompli": 7942, "Ġfindings": 7943, "Ġadmitte": 7944, "Ġadmitted": 7945, "ĠChristmas": 7946, "Ġattri": 7947, "ĠJava": 7948, "Ġcooperat": 7949, "Ġsouthe": 7950, "ĠColu": 7951, "Ġbug": 7952, "Ġleaves": 7953, "ĠReport": 7954, "Ġeu": 7955, "ĠSti": 7956, "ĠSign": 7957, "Ġguest": 7958, "ĠCrea": 7959, "ĠCho": 7960, "Ġmarried": 7961, ",âĢĻ": 7962, "Ġdiscriminat": 7963, "Ġretr": 7964, "Ġabortio": 7965, "Ġabortion": 7966, "Ġpublicl": 7967, "Ġpublicly": 7968, "Ġfinance": 7969, "Ġcreative": 7970, "Ġunu": 7971, "Ġarchit": 7972, "ĠCome": 7973, "Ġwalkin": 7974, "ĠPR": 7975, "Ġupdates": 7976, "Ġarchite": 7977, "Ġreaders": 7978, "Ġperman": 7979, "ĠFan": 7980, "ĠDown": 7981, "Ġarchitec": 7982, "ĠColum": 7983, "ĠRac": 7984, "ĠMichi": 7985, "Ġarchitect": 7986, "Ġoutr": 7987, "ĠBraz": 7988, "Ġwalking": 7989, "ĠPy": 7990, "ĠSov": 7991, "Ġemails": 7992, "Ġpermane": 7993, "Ġ38": 7994, "ĠML": 7995, "Ġsena": 7996, "ĠSouthe": 7997, "Ġnut": 7998, "Ġpermanen": 7999, "Ġstatements": 8000, "Ġarme": 8001, "Ġourse": 8002, "Ġoursel": 8003, "nding": 8004, "Ġdrivers": 8005, "Other": 8006, "Ġstrip": 8007, "Ġdisclo": 8008, "Ġdisclos": 8009, "Ġlegit": 8010, "Ġgod": 8011, "Ġsmil": 8012, "Ġanimat": 8013, "ĠMuslims": 8014, "Ġactivists": 8015, "Ġcomforta": 8016, "Ġcomfortab": 8017, "Ġourselv": 8018, "Ġourselve": 8019, "Ġourselves": 8020, "Ġ191": 8021, "Ġsenat": 8022, "Ġ75": 8023, "Ġcomfortabl": 8024, "Ġpool": 8025, "Ġshr": 8026, "Ġarmed": 8027, "Ġagents": 8028, "Ġcontains": 8029, "Ġrend": 8030, "Ġ48": 8031, "Ġlayer": 8032, "ĠFil": 8033, "ĠDeve": 8034, "ĠCharles": 8035, "Ġapproxi": 8036, "Ġyel": 8037, "Ġapproxim": 8038, "Ġapproxima": 8039, "Ġquarterb": 8040, "Ġatti": 8041, "Ġquarterba": 8042, "Ġquarterbac": 8043, "Ġquarterback": 8044, "Ġphilosoph": 8045, "Ġapproximat": 8046, "Ġthea": 8047, "Ġmanda": 8048, "Ġfilled": 8049, "Ġmai": 8050, "ĠProte": 8051, "Ġcompari": 8052, "Ġbuildings": 8053, "Ġfrau": 8054, "Ġ42": 8055, "Ġcomparis": 8056, "ĠMoun": 8057, "Ġevalu": 8058, "Ġcelebrate": 8059, "ĠSovie": 8060, "ĠSoviet": 8061, "Ġpractices": 8062, "Ġbos": 8063, "Ġcomparison": 8064, "Ġunus": 8065, "Ġevalua": 8066, "dict": 8067, "Ġcircumstanc": 8068, "ĠCapt": 8069, "Ġcircumstance": 8070, "Ġsurroundin": 8071, "Ġsurrounding": 8072, "Ġrevers": 8073, "sional": 8074, "Ġarran": 8075, "Ġdisab": 8076, "Ġprovince": 8077, "Ġbol": 8078, "ÃŃ": 8079, "Ġ1980": 8080, "ĠBook": 8081, "Ġcollapse": 8082, "ĠTechn": 8083, "Ġevaluat": 8084, "Ġeffectivel": 8085, "Ġeffectively": 8086, "ĠAno": 8087, "ĠMichig": 8088, "ĠMichiga": 8089, "Ġthri": 8090, "ĠMichigan": 8091, "Ġbanne": 8092, "Ġsic": 8093, "ĠGM": 8094, "Ġarrang": 8095, "Ñģ": 8096, "Ġexamples": 8097, "Ġpermanent": 8098, "ĠUkraine": 8099, "ĠRod": 8100, "Ġphe": 8101, "Ġaggressiv": 8102, "Ġcauses": 8103, "Ġyest": 8104, "Ġaban": 8105, "Ġyeste": 8106, "ĠQueen": 8107, "Ġattracti": 8108, "Ġsubseq": 8109, "Ġgott": 8110, "Ġyester": 8111, "Ġtotall": 8112, "ĠGlob": 8113, "Ġsubsequ": 8114, "Ġaggressive": 8115, "Ġsubseque": 8116, "Ġaband": 8117, "Ġsubsequen": 8118, "Ġallegations": 8119, "Ġabando": 8120, "Ġabandon": 8121, "ĠCompan": 8122, "Ġunif": 8123, "ĠSeatt": 8124, "Ġboot": 8125, "ĠSeattle": 8126, "Ġsecretary": 8127, "ĠVict": 8128, "Ġbond": 8129, "ĠAI": 8130, "Ġthinks": 8131, "Ġsubsequent": 8132, "Ġessentiall": 8133, "ĠWood": 8134, "Ġessentially": 8135, "ĠBoar": 8136, "Ġelit": 8137, "Ġince": 8138, "Ġspeciali": 8139, "Ġcrash": 8140, "Ġdominat": 8141, "Ġbare": 8142, "ĠPers": 8143, "ĠDun": 8144, "Ġvariab": 8145, "ĠJor": 8146, "ĠBatt": 8147, "Ġnecessari": 8148, "ĠGro": 8149, "ĠSaudi": 8150, "ĠAssa": 8151, "Ġinitiall": 8152, "Ġapproache": 8153, "Ġexplan": 8154, "Ġinitially": 8155, "Ġsubsi": 8156, "Ġtheat": 8157, "ĠVol": 8158, "Ġpure": 8159, "Ġsancti": 8160, "Ġwhee": 8161, "Ġcolon": 8162, "Ġresista": 8163, "ĠBrazi": 8164, "Ġresc": 8165, "Ġresistan": 8166, "Ġmaterials": 8167, "ĠHos": 8168, "Ġclimb": 8169, "Ġsand": 8170, "Ġfranch": 8171, "Ġexplana": 8172, "Ġfranchis": 8173, "Ġimplic": 8174, "Ġunsu": 8175, "Ġcontroversi": 8176, "ĠAga": 8177, "Ġexplanat": 8178, "Ġfacts": 8179, "Ġnecessaril": 8180, "Ġatm": 8181, "Ġnecessarily": 8182, "Ġinfa": 8183, "Ġprovider": 8184, "ĠPS": 8185, "Ġincor": 8186, "Ġing": 8187, "Ġseiz": 8188, "Ġconde": 8189, "ĠChil": 8190, "Ġwarne": 8191, "Ġaccepte": 8192, "Ġperformed": 8193, "Ġattrib": 8194, "ĠBoard": 8195, "Ġcontem": 8196, "Ġscheduled": 8197, "ĠMinne": 8198, "Ġattribu": 8199, "Ġcontemp": 8200, "Ġaccepted": 8201, "Ġwarned": 8202, "Ġattribut": 8203, "Ġclasse": 8204, "Ġlisted": 8205, "ĠConn": 8206, "Ġsharp": 8207, "Ġgras": 8208, "ĠMount": 8209, "ĠKim": 8210, "Ġmandat": 8211, "Ġincreases": 8212, "Ġdefinitio": 8213, "Ġdefinition": 8214, "Ġplayo": 8215, "Ġjoint": 8216, "Ġadvanced": 8217, "Ġplayof": 8218, "Ġplayoff": 8219, "Ġfaced": 8220, "ĠLG": 8221, "Ġlap": 8222, "Ġyesterd": 8223, "Ġyesterda": 8224, "Ġyesterday": 8225, "Ġneit": 8226, "Ġscar": 8227, "Ġneithe": 8228, "Ġneither": 8229, "Ġknoc": 8230, "ĠSpeci": 8231, "Ġfranchise": 8232, "Ġange": 8233, "ĠRam": 8234, "ĠValle": 8235, "Ġcompetitiv": 8236, "Ġeveryb": 8237, "Ġprocesse": 8238, "ĠManag": 8239, "Ġeverybo": 8240, "Ġeverybod": 8241, "ĠSecon": 8242, "Ġrecon": 8243, "Ġfos": 8244, "Ġeverybody": 8245, "Ġseg": 8246, "Ġnations": 8247, "ĠSecond": 8248, "Ġtir": 8249, "Ġpassen": 8250, "Ġcompetitive": 8251, "ĠGP": 8252, "Ġrespecti": 8253, "Ġrespectiv": 8254, "Ġpasseng": 8255, "Ġpassenge": 8256, "Ġpassenger": 8257, "Ġfic": 8258, "Ġprocedure": 8259, "Ġspar": 8260, "Ġatmo": 8261, "Ġnearb": 8262, "Ġnearby": 8263, "Ġatmos": 8264, "Ġinterc": 8265, "Ġfollows": 8266, "ĠWork": 8267, "ĠCharl": 8268, "Ġdepres": 8269, "ĠDevel": 8270, "Ġbegins": 8271, "Ġatmosp": 8272, "Ġoverse": 8273, "Ġatmosph": 8274, "Ġatmosphe": 8275, "Ġatmospher": 8276, "Ġrespective": 8277, "ĠIll": 8278, "Ġconsequences": 8279, "Ġdepress": 8280, "ĠIrel": 8281, "Ġsurprised": 8282, "Ġchr": 8283, "ĠSpan": 8284, "ĠDE": 8285, "Ġbrowse": 8286, "ĠBou": 8287, "Ġsmoke": 8288, "Ġapartm": 8289, "Ġfavour": 8290, "Ġapartme": 8291, "Ġapartmen": 8292, "Ġapartment": 8293, "Ġimproved": 8294, "Ġamend": 8295, "Ġ\\": 8296, "Ġapplied": 8297, "Ġwheel": 8298, "ĠDiv": 8299, "ĠIrela": 8300, "ĠIrelan": 8301, "Ġspons": 8302, "ĠIreland": 8303, "ĠDevelo": 8304, "ĠRoo": 8305, "Ġrepresents": 8306, "ĠDevelop": 8307, "ĠCNN": 8308, "ĠWay": 8309, "ĠDefens": 8310, "Ġcup": 8311, "Ġstood": 8312, "Ġphen": 8313, "Ġsignin": 8314, "ĠSports": 8315, "Ġenh": 8316, "Ġadds": 8317, "ĠLord": 8318, "Ġallie": 8319, "Ġsigning": 8320, "Ġsponso": 8321, "Ġsuicide": 8322, "Ġenha": 8323, "Ġdealing": 8324, "Ġchari": 8325, "Ġnarrati": 8326, "Ġbrew": 8327, "ĠRomn": 8328, "Ġparli": 8329, "ĠRomne": 8330, "Ġconfig": 8331, "ĠPhili": 8332, "Ġinitiativ": 8333, "Ġparlia": 8334, "Ġparliam": 8335, "Ġparliame": 8336, "Ġparliamen": 8337, "Ġinitiative": 8338, "Ġparliament": 8339, "ĠRomney": 8340, "ĠColumb": 8341, "Ġenhan": 8342, "ĠSky": 8343, "Ġmerc": 8344, "Ġdemocracy": 8345, "Ġenhanc": 8346, "Ġbottl": 8347, "ĠLA": 8348, "Ġsongs": 8349, "ĠBarac": 8350, "Ġpreser": 8351, "ĠAff": 8352, "Ġflood": 8353, "Ġpreserv": 8354, "Ġupgrade": 8355, "Ġacademic": 8356, "Ġguilty": 8357, "Ġthreats": 8358, "Ġ49": 8359, "ĠMayb": 8360, "Ġpushed": 8361, "ĠJesu": 8362, "ĠNBA": 8363, "ĠMI": 8364, "Ġbrings": 8365, "Ġattende": 8366, "Ġoutpu": 8367, "Ġuncon": 8368, "ĠIts": 8369, "ĠThr": 8370, "Ġshots": 8371, "ĠBarack": 8372, "Ġoutput": 8373, "Ġexamine": 8374, "Ġzero": 8375, "ĠPhilip": 8376, "ĠAven": 8377, "Ġfewe": 8378, "ĠJews": 8379, "Ġexistenc": 8380, "Ġwithd": 8381, "Ġelectroni": 8382, "Ġtotally": 8383, "Ġelectronic": 8384, "Ġcircl": 8385, "Ġfounder": 8386, "Ġbranc": 8387, "Ġexistence": 8388, "Ġdiscussed": 8389, "ĠEli": 8390, "Ġstora": 8391, "ĠJul": 8392, "Ġprimari": 8393, "ĠPrem": 8394, "Ġsoug": 8395, "Ġsough": 8396, "Ġtouri": 8397, "ĠOnly": 8398, "ÑĢ": 8399, "Ġsought": 8400, "Ġgraduate": 8401, "Ġmains": 8402, "twitter": 8403, "Ġentry": 8404, "Ã¼": 8405, "Ġreceivin": 8406, "Ġentere": 8407, "Ġreceiving": 8408, "ĠUt": 8409, "Ġentered": 8410, "Ġgraphic": 8411, "Ġboys": 8412, "Ġstorag": 8413, "Ġstorage": 8414, "ĠDev": 8415, "Ġcompi": 8416, "Ġaccomplis": 8417, "Ġanalyst": 8418, "Ġdisappe": 8419, "Ġaccomplish": 8420, "Ġspel": 8421, "Ġdisappea": 8422, "ĠBrazil": 8423, "Ġideo": 8424, "ĠCos": 8425, "Ġgan": 8426, "Ġarticles": 8427, "âĤ¬": 8428, "ĠEric": 8429, "Ġ2002": 8430, "Ġdepende": 8431, "Ã¶": 8432, "ĠLong": 8433, "Ġcompil": 8434, "ĠSA": 8435, "ĠBack": 8436, "Ġassem": 8437, "Ġcorres": 8438, "ĠCri": 8439, "Ġcoffe": 8440, "Ġagend": 8441, "Ġcorresp": 8442, "Ġassemb": 8443, "Ġcorrespo": 8444, "Ġcorrespon": 8445, "Ġassembl": 8446, "Ġscored": 8447, "Ġcorrespond": 8448, "ĠLive": 8449, "Ġpose": 8450, "Ġjourne": 8451, "Ġjourney": 8452, "Ġclasses": 8453, "ĠDC": 8454, "Ġarrange": 8455, "Ġdedicate": 8456, "Ġunlikely": 8457, "ĠMaybe": 8458, "Ġaffa": 8459, "Ġcorporati": 8460, "Ġagenda": 8461, "ĠFI": 8462, "ĠAriz": 8463, "Ġanci": 8464, "Ġideol": 8465, "Ġvice": 8466, "Ġboss": 8467, "ĠAnot": 8468, "Ġknowing": 8469, "Ġ300": 8470, "Ġdecrea": 8471, "Ġdecreas": 8472, "Ġspecu": 8473, "Ġlegiti": 8474, "Ġexplanati": 8475, "Ġlegitim": 8476, "Ġexplanation": 8477, "Ġideolo": 8478, "Ġpheno": 8479, "Ġspecul": 8480, "ĠTro": 8481, "Ġideolog": 8482, "Ġnetworks": 8483, "ĠAnothe": 8484, "ĠAnother": 8485, "Ġchap": 8486, "ĠSum": 8487, "Ġteste": 8488, "ĠRef": 8489, "ĠSenato": 8490, "ĠAF": 8491, "Ġfairl": 8492, "Ġexpectat": 8493, "Ġexpectati": 8494, "Ġmeat": 8495, "Ġfairly": 8496, "Ġsky": 8497, "Ġspecula": 8498, "ĠYu": 8499, "Ġemis": 8500, "Ġsuccee": 8501, "Ġcata": 8502, "ĠISIS": 8503, "ĠShar": 8504, "Ġselection": 8505, "Ġsucceed": 8506, "Ġmanner": 8507, "Ġexpectation": 8508, "Ġsequen": 8509, "Ġdispu": 8510, "Ġrecordin": 8511, "Ġcolleagues": 8512, "Ġslav": 8513, "ĠHist": 8514, "Ġsnow": 8515, "Ġrecording": 8516, "Ġabse": 8517, "Ġdisor": 8518, "Ġfunctions": 8519, "Ġplate": 8520, "ĠMs": 8521, "ĠClub": 8522, "ĠYan": 8523, "Ġemiss": 8524, "Ġdeaths": 8525, "Ġdisput": 8526, "Ġtear": 8527, "ĠTop": 8528, "ĠHor": 8529, "ĠPrince": 8530, "Ġawe": 8531, "Ġmayo": 8532, "Ġapproximate": 8533, "ĠLoo": 8534, "Ġproh": 8535, "ĠRights": 8536, "Ġanywh": 8537, "ĠOa": 8538, "ĠYouT": 8539, "Ġanywhe": 8540, "Ġabsen": 8541, "Ġanywher": 8542, "Ġanywhere": 8543, "ĠYouTu": 8544, "Ġprohi": 8545, "ĠYouTub": 8546, "Ġprohib": 8547, "Ġsight": 8548, "ĠYouTube": 8549, "Ġcabl": 8550, "ĠSet": 8551, "Ġprotests": 8552, "Ġbottle": 8553, "Ġflas": 8554, "ĠReco": 8555, "Ġcurrency": 8556, "Ġyounger": 8557, "ĠRai": 8558, "Ã³": 8559, "Ġimportanc": 8560, "Ġtargets": 8561, "Ġexpor": 8562, "Ġprohibit": 8563, "Ġexport": 8564, "Ġspeculat": 8565, "Ġsenato": 8566, "Ġmechanis": 8567, "ĠKar": 8568, "ĠColora": 8569, "Ġexter": 8570, "Ġsenator": 8571, "Ġbreakin": 8572, "Ġimportance": 8573, "Ġbridg": 8574, "ĠOlympic": 8575, "Ġdestroye": 8576, "Ġdefined": 8577, "Ġnota": 8578, "ĠColorad": 8579, "Ġbreaking": 8580, "Ġwalke": 8581, "Ġbird": 8582, "ĠEner": 8583, "Ġfraud": 8584, "Ġrally": 8585, "Ġdescrip": 8586, "Ġblin": 8587, "Ġevolu": 8588, "Ġsubsid": 8589, "Ġfash": 8590, "Ġpassion": 8591, "Ġdescript": 8592, "Ġcere": 8593, "ĠFO": 8594, "ĠHisto": 8595, "Ġlatt": 8596, "Ġprotester": 8597, "Ġpromin": 8598, "Ġstores": 8599, "Ġbask": 8600, "ĠEac": 8601, "Ġfashi": 8602, "Ġreplaced": 8603, "Ġpromine": 8604, "Ġfashion": 8605, "Ġprominen": 8606, "ĠGrand": 8607, "ĠEach": 8608, "Ġtemporar": 8609, "Ġevolut": 8610, "Ġpreg": 8611, "ĠDanie": 8612, "ĠAR": 8613, "ĠWeek": 8614, "Ġempt": 8615, "Ġportr": 8616, "ĠMaj": 8617, "Ġcancel": 8618, "Ġevoluti": 8619, "Ġportra": 8620, "Ġspell": 8621, "Ġwint": 8622, "ĠWatc": 8623, "Ġbuyin": 8624, "Ġunk": 8625, "Ġevolution": 8626, "Ġmainst": 8627, "Ġsensit": 8628, "Ġbuying": 8629, "Ġsensiti": 8630, "Ġelite": 8631, "Ġfounda": 8632, "Ġfoundat": 8633, "Ġfoundati": 8634, "Ġfoundation": 8635, "Ġconfr": 8636, "ĠSma": 8637, "Ġpractica": 8638, "Ġcable": 8639, "Ġmarketing": 8640, "Ġtermi": 8641, "Ġrestricti": 8642, "Ġfacility": 8643, "ĠSqua": 8644, "Ġaffai": 8645, "Ġregulations": 8646, "Ġaffair": 8647, "ĠSpi": 8648, "Ġdefic": 8649, "Ġsomewh": 8650, "Ġsomewha": 8651, "Ġsomewhat": 8652, "ĠEnerg": 8653, "ĠHoust": 8654, "Ġflee": 8655, "Ġconfron": 8656, "Ġconfront": 8657, "Ġdestru": 8658, "Ġindustria": 8659, "Ġschol": 8660, "Ġallegedl": 8661, "Ġallegedly": 8662, "ĠHouston": 8663, "ĠLibera": 8664, "ĠConsti": 8665, "ĠColorado": 8666, "Ġdesk": 8667, "ĠBoy": 8668, "Ġae": 8669, "Ġschola": 8670, "ĠTrea": 8671, "Ġindustrial": 8672, "Ġasser": 8673, "Ġslave": 8674, "Ġdestruc": 8675, "Ġversions": 8676, "Ġassert": 8677, "ĠFA": 8678, "ĠThre": 8679, "ĠConstit": 8680, "Ġdept": 8681, "Ġdestruct": 8682, "ĠConstitu": 8683, "Ġrelevant": 8684, "ĠYear": 8685, "Ġprosecuto": 8686, "Ġprosecutor": 8687, "Ġcapitalis": 8688, "ĠStephe": 8689, "Ġsubstantia": 8690, "Ġuniverse": 8691, "ĠIo": 8692, "ĠStephen": 8693, "ĠCarl": 8694, "Ġemissi": 8695, "Ġbiol": 8696, "Ġcutt": 8697, "ĠBloo": 8698, "ĠPremi": 8699, "Ġadults": 8700, "Ġfunn": 8701, "Ġsweet": 8702, "ĠHistor": 8703, "Ġcorporation": 8704, "Ġmainl": 8705, "Ġfict": 8706, "Ġcomed": 8707, "Ġresig": 8708, "Ġfes": 8709, "Ġresign": 8710, "ĠCame": 8711, "Ġsees": 8712, "Ġsufferin": 8713, "Ġancie": 8714, "Ġancien": 8715, "Ġsuffering": 8716, "Ġwinte": 8717, "Ġwinter": 8718, "Ġsanction": 8719, "ĠLigh": 8720, "Ġemission": 8721, "Ġporti": 8722, "Ġprovis": 8723, "Ġ41": 8724, "ĠValley": 8725, "Ġassociati": 8726, "ĠLight": 8727, "Ġnarrative": 8728, "Ġendor": 8729, "ĠEar": 8730, "Ġclosel": 8731, "Ġclosely": 8732, "Ġdeepe": 8733, "Ġfarme": 8734, "Ġfewer": 8735, "ĠMarin": 8736, "Ġregulato": 8737, "Ġregulator": 8738, "Ġsick": 8739, "Ġapprova": 8740, "ĠGeorgi": 8741, "Ġregiona": 8742, "ĠWate": 8743, "Ġregional": 8744, "Ġcruc": 8745, "Ġpersonali": 8746, "Ġacts": 8747, "ĠGames": 8748, "Ġapproval": 8749, "Ġterrib": 8750, "Ġasi": 8751, "Ġancient": 8752, "Ġcruci": 8753, "Ġextent": 8754, "ĠPlu": 8755, "Ġterribl": 8756, "fiel": 8757, "Ġtraine": 8758, "Ġexcellent": 8759, "Ġpunish": 8760, "ĠHolly": 8761, "Ġfunctiona": 8762, "ĠOF": 8763, "ĠCIA": 8764, "Ġale": 8765, "Ġportion": 8766, "Ġreturns": 8767, "Ġscholar": 8768, "Ġfest": 8769, "Ġpractical": 8770, "ĠGil": 8771, "ĠNex": 8772, "Ġmechanism": 8773, "Ġcreatu": 8774, "Ġwake": 8775, "Ġdispute": 8776, "Ġbiolo": 8777, "Ġparticipants": 8778, "Ġcreature": 8779, "Ġsquad": 8780, "Ġbiolog": 8781, "ĠHT": 8782, "Ġacquire": 8783, "ĠWik": 8784, "ĠBrook": 8785, "Ġisol": 8786, "Ġbreath": 8787, "Ġrende": 8788, "ĠDavis": 8789, "lick": 8790, "ĠCP": 8791, "Ġrely": 8792, "Ġped": 8793, "Ġsensitiv": 8794, "ĠCop": 8795, "Ġcontroversia": 8796, "Ġtermin": 8797, "Ġcontroversial": 8798, "ĠUb": 8799, "ĠManage": 8800, "Ġgrown": 8801, "Ġprovisi": 8802, "ĠEnte": 8803, "Ġisola": 8804, "Ġprovision": 8805, "Ġcircle": 8806, "Ġunkn": 8807, "Ġpolls": 8808, "Ġunkno": 8809, "ĠDaniel": 8810, "Ġcircumstances": 8811, "Ġisolat": 8812, "Ġanywa": 8813, "Ġanyway": 8814, "Ġbridge": 8815, "Ġactin": 8816, "ĠConservativ": 8817, "Ġunknow": 8818, "ĠConservative": 8819, "Ġresolv": 8820, "ĠExc": 8821, "Ġ44": 8822, "ĠEcon": 8823, "ĠFai": 8824, "ĠNetw": 8825, "Ġendors": 8826, "ï¿": 8827, "ĠArch": 8828, "Ġservin": 8829, "Ġserving": 8830, "Ġattit": 8831, "Ġchairm": 8832, "Ġdetaile": 8833, "Ġwins": 8834, "Ġattitu": 8835, "Ġattitud": 8836, "ĠVicto": 8837, "Ġparam": 8838, "Ġtau": 8839, "Ġdetailed": 8840, "ĠCli": 8841, "Ġdecen": 8842, "ĠNetwo": 8843, "Ġseed": 8844, "ĠIc": 8845, "ĠNetwor": 8846, "ican": 8847, "Ġcapabi": 8848, "Ġcapabil": 8849, "Ġdestructi": 8850, "ĠFour": 8851, "ĠVictor": 8852, "asional": 8853, "casional": 8854, "Ġcapabili": 8855, "Ġcapabilit": 8856, "ccasional": 8857, "Ġbaske": 8858, "ĠConstitut": 8859, "Ġcrazy": 8860, "ĠYoun": 8861, "Ġpublica": 8862, "ĠHunt": 8863, "ĠDut": 8864, "Ġalg": 8865, "Ġteachi": 8866, "Ġteachin": 8867, "Ġrelationships": 8868, "Ġteaching": 8869, "Ġgenet": 8870, "Ġattitude": 8871, "Ġston": 8872, "Ġ55": 8873, "ĠConstituti": 8874, "ĠEaste": 8875, "Ġcarryin": 8876, "Ġcarrying": 8877, "Ġgenetic": 8878, "Ġtire": 8879, "ĠConstitution": 8880, "ĠGat": 8881, "Ġkinds": 8882, "Ġexhi": 8883, "ĠNetwork": 8884, "ĠJesus": 8885, "ĠGeorgia": 8886, "½Ð": 8887, "ĠLand": 8888, "ĠMia": 8889, "Ġtiny": 8890, "ĠEaster": 8891, "Ġlatte": 8892, "ĠNon": 8893, "Ġbasket": 8894, "Ġfeatured": 8895, "Ġchip": 8896, "Ġsurvei": 8897, "Ġsurveil": 8898, "Ġconsp": 8899, "Ġrei": 8900, "Ġreferre": 8901, "Ġembar": 8902, "Ġearned": 8903, "ĠClas": 8904, "Ġspeake": 8905, "Ġclassif": 8906, "ĠLove": 8907, "Ġbitco": 8908, "Ġplain": 8909, "Ġauthors": 8910, "Ġupc": 8911, "Ġfruit": 8912, "Ġ65": 8913, "ĠEcono": 8914, "Ġtall": 8915, "Ġacting": 8916, "Ġartists": 8917, "Ġformed": 8918, "Ġpushin": 8919, "Ġefficient": 8920, "Ġfunctional": 8921, "ĠWatch": 8922, "Ġprais": 8923, "Ġadven": 8924, "ĠArizon": 8925, "Ġbitcoin": 8926, "Ġurb": 8927, "Ġadvent": 8928, "Ġpushing": 8929, "Ġthera": 8930, "ĠArizona": 8931, "Ġembra": 8932, "Ġcriticiz": 8933, "Ġinstrum": 8934, "ĠItal": 8935, "Ġinstrume": 8936, "Ġinstrumen": 8937, "Ġinstrument": 8938, "ĠAL": 8939, "Ġshoulde": 8940, "Ġembrac": 8941, "ĠEconom": 8942, "Ġcoffee": 8943, "ĠSC": 8944, "Ġsharin": 8945, "ĠWiki": 8946, "Ġurba": 8947, "ĠPutin": 8948, "Ġsharing": 8949, "Ġpermis": 8950, "bilit": 8951, "Ġtherap": 8952, "Ġconspi": 8953, "Ġurban": 8954, "Ġcomfortable": 8955, "ĠAsian": 8956, "Ġreferred": 8957, "Ġfrequentl": 8958, "Ġfrequently": 8959, "ĠCommon": 8960, "Ġsteal": 8961, "Ġuncle": 8962, "Ġlawm": 8963, "Like": 8964, "Ġlawma": 8965, "Ġchairma": 8966, "Ġriver": 8967, "ĠSupp": 8968, "Ġpermiss": 8969, "Ġchairman": 8970, "Ġupdated": 8971, "Ġalongs": 8972, "Ġevil": 8973, "ĠKur": 8974, "Ġalongsi": 8975, "Ġalongsid": 8976, "Ġalongside": 8977, "Ġpermissi": 8978, "Ġsurveill": 8979, "Ġrepeatedl": 8980, "Ġrepeatedly": 8981, "ĠCros": 8982, "ĠNorthe": 8983, "Ġdescripti": 8984, "Ġattempte": 8985, "Ġextension": 8986, "Ġremot": 8987, "ĠRog": 8988, "ĠOre": 8989, "Ġplast": 8990, "ĠInfo": 8991, "Ġspeaker": 8992, "Ġtende": 8993, "Ġattempted": 8994, "ĠGla": 8995, "Ġlesson": 8996, "Ġvariable": 8997, "ĠWars": 8998, "Ġunw": 8999, "Ġupco": 9000, "Ġfilt": 9001, "Ġupcom": 9002, "Ġremote": 9003, "Ġsettlem": 9004, "Ġsettleme": 9005, "Ġsettlemen": 9006, "Ġsettlement": 9007, "Ġlad": 9008, "Ġupcoming": 9009, "ĠCiv": 9010, "Ġegg": 9011, "ĠNY": 9012, "Ġmete": 9013, "ĠEnergy": 9014, "Ġlawmak": 9015, "Ġimpressiv": 9016, "Ġimpressive": 9017, "Ġairpo": 9018, "occasional": 9019, "Ġdisaste": 9020, "ĠNigh": 9021, "Ġfemin": 9022, "Ġdisaster": 9023, "Ġpeak": 9024, "Ġfarmer": 9025, "Ġrealized": 9026, "Ġshoulder": 9027, "Ġ39": 9028, "ĠSand": 9029, "Ġdepth": 9030, "Ġdedicated": 9031, "Ġdict": 9032, "Ġtil": 9033, "Ġlegitima": 9034, "ĠWils": 9035, "Ġstruck": 9036, "ĠMS": 9037, "ĠCruz": 9038, "ĠCreat": 9039, "Ġdependen": 9040, "ĠAgenc": 9041, "Ġbenc": 9042, "ĠDefense": 9043, "ĠKev": 9044, "ĠWol": 9045, "Ġpregn": 9046, "Ġreput": 9047, "Ġinspired": 9048, "ĠAlle": 9049, "Ġboat": 9050, "Ġvalua": 9051, "ĠNight": 9052, "cations": 9053, "Ġpregna": 9054, "Ġupp": 9055, "Ġantic": 9056, "Ġpregnan": 9057, "Ġunderw": 9058, "Ġwalked": 9059, "dime": 9060, "ĠBase": 9061, "ĠDesp": 9062, "Ġtargete": 9063, "Ġmainstr": 9064, "Ġmainstre": 9065, "ĠTan": 9066, "ĠFis": 9067, "Ġcerti": 9068, "Ġlawmake": 9069, "Ġlawmaker": 9070, "Ġmainstrea": 9071, "Ġinterfa": 9072, "Ġsequenc": 9073, "Ġtargeted": 9074, "Ġgal": 9075, "Ġmainstream": 9076, "Ġairpor": 9077, "Ġfasc": 9078, "Ġairport": 9079, "Ġgea": 9080, "Ġpled": 9081, "Ġfrac": 9082, "ĠUF": 9083, "Ġsalar": 9084, "Ġteena": 9085, "Ġficti": 9086, "Ġteenag": 9087, "Ġteenage": 9088, "ocations": 9089, "Ġoccasional": 9090, "ĠItali": 9091, "Ġstun": 9092, "Ġeco": 9093, "Ġbrowser": 9094, "Ġcausin": 9095, "Ġassets": 9096, "Ġcausing": 9097, "ĠItalia": 9098, "Ġnewsle": 9099, "Ġnewslet": 9100, "Ġnewslett": 9101, "Ġnewslette": 9102, "Ġnewsletter": 9103, "Ġmechani": 9104, "Ġslid": 9105, "Ġwrap": 9106, "ĠMul": 9107, "Ġcollectiv": 9108, "ĠKon": 9109, "Ġ64": 9110, "ĠThoug": 9111, "ĠThough": 9112, "Ġsurveilla": 9113, "Ġenhance": 9114, "Ġsurveillan": 9115, "Ġreduct": 9116, "Ġassociatio": 9117, "Ġassociation": 9118, "ĠTay": 9119, "ĠAgain": 9120, "Ġsurveillanc": 9121, "Ġsurveillance": 9122, "ĠNE": 9123, "Ġpossessi": 9124, "ï¿½": 9125, "Ġwatched": 9126, "Ġfiction": 9127, "Ġoverwhe": 9128, "Ġasid": 9129, "Ġoverwhel": 9130, "ĠClar": 9131, "Ġoverwhelm": 9132, "Ġwhis": 9133, "ĠSocie": 9134, "Ġaside": 9135, "Ġtag": 9136, "Ġtort": 9137, "Ġlatter": 9138, "ĠYoung": 9139, "ĠTit": 9140, "Ġprotecte": 9141, "ĠVeg": 9142, "ĠHop": 9143, "Ġliterall": 9144, "Ġliterally": 9145, "Ġalie": 9146, "ĠAS": 9147, "ĠGui": 9148, "ĠAwar": 9149, "Ġalien": 9150, "ĠAdmin": 9151, "Ġstone": 9152, "Ġprotected": 9153, "Ġreducti": 9154, "Ġunusu": 9155, "Ġteachers": 9156, "Ġunusua": 9157, "Ġunusual": 9158, "Ġpublicat": 9159, "Ġbattery": 9160, "Ġassistant": 9161, "Ġfuc": 9162, "Ġprecise": 9163, "Ġprogressiv": 9164, "Ġsubstantial": 9165, "Ġpublicati": 9166, "Ġpublication": 9167, "Ġ43": 9168, "Ġdeepl": 9169, "Ġpublish": 9170, "Ġdeeply": 9171, "Ġtowe": 9172, "Ġsendin": 9173, "ĠSeve": 9174, "Ġnegotiati": 9175, "Ġsending": 9176, "Ġnegotiation": 9177, "ĠTest": 9178, "ĠLatin": 9179, "Ġsham": 9180, "Ġphenom": 9181, "Ġcongres": 9182, "Ġdepu": 9183, "Ġcertif": 9184, "Ġcongress": 9185, "ĠFul": 9186, "Ġfolks": 9187, "Ġscor": 9188, "ĠPit": 9189, "ĠTake": 9190, "Ġpunc": 9191, "ĠAward": 9192, "Ġchas": 9193, "ĠContin": 9194, "Ġimpose": 9195, "ĠCast": 9196, "Ġproperti": 9197, "Ġnoticed": 9198, "Ġpropertie": 9199, "Ġexcitin": 9200, "Ġexciting": 9201, "ĠNote": 9202, "Ġtransm": 9203, "Ġfixed": 9204, "Ġadvertise": 9205, "Ġextende": 9206, "Ġsuffi": 9207, "Ġaliv": 9208, "ĠInve": 9209, "Ġyell": 9210, "Ġunem": 9211, "Ġalive": 9212, "Ġforth": 9213, "Ġexpense": 9214, "Ġproperties": 9215, "Ġnorther": 9216, "locations": 9217, "Ġram": 9218, "ĠSociet": 9219, "ĠPolit": 9220, "Ġgang": 9221, "ĠJr": 9222, "Ġpossession": 9223, "Ġminds": 9224, "ĠUl": 9225, "ĠCS": 9226, "Ġrequirements": 9227, "Ġconscio": 9228, "Ġconsciou": 9229, "ĠÎ": 9230, "Ġconscious": 9231, "Ġabr": 9232, "Ġneut": 9233, "Ġnarr": 9234, "Ġshak": 9235, "Ġnarro": 9236, "Ġrefugees": 9237, "Ġdeput": 9238, "Ġnarrow": 9239, "ĠSpring": 9240, "ĠBuc": 9241, "Ġrescu": 9242, "Ġmarc": 9243, "Ġinterfac": 9244, "Ġtai": 9245, "Ġexhib": 9246, "ĠIT": 9247, "Ġfau": 9248, "Ġreductio": 9249, "Ġdisord": 9250, "Ġpledg": 9251, "Ġfuck": 9252, "Ġdisorde": 9253, "Ġ1970": 9254, "ĠMiller": 9255, "Ġunemp": 9256, "Ġunknown": 9257, "Ġexhibit": 9258, "ĠAca": 9259, "Ġami": 9260, "ĠQa": 9261, "ĠMax": 9262, "Ġfak": 9263, "Ġtested": 9264, "Ġsole": 9265, "Ġpromised": 9266, "Ġunempl": 9267, "Ġunemplo": 9268, "Ġunemploy": 9269, "Ġforest": 9270, "ĠIris": 9271, "ĠKenne": 9272, "sical": 9273, "Ġeating": 9274, "Ġoverc": 9275, "Ġreduction": 9276, "Ġattacked": 9277, "ĠJord": 9278, "ĠEdw": 9279, "ĠClo": 9280, "ĠFat": 9281, "Ġmechanic": 9282, "Ġphenome": 9283, "Ġnorthern": 9284, "Ġinstructi": 9285, "Ġproo": 9286, "Ġangr": 9287, "Ġphenomen": 9288, "Ġlocations": 9289, "Ġdestroyed": 9290, "Ġinteractio": 9291, "Ġinteraction": 9292, "ĠStand": 9293, "ĠSomet": 9294, "ĠDetr": 9295, "Ġproperl": 9296, "Ġproperly": 9297, "Ġproof": 9298, "Ġextended": 9299, "ĠOS": 9300, "ĠRoya": 9301, "Ġstak": 9302, "ĠEp": 9303, "Ġputs": 9304, "Ġequiv": 9305, "ĠHit": 9306, "ĠFrie": 9307, "ĠBest": 9308, "Ġdevo": 9309, "Ġprogressive": 9310, "Ġmayor": 9311, "Ġsuddenl": 9312, "Ġ150": 9313, "Ġsuddenly": 9314, "ĠWome": 9315, "Ġapproximatel": 9316, "Ġapproximately": 9317, "Ġtape": 9318, "Ġmemori": 9319, "Ġmatches": 9320, "Ġraci": 9321, "Ġending": 9322, "ĠWomen": 9323, "Ġterritory": 9324, "ĠHarris": 9325, "ĠZi": 9326, "Ġpov": 9327, "ĠKevin": 9328, "Ġmaximu": 9329, "Ġreliab": 9330, "Ġprotesters": 9331, "Ġracia": 9332, "Ġslowl": 9333, "Ġracial": 9334, "Ġpate": 9335, "ĠFam": 9336, "Ġslowly": 9337, "Ġinterface": 9338, "Ġmerel": 9339, "Ġmerely": 9340, "Ġbunc": 9341, "ĠGor": 9342, "Ġterrorism": 9343, "Ġinsul": 9344, "Ġmaximum": 9345, "ĠWilson": 9346, "inar": 9347, "ĠTerr": 9348, "Ġdestin": 9349, "Ġselecte": 9350, "Ġattribute": 9351, "ĠChild": 9352, "Ġenth": 9353, "Ġreputa": 9354, "Ġrequests": 9355, "Ġselected": 9356, "ĠKy": 9357, "Ġ51": 9358, "Ġdistribute": 9359, "Ġuppe": 9360, "Ġconfigu": 9361, "ĠHenr": 9362, "ĠSno": 9363, "Ġnotab": 9364, "ĠAuth": 9365, "Ġempty": 9366, "ĠDetro": 9367, "Ġpove": 9368, "Ġdisag": 9369, "Ġdisorder": 9370, "nized": 9371, "Ġresistanc": 9372, "Ġresistance": 9373, "ĠDetroit": 9374, "Ġdescription": 9375, "Ġdecrease": 9376, "Ġworried": 9377, "Ġunfa": 9378, "Ġappreciate": 9379, "Ġstabi": 9380, "ĠGreek": 9381, "Ġstabil": 9382, "ĠAlexa": 9383, "ĠHot": 9384, "ĠMast": 9385, "Ġfesti": 9386, "Ġbia": 9387, "Ġdecent": 9388, "Ġfestiv": 9389, "ĠHollyw": 9390, "ĠLar": 9391, "Ġtrap": 9392, "Ġeliminate": 9393, "ĠCD": 9394, "Ġpover": 9395, "ĠAdv": 9396, "ĠTele": 9397, "ĠAgency": 9398, "Ġcomplicate": 9399, "Ġdeals": 9400, "Ġsupports": 9401, "ĠHollywo": 9402, "ĠHollywoo": 9403, "ĠItalian": 9404, "ĠClass": 9405, "Ġpace": 9406, "Ġpovert": 9407, "ĠCamer": 9408, "ĠHollywood": 9409, "Ġundersto": 9410, "ĠMain": 9411, "Ġstabili": 9412, "Ġpoverty": 9413, "Ġlikes": 9414, "Ġcollective": 9415, "Ġunb": 9416, "ĠAdmini": 9417, "ĠJers": 9418, "ĠAdminis": 9419, "Ġnomine": 9420, "ĠAdminist": 9421, "Ġstric": 9422, "ĠSuc": 9423, "Ġstake": 9424, "Ġfaciliti": 9425, "Ġnominee": 9426, "Ġallies": 9427, "Ġfacilitie": 9428, "Ġfacilities": 9429, "Ġcrucia": 9430, "Ġdisagre": 9431, "ĠJerse": 9432, "Ġdisagree": 9433, "ĠSociety": 9434, "ĠJersey": 9435, "Ġarguments": 9436, "Ġsubt": 9437, "Ġunderstoo": 9438, "Ġunderstood": 9439, "ĠOrg": 9440, "Ġanon": 9441, "Ġsouther": 9442, "Ġmedicin": 9443, "Ġtransmi": 9444, "Ġprominent": 9445, "Ġcontrolled": 9446, "ĠAtto": 9447, "Ġfees": 9448, "ĠConv": 9449, "Ġresolve": 9450, "Ġplug": 9451, "ĠNick": 9452, "Ġsomeh": 9453, "Ġinsig": 9454, "ĠTurn": 9455, "Ġsomeho": 9456, "ĠJas": 9457, "Ġendorse": 9458, "Ġsomehow": 9459, "Ġwarra": 9460, "ĠNatu": 9461, "Ġwarran": 9462, "Ġwarrant": 9463, "ĠAdministr": 9464, "ĠEdu": 9465, "ĠAttor": 9466, "ĠAdministra": 9467, "ĠAttorn": 9468, "ĠAttorne": 9469, "ĠAttorney": 9470, "ĠBria": 9471, "ĠItaly": 9472, "ĠProfe": 9473, "ĠCompany": 9474, "Ġinstant": 9475, "Ġcritics": 9476, "ĠMarke": 9477, "Ġequiva": 9478, "ĠFord": 9479, "Ġsmile": 9480, "Ġjournalists": 9481, "Ġinstalle": 9482, "Ġregions": 9483, "ĠAdministrat": 9484, "Ġequivale": 9485, "Ġpromoti": 9486, "Ġcommunications": 9487, "Ġstim": 9488, "Ġwithdr": 9489, "Ġwithdra": 9490, "Ġwithdraw": 9491, "Ġequivalen": 9492, "Ġbunch": 9493, "Ġunn": 9494, "Ġpromotion": 9495, "ĠProfes": 9496, "Ġethic": 9497, "Ġpersonall": 9498, "Ġpersonally": 9499, "Ġsoul": 9500, "Ġcuttin": 9501, "ĠWea": 9502, "Ġpitche": 9503, "ĠPoliti": 9504, "Ġcutting": 9505, "Ġexposed": 9506, "ĠProfess": 9507, "Ġsurger": 9508, "Ġdisci": 9509, "ĠSpanis": 9510, "ĠSpanish": 9511, "Ġdiscip": 9512, "ĠOld": 9513, "Ġdiscipl": 9514, "Ġemployer": 9515, "Ġfallin": 9516, "ĠLabo": 9517, "Ġnos": 9518, "ĠManc": 9519, "Ġaudio": 9520, "Ġsouthern": 9521, "Ġthread": 9522, "Ġfalling": 9523, "Ġstrongl": 9524, "Ġnois": 9525, "Ġsomewhe": 9526, "Ġstrongly": 9527, "ĠDA": 9528, "ĠGaz": 9529, "ĠSla": 9530, "Ġsomewher": 9531, "Ġsomewhere": 9532, "ĠLes": 9533, "Ġflav": 9534, "while": 9535, "Ġpoe": 9536, "Ġtempl": 9537, "Ġcondem": 9538, "Ġfake": 9539, "Ġvacc": 9540, "orth": 9541, "ĠAutho": 9542, "ĠNASA": 9543, "Ġcondemn": 9544, "Ġcrucial": 9545, "Ġtouris": 9546, "Ġswo": 9547, "Ġcertifi": 9548, "Ġsuffic": 9549, "Ġknee": 9550, "Ġediti": 9551, "Ġedition": 9552, "Ġawes": 9553, "Ġimplementa": 9554, "Ġrestrictio": 9555, "Ġchic": 9556, "Ġrestriction": 9557, "Ġrescue": 9558, "ĠSara": 9559, "Ġcoali": 9560, "ĠDy": 9561, "Ġinti": 9562, "Ġestat": 9563, "ĠRA": 9564, "anized": 9565, "ĠLen": 9566, "Ġmeetings": 9567, "Ġcoalit": 9568, "Ġplasti": 9569, "Ġcoaliti": 9570, "Ġflex": 9571, "Ġcoalition": 9572, "Ġsuspend": 9573, "ĠMiam": 9574, "ĠKno": 9575, "ĠRoyal": 9576, "Ġbarre": 9577, "Ġanony": 9578, "ĠBowl": 9579, "Ġtrag": 9580, "Ġanonym": 9581, "ĠMiami": 9582, "Ġemissions": 9583, "Ġballot": 9584, "Ġstimu": 9585, "Ġstimul": 9586, "Ġderi": 9587, "Ġinstructio": 9588, "Ġinstruction": 9589, "Ġimplementat": 9590, "Ġestate": 9591, "ganized": 9592, "Ġastr": 9593, "rganized": 9594, "Ġimplementati": 9595, "Ġimplementation": 9596, "ĠMake": 9597, "Ġplastic": 9598, "Ġcompro": 9599, "Ġdespe": 9600, "Ġcrus": 9601, "Ġcomprom": 9602, "Ġsmartp": 9603, "ĠZo": 9604, "Ġtrees": 9605, "Ġsnap": 9606, "ĠCart": 9607, "Ġclassifi": 9608, "Ġsmartph": 9609, "Ġsmartphon": 9610, "Ġsmartphone": 9611, "Ġdesper": 9612, "ĠDespit": 9613, "ĠDespite": 9614, "Ġbias": 9615, "ĠSP": 9616, "ĠJorda": 9617, "ĠNHL": 9618, "Ġcompromi": 9619, "Ġdisr": 9620, "Ġgoods": 9621, "Ġcompromis": 9622, "Ġaweso": 9623, "Ġawesom": 9624, "Ġanx": 9625, "Ġstronger": 9626, "Ġdespera": 9627, "Ġanxi": 9628, "Ġawesome": 9629, "Ġgotte": 9630, "Ġgotten": 9631, "ĠIrish": 9632, "ĠBrian": 9633, "ĠAnde": 9634, "Ġpurposes": 9635, "ĠRay": 9636, "Ġlege": 9637, "Ġdesperat": 9638, "ĠRand": 9639, "Ġdeleg": 9640, "Ġintelle": 9641, "Ġreasonable": 9642, "Ġweir": 9643, "Ġcharit": 9644, "Ġclaimin": 9645, "Ġclaiming": 9646, "Ġdonati": 9647, "Ġartif": 9648, "Ġdonation": 9649, "ĠJordan": 9650, "Ġintellec": 9651, "Ġintellect": 9652, "Ġfinds": 9653, "ĠNations": 9654, "Ġpermission": 9655, "ĠView": 9656, "Ġbench": 9657, "Ġsignat": 9658, "Ġpraise": 9659, "ĠVil": 9660, "organized": 9661, "Ġchosen": 9662, "ĠNaz": 9663, "Ġfifth": 9664, "Ġofficiall": 9665, "Ġofficially": 9666, "Ġintensi": 9667, "Ġdisru": 9668, "Ġdisrup": 9669, "Ġdisrupt": 9670, "Ġproductiv": 9671, "ĠAmen": 9672, "Ġwine": 9673, "Ġelectricit": 9674, "Ġelectricity": 9675, "ĠJay": 9676, "Ġextensive": 9677, "Ġamounts": 9678, "Ġpatc": 9679, "Ġfold": 9680, "Ġlegen": 9681, "Ġstretch": 9682, "icati": 9683, "ĠKee": 9684, "Ġties": 9685, "Ġlegend": 9686, "Ġenthu": 9687, "ĠDNA": 9688, "Ġenthus": 9689, "Ġsubscribe": 9690, "Ġclar": 9691, "Ġupper": 9692, "Ġweird": 9693, "Ġadventu": 9694, "ĠSouther": 9695, "Ġinflat": 9696, "Ġadventur": 9697, "Ġchat": 9698, "Ġinterr": 9699, "Ġpayments": 9700, "Ġsequence": 9701, "Ġthreatene": 9702, "Ġatmosphere": 9703, "Ġthreatened": 9704, "Ġretain": 9705, "Ġpod": 9706, "Ġparal": 9707, "Ġrejecte": 9708, "Ġparad": 9709, "Ġsomeb": 9710, "Ġsomebo": 9711, "Ġsomebod": 9712, "Ġrejected": 9713, "Ġperfectl": 9714, "Ġperfectly": 9715, "Ġaspects": 9716, "Ġcaptured": 9717, "ĠGreg": 9718, "Ġsomebody": 9719, "Ġanswers": 9720, "ĠData": 9721, "Ġpledge": 9722, "Ġbrut": 9723, "Ġstepp": 9724, "Ġstrict": 9725, "Ġreceiver": 9726, "Ġintim": 9727, "Ġprimaril": 9728, "ĠVI": 9729, "Ġchoices": 9730, "Ġprimarily": 9731, "Ġconstantl": 9732, "Ġconstantly": 9733, "ĠFie": 9734, "Ġtradin": 9735, "Ġmanufacturer": 9736, "Ġtrading": 9737, "Ġfighters": 9738, "Ġparkin": 9739, "Ġfields": 9740, "Ġmetr": 9741, "Ġseats": 9742, "Ġaccepta": 9743, "ĠLiberal": 9744, "ĠSouthern": 9745, "Ġdeco": 9746, "ĠEva": 9747, "bility": 9748, "Ġinforme": 9749, "Ġ52": 9750, "Ġraisin": 9751, "Ġexposu": 9752, "Ġexposure": 9753, "Ġreputat": 9754, "ĠServices": 9755, "Ġflyin": 9756, "Ġreputati": 9757, "Ġreputatio": 9758, "Ġanym": 9759, "Ġdeny": 9760, "Ġreputation": 9761, "Ġparking": 9762, "Ġanymo": 9763, "Ġanymor": 9764, "Ġanymore": 9765, "Ġtermina": 9766, "Ġunce": 9767, "Ġnobo": 9768, "ĠProp": 9769, "Ġestimates": 9770, "Ġnobod": 9771, "Ġflying": 9772, "ĠDru": 9773, "Ġtechnologie": 9774, "Ġdemocrat": 9775, "Ġnotion": 9776, "Ġsolutions": 9777, "Ġveri": 9778, "Ġtechnologies": 9779, "ĠOrga": 9780, "ĠDisn": 9781, "ĠSerie": 9782, "ĠDisne": 9783, "ĠKil": 9784, "ĠDisney": 9785, "Ġsmoo": 9786, "Ġelsew": 9787, "ĠRadi": 9788, "Ġpursue": 9789, "Ġextrac": 9790, "Ġelsewhe": 9791, "Ġcourts": 9792, "Ġregularl": 9793, "Ġregularly": 9794, "Ġelsewher": 9795, "Ġelsewhere": 9796, "Ġemployme": 9797, "Ġemploymen": 9798, "Ġemployment": 9799, "Ġresultin": 9800, "Ġblas": 9801, "Ġresulting": 9802, "Ġaccessi": 9803, "ĠMoore": 9804, "Ġstol": 9805, "ĠWher": 9806, "ĠKey": 9807, "Ġsemi": 9808, "ĠLew": 9809, "Ġbaseb": 9810, "Ġprotein": 9811, "Ġnobody": 9812, "ĠPremie": 9813, "Ġencounter": 9814, "ĠWhere": 9815, "Ġchapt": 9816, "Ġexists": 9817, "ĠGuardi": 9818, "ĠPlaye": 9819, "Ġchapte": 9820, "fied": 9821, "Ġadopte": 9822, "Ġchapter": 9823, "ĠEP": 9824, "Ġapologi": 9825, "Ġexit": 9826, "ĠPie": 9827, "ĠAcade": 9828, "ĠEdwa": 9829, "Ġrevis": 9830, "Ġbaseba": 9831, "Ġkeeps": 9832, "Ġwitnesse": 9833, "Ġcontrols": 9834, "ĠEdwar": 9835, "ĠAcadem": 9836, "ĠDark": 9837, "ĠDig": 9838, "ĠIndiana": 9839, "ication": 9840, "ĠOrgan": 9841, "ĠScotla": 9842, "ĠScotlan": 9843, "ĠGh": 9844, "ĠScotland": 9845, "ĠMoto": 9846, "Ġlane": 9847, "Ġcomponents": 9848, "Ġgenu": 9849, "Ġ47": 9850, "ĠEdward": 9851, "ĠCross": 9852, "ĠPara": 9853, "Ġintervent": 9854, "Ġimplica": 9855, "ĠTour": 9856, "Ġletters": 9857, "Ġcontributed": 9858, "minan": 9859, "Ġinterventi": 9860, "ĠKelly": 9861, "Ġcompen": 9862, "Ġworldw": 9863, "Ġ46": 9864, "Ġsmoot": 9865, "Ġworldwi": 9866, "Ġinterventio": 9867, "Ġintervention": 9868, "Ġworldwid": 9869, "Ġworldwide": 9870, "Ġcanna": 9871, "ĠInsta": 9872, "Ġexecute": 9873, "Ġincredible": 9874, "ĠAuthor": 9875, "Ġsituations": 9876, "Ġdefenc": 9877, "ĠGett": 9878, "Ġstuc": 9879, "Ġimplicat": 9880, "Ġstole": 9881, "ational": 9882, "Ġequivalent": 9883, "ĠMayo": 9884, "Ġdefence": 9885, "Ġdelega": 9886, "ĠEma": 9887, "Ġconcluded": 9888, "ĠVega": 9889, "Ġbasebal": 9890, "ified": 9891, "Ġbaseball": 9892, "Ġamp": 9893, "ĠDalla": 9894, "ĠRet": 9895, "ĠClark": 9896, "Ġnewl": 9897, "Ġtone": 9898, "Ġenemi": 9899, "Ġcyb": 9900, "ĠSteven": 9901, "ĠChang": 9902, "Ġclari": 9903, "Ġcannab": 9904, "Ġdesigner": 9905, "Ġpersonalit": 9906, "ĠPolitic": 9907, "Ġclients": 9908, "Ġenemie": 9909, "Ġenemies": 9910, "Ġdelegat": 9911, "Ġincen": 9912, "Ġverif": 9913, "Ġsuggesti": 9914, "ĠStil": 9915, "ĠChampionsh": 9916, "ĠChampionshi": 9917, "ĠReu": 9918, "ĠChampionship": 9919, "Ġbills": 9920, "ĠMes": 9921, "Ġfilte": 9922, "ĠExpe": 9923, "Ġambit": 9924, "Ġcontinuin": 9925, "Ġcontinuing": 9926, "Ġregistere": 9927, "Ġregistered": 9928, "ĠSton": 9929, "Ġwonderf": 9930, "Ġincredibly": 9931, "ĠCivi": 9932, "Ġdemands": 9933, "Ġwonderfu": 9934, "Ġinformed": 9935, "Ġwonderful": 9936, "Ġfeedb": 9937, "Ġfeedba": 9938, "°Ð": 9939, "Ġfeedbac": 9940, "Ġfeedback": 9941, "Ġregre": 9942, "ĠPaci": 9943, "Ġathlete": 9944, "Ġtied": 9945, "ĠJosep": 9946, "Ġsynt": 9947, "Ġcommande": 9948, "ĠMinnes": 9949, "Ġenthusi": 9950, "Ġcouns": 9951, "ĠAD": 9952, "Ġenthusia": 9953, "ĠHin": 9954, "Ġaler": 9955, "ĠMinneso": 9956, "Ġcounse": 9957, "ĠMinnesot": 9958, "Ġcounsel": 9959, "Ġsate": 9960, "ĠMinnesota": 9961, "Ġenthusias": 9962, "Ġterrible": 9963, "Ġalert": 9964, "ĠCivil": 9965, "Ġvisito": 9966, "Ġestablishm": 9967, "Ġestablishme": 9968, "Ġestablishmen": 9969, "Ġestablishment": 9970, "Ġvisitor": 9971, "Ġangry": 9972, "Ġproved": 9973, "Ġcategory": 9974, "ĠContro": 9975, "Ġstuck": 9976, "Ġstead": 9977, "Ġscand": 9978, "ĠAmend": 9979, "Ġ190": 9980, "ĠGala": 9981, "file": 9982, "ĠParl": 9983, "ĠProd": 9984, "Ġinspe": 9985, "Ġshortl": 9986, "ĠLinu": 9987, ".\"[": 9988, "Ġshipp": 9989, "ĠJudg": 9990, "Ġinspec": 9991, "Ġmachines": 9992, "Ġgrante": 9993, "Ġconsump": 9994, "Ġconsumpt": 9995, "Ġconsumpti": 9996, "ĠAsse": 9997, "Ġscanda": 9998, "Ġinspect": 9999, "Ġdefender": 10000, "Ġscandal": 10001, "ĠSpain": 10002, "ĠConve": 10003, "Ġafr": 10004, "Ġgrade": 10005, "Ġraising": 10006, "dimen": 10007, "Ġreturnin": 10008, "Ġambiti": 10009, "Ġreturning": 10010, "Ġcrop": 10011, "Ġambitio": 10012, "Ġrepresente": 10013, "Ġnewly": 10014, "Ġwriters": 10015, "ĠBol": 10016, "Ġrepresented": 10017, "Ġexces": 10018, "Ġmanip": 10019, "ĠJoseph": 10020, "Ġreverse": 10021, "ĠPhila": 10022, "ĠMetr": 10023, "Ġvaluab": 10024, "Ġconsumption": 10025, "Ġrecovery": 10026, "ĠLE": 10027, "Ġvaluable": 10028, "Ġexcess": 10029, "ĠThanks": 10030, "Ġgaming": 10031, "ĠProgra": 10032, "ĠDallas": 10033, "Ġenr": 10034, "Ġmanipu": 10035, "Ġswin": 10036, "ĠProgram": 10037, "Ġtortu": 10038, "ĠArabi": 10039, "Ġcompens": 10040, "Ġpoc": 10041, "Ġperp": 10042, "Ġcompensa": 10043, "Ġmanipula": 10044, "ĠAh": 10045, "ĠWater": 10046, "Ġimprov": 10047, "ĠNas": 10048, "Ġches": 10049, "Ġcopi": 10050, "Ġchick": 10051, "ĠCare": 10052, "Ġala": 10053, "Ġslip": 10054, "Ġpenalty": 10055, "Ġcompensat": 10056, "Ġprogrammin": 10057, "Ġprogramming": 10058, "ĠAPI": 10059, "Ġorganized": 10060, "ĠMosc": 10061, "ĠIC": 10062, "ĠEconomi": 10063, "ĠMaste": 10064, "ĠWan": 10065, "Ġconspir": 10066, "Ġmanipulat": 10067, "Ġtransg": 10068, "Ġassur": 10069, "ĠEduc": 10070, "Ġsatel": 10071, "ĠAnder": 10072, "ĠSwa": 10073, "Ġcomplicated": 10074, "Ġshit": 10075, "Ġtranspa": 10076, "Ġsatell": 10077, "Ġsatelli": 10078, "Ġgranted": 10079, "Ġsatellit": 10080, "ominan": 10081, "Ġari": 10082, "Ġsatellite": 10083, "Ġ($": 10084, "Ġchances": 10085, "ĠMerc": 10086, "Ġassistanc": 10087, "Ġassistance": 10088, "Ġusa": 10089, "Ġblind": 10090, "Ġtranspar": 10091, "Ġconsole": 10092, "Ġembrace": 10093, "ĠEduca": 10094, "ĠPacif": 10095, "Ġcounty": 10096, "Ġsubsidi": 10097, "Ġsympt": 10098, "Ġsympto": 10099, "Ġsymptom": 10100, "Ġtranspare": 10101, "Ġtransparen": 10102, "Ġsacr": 10103, "ĠDri": 10104, "ĠMean": 10105, "Ġprisone": 10106, "Ġforec": 10107, "ĠLow": 10108, "Ġprisoner": 10109, "Ġshares": 10110, "Ġsuccessfull": 10111, "ĠZea": 10112, "ĠDrag": 10113, "Ġcav": 10114, "ĠEducat": 10115, "ĠParli": 10116, "Ġsuccessfully": 10117, "Ġtril": 10118, "Ġbone": 10119, "Ġweste": 10120, "ĠCoas": 10121, "ĠMod": 10122, "Ġwester": 10123, "Ġframew": 10124, "ĠParlia": 10125, "ĠPatric": 10126, "Ġframewo": 10127, "Ġframewor": 10128, "dominan": 10129, "Ġframework": 10130, "ĠParliame": 10131, "ĠParliamen": 10132, "ĠParliament": 10133, "ĠShan": 10134, "ĠTot": 10135, "ĠBalt": 10136, "Ġcriticize": 10137, "Ġtechniques": 10138, "Ġsociali": 10139, "ĠBeac": 10140, "Ġlawmakers": 10141, "Ġflash": 10142, "Ġdominate": 10143, "Ġearning": 10144, "Ġtortur": 10145, "ĠOpera": 10146, "Ġanger": 10147, "Ġaddic": 10148, "Ġinfecti": 10149, "Ġantici": 10150, "ĠSpecia": 10151, "Ġastro": 10152, "Ġautomatica": 10153, "Ġphr": 10154, "Ġaddict": 10155, "Ġshell": 10156, "ĠLGB": 10157, "Ġdegrees": 10158, "Ġautomatical": 10159, "Ġsuga": 10160, "Ġanticip": 10161, "Ġautomaticall": 10162, "Ġscenes": 10163, "Ġautomatically": 10164, "Ġanticipa": 10165, "ĠPacific": 10166, "Ġaime": 10167, "Ġanticipat": 10168, "ĠAlexan": 10169, "ĠMarket": 10170, "Ġphra": 10171, "ĠTayl": 10172, "Ġethn": 10173, "ĠAlexand": 10174, "ĠTaylo": 10175, "Ġexplic": 10176, "Ġphras": 10177, "Ġcompile": 10178, "ĠCoast": 10179, "Ġengaged": 10180, "Ġpron": 10181, "Ġpropa": 10182, "Ġextract": 10183, "ĠRang": 10184, "Ġblocks": 10185, "ĠSpecial": 10186, "Ġpum": 10187, "ĠMcD": 10188, "ĠRun": 10189, "Ġpresc": 10190, "ĠEnd": 10191, "Ġads": 10192, "Ġaimed": 10193, "ĠHI": 10194, "Ġtaug": 10195, "Ġtaugh": 10196, "Ġtaught": 10197, "Ġinfectio": 10198, "ĠSaf": 10199, "Ġneuro": 10200, "Ġsugar": 10201, "ocks": 10202, "ĠEst": 10203, "Ġinstalled": 10204, "Ġtitles": 10205, "ĠPlayer": 10206, "Ġnationali": 10207, "ĠTechno": 10208, "ĠStill": 10209, "âĪĴ": 10210, "ĠSenator": 10211, "Ġprivi": 10212, "Ġ1999": 10213, "Ġpock": 10214, "ĠAvenu": 10215, "Ġdeficit": 10216, "ĠAvenue": 10217, "Ġentre": 10218, "ĠIow": 10219, "Ġattended": 10220, "Ġrebu": 10221, "ĠIowa": 10222, "Ġsuffici": 10223, "ĠArabia": 10224, "Ġsufficie": 10225, "Ġsufficien": 10226, "ĠForei": 10227, "Ġcybe": 10228, "Ġwestern": 10229, "ĠContinu": 10230, "Ġnotif": 10231, "ĠForeig": 10232, "ĠStone": 10233, "ĠForeign": 10234, "ĠCarr": 10235, "this": 10236, "Ġmarked": 10237, "ĠNBC": 10238, "Ġuncert": 10239, "Ġstac": 10240, "Ġunpre": 10241, "Ġaccompa": 10242, "ĠMosco": 10243, "ĠTaylor": 10244, "Ġmilitan": 10245, "Ġprivil": 10246, "Ġindex": 10247, "ĠControl": 10248, "Ġbarri": 10249, "ĠMusic": 10250, "Ġaccompan": 10251, "Ġgener": 10252, "ĠBA": 10253, "Ġuncerta": 10254, "Ġuncertain": 10255, "ĠGia": 10256, "Ġprivile": 10257, "ĠBusin": 10258, "Ġlawyers": 10259, "ĠDisc": 10260, "Ġpeer": 10261, "Ġdeva": 10262, "ĠBusine": 10263, "ĠLinux": 10264, "ĠBusines": 10265, "Ġpersonn": 10266, "ĠBusiness": 10267, "Ġcyber": 10268, "ĠLGBT": 10269, "Ġmenu": 10270, "Ġspark": 10271, "Ġprivileg": 10272, "Ġarray": 10273, "ĠAssociate": 10274, "Ġdepending": 10275, "Ġvisite": 10276, "ĠOak": 10277, "ĠRick": 10278, "Ġregardl": 10279, "Ġregardle": 10280, "Ġsuspi": 10281, "Ġregardles": 10282, "Ġregardless": 10283, "Ġfemini": 10284, "Ġsignatu": 10285, "Ġcollecte": 10286, "Ġration": 10287, "Ġtracks": 10288, "Ġsuspic": 10289, "Ġsignature": 10290, "Ġrecipe": 10291, "ĠFami": 10292, "Ġcollected": 10293, "Ġsuspici": 10294, "ĠAmendme": 10295, "ĠAmendmen": 10296, "ĠAmendment": 10297, "Ġchampionsh": 10298, "Ġchampionshi": 10299, "ĠRobin": 10300, "Ġchampionship": 10301, "Ġafra": 10302, "Ġpaten": 10303, "Ġpasses": 10304, "Ġpersonne": 10305, "ĠMarine": 10306, "Ġafrai": 10307, "Ġafraid": 10308, "ĠEll": 10309, "ĠTony": 10310, "ĠAlbe": 10311, "Ġvisited": 10312, "ĠAnders": 10313, "µÐ": 10314, "Ġdisg": 10315, "Ġwarmin": 10316, "Ġsme": 10317, "ĠAdministrati": 10318, "Ġpatent": 10319, "Ġwarming": 10320, "ĠAli": 10321, "Ġpois": 10322, "Ġlai": 10323, "ĠDead": 10324, "Ġsufficient": 10325, "ĠAsh": 10326, "Ġagri": 10327, "ĠPremier": 10328, "ĠShare": 10329, "Ġpocke": 10330, "Ġsurgery": 10331, "Ġclip": 10332, "Ġshado": 10333, "Ġshadow": 10334, "Ġcategori": 10335, "Ġenjoye": 10336, "Ġtail": 10337, "Ġmeal": 10338, "Ġbusy": 10339, "Ġenjoyed": 10340, "Ġcomprehe": 10341, "Ġcomprehen": 10342, "ĠChec": 10343, "Ġrepai": 10344, "ĠMoscow": 10345, "Ġcompromise": 10346, "Ġprete": 10347, "Ġslu": 10348, "Ġprinciples": 10349, "Ġpocket": 10350, "ĠCin": 10351, "Ġcryp": 10352, "Ġstack": 10353, "ĠAnth": 10354, "Ġconstitutiona": 10355, "Ġconstitutional": 10356, "Ġintellectu": 10357, "Ġthic": 10358, "Ġphones": 10359, "ĠOreg": 10360, "Ġthick": 10361, "Ġbonu": 10362, "Ġmedicine": 10363, "ĠZeala": 10364, "ĠZealan": 10365, "Ġprivilege": 10366, "Ġgenerated": 10367, "Ġprocesses": 10368, "Ġpartnersh": 10369, "Ġpartnershi": 10370, "Ġpartnership": 10371, "Ġcrypt": 10372, "ĠSeries": 10373, "Ġsenso": 10374, "ĠâĢĻ": 10375, "Ġintellectua": 10376, "Ġintellectual": 10377, "ĠTem": 10378, "Ġbonus": 10379, "ĠInves": 10380, "Ġpersonnel": 10381, "Ġcoache": 10382, "Ġpresu": 10383, "Ġintense": 10384, "Ġtwen": 10385, "Ġstrategic": 10386, "ĠUr": 10387, "ĠBir": 10388, "ĠProdu": 10389, "Ġnegotiations": 10390, "Ġtwent": 10391, "ĠKas": 10392, "Ġoutle": 10393, "Ġdominan": 10394, "ĠSain": 10395, "Ġmainly": 10396, "ĠLook": 10397, "ĠSus": 10398, "Ġoutlet": 10399, "Ġcorrupti": 10400, "ĠInvest": 10401, "ĠOrego": 10402, "Ġsensor": 10403, "ĠOregon": 10404, "ĠViet": 10405, "ĠMai": 10406, "ĠJosh": 10407, "ĠNC": 10408, "Ġtensi": 10409, "ĠCir": 10410, "Ġcharacteris": 10411, "ĠEastern": 10412, "Ġresulte": 10413, "Ġresulted": 10414, "Ġentitl": 10415, "Ġnoise": 10416, "ĠIrani": 10417, "ĠBib": 10418, "Ġfunny": 10419, "Ġato": 10420, "Ġdemocrati": 10421, "Ġelecto": 10422, "Ġpounds": 10423, "ĠBef": 10424, "Ġbath": 10425, "Ġcooperati": 10426, "ãĢ": 10427, "Ġfeminis": 10428, "ĠMcG": 10429, "Ġelector": 10430, "ĠNorther": 10431, "Ġemerged": 10432, "Ġinteri": 10433, "Ġbeac": 10434, "ĠProduc": 10435, "Ġdescribes": 10436, "Ġeveryw": 10437, "Ġentitle": 10438, "ĠMetro": 10439, "Ġcorruption": 10440, "Ġengineerin": 10441, "Ġengineering": 10442, "Ġpatterns": 10443, "ĠGloba": 10444, "ĠFly": 10445, "Ġadopted": 10446, "Ġeno": 10447, "Ġeverywhe": 10448, "Ġreferr": 10449, "Ġmediu": 10450, "Ġconsulta": 10451, "Ġeverywher": 10452, "Ġeverywhere": 10453, "Ġsuggestion": 10454, "ĠEducation": 10455, "Ġfoug": 10456, "ĠNorthern": 10457, "Ġcasu": 10458, "ĠMajo": 10459, "Ġexplicit": 10460, "gical": 10461, "Ġfough": 10462, "Ġfought": 10463, "ĠGlobal": 10464, "ĠWild": 10465, "ĠKent": 10466, "Ġfriendl": 10467, "Ġ400": 10468, "Ġpetit": 10469, "Ġtaxp": 10470, "Ġtaxpa": 10471, "ĠGive": 10472, "Ġtaxpay": 10473, "ĠSeas": 10474, "ĠWisc": 10475, "Ġdisciplin": 10476, "Ġadventure": 10477, "ĠIR": 10478, "Ġmedium": 10479, "Ġfeelings": 10480, "ĠExe": 10481, "Ġforu": 10482, "Ġtheori": 10483, "ĠAst": 10484, "ĠOri": 10485, "ĠGuardia": 10486, "Ġsixt": 10487, "ĠBefo": 10488, "ĠDevelopm": 10489, "ĠDevelopme": 10490, "ĠDevelopmen": 10491, "Ġforum": 10492, "ĠDevelopment": 10493, "ĠBattle": 10494, "ĠOtt": 10495, "Ġfestiva": 10496, "Ġpropag": 10497, "Ġfloa": 10498, "Ġfestival": 10499, "ĠBefore": 10500, "ĠMassa": 10501, "Ġfloat": 10502, "ĠFood": 10503, "Ġshoe": 10504, "ĠPay": 10505, "Ġphrase": 10506, "Ġcopie": 10507, "Ġsanctions": 10508, "Ġpollu": 10509, "Ġpercei": 10510, "Ġenor": 10511, "Ġperceiv": 10512, "Ġcited": 10513, "Ġstations": 10514, "Ġpollut": 10515, "Ġcontracts": 10516, "Ġcommenta": 10517, "Ġrarel": 10518, "Ġrarely": 10519, "Ġpropaga": 10520, "Ġextern": 10521, "Ġcasua": 10522, "ĠTechnol": 10523, "Ġtaxpaye": 10524, "ĠPolicy": 10525, "Ġtaxpayer": 10526, "Ġtune": 10527, "Ġanalyz": 10528, "Ġgate": 10529, "Ġcasual": 10530, "Ġrecommenda": 10531, "ĠFinan": 10532, "ĠFoot": 10533, "Ġinev": 10534, "Ġexpectations": 10535, "Ġcow": 10536, "Ġinevi": 10537, "Ġstal": 10538, "Ġinevit": 10539, "Ġinevita": 10540, "Ġcameras": 10541, "Ġinevitab": 10542, "Ġshortly": 10543, "Ġkni": 10544, "Ġrecommendat": 10545, "Ġrecommendati": 10546, "Ġrecommendatio": 10547, "Ġrecommendation": 10548, "Ġtensio": 10549, "ĠKer": 10550, "Ġtension": 10551, "Ġenorm": 10552, "ĠWiscon": 10553, "ĠCrow": 10554, "ĠWiscons": 10555, "ĠIrania": 10556, "ĠTechnolo": 10557, "ĠIranian": 10558, "ĠTechnolog": 10559, "Ġstabl": 10560, "ĠWisconsin": 10561, "Ġrepro": 10562, "Ġalgo": 10563, "ĠVide": 10564, "Ġvaca": 10565, "Ġrecep": 10566, "Ġbulle": 10567, "Ġinsiste": 10568, "Ġracist": 10569, "Ġfirms": 10570, "ĠPhilade": 10571, "Ġrecept": 10572, "ĠRap": 10573, "Ġshopp": 10574, "Ġscru": 10575, "Ġmilitant": 10576, "Ġsubstanc": 10577, "ĠNavy": 10578, "Ġbullet": 10579, "ĠPhiladel": 10580, "Ġnominati": 10581, "Ġcloc": 10582, "ĠPhiladelp": 10583, "Ġsubstance": 10584, "ĠPhiladelph": 10585, "Ġconspira": 10586, "Ġdesperate": 10587, "ĠAlab": 10588, "dling": 10589, "ĠAbb": 10590, "ĠSS": 10591, "ĠPhiladelphi": 10592, "Ġdetain": 10593, "Ġingr": 10594, "Ġregister": 10595, "ĠPhiladelphia": 10596, "Ġpremie": 10597, "Ġdicta": 10598, "Ġadvertisi": 10599, "Ġadvertisin": 10600, "Ġadvertising": 10601, "Ġclock": 10602, "Ġaccel": 10603, "ĠFinanc": 10604, "Ġinsigh": 10605, "Ġinsight": 10606, "ĠGir": 10607, "Ġcerem": 10608, "Ġassessm": 10609, "Ġprol": 10610, "Ġassessme": 10611, "Ġassessmen": 10612, "Ġpriority": 10613, "Ġassessment": 10614, "Ġceremo": 10615, "Ġceremon": 10616, "ĠTam": 10617, "ĠSanta": 10618, "Ġupse": 10619, "ĠRoge": 10620, "ĠGuardian": 10621, "ĠAlaba": 10622, "Ġaccele": 10623, "ĠPoin": 10624, "Ġstable": 10625, "Ġacceler": 10626, "ĠRange": 10627, "Ġwides": 10628, "ĠBarr": 10629, "Ġnominatio": 10630, "Ġnomination": 10631, "Ġbruta": 10632, "Ġbrutal": 10633, "dimens": 10634, "Ġparame": 10635, "dimensi": 10636, "Ġdictat": 10637, "ĠHenry": 10638, "Ġaffil": 10639, "dimension": 10640, "Ġgaine": 10641, "ĠPO": 10642, "ĠCel": 10643, "Ġactiva": 10644, "Ġaffili": 10645, "Ġaffilia": 10646, "Ġsheet": 10647, "Ġaffiliat": 10648, "Ġconsiderat": 10649, "Ġexterna": 10650, "Ġactivat": 10651, "ĠBull": 10652, "Ġexternal": 10653, "Ġcannabi": 10654, "Ġcreates": 10655, "Ġstrikes": 10656, "Ġlaid": 10657, "Ġstad": 10658, "Ġtranslate": 10659, "Ġupset": 10660, "Ġbehaviou": 10661, "Ġdozens": 10662, "Ġsorr": 10663, "Ġcolou": 10664, "Ġbehaviour": 10665, "Ġutilit": 10666, "ĠEv": 10667, "Ġformu": 10668, "Ġcomputers": 10669, "Ġarchitectu": 10670, "Ġtorture": 10671, "ĠLate": 10672, "Ġarchitectur": 10673, "Ġformul": 10674, "ĠBee": 10675, "Ġgent": 10676, "Ġbehal": 10677, "Ġgenuin": 10678, "Ġclubs": 10679, "Ġuncom": 10680, "ĠESP": 10681, "ĠVideo": 10682, ".-": 10683, "Ġalgor": 10684, "Ġfounded": 10685, "Ġgenuine": 10686, "Ġrestore": 10687, "Ġscorin": 10688, "ĠJudge": 10689, "Ġbehalf": 10690, "Ġscoring": 10691, "Ġgear": 10692, "ĠAlabam": 10693, "ogical": 10694, "Ġyie": 10695, "Ġ00": 10696, "ĠFall": 10697, "Ġyiel": 10698, "Ġalgori": 10699, "Ġformula": 10700, "Ġalgorit": 10701, "ĠAlbert": 10702, "Ġagric": 10703, "Ġstadi": 10704, "Ġbacks": 10705, "Ġtole": 10706, "Ġalgorith": 10707, "Ġreminde": 10708, "ĠArg": 10709, "Ġoutra": 10710, "Ġswing": 10711, "Ġree": 10712, "Ġfaul": 10713, "Ġalgorithm": 10714, "Ġgained": 10715, "Ġadviser": 10716, "Ġlegitimat": 10717, "Ġfault": 10718, "Ġepisodes": 10719, "Ġtoler": 10720, "Ġconsiderab": 10721, "Ġbasketb": 10722, "Ġelev": 10723, "Ġpump": 10724, "Ġbasketba": 10725, "Ġbasketbal": 10726, "Ġbasketball": 10727, "ĠSpea": 10728, "Ġconsiderabl": 10729, "Ġreplie": 10730, "ĠSnow": 10731, "Ġmanufactur": 10732, "ĠInfor": 10733, "Ġtolera": 10734, "Ġmanufacturing": 10735, "Ġgrat": 10736, "Ġenormou": 10737, "Ġenormous": 10738, "ĠCentre": 10739, "ĠDic": 10740, "ĠThree": 10741, "ĠAa": 10742, "Ġeleva": 10743, "Ġseemin": 10744, "Ġseeming": 10745, "Ġperceive": 10746, "ĠConfere": 10747, "Ġneutra": 10748, "Ġagricu": 10749, "Ġpriz": 10750, "Ġagricul": 10751, "ĠConferen": 10752, "Ġagricult": 10753, "ĠConferenc": 10754, "ĠTemp": 10755, "Ġneutral": 10756, "Ġunfort": 10757, "ĠGun": 10758, "Ġagricultu": 10759, "Ġagricultur": 10760, "Ġtower": 10761, "ĠBE": 10762, "Ġelevat": 10763, "ĠLeade": 10764, "ĠConference": 10765, "Ġfract": 10766, "Ġrelief": 10767, "Ġfilter": 10768, "ĠRadio": 10769, "ĠAlabama": 10770, "Ġunfortu": 10771, "Ġunfortun": 10772, "Ġangl": 10773, "Ġphilosophy": 10774, "Ġunfortuna": 10775, "Ġunfortunat": 10776, "ĠCab": 10777, "ĠCommunit": 10778, "Ġunifo": 10779, "ĠSac": 10780, "Ġunifor": 10781, "ĠLeader": 10782, "Ġremarka": 10783, "Ġpercep": 10784, "Ġremarkab": 10785, "Ġunfortunate": 10786, "Ġsaved": 10787, "Ġremarkabl": 10788, "ĠDoug": 10789, "ĠVietn": 10790, "ĠVietna": 10791, "Ġevolve": 10792, "Ġdens": 10793, "ĠZealand": 10794, "logical": 10795, "ĠKingd": 10796, "Ġflexi": 10797, "Ġlegitimate": 10798, "ĠRevie": 10799, "ĠPha": 10800, "Ġpercept": 10801, "Ġasy": 10802, "ĠKingdo": 10803, "ĠAbou": 10804, "Ġprize": 10805, "ĠLiby": 10806, "ĠThus": 10807, "Ġwed": 10808, "nwhile": 10809, "anwhile": 10810, "Ġfen": 10811, "eanwhile": 10812, "Meanwhile": 10813, "ĠME": 10814, "ĠRevo": 10815, "ĠReview": 10816, "ĠCuba": 10817, "ĠMoh": 10818, "ĠManche": 10819, "Ġstadiu": 10820, "ĠKingdom": 10821, "Ġborr": 10822, "Ġblast": 10823, "Ġsumma": 10824, "ĠSaint": 10825, "Ġfailin": 10826, "Ġstadium": 10827, "Ġfoota": 10828, "ĠFred": 10829, "Ġfailing": 10830, "Ġfootag": 10831, "Ġfootage": 10832, "ĠLibya": 10833, "Ġpetiti": 10834, "Ġranking": 10835, "Ġnurs": 10836, "Ġpetition": 10837, "Ġdepi": 10838, "Ġdemocratic": 10839, "ĠComme": 10840, "Ġborro": 10841, "Ġstrugglin": 10842, "ĠPoint": 10843, "Ġstruggling": 10844, "Ġborrow": 10845, "ĠDid": 10846, "Ġlandsc": 10847, "Ġlandsca": 10848, "Ġlandscap": 10849, "Ġpresum": 10850, "ĠAdministratio": 10851, "Ġfab": 10852, "ĠAdministration": 10853, "Ġperpe": 10854, "Ġrecognized": 10855, "Ġcannabis": 10856, "ĠManches": 10857, "Ġbanned": 10858, "Ġdeclar": 10859, "Ġsponsor": 10860, "Ġ53": 10861, "ĠAz": 10862, "ĠManchest": 10863, "ĠMancheste": 10864, "ĠManchester": 10865, "Ġdepic": 10866, "Ġdepict": 10867, "Ġcircul": 10868, "Ġscare": 10869, "Ġethnic": 10870, "Ġbeliefs": 10871, "Ġcircula": 10872, "Ġdesce": 10873, "ĠLine": 10874, "Ġsmooth": 10875, "Ġdescen": 10876, "ĠBrid": 10877, "ĠMuse": 10878, "ĠHay": 10879, "Ġregistr": 10880, "Ġdepos": 10881, "Ġsacri": 10882, "Ġ1960": 10883, "Ġcontainin": 10884, "Ġbacked": 10885, "Ġcontaining": 10886, "Ġratio": 10887, "Ġtransge": 10888, "Ġtransgen": 10889, "Ġconsiderati": 10890, "Ġships": 10891, "ĠDieg": 10892, "ĠVR": 10893, "ĠMann": 10894, "Ġconsideration": 10895, "Ġliked": 10896, "ĠReut": 10897, "ĠDivis": 10898, "ĠMajor": 10899, "Ġentering": 10900, "ĠHave": 10901, "Ġrede": 10902, "Ġ->": 10903, "Ġrear": 10904, "Ġgonn": 10905, "ĠDoe": 10906, "Ġachieved": 10907, "Ġdelib": 10908, "Ġaccelera": 10909, "ĠAtlanta": 10910, "Ġalar": 10911, "Ġgonna": 10912, "Ġflaw": 10913, "Ġdelibe": 10914, "Ġdeliber": 10915, "Ġdelibera": 10916, "Ġfisc": 10917, "Ġwalls": 10918, "Ġdeliberat": 10919, "Ġdiscriminati": 10920, "Ġnavi": 10921, "Ġdestruction": 10922, "Ġaci": 10923, "Ġfarmers": 10924, "Ġalarm": 10925, "Ġslide": 10926, "Ġinevitabl": 10927, "Ġaudit": 10928, "Ġpraye": 10929, "ĠJason": 10930, "ĠGan": 10931, "Ġincon": 10932, "ĠDivisi": 10933, "ĠRevol": 10934, "Ġuniversa": 10935, "Ġaccounta": 10936, "Ġuniversal": 10937, "Ġfisca": 10938, "Ġflexib": 10939, "ĠAcademy": 10940, "Ġoutrag": 10941, "ĠPag": 10942, "ĠDiego": 10943, "Ġfiscal": 10944, "Ġintegrate": 10945, "ĠMun": 10946, "Ġdiscriminatio": 10947, "Ġdiscrimination": 10948, "ĠLyn": 10949, "Ġsegm": 10950, "Ġsegme": 10951, "Ġsegmen": 10952, "Ġ1998": 10953, "Ġsegment": 10954, "ĠReute": 10955, "ĠNob": 10956, "Ġbroade": 10957, "Ġinterviews": 10958, "ĠAnton": 10959, "Ġunderl": 10960, "Ġcoloni": 10961, "Ġcreato": 10962, "Ġaccelerat": 10963, "Ġlanguages": 10964, "ĠBernie": 10965, "ĠWalt": 10966, "Ġcreator": 10967, "Ġbarel": 10968, "Ġpropor": 10969, "Ġbarely": 10970, "Ġcollaborati": 10971, "Ġacid": 10972, "________________": 10973, "Ġoutrage": 10974, "Ġsoi": 10975, "ĠDeb": 10976, "ĠBui": 10977, "Ġteamm": 10978, "ĠLitt": 10979, "Ġteamma": 10980, "ĠConne": 10981, "Ġteammat": 10982, "Ġteammate": 10983, "Ġbegu": 10984, "Ġstup": 10985, "Ġsalt": 10986, "ĠBrea": 10987, "ĠDivision": 10988, "Ġeur": 10989, "ĠYO": 10990, "Ġproven": 10991, "Ġincent": 10992, "ĠUC": 10993, "Ġstructures": 10994, "ĠGian": 10995, "Ġproport": 10996, "Ġforev": 10997, "Ġbai": 10998, "Ġmail": 10999, "Ġproporti": 11000, "ĠHead": 11001, "Ġforeve": 11002, "Ġforever": 11003, "Ġproportion": 11004, "Ġcontend": 11005, "Ġdono": 11006, "Ġdelivery": 11007, "ĠThi": 11008, "Ġdiscre": 11009, "Ġtox": 11010, "ĠMexica": 11011, "ĠPs": 11012, "ĠFel": 11013, "Ġincenti": 11014, "Ġincentiv": 11015, "ĠPerh": 11016, "Ġprocessin": 11017, "Ġforgo": 11018, "Ġcog": 11019, "Ġstem": 11020, "Ġprocessing": 11021, "ĠAction": 11022, "ĠPerha": 11023, "Ġcontained": 11024, "Ġprinte": 11025, "Ġunclea": 11026, "Ġsacrif": 11027, "ĠIndep": 11028, "Ġchallengin": 11029, "Ġchallenging": 11030, "Ġsacrifi": 11031, "ĠKans": 11032, "Ġspra": 11033, "ĠPerhap": 11034, "Ġdonor": 11035, "Ġsacrific": 11036, "ĠIndepe": 11037, "Ġsimula": 11038, "ĠPerhaps": 11039, "Ġreliabl": 11040, "ĠIndepen": 11041, "ĠReuters": 11042, "Ġcuri": 11043, "Ġdispa": 11044, "Ġeuro": 11045, "Ġflavo": 11046, "Ġinterfe": 11047, "vely": 11048, "ĠHarry": 11049, "Ġinterfer": 11050, "Ġsilenc": 11051, "ĠStee": 11052, "ĠTurkis": 11053, "Ġunex": 11054, "ĠFair": 11055, "ĠBridg": 11056, "Ġsop": 11057, "Ġconvicte": 11058, "Ġconvicted": 11059, "ĠFiel": 11060, "ĠMala": 11061, "Ġ(âĢ": 11062, "Ġcloth": 11063, "ĠWI": 11064, "ĠMassac": 11065, "ĠEnv": 11066, "Ġcompel": 11067, "Ġweake": 11068, "ĠBry": 11069, "ĠBuil": 11070, "Ġproducin": 11071, "Ġproducing": 11072, "ĠVanc": 11073, "Ġpersis": 11074, "Ġpersist": 11075, "ĠAbout": 11076, "ĠMinistr": 11077, "ĠIndepende": 11078, "ĠIndependen": 11079, "Ġpartia": 11080, "ĠTurkish": 11081, "inary": 11082, "Ġbowl": 11083, "Ġpartial": 11084, "Ġrestrictions": 11085, "ĠMexican": 11086, "Ġretired": 11087, "Ġsummar": 11088, "ĠFund": 11089, "ĠKansa": 11090, "Ġnavig": 11091, "ĠTab": 11092, "Ġnaviga": 11093, "ĠCiti": 11094, "Ġrebo": 11095, "Ġpreserve": 11096, "Ġasks": 11097, "ĠSO": 11098, "ĠMayor": 11099, "Ġindicated": 11100, "vided": 11101, "Ġrecognit": 11102, "Ġrecogniti": 11103, "Ġamendm": 11104, "Ġamendme": 11105, "Ġamendmen": 11106, "Ġamendment": 11107, "ĠAllen": 11108, "Ġneck": 11109, "Ġrecognitio": 11110, "Ġdevot": 11111, "Ġrecognition": 11112, "Ġtoxi": 11113, "Ġpreva": 11114, "Ġequall": 11115, "Ġrapidl": 11116, "Ġrapidly": 11117, "ĠBrand": 11118, "Ġdistu": 11119, "ĠCirc": 11120, "Ġthor": 11121, "Ġfantast": 11122, "Ġreviews": 11123, "Ġcorporations": 11124, "ĠChristians": 11125, "Ġsuggestin": 11126, "Ġsuggesting": 11127, "Ġ54": 11128, "ĠFurt": 11129, "ĠChai": 11130, "Ġfantasti": 11131, "Ġdistur": 11132, "Ġbegun": 11133, "Ġdisturb": 11134, "ĠHD": 11135, "Ġbail": 11136, "Ġblocke": 11137, "Ġbranch": 11138, "Ġfantastic": 11139, "ĠSeason": 11140, "ĠRecor": 11141, "Ġdepressi": 11142, "Ġcabin": 11143, "¸Ð": 11144, "ĠIce": 11145, "ĠSquare": 11146, "ĠInforma": 11147, "ĠAuto": 11148, "Ġelectora": 11149, "Ġangle": 11150, "ĠBridge": 11151, "ĠChap": 11152, "Ġlandscape": 11153, "Ġnormall": 11154, "Ġcurio": 11155, "Ġnormally": 11156, "Ġpill": 11157, "ĠExt": 11158, "Ġwidesp": 11159, "Ġperpet": 11160, "Ġequally": 11161, "Ġwidespre": 11162, "Ġwidesprea": 11163, "Ġwidespread": 11164, "ĠOK": 11165, "Ġunin": 11166, "Ġ2019": 11167, "ĠIntell": 11168, "Ġconspirac": 11169, "Ġintroduct": 11170, "Ġlistenin": 11171, "ĠTyp": 11172, "Ġlistening": 11173, "ĠBei": 11174, "Ġtickets": 11175, "Ġburd": 11176, "ĠVilla": 11177, "Ġpassa": 11178, "Ġreachin": 11179, "Ġreaching": 11180, "Ġattache": 11181, "ĠMcCain": 11182, "ĠLind": 11183, "Ġseize": 11184, "Ġtransc": 11185, "ĠGul": 11186, "ĠIntelli": 11187, "ĠClea": 11188, "Ġgrass": 11189, "Ġdelet": 11190, "ĠSimp": 11191, "Ġwebsites": 11192, "ĠBab": 11193, "Ġburde": 11194, "Ġfriendly": 11195, "Ġtransgend": 11196, "Ġtransgende": 11197, "Ġtransgender": 11198, "ĠAND": 11199, "Ġcharacterist": 11200, "Ġburden": 11201, "Ġpipel": 11202, "Ġjet": 11203, "Ġcharacteristi": 11204, "Ġcharacteristic": 11205, "Ġpipelin": 11206, "ĠContinue": 11207, "ĠHE": 11208, "Ġsoil": 11209, "Ġfrequenc": 11210, "Ġscrea": 11211, "ĠNext": 11212, "Ġscream": 11213, "ĠComma": 11214, "ĠHoo": 11215, "Ġfrag": 11216, "ĠPenns": 11217, "Ġnavigat": 11218, "Ġpoly": 11219, "Ġtablet": 11220, "Ġpublisher": 11221, "ible": 11222, "ĠTenn": 11223, "Ġcampaigns": 11224, "Ġsimulat": 11225, "ĠUFC": 11226, "Ġcaut": 11227, "ĠLink": 11228, "Ġcarefull": 11229, "Ġviewers": 11230, "Ġprece": 11231, "Ġterrorists": 11232, "Ġpipeline": 11233, "Ġwelf": 11234, "Ġtent": 11235, "Ġwelfa": 11236, "Ġsau": 11237, "Ġreplacem": 11238, "Ġreplaceme": 11239, "ĠWalke": 11240, "Ġreplacemen": 11241, "Ġreplacement": 11242, "Ġshout": 11243, "Ġuniform": 11244, "Ġcarefully": 11245, "ĠDesi": 11246, "Ġrationa": 11247, "Ġincu": 11248, "Ġrational": 11249, "Ġprescr": 11250, "Ġprescri": 11251, "Ġappointe": 11252, "Ġexcee": 11253, "Ġreducin": 11254, "Ġreducing": 11255, "Ġunclear": 11256, "ĠNAT": 11257, "ĠUnf": 11258, "Ġchron": 11259, "Ġdemonstrati": 11260, "Ġsensitive": 11261, "ĠOnt": 11262, "ĠKansas": 11263, "ĠFurthe": 11264, "ĠGle": 11265, "ĠBeach": 11266, "Ġshir": 11267, "Ġwelfare": 11268, "ĠFurther": 11269, "Ġoverwhelmi": 11270, "Ġoverwhelmin": 11271, "ĠPennsy": 11272, "Ġoverwhelming": 11273, "Ġspectr": 11274, "ĠBrot": 11275, "ĠHeat": 11276, "ĠFreed": 11277, "ĠPot": 11278, "ĠON": 11279, "Ġrespectivel": 11280, "Ġpercepti": 11281, "ĠPennsyl": 11282, "Ġrespectively": 11283, "ĠComman": 11284, "ĠPennsylv": 11285, "Ġscores": 11286, "ĠPennsylva": 11287, "ĠPennsylvan": 11288, "Ġexem": 11289, "Ġdevas": 11290, "ĠABC": 11291, "Ġexemp": 11292, "ĠPennsylvani": 11293, "ĠPennsylvania": 11294, "ĠToo": 11295, "Ġcommander": 11296, "ĠESPN": 11297, "ĠNSA": 11298, "ĠBio": 11299, "ĠProfesso": 11300, "Ġformati": 11301, "Ġdeputy": 11302, "Ġcauti": 11303, "Ġextremi": 11304, "ĠField": 11305, "ĠTai": 11306, "ĠAni": 11307, "ĠCore": 11308, "Ġpacke": 11309, "Ġblan": 11310, "Ġthrown": 11311, "Ġglu": 11312, "ĠElectr": 11313, "Ġchicke": 11314, "Ġunexp": 11315, "Ġchicken": 11316, "ĠHosp": 11317, "Ġconvinced": 11318, "Ġfeatur": 11319, "ĠSchu": 11320, "Ġlists": 11321, "ĠThom": 11322, "ĠLittl": 11323, "Ġportray": 11324, "Ġcalculate": 11325, "ĠLittle": 11326, "Ġfeaturin": 11327, "ĠRee": 11328, "Ġgathere": 11329, "Ġlend": 11330, "Ġdevast": 11331, "Ġfeaturing": 11332, "Ġunderm": 11333, "ĠInformat": 11334, "Ġcrypto": 11335, "ĠPric": 11336, "Ġconnections": 11337, "Ġtrop": 11338, "Ġvary": 11339, "Ġdevasta": 11340, "Ġelig": 11341, "ĠCH": 11342, "ĠEconomic": 11343, "Ġelde": 11344, "Ġcurv": 11345, "Ġassump": 11346, "Ġgrave": 11347, "Ġdevastat": 11348, "Ġassumpt": 11349, "Ġassumpti": 11350, "Ġconcert": 11351, "Ġeligi": 11352, "ĠRoss": 11353, "Ġassumptio": 11354, "Ġassumption": 11355, "ĠBrew": 11356, "ĠNan": 11357, "Ġundergr": 11358, "ĠMill": 11359, "Ġeligib": 11360, "Ġanni": 11361, "Ġcarrier": 11362, "Ġdeeper": 11363, "Ġcolour": 11364, "Ġswea": 11365, "ĠCleve": 11366, "ĠOw": 11367, "Ġfantasy": 11368, "ĠCode": 11369, "ĠSH": 11370, "Ġstatistics": 11371, "ĠEvan": 11372, "ĠAk": 11373, "ĠUlt": 11374, "Ġ95": 11375, "Ġcens": 11376, "ĠColumbi": 11377, "Ġtweete": 11378, "ĠStad": 11379, "ĠGov": 11380, "ĠColumbia": 11381, "Ġfortu": 11382, "Ġunemployme": 11383, "Ġunemploymen": 11384, "ĠMah": 11385, "Ġunemployment": 11386, "ĠPap": 11387, "Ġimprovements": 11388, "Ġanyb": 11389, "Ġindependenc": 11390, "ĠLeon": 11391, "Ġjoinin": 11392, "Ġanybo": 11393, "Ġanybod": 11394, "usical": 11395, "Ġspiritu": 11396, "Ġimplemente": 11397, "Ġjoining": 11398, "Ġundermin": 11399, "Ġanybody": 11400, "ĠGaza": 11401, "Ġdemonstration": 11402, "Ġcomplaints": 11403, "Ġmaker": 11404, "Ġclothe": 11405, "Ġrender": 11406, "Ġbarrie": 11407, "Ġwars": 11408, "ĠJona": 11409, "ĠKir": 11410, "Ġguit": 11411, "Ġdetecti": 11412, "Ġbarrier": 11413, "Ġguita": 11414, "Ġindependence": 11415, "Ġbree": 11416, "Ġji": 11417, "Ġguitar": 11418, "Ġsubu": 11419, "Ġeaste": 11420, "ĠMinistry": 11421, "ĠNever": 11422, "Ġeaster": 11423, "ĠLev": 11424, "Ġsubmitt": 11425, "ĠTar": 11426, "Ġspiritua": 11427, "Ġspiritual": 11428, "Ġsubjects": 11429, "Ġscreens": 11430, "Ġscholars": 11431, "Ġrenewa": 11432, "ĠTown": 11433, "Ġjury": 11434, "ĠInformati": 11435, "ĠSams": 11436, "Ġoutlin": 11437, "Ġstupi": 11438, "ĠFR": 11439, "Ġingre": 11440, "ĠFes": 11441, "ĠCheck": 11442, "Ġtouchd": 11443, "Ġtouchdo": 11444, "Ġtouchdow": 11445, "Ġtouchdown": 11446, "ĠZu": 11447, "Ġstupid": 11448, "Ġexcu": 11449, "Ġtrained": 11450, "Ġarmo": 11451, "Ġeconomis": 11452, "Ġincorp": 11453, "Ġsocialis": 11454, "Ġincorpo": 11455, "Ġincorpor": 11456, "Ġdiscovery": 11457, "ĠMoon": 11458, "Ġgathered": 11459, "Ġcontroversy": 11460, "Ġfears": 11461, "ĠInformation": 11462, "Ġimplemented": 11463, "ĠIntellig": 11464, "Ġcomprehens": 11465, "Ġcomprehensi": 11466, "Ġwages": 11467, "Ġtrem": 11468, "ĠBrother": 11469, "Final": 11470, "Ġcapta": 11471, "Ġtheate": 11472, "Ġversu": 11473, "Ġdistincti": 11474, "ĠArs": 11475, "Ġtheater": 11476, "Ġspecta": 11477, "ĠMuseu": 11478, "ĠIntellige": 11479, "ĠIntelligen": 11480, "ĠProtec": 11481, "ĠHospit": 11482, "Ġlegs": 11483, "ĠHospita": 11484, "Ġshame": 11485, "ĠXb": 11486, "ĠHospital": 11487, "Ġeconomist": 11488, "Ġrecommende": 11489, "Ġcaptain": 11490, "ĠOperat": 11491, "Ġww": 11492, "Ġserves": 11493, "ĠProtect": 11494, "ĠMuseum": 11495, "Ġsilence": 11496, "ĠSel": 11497, "Ġscop": 11498, "ĠMedical": 11499, "Ġgrid": 11500, "imat": 11501, "Ġsoph": 11502, "Ġneighbou": 11503, "Ġimplicati": 11504, "Ġincorpora": 11505, "ĠCommunity": 11506, "Ġflavor": 11507, "Ġneighbour": 11508, "Ġdeposit": 11509, "Ġcalm": 11510, "Ġimplication": 11511, "Ġtomo": 11512, "Ġabsenc": 11513, "Ġabsence": 11514, "Ġjudgme": 11515, "Ġjudgmen": 11516, "Ġjudgment": 11517, "Ġtelep": 11518, "ĠIII": 11519, "Ġreferrin": 11520, "Ġreferring": 11521, "ĠSir": 11522, "ĠAcce": 11523, "Ġtemporary": 11524, "Ġincorporat": 11525, "Ġversus": 11526, "ĠDoct": 11527, "ĠMatthe": 11528, "Ġ1996": 11529, "ĠXbo": 11530, "ĠOra": 11531, "Ġfata": 11532, "Ġtrace": 11533, "ĠCameron": 11534, "Ġshin": 11535, "Ġawaren": 11536, "Ġawarene": 11537, "Ġawarenes": 11538, "Ġawareness": 11539, "Ġrecommended": 11540, "ĠBarb": 11541, "ĠXbox": 11542, "Ġinfection": 11543, "ĠGolde": 11544, "Ġexecution": 11545, "Ġfunde": 11546, "Ġsymptoms": 11547, "Ġtasks": 11548, "Ġplatforms": 11549, "Ġtestim": 11550, "Ġreprod": 11551, "Ġreprodu": 11552, "Ġexpande": 11553, "Ġaide": 11554, "Ġ56": 11555, "Ġremarks": 11556, "Ġcompou": 11557, "Ġcompoun": 11558, "Ġtestimo": 11559, "Ġcompound": 11560, "Ġtestimon": 11561, "Ġfirea": 11562, "ĠRevolu": 11563, "ĠProfessor": 11564, "Ġattempti": 11565, "ĠPatrick": 11566, "Ġattemptin": 11567, "Ġattacki": 11568, "Ġattempting": 11569, "Ġsoa": 11570, "Ġreproduc": 11571, "Ġattackin": 11572, "Ġattacking": 11573, "ĠBell": 11574, "ndling": 11575, "ĠVegas": 11576, "Ġdiscussions": 11577, "ĠDee": 11578, "Ġconveni": 11579, "Ġspan": 11580, "Ġvisitors": 11581, "Ġbure": 11582, "Ã¢": 11583, "musical": 11584, "ĠPent": 11585, "Ġfatal": 11586, "Ġconvenie": 11587, "Ġconvenien": 11588, "Ġdesigna": 11589, "ĠLI": 11590, "Ġfirear": 11591, "Ġpresenta": 11592, "Ġfirearm": 11593, "Ġcommissione": 11594, "Ġspaces": 11595, "ĠAnthon": 11596, "Ġsamples": 11597, "Ġburea": 11598, "ĠRh": 11599, "Ġpassag": 11600, "Ġwww": 11601, "Ġraw": 11602, "ĠList": 11603, "Ġdesignat": 11604, "Ġingred": 11605, "Ġingredi": 11606, "Ġentertainm": 11607, "Ġentertainme": 11608, "Ġcivilians": 11609, "Ġentertainmen": 11610, "Ġentertainment": 11611, "ĠMatthew": 11612, "Ġbureau": 11613, "Ġingredie": 11614, "Ġingredien": 11615, "Ġefficienc": 11616, "Ġingredient": 11617, "andling": 11618, "Ġexpanded": 11619, "Ġprefere": 11620, "Ġshirt": 11621, "Ġpassage": 11622, "ĠKni": 11623, "Ġmeter": 11624, "ĠFed": 11625, "ĠWalker": 11626, "Ġgrounds": 11627, "Ġech": 11628, "ĠRecord": 11629, "Ġfortun": 11630, "Ġaris": 11631, "Ġcounterp": 11632, "Ġencr": 11633, "ĠCul": 11634, "ĠHard": 11635, "ĠRevolut": 11636, "ĠGT": 11637, "ĠAnthony": 11638, "ĠGolden": 11639, "ĠEnvi": 11640, "Ġpreten": 11641, "Ġparamet": 11642, "ĠFle": 11643, "Ġattached": 11644, "Ġsteel": 11645, "ĠPhilipp": 11646, "Ġbril": 11647, "ĠMM": 11648, "ĠHat": 11649, "Ġsettings": 11650, "Ġpens": 11651, "ĠBalti": 11652, "Ġcheer": 11653, "ĠRevolution": 11654, "ĠBudd": 11655, "Ġeastern": 11656, "Ġdisse": 11657, "ĠNorw": 11658, "Ġpreferen": 11659, "Ġsubur": 11660, "ĠFest": 11661, "Ġranke": 11662, "Ġbrill": 11663, "Ġsuburb": 11664, "ĠDI": 11665, "Ġpurchased": 11666, "Ġdetaine": 11667, "Ġslot": 11668, "Ġ1997": 11669, "Ġbuc": 11670, "Ġextremis": 11671, "Ġoutf": 11672, "ĠâĤ¬": 11673, "ĠKenned": 11674, "Ġsorry": 11675, "ĠHistory": 11676, "Ġaffairs": 11677, "ĠAustin": 11678, "ĠKennedy": 11679, "ĠNint": 11680, "Ġsuspecte": 11681, "ĠStadi": 11682, "ĠEnvir": 11683, "Ġknock": 11684, "Ġsuspected": 11685, "Ġsuspende": 11686, "ĠBaltim": 11687, "Ġtweeted": 11688, "ĠStart": 11689, "Ġfactory": 11690, "ĠBaltimo": 11691, "ĠBroa": 11692, "ĠBaltimore": 11693, "Ġranked": 11694, "Ġbrilli": 11695, "Ġliterat": 11696, "Ġdisappear": 11697, "Ġ72": 11698, "Ġbrillia": 11699, "Ġbrillian": 11700, "Ġclosin": 11701, "Ġclosing": 11702, "Ġfalle": 11703, "Ġbrothers": 11704, "Ġinca": 11705, "Ġcertific": 11706, "Ġforgot": 11707, "Ġactors": 11708, "Ġnode": 11709, "à¤": 11710, "Ġcertifica": 11711, "ĠBC": 11712, "Ġviewed": 11713, "Ġperception": 11714, "Ġradia": 11715, "Ġswor": 11716, "Ġcertificat": 11717, "Ġagi": 11718, "Ġburi": 11719, "Ġmandate": 11720, "Ġmask": 11721, "ĠMassach": 11722, "ĠSab": 11723, "ĠMassachu": 11724, "Ġraces": 11725, "Ġmusical": 11726, "ĠMassachus": 11727, "handling": 11728, "ĠGreec": 11729, "ĠGreece": 11730, "ading": 11731, "Ġafforda": 11732, "ĠEnviron": 11733, "Ġdiversit": 11734, "ĠCBS": 11735, "Ġembarra": 11736, "Ġseemingl": 11737, "Ġembarras": 11738, "Ġseemingly": 11739, "Ġrepair": 11740, "ĠSuch": 11741, "ĠMassachuse": 11742, "ĠMassachuset": 11743, "Ġstrengthe": 11744, "Ġstrengthen": 11745, "ĠStudi": 11746, "Ġqualifie": 11747, "Ġtomor": 11748, "ĠMassachusett": 11749, "Ġfallen": 11750, "Ġopinions": 11751, "Ġmad": 11752, "Ġdistra": 11753, "Ġcoaches": 11754, "Ġtomorr": 11755, "ĠTrade": 11756, "ĠJenn": 11757, "Ġoverco": 11758, "Ġtomorro": 11759, "Ġembarrass": 11760, "Ġtomorrow": 11761, "ĠLoca": 11762, "ĠMoha": 11763, "ĠTel": 11764, "Ġamid": 11765, "Ġconcentrati": 11766, "ĠGD": 11767, "ĠHA": 11768, "Ġdispe": 11769, "Ġtwis": 11770, "ĠMassachusetts": 11771, "Ġsalary": 11772, "Ġtwist": 11773, "Ġdiversity": 11774, "Ġbars": 11775, "ĠChair": 11776, "Ġaccessib": 11777, "Ġconcentration": 11778, "ĠBroad": 11779, "ĠEvent": 11780, "Ġscope": 11781, "Ġspokesp": 11782, "ĠStadiu": 11783, "Ġpresentat": 11784, "Ġspokespe": 11785, "ĠStadium": 11786, "ĠSwede": 11787, "Ġcovers": 11788, "ĠUnfo": 11789, "Ġtub": 11790, "Ġsustaina": 11791, "Ġprayer": 11792, "Ġsustainab": 11793, "Ġtransporta": 11794, "ĠBloc": 11795, "Ġstaye": 11796, "Ġreferend": 11797, "ĠMap": 11798, "Ġbum": 11799, "ĠIM": 11800, "Ġexplosion": 11801, "Ġoffices": 11802, "Ġpresentati": 11803, "Ġimagina": 11804, "Ġfulf": 11805, "Ġgarde": 11806, "Ġpresentatio": 11807, "Ġpresentation": 11808, "Ġsuspended": 11809, "Ġfulfi": 11810, "Ġeag": 11811, "Ġfulfil": 11812, "Ġadvocates": 11813, "ĠCapita": 11814, "Ġcontainer": 11815, "Ġabst": 11816, "ĠBun": 11817, "Ġfoss": 11818, "Ġstayed": 11819, "ĠStudio": 11820, "Ġaffordab": 11821, "ĠBang": 11822, "Ġimpressio": 11823, "Ġimpression": 11824, "ĠTed": 11825, "Ġalig": 11826, "ĠMitc": 11827, "Ġconspiracy": 11828, "ĠEngine": 11829, "ĠBron": 11830, "ĠDub": 11831, "Ġproviders": 11832, "ĠLibert": 11833, "Ġcogn": 11834, "Ġpad": 11835, "ĠMorr": 11836, "ĠColl": 11837, "Ġbuf": 11838, "Ġpapers": 11839, "ĠMarsh": 11840, "Ġendu": 11841, "ĠSuppo": 11842, "ĠIllin": 11843, "ĠHug": 11844, "Ġshelt": 11845, "Ġ99": 11846, "ĠLewis": 11847, "ĠHowa": 11848, "Ġconvicti": 11849, "Ġshelte": 11850, "Ġconviction": 11851, "Ġshelter": 11852, "Ġsilv": 11853, "Ġecho": 11854, "ĠWW": 11855, "ĠConc": 11856, "ĠAnderson": 11857, "Ġdepressio": 11858, "Ġdepression": 11859, "ĠDave": 11860, "dinary": 11861, "rdinary": 11862, "Ġauthe": 11863, "ĠNP": 11864, "Ġporn": 11865, "Ġformation": 11866, "Ġtransportat": 11867, "Ġauthen": 11868, "Ġtransportati": 11869, "Ġtransportatio": 11870, "Ġtransportation": 11871, "Ġthrowi": 11872, "Ġauthent": 11873, "Ġauthenti": 11874, "ĠPrice": 11875, "Ġpreced": 11876, "Ġthrowin": 11877, "Ġconsistentl": 11878, "Ġconsistently": 11879, "Ġauthoriz": 11880, "ĠHami": 11881, "Ġsilve": 11882, "ĠLog": 11883, "ĠReser": 11884, "Ġthrowing": 11885, "Ġauthentic": 11886, "Ġdisabl": 11887, "ivided": 11888, "Ġdepends": 11889, "Ġbarrel": 11890, "Ġsuperi": 11891, "Ġaddressed": 11892, "Ġbesi": 11893, "Ġposter": 11894, "Ġparamete": 11895, "ĠShu": 11896, "Ġcolors": 11897, "Ġparameter": 11898, "Ġpersonality": 11899, "Ġstrain": 11900, "ĠET": 11901, "Ġlegac": 11902, "ĠEmpi": 11903, "ĠPitt": 11904, "ĠInv": 11905, "Ġcompose": 11906, "Ġconfigur": 11907, "Ġinflati": 11908, "ĠPatri": 11909, "Ġinflatio": 11910, "Ġinflation": 11911, "ĠEnvironm": 11912, "Ġlean": 11913, "ĠEnvironme": 11914, "Ġcoverin": 11915, "ĠEnvironmen": 11916, "ĠDrea": 11917, "ĠFreedo": 11918, "ĠEnvironment": 11919, "Ġclassifie": 11920, "ĠStea": 11921, "Ġrevel": 11922, "Ġcovering": 11923, "Ġunlo": 11924, "Ġ57": 11925, "Ġcommunicate": 11926, "ĠMemo": 11927, "Ġinfan": 11928, "Ġreads": 11929, "Ġsilver": 11930, "Ġreferendu": 11931, "Ġreferendum": 11932, "ĠVancou": 11933, "Ġnoting": 11934, "ĠVancouv": 11935, "ĠVancouve": 11936, "ĠVancouver": 11937, "Ġclothes": 11938, "Ġgarden": 11939, "Ġchees": 11940, "Ġseal": 11941, "ĠFreedom": 11942, "ĠMagic": 11943, "ĠWhic": 11944, "Ġmanua": 11945, "divided": 11946, "Ġboxe": 11947, "ĠChange": 11948, "ĠMounta": 11949, ":\"": 11950, "Ġmanual": 11951, "Ġwherea": 11952, "Ġconversations": 11953, "ĠMountain": 11954, "ĠShel": 11955, "Ġgy": 11956, "Ġgeno": 11957, "dfiel": 11958, "Ġpredicti": 11959, "ĠCR": 11960, "Ġspeaks": 11961, "Ġfossi": 11962, "Ġgains": 11963, "Ġprofits": 11964, "Ġparall": 11965, "Ġfossil": 11966, ".]": 11967, "Ġincentive": 11968, "Ġdismisse": 11969, "Ġgenre": 11970, "ĠIntelligenc": 11971, "Ġ85": 11972, "ĠBure": 11973, "Ġprotoc": 11974, "ĠIntelligence": 11975, "ĠDragon": 11976, "Ġbuck": 11977, "ĠFigh": 11978, "ĠFight": 11979, "?)": 11980, "ĠCook": 11981, "Ġcin": 11982, "Ġtries": 11983, "ĠClevel": 11984, "ordinary": 11985, "Ġteenager": 11986, "Ġastron": 11987, "ĠFamily": 11988, "Ġ91": 11989, "Ġtrill": 11990, "ĠPrev": 11991, "ĠUnfort": 11992, "Ġ120": 11993, "ĠClevela": 11994, "ĠClevelan": 11995, "ĠCleveland": 11996, "ĠGoverno": 11997, "ĠUnfortu": 11998, "Ġindicati": 11999, "Ġsuperv": 12000, "Ġflip": 12001, "Ġwres": 12002, "ĠAnna": 12003, "ĠHowar": 12004, "ĠUnfortun": 12005, "idfiel": 12006, "ĠHoward": 12007, "Ġwrest": 12008, "ĠUnfortuna": 12009, "ĠUnfortunat": 12010, "ĠPass": 12011, "Ġstarter": 12012, "ĠProv": 12013, "ĠIllino": 12014, "ĠIllinoi": 12015, "ĠIllinois": 12016, "Ġcontributions": 12017, "Ġincidents": 12018, "ĠUnfortunate": 12019, "Ġhandling": 12020, "ĠGovernor": 12021, "Ġaccomm": 12022, "ĠRO": 12023, "Ġaccommo": 12024, "Ġaccommod": 12025, "Ġaccommoda": 12026, "Ġaccommodat": 12027, "Ġqui": 12028, "Ġmarks": 12029, "Ġprotoco": 12030, "Ġprotocol": 12031, "Ġimper": 12032, "Ġprincipa": 12033, "Ġlak": 12034, "sions": 12035, "ĠTrib": 12036, "Ġraid": 12037, "Ġbact": 12038, "ĠPola": 12039, "ĠCred": 12040, "Ġadopti": 12041, "Ġchao": 12042, "Ġpes": 12043, "Ġspokesper": 12044, "Ġmaps": 12045, "Ġcleare": 12046, "Ġspokespers": 12047, "ĠWon": 12048, "Ġspokesperson": 12049, "Ġade": 12050, "Ġprincipal": 12051, "ĠBuf": 12052, "Ġbacte": 12053, "Ġconventiona": 12054, "Ġconventional": 12055, "Ġencouraged": 12056, "Ġranks": 12057, "Ġfib": 12058, "Ġentra": 12059, "Ġspoken": 12060, "Ġoutd": 12061, "Ġtoy": 12062, "Ġintroducti": 12063, "Ġintroductio": 12064, "Ġyello": 12065, "Ġintroduction": 12066, "Ġpromises": 12067, "Ġyellow": 12068, "ĠBerl": 12069, "Ġbacter": 12070, "Ġtrilli": 12071, "Ġswim": 12072, "Ġovercom": 12073, "ĠCall": 12074, "Ġmanif": 12075, "Ġdonate": 12076, "Ġvariat": 12077, "Ġbacteri": 12078, "Ġboom": 12079, "ĠLiver": 12080, "Ġpaintin": 12081, "ĠUnfortunately": 12082, "Ġdivided": 12083, "ĠRei": 12084, "Ġpainting": 12085, "ĠWH": 12086, "ĠBren": 12087, "ĠEmpire": 12088, "Ġjudges": 12089, "Ġvariation": 12090, "Ġtrillio": 12091, "Ġtrillion": 12092, "Ġpremiu": 12093, "Ġminer": 12094, "âĶ": 12095, "Ġpremium": 12096, "Ġyield": 12097, "Ġtimel": 12098, "Ġbrown": 12099, "Ġsupervi": 12100, "Ġchecks": 12101, "Ġslic": 12102, "Ġbuff": 12103, "ĠWhich": 12104, "Ġextrao": 12105, "rolle": 12106, "ĠCrime": 12107, "Ġnutr": 12108, "ĠIraqi": 12109, "ĠBoe": 12110, "Ġaccountab": 12111, "ĠTas": 12112, "ĠPlus": 12113, "Ġinduc": 12114, "Ġepi": 12115, "ĠGetty": 12116, "ĠMarve": 12117, "Ġextraor": 12118, "Ġthrew": 12119, "ĠEag": 12120, "Ġextraord": 12121, "ĠCapital": 12122, "Ġease": 12123, "Ġsenti": 12124, "ĠAnti": 12125, "Ġ58": 12126, "Ġextraordin": 12127, "Ġconsens": 12128, "Ġimproving": 12129, "Ġextraordina": 12130, "Ġrepeal": 12131, "Ġliteratu": 12132, "Ġtok": 12133, "ĠCost": 12134, "Ġministr": 12135, "Ġefficiency": 12136, "Ġinterviewe": 12137, "Ġdistributed": 12138, "Ġbreac": 12139, "Ġinters": 12140, "Ġmerg": 12141, "Ġtwenty": 12142, "Ġliterature": 12143, "Ġconsensu": 12144, "ĠOli": 12145, "ĠIndee": 12146, "ĠIndeed": 12147, "Ġcogni": 12148, "ĠMiche": 12149, "ĠSony": 12150, "ĠDesig": 12151, "Ġtemperatures": 12152, "ĠWitho": 12153, "ĠNev": 12154, "ĠWithou": 12155, "Ġacknowledged": 12156, "ĠWithout": 12157, "ĠDesign": 12158, "ĠDol": 12159, "Ġanxie": 12160, "Ġanxiet": 12161, "Ġkeys": 12162, "ĠMarvel": 12163, "Ġachievem": 12164, "Ġachieveme": 12165, "Ġachievemen": 12166, "Ġachievement": 12167, "ĠPhotos": 12168, "Ġsmel": 12169, "Ġlying": 12170, "Ġpassw": 12171, "Ġparalle": 12172, "Ġresponses": 12173, "Ġcomedy": 12174, "Ġparallel": 12175, "Ġ1995": 12176, "ĠExec": 12177, "Ġprotectin": 12178, "Ġprioriti": 12179, "Ġarriva": 12180, "Ġbrewe": 12181, "Ġinta": 12182, "Ġbreaks": 12183, "Ġprotecting": 12184, "ĠChel": 12185,
[...]
